{
  "version": "1.0",
  "truncation": null,
  "padding": null,
  "added_tokens": [
    {
      "id": 0,
      "content": "<|pad|>",
      "single_word": false,
      "lstrip": false,
      "rstrip": false,
      "normalized": false,
      "special": true
    },
    {
      "id": 1,
      "content": "<|bos|>",
      "single_word": false,
      "lstrip": false,
      "rstrip": false,
      "normalized": false,
      "special": true
    },
    {
      "id": 2,
      "content": "<|eos|>",
      "single_word": false,
      "lstrip": false,
      "rstrip": false,
      "normalized": false,
      "special": true
    },
    {
      "id": 3,
      "content": "<|doc|>",
      "single_word": false,
      "lstrip": false,
      "rstrip": false,
      "normalized": false,
      "special": true
    },
    {
      "id": 4,
      "content": "<|system|>",
      "single_word": false,
      "lstrip": false,
      "rstrip": false,
      "normalized": false,
      "special": true
    },
    {
      "id": 5,
      "content": "<|user|>",
      "single_word": false,
      "lstrip": false,
      "rstrip": false,
      "normalized": false,
      "special": true
    },
    {
      "id": 6,
      "content": "<|assistant|>",
      "single_word": false,
      "lstrip": false,
      "rstrip": false,
      "normalized": false,
      "special": true
    },
    {
      "id": 7,
      "content": "<|eot|>",
      "single_word": false,
      "lstrip": false,
      "rstrip": false,
      "normalized": false,
      "special": true
    }
  ],
  "normalizer": null,
  "pre_tokenizer": {
    "type": "ByteLevel",
    "add_prefix_space": false,
    "trim_offsets": false,
    "use_regex": true
  },
  "post_processor": null,
  "decoder": {
    "type": "ByteLevel",
    "add_prefix_space": false,
    "trim_offsets": false,
    "use_regex": true
  },
  "model": {
    "type": "BPE",
    "dropout": null,
    "unk_token": null,
    "continuing_subword_prefix": null,
    "end_of_word_suffix": null,
    "fuse_unk": false,
    "byte_fallback": false,
    "ignore_merges": false,
    "vocab": {
      "<|pad|>": 0,
      "<|bos|>": 1,
      "<|eos|>": 2,
      "<|doc|>": 3,
      "<|system|>": 4,
      "<|user|>": 5,
      "<|assistant|>": 6,
      "<|eot|>": 7,
      "!": 8,
      "\"": 9,
      "#": 10,
      "$": 11,
      "%": 12,
      "&": 13,
      "'": 14,
      "(": 15,
      ")": 16,
      "*": 17,
      "+": 18,
      ",": 19,
      "-": 20,
      ".": 21,
      "/": 22,
      "0": 23,
      "1": 24,
      "2": 25,
      "3": 26,
      "4": 27,
      "5": 28,
      "6": 29,
      "7": 30,
      "8": 31,
      "9": 32,
      ":": 33,
      ";": 34,
      "<": 35,
      "=": 36,
      ">": 37,
      "?": 38,
      "@": 39,
      "A": 40,
      "B": 41,
      "C": 42,
      "D": 43,
      "E": 44,
      "F": 45,
      "G": 46,
      "H": 47,
      "I": 48,
      "J": 49,
      "K": 50,
      "L": 51,
      "M": 52,
      "N": 53,
      "O": 54,
      "P": 55,
      "Q": 56,
      "R": 57,
      "S": 58,
      "T": 59,
      "U": 60,
      "V": 61,
      "W": 62,
      "X": 63,
      "Y": 64,
      "Z": 65,
      "[": 66,
      "\\": 67,
      "]": 68,
      "^": 69,
      "_": 70,
      "`": 71,
      "a": 72,
      "b": 73,
      "c": 74,
      "d": 75,
      "e": 76,
      "f": 77,
      "g": 78,
      "h": 79,
      "i": 80,
      "j": 81,
      "k": 82,
      "l": 83,
      "m": 84,
      "n": 85,
      "o": 86,
      "p": 87,
      "q": 88,
      "r": 89,
      "s": 90,
      "t": 91,
      "u": 92,
      "v": 93,
      "w": 94,
      "x": 95,
      "y": 96,
      "z": 97,
      "{": 98,
      "|": 99,
      "}": 100,
      "~": 101,
      "¡": 102,
      "¢": 103,
      "£": 104,
      "¤": 105,
      "¥": 106,
      "¦": 107,
      "§": 108,
      "¨": 109,
      "©": 110,
      "ª": 111,
      "«": 112,
      "¬": 113,
      "®": 114,
      "¯": 115,
      "°": 116,
      "±": 117,
      "²": 118,
      "³": 119,
      "´": 120,
      "µ": 121,
      "¶": 122,
      "·": 123,
      "¸": 124,
      "¹": 125,
      "º": 126,
      "»": 127,
      "¼": 128,
      "½": 129,
      "¾": 130,
      "¿": 131,
      "À": 132,
      "Á": 133,
      "Â": 134,
      "Ã": 135,
      "Ä": 136,
      "Å": 137,
      "Æ": 138,
      "Ç": 139,
      "È": 140,
      "É": 141,
      "Ê": 142,
      "Ë": 143,
      "Ì": 144,
      "Í": 145,
      "Î": 146,
      "Ï": 147,
      "Ð": 148,
      "Ñ": 149,
      "Ò": 150,
      "Ó": 151,
      "Ô": 152,
      "Õ": 153,
      "Ö": 154,
      "×": 155,
      "Ø": 156,
      "Ù": 157,
      "Ú": 158,
      "Û": 159,
      "Ü": 160,
      "Ý": 161,
      "Þ": 162,
      "ß": 163,
      "à": 164,
      "á": 165,
      "â": 166,
      "ã": 167,
      "ä": 168,
      "å": 169,
      "æ": 170,
      "ç": 171,
      "è": 172,
      "é": 173,
      "ê": 174,
      "ë": 175,
      "ì": 176,
      "í": 177,
      "î": 178,
      "ï": 179,
      "ð": 180,
      "ñ": 181,
      "ò": 182,
      "ó": 183,
      "ô": 184,
      "õ": 185,
      "ö": 186,
      "÷": 187,
      "ø": 188,
      "ù": 189,
      "ú": 190,
      "û": 191,
      "ü": 192,
      "ý": 193,
      "þ": 194,
      "ÿ": 195,
      "Ā": 196,
      "ā": 197,
      "Ă": 198,
      "ă": 199,
      "Ą": 200,
      "ą": 201,
      "Ć": 202,
      "ć": 203,
      "Ĉ": 204,
      "ĉ": 205,
      "Ċ": 206,
      "ċ": 207,
      "Č": 208,
      "č": 209,
      "Ď": 210,
      "ď": 211,
      "Đ": 212,
      "đ": 213,
      "Ē": 214,
      "ē": 215,
      "Ĕ": 216,
      "ĕ": 217,
      "Ė": 218,
      "ė": 219,
      "Ę": 220,
      "ę": 221,
      "Ě": 222,
      "ě": 223,
      "Ĝ": 224,
      "ĝ": 225,
      "Ğ": 226,
      "ğ": 227,
      "Ġ": 228,
      "ġ": 229,
      "Ģ": 230,
      "ģ": 231,
      "Ĥ": 232,
      "ĥ": 233,
      "Ħ": 234,
      "ħ": 235,
      "Ĩ": 236,
      "ĩ": 237,
      "Ī": 238,
      "ī": 239,
      "Ĭ": 240,
      "ĭ": 241,
      "Į": 242,
      "į": 243,
      "İ": 244,
      "ı": 245,
      "Ĳ": 246,
      "ĳ": 247,
      "Ĵ": 248,
      "ĵ": 249,
      "Ķ": 250,
      "ķ": 251,
      "ĸ": 252,
      "Ĺ": 253,
      "ĺ": 254,
      "Ļ": 255,
      "ļ": 256,
      "Ľ": 257,
      "ľ": 258,
      "Ŀ": 259,
      "ŀ": 260,
      "Ł": 261,
      "ł": 262,
      "Ń": 263,
      "ĠÐ": 264,
      "Ð¾": 265,
      "Ðµ": 266,
      "Ð°": 267,
      "ÑĤ": 268,
      "Ð¸": 269,
      "Ñģ": 270,
      "Ð½": 271,
      "ÑĢ": 272,
      "Ð¾Ð": 273,
      "Ð»": 274,
      "Ñĥ": 275,
      "Ð°Ð": 276,
      "Ñı": 277,
      "ÐµÐ": 278,
      "Ñĭ": 279,
      "ÑĮ": 280,
      "ĠÐ¿": 281,
      "ĠÑģ": 282,
      "Ðº": 283,
      "ĠÐ²": 284,
      "Ñĩ": 285,
      "Ð²": 286,
      "ĠÐ½": 287,
      "ÑģÑĤ": 288,
      "Ð¼": 289,
      "Ð´": 290,
      "ÐµÐ½": 291,
      "ĠÐ¸": 292,
      "ĠÐ¾": 293,
      "Ñħ": 294,
      "Ð¾Ð²": 295,
      "ĠÐº": 296,
      "ÑĤÐ¾": 297,
      "ÐµÑĢ": 298,
      "Ð°Ð»": 299,
      "ÑĪ": 300,
      "Ð¾Ð»": 301,
      "ÐµÑĤ": 302,
      "ĠÐ´": 303,
      "Ñİ": 304,
      "Ð°Ð½": 305,
      "ĠÐ¼": 306,
      "ĠÐ¿ÑĢ": 307,
      "Ð¿": 308,
      "Ð¾Ð¼": 309,
      "ĠÑĤ": 310,
      "ÐµÐ»": 311,
      "Ð½Ð¾": 312,
      "³Ð¾": 313,
      "Ð°ÑĤ": 314,
      "Ð·": 315,
      "Ð¸ÑĤ": 316,
      "ĠÐ±": 317,
      "Ð¾Ð´": 318,
      "Ð±": 319,
      "ĠÑĢ": 320,
      "Ð°Ðº": 321,
      "Ð½Ñĭ": 322,
      "ÑĨ": 323,
      "Ð¾Ð¹": 324,
      "ĠÑĩ": 325,
      "ÐµÐ¼": 326,
      "ĠÐ·": 327,
      "ĠÐ½Ð°": 328,
      "ÑģÑı": 329,
      "ĠÑĥ": 330,
      "Ð»Ð¸": 331,
      "Ð¹": 332,
      "Ð¾ÑĢ": 333,
      "Ð¶": 334,
      "Ñī": 335,
      "ÐµÐ½Ð¸": 336,
      "ÑģÐº": 337,
      "Ð³": 338,
      "ÐµÐ´": 339,
      "Ð½Ð¸": 340,
      "ĠÑ": 341,
      "ĠÐ½Ðµ": 342,
      "Ð°Ð·": 343,
      "Ð°Ð²": 344,
      "Ð°Ð¼": 345,
      "ĠÐ¿Ð¾": 346,
      "Ð¸Ð»": 347,
      "Ð°ÑĢ": 348,
      "Ð¸Ð½": 349,
      "Ð¾Ð±": 350,
      "ĠÐ³": 351,
      "Ð¾Ð½": 352,
      "Ð¾ÑĤ": 353,
      "ĠÐµ": 354,
      "Ð¾Ð³Ð¾": 355,
      "Ð°Ñģ": 356,
      "ÐµÐ¹": 357,
      "ÑģÑĤÐ²": 358,
      "Ð¾Ð³": 359,
      "ĠÑį": 360,
      "Ð¸Ð¼": 361,
      "Ð°ÑĤÑĮ": 362,
      "Ð¾Ñģ": 363,
      "ĠÐ»": 364,
      "Ð¸Ð²": 365,
      "ĠÐ¾ÑĤ": 366,
      "Ð¾Ð¶": 367,
      "Ð°Ñı": 368,
      "ÑĢÑĥ": 369,
      "ĠÑĩÑĤÐ¾": 370,
      "Ð¾Ðº": 371,
      "ĠÐ±Ñĭ": 372,
      "Ð¾Ð»ÑĮ": 373,
      "ĠÐ°": 374,
      "Ð°Ð½Ð¸": 375,
      "Ð»Ñı": 376,
      "ÑĤÐ¾ÑĢ": 377,
      "Ð°Ð´": 378,
      "Ġ-": 379,
      "ÐµÐº": 380,
      "ÐµÐ²": 381,
      "ÑĨÐ¸": 382,
      "ĠÐ¾Ð±": 383,
      "ĠÐ²Ñĭ": 384,
      "ĠÑģÑĤ": 385,
      "Ð¾ÑģÑĤ": 386,
      "Ð¸Ñħ": 387,
      "Ð¾Ð·": 388,
      "Ð½Ð°": 389,
      "ÐµÑģ": 390,
      "Ð¸Ðº": 391,
      "ÐµÐ»ÑĮ": 392,
      "ĠÑı": 393,
      "ĠÐ¶": 394,
      "ĠÐĴ": 395,
      "Ð½Ñĥ": 396,
      "Ð¸ÑĤÑĮ": 397,
      "ÑĦ": 398,
      "Ð¸Ñĩ": 399,
      "Ð¸Ñģ": 400,
      "Ð´Ð°": 401,
      "ĠÐŁ": 402,
      "âĢ": 403,
      "ĠÐ¡": 404,
      "ĠÐ¸Ð·": 405,
      "Ð°ÐµÑĤ": 406,
      "ÐµÐ·": 407,
      "ĠÐĿ": 408,
      "ĠÑģÐ²": 409,
      "ĠÐ²Ñģ": 410,
      "ÐµÐ½Ð¸Ñı": 411,
      "ÐºÐ¸": 412,
      "Ñĳ": 413,
      "Ð¸ÑĢ": 414,
      "Ð°Ð¶": 415,
      "ĠÐºÐ°Ðº": 416,
      "Ð½Ð¾Ð¹": 417,
      "ÐµÐ±": 418,
      "Ð¾Ð¿": 419,
      "Ð³Ð¾": 420,
      "ĠÐļ": 421,
      "ÑıÑĤ": 422,
      "Ð¸Ð´": 423,
      "Ð°Ð»ÑĮ": 424,
      "Ð»Ð°": 425,
      "Ð°Ð±": 426,
      "Ð¸Ð·": 427,
      "ÐµÑģÑĤ": 428,
      "ÐºÐ°": 429,
      "ĠÐ¿Ð¾Ð´": 430,
      "ĠÑħ": 431,
      "ĠÑĤÐ°Ðº": 432,
      "ÑĥÐ´": 433,
      "..": 434,
      "ĠÐºÐ¾": 435,
      "Ð°Ñİ": 436,
      "Ð¸Ðµ": 437,
      "ĠÑĢÐ°Ð·": 438,
      "Ð½ÑĭÑħ": 439,
      "Ð½Ð¾ÑģÑĤ": 440,
      "ÐµÑĩ": 441,
      "Ð½Ð¾Ð³Ð¾": 442,
      "ÑĥÑĤ": 443,
      "ÐµÐ³Ð¾": 444,
      "ÑĢÐ°": 445,
      "ĠÐŀ": 446,
      "Ð°Ð¿": 447,
      "ĠÑģÐ»": 448,
      "Ð¸Ð¹": 449,
      "Ð½ÑĭÐµ": 450,
      "ÐµÐ½Ð¸Ðµ": 451,
      "ĠÐľ": 452,
      "ĠÐ¿ÐµÑĢ": 453,
      "Ð¾Ñĩ": 454,
      "ĠÑįÑĤ": 455,
      "ÐºÐ¾": 456,
      "ĠâĢ": 457,
      "ĠÑĦ": 458,
      "ĠÐĶ": 459,
      "ÑĥÑĩ": 460,
      "Ð½ÑĭÐ¹": 461,
      "ÑĭÐ²": 462,
      "ĠÐ·Ð°": 463,
      "Ð½ÑĭÐ¼": 464,
      "ĠÑįÑĤÐ¾": 465,
      "Ð°Ð¹": 466,
      "ĠÐºÐ¾ÑĤÐ¾ÑĢ": 467,
      "ÐµÑģÐº": 468,
      "ÑģÐ»": 469,
      "ĠÐĲ": 470,
      "ĠÐ¢": 471,
      "Ð¿ÑĢ": 472,
      "ÐµÐ¿": 473,
      "Ð°Ð¼Ð¸": 474,
      "Ð»Ð¾": 475,
      "ĠÐ¿Ð¾Ð»": 476,
      "Ð°Ð»Ð°": 477,
      "ÐºÑĥ": 478,
      "ĠÐ¿ÑĢÐ¾": 479,
      "Ð½Ðµ": 480,
      "Ġ1": 481,
      "ĠÐ¾Ð½": 482,
      "Ġ(": 483,
      "ÑīÐµ": 484,
      "ĠÐµÐ³Ð¾": 485,
      "ÑĥÑİ": 486,
      "ÐµÐ¶": 487,
      "ÑĢÐ¸": 488,
      "ÐµÐ½ÑĤ": 489,
      "Ð°Ð»Ð¸": 490,
      "ĠÐĺ": 491,
      "ÐµÐ³": 492,
      "ÐµÑĪ": 493,
      "ĠÐ¿ÑĢÐ¸": 494,
      "ÑħÐ¾Ð´": 495,
      "ÑĭÐµ": 496,
      "ĠÑĤÐ¾": 497,
      "Ð°Ð³": 498,
      "ÑĭÐ¹": 499,
      "ĠÑģÐ²Ð¾": 500,
      "Ð¸Ñı": 501,
      "ÐµÐ½ÑĮ": 502,
      "Ð°ÑģÑĤ": 503,
      "ÑĥÐ¶": 504,
      "ÑģÐ¿": 505,
      "ĠÐ´Ð»Ñı": 506,
      "Ð¸ÑĩÐµÑģÐº": 507,
      "ĠÐ½Ð¾": 508,
      "ĠÑģÐº": 509,
      "ĠÐ¾Ð´": 510,
      "Ð¸Ð¸": 511,
      "ÑĥÐ¼": 512,
      "ĠÑĪ": 513,
      "Ð¶Ðµ": 514,
      "Ð¾Ð¼Ñĥ": 515,
      "ÐĴ": 516,
      "čĊ": 517,
      "ÑģÑĤÑĢ": 518,
      "ĠÑģÐ¿": 519,
      "ÑĢÑĥÐ³": 520,
      "ĠâĢĶ": 521,
      "ĠÐ²ÑģÐµ": 522,
      "Ð¾Ð»ÑĮÐºÐ¾": 523,
      "ĠÐĳ": 524,
      "Ð¾Ð³Ð´Ð°": 525,
      "Ð¸ÑĤÐµÐ»ÑĮ": 526,
      "ÐŁ": 527,
      "Ð°Ñħ": 528,
      "Ð¸Ð»Ð¸": 529,
      "Ð½Ð¾Ðµ": 530,
      "ÑĥÑĢ": 531,
      "ĠÐ¿ÑĢÐµÐ´": 532,
      "ÑĭÑħ": 533,
      "Ð¡": 534,
      "ÑĢÐ°Ð½": 535,
      "Â»": 536,
      "Â«": 537,
      "Ð¾Ðµ": 538,
      "Ð°Ð½Ð¸Ñı": 539,
      "Ġ\"": 540,
      "ÑĢÐµÐ¼": 541,
      "ĠÐł": 542,
      "Ð°ÑĨÐ¸": 543,
      "ĠÐºÑĢ": 544,
      "ĠÐ»Ð¸": 545,
      "ĠÑģÐ¾": 546,
      "ĠÐ¼Ð¾Ð¶": 547,
      "Ð°ÑģÑĮ": 548,
      "ÑĤÑĮ": 549,
      "ÑģÑĮ": 550,
      "Ð½Ñı": 551,
      "Ð¼Ð¸": 552,
      "Ð½Ð¾Ð²": 553,
      "Ñį": 554,
      "ÑĪÐµ": 555,
      "Âł": 556,
      "Ð½Ð°Ñı": 557,
      "ĠÐĵ": 558,
      "ĠÐ³Ð¾": 559,
      "ĠÂ«": 560,
      "ÐĿ": 561,
      "ĠÐ¸Ð¼": 562,
      "ĠÐºÐ¾Ð½": 563,
      "ĠÑģÐ¼": 564,
      "ÐµÑĤÑģÑı": 565,
      "Ð°ÑİÑĤ": 566,
      "ĠÑģÐ°Ð¼": 567,
      "Ðŀ": 568,
      "Ð»Ñİ": 569,
      "ĠÐ¶Ðµ": 570,
      "ĠÐ¸Ð»Ð¸": 571,
      "ĠÑĢÐ°Ñģ": 572,
      "Ð¾Ð±Ñĭ": 573,
      "ĠÐŃ": 574,
      "Ð½Ð¾ÑģÑĤÑĮ": 575,
      "ĠÐ´Ð²": 576,
      "...": 577,
      "ĠÐ¸Ð½": 578,
      "ÑĥÑĪ": 579,
      "ĠÐ±ÑĥÐ´": 580,
      "ÑģÐ»Ð¸": 581,
      "ĠÑĨ": 582,
      "ĠÐ²Ð¾Ð·": 583,
      "ĠÐ¯": 584,
      "ĠÐ»Ñİ": 585,
      "Ð½Ð¸Ðº": 586,
      "ÐµÐ½Ð½Ð¾": 587,
      "Ġ2": 588,
      "Ð½Ð¸Ð¼": 589,
      "ÑģÑĤÐ°Ð²": 590,
      "Ð½Ð¾ÑģÑĤÐ¸": 591,
      "ÐµÐ½Ñı": 592,
      "Ð°Ð½Ð¸Ðµ": 593,
      "ÑĤÐµÑĢ": 594,
      "ĠÐĽ": 595,
      "ÑĥÐ¿": 596,
      "Ð»ÑĮ": 597,
      "Ð¸ÑģÑĤ": 598,
      "ĠÐ¾Ñģ": 599,
      "Ðļ": 600,
      "ÐµÐµ": 601,
      "Ð¾ÑģÑĮ": 602,
      "ÐĲ": 603,
      "ĠÑĢÑĥ": 604,
      "Ð¸Ð»Ð°": 605,
      "ÑĤÐ¸": 606,
      "ĠÐ³Ð»": 607,
      "ĠÐºÐ¾Ð¼": 608,
      "ÑĢÐ°Ð·": 609,
      "ÑĢÐ¾Ð²": 610,
      "Ð¾Ð²Ð¾ÑĢ": 611,
      "Ð°ÐµÑĤÑģÑı": 612,
      "ĠÐ´ÑĢÑĥÐ³": 613,
      "ĠÐ±ÑĭÐ»Ð¾": 614,
      "ÑĤÑĢ": 615,
      "ĠÐ±Ð¾Ð»ÑĮ": 616,
      "ĠÐ³Ð¾Ð´": 617,
      "ĠÐ¼Ñĭ": 618,
      "Ð¸ÑģÑĮ": 619,
      "ĠÐ²Ð¾": 620,
      "Ð¸ÑĢÐ¾Ð²": 621,
      "ĠÐ²ÑĢÐµÐ¼": 622,
      "ĠÑĤÑĢ": 623,
      "Ð°ÑĪ": 624,
      "ÑĥÐ±": 625,
      "Ð¾Ñı": 626,
      "ĠÐ¿Ð¾ÑģÐ»": 627,
      "ĠÐ¿Ð¾Ðº": 628,
      "Ð´Ñĥ": 629,
      "ÑĤÐ¾Ð±Ñĭ": 630,
      "Ð½ÑĥÑİ": 631,
      "ĠÐ¼ÐµÐ½Ñı": 632,
      "ĠÐķ": 633,
      "Ð¸Ð»ÑĮ": 634,
      "Ð½Ð¾Ð¼": 635,
      "ĠÐ¾Ð½Ð°": 636,
      "ÑģÑĤÐ²ÐµÐ½": 637,
      "ĠÑĤÑĭ": 638,
      "ÐµÑħ": 639,
      "Ð´Ðµ": 640,
      "Ð½ÑĥÐ»": 641,
      "Ð»ÐµÐ½": 642,
      "ĠÐ´Ð¾": 643,
      "Ð²ÐµÑĤ": 644,
      "ÑģÑĤÐ²Ð¾": 645,
      "Ð°ÑĤÑĮÑģÑı": 646,
      "ÐµÑĢÐ¶": 647,
      "Ð°Ð±Ð¾ÑĤ": 648,
      "ÑģÑĤÐ²Ð°": 649,
      "Ð³ÑĢ": 650,
      "ĠÐ²Ð·": 651,
      "Ð´ÐµÐ»": 652,
      "ĠÐ¾Ðº": 653,
      "Ð¾ÑĪ": 654,
      "ÐµÐ±Ñı": 655,
      "Ðĺ": 656,
      "ÑİÑĤ": 657,
      "Ð°ÑĤÐµÐ»ÑĮ": 658,
      "Ð¾ÑĢÐ¼": 659,
      "ÑĭÑĤ": 660,
      "ĠÐ½Ð°Ð¿": 661,
      "ĠÐ¾Ð¿": 662,
      "Ð¾Ð»Ð¶": 663,
      "ÑĢÐ°Ð²": 664,
      "ĠÑĩÑĤÐ¾Ð±Ñĭ": 665,
      "ÐµÐ»Ð¸": 666,
      "ÐµÐ¼Ñĥ": 667,
      "ĠÐ±ÑĭÐ»": 668,
      "ÑĢÐµÐ´": 669,
      "ÑĭÐ¼": 670,
      "ĠÐ§": 671,
      "ĠÐ£": 672,
      "ĠÐ¿Ð¾Ð¼": 673,
      "ĠÐ¸Ñħ": 674,
      "ĠÑĤÐ¾Ð»ÑĮÐºÐ¾": 675,
      "ĠÐ½Ð°Ñĩ": 676,
      "ÐĶ": 677,
      "ÑıÑĤÑĮ": 678,
      "ĠÐ´ÐµÐ»": 679,
      "ĠÐĹ": 680,
      "ĠÐ¾Ñĩ": 681,
      "ĠÐ¼Ð¾Ð³": 682,
      "Ð¢": 683,
      "ÐºÐµ": 684,
      "ĠÐ¼Ð¾Ð¶ÐµÑĤ": 685,
      "Ð½Ð°Ñĩ": 686,
      "ÑĢÑı": 687,
      "ÑĤÐµ": 688,
      "ĠÐ¿ÑĢÐ°Ð²": 689,
      "Ð°Ñĩ": 690,
      "ĠÑģÐ¾Ð±": 691,
      "ĠÐ¿Ð»": 692,
      "ĠÐ¥": 693,
      "Ðľ": 694,
      "Ð°Ð»ÑģÑı": 695,
      "ÑģÑĤÑĮ": 696,
      "ÑĤÐ¾Ð²": 697,
      "ĠÐ¿Ð°ÑĢ": 698,
      "ÐºÐ¾Ð²": 699,
      "ÐµÐ»Ð¾Ð²": 700,
      "Ð¸ÑĤÐµ": 701,
      "ÑĢÐ¾Ñģ": 702,
      "Ð²ÐµÑĢ": 703,
      "Ð¸Ð¼Ð¸": 704,
      "ĠÐ¸ÑģÐ¿": 705,
      "Ð¼Ñĥ": 706,
      "ĠÐ³Ð¾Ð»": 707,
      "Ð¾Ð»ÑĮÐ·": 708,
      "ĠÐ²Ð¸Ð´": 709,
      "ÑĮÑİ": 710,
      "ĠÐ¾Ð½Ð¸": 711,
      "ĠÐ¿Ð¾Ð²": 712,
      "ÑĥÑģ": 713,
      "ĠÐ¼Ð½Ðµ": 714,
      "ĠÑĥÐ¶Ðµ": 715,
      "Ð°Ð½Ð¾Ð²": 716,
      "ĠÐ·Ð°Ðº": 717,
      "ĠÐºÐ¾Ð³Ð´Ð°": 718,
      "Ð¸Ð½Ð°": 719,
      "ÑĨÐ¸Ð¸": 720,
      "Ð½ÑĭÐ¼Ð¸": 721,
      "ÑĤÐ°": 722,
      "00": 723,
      "ÑĢÐ°ÑĤ": 724,
      "Ð°ÑİÑī": 725,
      "Ðł": 726,
      "ÑĬ": 727,
      "ÑĭÑĪ": 728,
      "ĠÑģÐ¾Ð²": 729,
      "ÑĢÐ¾Ð´": 730,
      "Ð¸ÑĤÑģÑı": 731,
      "ÐµÑģÑĮ": 732,
      "ÐµÑģÑģ": 733,
      "ĠÐ±Ð¾Ð»": 734,
      "ĠÐ¿ÑĢÐ¾ÑģÑĤ": 735,
      "ĠÑĥÐ´": 736,
      "ĠÐµÐµ": 737,
      "ÑĨÐ°": 738,
      "Ð¾ÑĤÑĢ": 739,
      "ÐµÐ½Ð¸Ð¸": 740,
      "ÐµÑĤÑĮ": 741,
      "ĠÑĥÑĩ": 742,
      "ÐµÐ±Ðµ": 743,
      "Ð¸Ð³": 744,
      "ÑıÐ·": 745,
      "ĠÑģÐºÐ°Ð·": 746,
      "ĠÐ½Ð°Ð´": 747,
      "ĠÐ²ÑĢÐµÐ¼Ñı": 748,
      "ĠÐ²ÐµÑĢ": 749,
      "Ð°Ð¶Ð´": 750,
      "ĠÐ»ÑİÐ±": 751,
      "ĠÐ¿Ð¾ÑĤ": 752,
      "Ð¸Ð»ÑģÑı": 753,
      "ĠÐ¤": 754,
      "ĠÐ±ÐµÐ·": 755,
      "ĠÑĩÐ°ÑģÑĤ": 756,
      "Ġ19": 757,
      "ĠâĢĵ": 758,
      "ĠÑħÐ¾ÑĤ": 759,
      "ĠÑĩÐµÐ»Ð¾Ð²": 760,
      "Ð¸Ð±": 761,
      "ĠÐ·Ð°Ð¿": 762,
      "ĠÐ¿Ð¾ÑĢ": 763,
      "ÐµÑĨ": 764,
      "ĠÐµÑģÐ»Ð¸": 765,
      "er": 766,
      "Ð°Ð»Ð¾": 767,
      "Ð¸ÑĤÑĮÑģÑı": 768,
      "ÐµÐ»Ð°": 769,
      "ÑĢÐ¾": 770,
      "ÐºÐ¾Ð¹": 771,
      "ĠÐĿÐ¾": 772,
      "ĠÑĢÐ°Ð±Ð¾ÑĤ": 773,
      "ĠÐ¿ÑĢÐ¾Ð´": 774,
      "Ð°Ð¶Ðµ": 775,
      "Ð»ÑİÑĩ": 776,
      "ÑĥÑħ": 777,
      "ÐµÑĢÑĮ": 778,
      "ÑģÐºÐ¾Ð¹": 779,
      "ĠÐ¿Ð¾Ð·": 780,
      "Ð»Ð°Ð´": 781,
      "ÐµÑĪÑĮ": 782,
      "ĠÐ¼Ð¾": 783,
      "Ð°ÑĨÐ¸Ð¸": 784,
      "ÑĥÐ½": 785,
      "Ð¿Ð¾Ð»": 786,
      "čĊčĊ": 787,
      "ÑģÐ¼": 788,
      "ÂłÂł": 789,
      ").": 790,
      "Ðķ": 791,
      "Ð½Ð°Ðº": 792,
      "Ð¿ÑĢÐ°Ð²": 793,
      "ÐµÐ»Ñı": 794,
      "ĠÐ´Ð¾Ð»Ð¶": 795,
      "ĠÐŀÐ½": 796,
      "in": 797,
      "ĠÐ±ÑĥÐ´ÐµÑĤ": 798,
      "ĠÐ½Ð°Ð·": 799,
      "ĠÐ±ÑĭÑĤÑĮ": 800,
      "ĠÑĤÐµÐ¼": 801,
      "Ð²Ð»Ñı": 802,
      "Ð°Ð½Ð´": 803,
      "ĠÑĩÐµÐ¼": 804,
      "ÑĥÑģÑĤ": 805,
      "ĠÐºÐ¾ÑĤÐ¾ÑĢÑĭÐµ": 806,
      "Ð»ÐµÐº": 807,
      "ÐºÑĢ": 808,
      "ÑĥÐ²": 809,
      "ĠÑĤÐ¾Ð³Ð¾": 810,
      "ÐµÑī": 811,
      "ĠÐ¾ÑģÑĤ": 812,
      "ĠÐ³Ð¾Ð²Ð¾ÑĢ": 813,
      "ĠÐ·Ð°Ð¼": 814,
      "ÑĪÑĮ": 815,
      "ÑĥÐ»ÑĮ": 816,
      "ĠÐºÐ¾ÑĢ": 817,
      "Ð½ÐµÐ¹": 818,
      "ĠÐŃÑĤÐ¾": 819,
      "čĊčĊÂłÂł": 820,
      "ĠÐ¿Ð¾Ð¿": 821,
      "Ð»Ðµ": 822,
      "ĠÑĩÐµÑĢ": 823,
      "ĠÑģÐ»Ð¾Ð²": 824,
      "ÐµÐ¹ÑģÑĤÐ²": 825,
      "ĠÐ¼ÐµÑģÑĤ": 826,
      "ĠÐ±ÑĭÐ»Ð°": 827,
      "ĠÐ¿ÑĢÐ¾ÑĤ": 828,
      "ĠÐµÑīÐµ": 829,
      "ĠÐ¿ÐµÑĢÐ²": 830,
      "Ð»Ð¸Ñĩ": 831,
      "ĠÑĩÐµÐ»Ð¾Ð²ÐµÐº": 832,
      "ÐµÐ½Ð¸Ð¹": 833,
      "ÑģÐºÐ¾Ð³Ð¾": 834,
      "ĠÐ¿Ð¾Ñĩ": 835,
      "ĠÐ¿Ð¾Ð»ÑĥÑĩ": 836,
      "ĠÐ´Ð¾ÑģÑĤ": 837,
      "Ð»ÐµÐ½Ð¸Ñı": 838,
      "ĠÐ±ÑĭÐ»Ð¸": 839,
      "Ð´Ð¸": 840,
      "ĠÑģÐµÐ±Ñı": 841,
      "ĠÑģÐ¾ÑģÑĤ": 842,
      "ĠÐ¾ÑĩÐµÐ½ÑĮ": 843,
      "ÑĥÐº": 844,
      "Ð¸Ð·Ð½": 845,
      "Ð¼ÐµÑĢ": 846,
      "ÐµÐ½Ð°": 847,
      "ĠÑįÑĤÐ¾Ð³Ð¾": 848,
      "ĠÐ¿ÑĢÐ¾Ð²": 849,
      "ĠÐºÐ¾Ð»": 850,
      "ÑĥÑīÐµ": 851,
      "Ð³Ð»Ñı": 852,
      "ĠÐ´Ð°Ð¶Ðµ": 853,
      "ÐµÐ´Ð¾Ð²": 854,
      "Ð¿ÐµÑĢ": 855,
      "ĠÐ³Ð»Ð°Ð·": 856,
      "ĠÐ½Ð¸Ðº": 857,
      "Ð¾Ð±ÑĢ": 858,
      "ĠÐ½Ð¾Ð²": 859,
      "Ð»Ð¸Ð²": 860,
      "Ð»Ñĭ": 861,
      "Ð¼Ð¾Ð¶": 862,
      "Ð°Ð»Ð°ÑģÑĮ": 863,
      "ĠÐ½Ð¸": 864,
      "ĠÐ½Ð°ÑĪ": 865,
      "ĠÐµÑģÑĤÑĮ": 866,
      "ÑĨÐµ": 867,
      "ÑĨÑĭ": 868,
      "ĠÐ´ÐµÐ²": 869,
      "ĠÐ¸ÑģÐ¿Ð¾Ð»ÑĮÐ·": 870,
      "Ð°Ð»Ð¾ÑģÑĮ": 871,
      "Ð°Ð»Ð¸ÑģÑĮ": 872,
      "Ð¾ÑģÑĤÐ¸": 873,
      "ĠÑĢÐµÑĪ": 874,
      "Ð¾Ð¶Ðµ": 875,
      "ÑĥÐµÑĤ": 876,
      "Ð¼Ð°": 877,
      "ĠÐ¼Ð¾Ð¶Ð½Ð¾": 878,
      "Ð°Ð½Ð°": 879,
      "ĠÑĤÐ°ÐºÐ¶Ðµ": 880,
      "ĠÑįÑĤÐ¾Ð¼": 881,
      "ĠÑĥÐ²": 882,
      "ĠÐµÐ¼Ñĥ": 883,
      "ÑģÐºÐ¸Ð¹": 884,
      "ÑĤÐ¸Ð²": 885,
      "ĠÐºÐ¾ÑĤÐ¾ÑĢÑĭÐ¹": 886,
      "ÐµÐ½Ð¸Ñİ": 887,
      "ÐµÐ½Ð¸ÐµÐ¼": 888,
      "ĠÐ¿ÑĢÐ¸Ð²": 889,
      "an": 890,
      "ĠÐ½Ð°Ñģ": 891,
      "ĠÐ³ÑĢ": 892,
      "ĠÐ·Ð°Ð²": 893,
      "ÑĥÑİÑī": 894,
      "ĠÐŁÑĢ": 895,
      "ĠÐ¿ÑĢÐ¸Ð½": 896,
      "ĠÑģÐ´ÐµÐ»": 897,
      "ĠÐ±Ð¾Ð»ÑĮÑĪ": 898,
      "ĠÑĤÐ¾Ð¼": 899,
      "ÑĮÑı": 900,
      "ÐºÐ¾Ð¼": 901,
      "on": 902,
      "ĠÐ¿Ð¾ÑģÐ»Ðµ": 903,
      "Ð¯": 904,
      "Ġ3": 905,
      "Ð°Ð½Ð¸Ð¸": 906,
      "ĠÑģÐ»ÑĥÑĩ": 907,
      "ĠÐ±Ð¾Ð»ÐµÐµ": 908,
      "Ð°ÐµÐ¼": 909,
      "ÐµÐ½Ñĭ": 910,
      "ĠÑģÑĩ": 911,
      "Ðĳ": 912,
      "ÑĥÑī": 913,
      "Ð¸Ð½Ñĥ": 914,
      "ĠÐ´Ð¾Ð¼": 915,
      "ĠÐ¿Ð¾ÑģÑĤ": 916,
      "Ð°ÑģÑģ": 917,
      "ĠÐ³ÑĢÑĥ": 918,
      "),": 919,
      "ÑıÐ´": 920,
      "ĠÐ½ÑĥÐ¶": 921,
      "ĠÑģÑĤÐ¾": 922,
      "Ð¸Ð¶": 923,
      "ĠÐ¾ÑĢ": 924,
      "ĠÐ·Ð°Ð´": 925,
      "Ð°Ð½ÑĤ": 926,
      "ĠÐ·Ð´": 927,
      "ÑİÑī": 928,
      "Ð¸ÑĤÐµÐ»ÑĮÐ½Ð¾": 929,
      "ĠÑįÐº": 930,
      "Ðĵ": 931,
      "ĠÐ¸ÑģÑĤ": 932,
      "Ð¾ÑĢÐ¾ÑĪ": 933,
      "ĠÑģÐ¾Ð·": 934,
      "Ð¸Ð»Ð°ÑģÑĮ": 935,
      "ĠÐ¿ÐµÑĢÐµÐ´": 936,
      "Ð°ÐºÑĤ": 937,
      "ĠÐ±Ð»": 938,
      "ĠÐ°Ð²": 939,
      "ĠÐ½ÐµÐ¼": 940,
      "ĠÑıÐ²Ð»Ñı": 941,
      "ĠÐ³Ð¾Ð´Ð°": 942,
      "Ð¸Ð¿": 943,
      "ĠÐ³Ð¾Ð»Ð¾Ð²": 944,
      "ĠÐĶÐ¶": 945,
      "Ð¸Ð½Ñĭ": 946,
      "ĠÐ¾ÑĤÐ²ÐµÑĤ": 947,
      "Ð¾Ð²Ð°ÑĤÑĮ": 948,
      "ĠÐ¾Ð±ÑĢÐ°Ð·": 949,
      "Ð¾Ñħ": 950,
      "ÐµÐ¶Ð´Ñĥ": 951,
      "ĠÑģÑĤÐ¾ÑĢ": 952,
      "ÐµÑĢÐ°": 953,
      "ĠÐ¿ÑĢÐ¾ÑģÑĤÐ¾": 954,
      "ÑģÑĤÑĢÐ¾": 955,
      "ĠÑģÐµÑĢ": 956,
      "ĠÐ½ÐµÐ¿": 957,
      "ÑıÐ²": 958,
      "ĠÐ»ÐµÑĤ": 959,
      "Ð¾Ð»Ð¾Ð³": 960,
      "Ð·Ñĭ": 961,
      "ĠÑĢÐ°Ð·Ð²": 962,
      "Ð¸ÐºÐ¸": 963,
      "ĠÐ¾Ð±ÑĬ": 964,
      "ĠÐ½ÐµÐ³Ð¾": 965,
      "ÐĽ": 966,
      "ĠÐĿÐµ": 967,
      "ĠÑĢÐµÐ·": 968,
      "ĠÐ¿ÑĢÐ¾Ð¸Ð·": 969,
      "Ð»ÐµÐ¼": 970,
      "Ð¾Ð½Ð°": 971,
      "ĠÑģÐ»ÐµÐ´": 972,
      "ĠÑĥÐ±": 973,
      "ÑĩÐ½Ð¾": 974,
      "ÑģÐµ": 975,
      "ĠÐ·Ð°Ð±": 976,
      "ĠÐ°ÑĢ": 977,
      "ĠÐºÐ¾Ð¼Ð¿": 978,
      "Ð»ÐµÐ½Ð¸Ðµ": 979,
      "Ð¸ÑģÐº": 980,
      "ĠÐ´ÐµÐ¹ÑģÑĤÐ²": 981,
      "ÑĥÐ»ÑĮÑĤ": 982,
      "Ð¸Ð¼ÐµÑĢ": 983,
      "\".": 984,
      "ÑĩÐ°Ñģ": 985,
      "ĠÐ³Ð´Ðµ": 986,
      "en": 987,
      "ĠÑģÑĢÐµÐ´": 988,
      "ĠÐ¾ÑģÐ½Ð¾Ð²": 989,
      "Ġt": 990,
      "Ð¸Ñİ": 991,
      "ĠÐ¼Ð½": 992,
      "ÑıÑī": 993,
      "ÑĢÐ°Ñī": 994,
      "ÑıÐ¼": 995,
      "Ð°ÑĢÑĤ": 996,
      "Ð£": 997,
      "ĠÐ°Ð½": 998,
      "ĠÐ±Ð¾Ð»ÑĮÑĪÐµ": 999,
      "ĠÐ²Ð¾Ð»": 1000,
      "ĠÐ¢Ð°Ðº": 1001,
      "ĠÐ²Ð¾Ñģ": 1002,
      "ĠÐ¾ÑĤÐ½Ð¾": 1003,
      "Ð¿ÑĢÐµÐ´": 1004,
      "ÐµÑģÐ¿": 1005,
      "ĠÐ½ÐµÑģÐº": 1006,
      "Ð¾ÑģÐ¾Ð±": 1007,
      "ĠÐ½ÐµÑĤ": 1008,
      "ĠÑģÑĤÑĢÐ°Ð½": 1009,
      "Ð¾ÑģÑĤÑĮ": 1010,
      "ÑģÐºÐ¸Ñħ": 1011,
      "ĠÐ°Ðº": 1012,
      "ĠÐ·Ð½Ð°": 1013,
      "Â».": 1014,
      "Ð°Ð·ÑĭÐ²": 1015,
      "ÑĭÐ»": 1016,
      "ĠÐļÐ°Ðº": 1017,
      "ĠÐ¸Ñģ": 1018,
      "Ð½ÐµÐµ": 1019,
      "ĠÐ½ÐµÐ´": 1020,
      "Ð¾Ð¿ÑĢÐ¾Ñģ": 1021,
      "ĠÐ¨": 1022,
      "ÑįÑĤ": 1023,
      "ĠÐ²ÑģÑĳ": 1024,
      "ĠÐ¼Ð¾Ð»": 1025,
      "Ð°Ð²ÑĪ": 1026,
      "Ð°ÑİÑĤÑģÑı": 1027,
      "âĢ¦": 1028,
      "ĠÑģÑĤÑĢ": 1029,
      "ÑĥÑīÐµÑģÑĤÐ²": 1030,
      "Ð²Ð¾Ð´": 1031,
      "ĠÐµÑĳ": 1032,
      "čĊč": 1033,
      "ĠÐ¿ÑĢÐµÐ´ÑģÑĤÐ°Ð²": 1034,
      "ÑĢÑĥÐ¶": 1035,
      "Ð¸ÐºÐ°": 1036,
      "ĠÑĤÐµÐ±Ñı": 1037,
      "Ð½Ð¸ÐºÐ°": 1038,
      "ÐĹ": 1039,
      "ÑĢÐ°Ð¼": 1040,
      "ĠÐ¿ÑĢÐ¾Ð±": 1041,
      "ĠÐ¼Ð¸ÑĢ": 1042,
      "Ð²Ð°ÑĤ": 1043,
      "ÐµÐ¹ÑĩÐ°Ñģ": 1044,
      "or": 1045,
      "ĠÑģÑĤÐ°ÑĢ": 1046,
      "ÐµÑĤÐµ": 1047,
      "ĠÐºÐ»": 1048,
      "ĠÐ¿ÑĢÐ¾ÑĤÐ¸Ð²": 1049,
      "\",": 1050,
      "ÐµÑĢÐ¸": 1051,
      "ÑıÐ»": 1052,
      "ÑĨÑĥ": 1053,
      "ÐµÐºÐ¾": 1054,
      "Ð§": 1055,
      "ĠÐ·Ð½": 1056,
      "ĠÐºÐ°Ð¶Ð´": 1057,
      "Ð¾Ñī": 1058,
      "ĠÐ¿Ð¾Ñģ": 1059,
      "ĠÐ¾Ð´Ð¸Ð½": 1060,
      "ÑĦÐ¾ÑĢÐ¼": 1061,
      "ĠÑĤÐµÐ»": 1062,
      "âĢĶ": 1063,
      "ĠÐ½Ð°ÑģÑĤ": 1064,
      "Ð¼ÐµÑģÑĤ": 1065,
      "ÑĢÐµ": 1066,
      "Ġ20": 1067,
      "ĠÑįÑĤÐ¾ÑĤ": 1068,
      "Ð¾ÑģÑģ": 1069,
      "Ð³Ð»ÑıÐ´": 1070,
      "es": 1071,
      "ĠÑģÐµÐ±Ðµ": 1072,
      "ÑĥÐ³": 1073,
      "Ð²Ð¾Ð»": 1074,
      "ĠÐ¸Ð¼Ðµ": 1075,
      "Ð²ÐµÑģÑĤ": 1076,
      "ĠÐĿÐ°": 1077,
      "Ð¸ÑĨÐ¸": 1078,
      "ÐµÑĤÐ°": 1079,
      "ĠÐ²Ð¾Ð·Ð¼Ð¾Ð¶": 1080,
      "ĠÐºÑĤÐ¾": 1081,
      "ÑĥÐ²ÑģÑĤÐ²": 1082,
      "Ð·Ð°": 1083,
      "ÐµÐ»ÐµÐ¹": 1084,
      "Ð°ÑıÑģÑĮ": 1085,
      "ĠÐ²Ð¾Ð´": 1086,
      "ĠÑĢÐµ": 1087,
      "ĠÐ²ÑĭÑģ": 1088,
      "ĠÐ¾ÑĢÐ³": 1089,
      "ĠÐ¼ÐµÐ¶Ð´Ñĥ": 1090,
      "ar": 1091,
      "Ð½Ð¸Ñĩ": 1092,
      "ĠÐ»ÑİÐ´": 1093,
      "ÐµÐ´ÑĮ": 1094,
      "Ð°Ð»ÑĮÐ½Ð¾": 1095,
      "ĠÑĥÑģÑĤ": 1096,
      "ĠÑģÐ²ÑıÐ·": 1097,
      "ĠÐ»ÑĥÑĩ": 1098,
      "Ð¿Ð¿": 1099,
      "ÐŃ": 1100,
      "Ð¾Ð¶Ð´": 1101,
      "Ð¾Ð»Ð½": 1102,
      "ĠÑĤÐµÑĢ": 1103,
      "ĠÐĴÑĭ": 1104,
      "ĠÑħÐ¾ÑĢÐ¾ÑĪ": 1105,
      "ĠÐ¸ÑģÐº": 1106,
      "ĠÐ¸Ð½ÑĤÐµÑĢ": 1107,
      "Ð°Ð½Ñĭ": 1108,
      "Ð»ÑĭÐ±": 1109,
      "Ð¸Ð²ÑĪ": 1110,
      "ĠÐ²Ð¾Ð¿ÑĢÐ¾Ñģ": 1111,
      "ĠÐ¿Ð¾ÑģÐ»ÐµÐ´": 1112,
      "ÐµÑģÑı": 1113,
      "ĠÐ³Ð¾Ð´Ñĥ": 1114,
      "ĠÐ½Ð¸Ñħ": 1115,
      "ÑĥÐ´Ð°": 1116,
      "ĠÑĤÐµÐ¿": 1117,
      "ÐµÑĢÑĪ": 1118,
      "ĠÑĢÐ¾Ð´": 1119,
      "ĠÐ´ÐµÐ²ÑĥÑĪ": 1120,
      "ĠÐ¼Ð°ÑĤ": 1121,
      "at": 1122,
      "ĠÐ²Ð°ÑĪ": 1123,
      "ĠÐ·Ð½Ð°Ñĩ": 1124,
      "ĠÐ´Ð°Ð½": 1125,
      "ÑĤÐ¾Ð¼": 1126,
      "ÑıÑģ": 1127,
      "Ð¾Ð½Ð¸": 1128,
      "ÑĢÑĥÐ´": 1129,
      "ĠÑĥÐ¼": 1130,
      "Ð¸Ð»Ð¾": 1131,
      "ĠÐ´ÐµÑĤ": 1132,
      "ÑĥÐ»": 1133,
      "ĠÐ¶Ð¸Ð²": 1134,
      "Ð°Ð½Ð¸Ð·": 1135,
      "Ð¸Ð»Ð¸ÑģÑĮ": 1136,
      "Ð¸ÑĢÑĥ": 1137,
      "ĠÑĤÐ²": 1138,
      "Ð°ÑĢÐ¸": 1139,
      "Ð½ÑĥÑĤÑĮ": 1140,
      "Â»,": 1141,
      "ĠÐ²ÑĭÐ±": 1142,
      "ĠÐ²ÑģÐµÐ³Ð¾": 1143,
      "ĠS": 1144,
      "ÑĭÐ¼Ð¸": 1145,
      "ĠÐ½Ð°Ð¼": 1146,
      "ĠÑĥÐ»ÑĭÐ±": 1147,
      "Ð½Ð¾Ð¼Ñĥ": 1148,
      "ĠÐ´ÑĥÐ¼": 1149,
      "ÑģÑĤÐ²Ðµ": 1150,
      "Ð¼ÐµÐ½": 1151,
      "ÑĢÐ°Ð¶": 1152,
      "Ð¸Ð¼Ð¾": 1153,
      "Ð¸Ð½Ðµ": 1154,
      "ĠÑģÐ¸Ð»": 1155,
      "ĠÑģÐ¿Ð¾ÑģÐ¾Ð±": 1156,
      "ÐµÑĢÑĤ": 1157,
      "ÑĢÐ°Ñģ": 1158,
      "he": 1159,
      "ĠÐķÑģÐ»Ð¸": 1160,
      "Ġ4": 1161,
      "ĠÐ·Ð²": 1162,
      "ÑĳÑĤ": 1163,
      "ÐµÐ½Ð½ÑĭÑħ": 1164,
      "ĠÑĤÐµÑħ": 1165,
      "ÑĳÐ½": 1166,
      "ÑģÑĤÐ¸": 1167,
      "Ð½Ð¸Ðµ": 1168,
      "ĠÐ·Ð°ÑĤ": 1169,
      "ĠÐ´Ð¾Ð»": 1170,
      "ĠÐ½Ð¸Ñĩ": 1171,
      "ĠÐ¶ÐµÐ»": 1172,
      "Ð°Ð»Ð¸Ð·": 1173,
      "ĠÐ²Ð¾Ð¹": 1174,
      "ĠÑĦÐ¾ÑĢÐ¼": 1175,
      "ĠÐ´ÐµÐ½ÑĮ": 1176,
      "ĠÐ²ÑģÐµÑħ": 1177,
      "ĠÑģÐ¸ÑģÑĤ": 1178,
      "ĠÐ·Ð°Ð½": 1179,
      "ĠÑĥÑģÐ»": 1180,
      "ĠÐŁÐ¾": 1181,
      "ĠÐ³Ð¾ÑĢÐ¾Ð´": 1182,
      "Ð¾Ð½Ñĭ": 1183,
      "ĠÐ¿ÑĢÐ¾ÑĨ": 1184,
      "Ð½Ð¸ÐºÐ¾Ð²": 1185,
      "Ġ5": 1186,
      "Ð´Ð¸Ð½": 1187,
      "ĠÐ¿ÑĢÐ¾Ð³": 1188,
      "Ð½Ð¾ÑģÑĤÑĮÑİ": 1189,
      "Ð½ÑĥÐ»ÑģÑı": 1190,
      "ĠÑĩÐµÑĢÐµÐ·": 1191,
      "ĠÐ½ÐµÑģÐºÐ¾Ð»ÑĮÐºÐ¾": 1192,
      "ĠÐ¢Ñĭ": 1193,
      "ÑĢÑĭÐ²": 1194,
      "ĠÐ¼Ð½Ð¾Ð³Ð¾": 1195,
      "ÑīÑĳ": 1196,
      "Ð¼Ñĭ": 1197,
      "ĠÑģÐºÐ°Ð·Ð°Ð»": 1198,
      "ÑĥÑģÐº": 1199,
      "ĠÐ¼ÑĥÐ¶": 1200,
      "al": 1201,
      "ĠÑģÐµÐ¹ÑĩÐ°Ñģ": 1202,
      "ĠÐ¾ÑĤÐºÑĢ": 1203,
      "ĠÐ¾Ð¿ÑĢÐµÐ´": 1204,
      "Ð°ÑĨÐ¸Ñı": 1205,
      "ÐµÑĢÐ²": 1206,
      "ĠÐ½ÐµÐ²": 1207,
      "Ð¸ÑĪ": 1208,
      "ĠÐ±ÑĢ": 1209,
      "ĠÐĶÐ°": 1210,
      "ĠÐ¶Ð¸Ð·": 1211,
      "ÑİÑĤÑģÑı": 1212,
      "ĠÐ¿Ð¾Ð½": 1213,
      "ĠÐ¶ÐµÐ½": 1214,
      "ÑĨÐ¸Ñı": 1215,
      "ĠÐ¿Ð¾Ð±": 1216,
      "ĠÐ²Ð°Ð¼": 1217,
      "ĠÐ¸Ð³ÑĢ": 1218,
      "Ð´ÐµÑĢÐ¶": 1219,
      "ĠÐ½Ð°ÑħÐ¾Ð´": 1220,
      "ÐµÑĤÑĭ": 1221,
      "ĠI": 1222,
      "ĠÑģÑĤÐ¾Ð»": 1223,
      "ĠÑįÑĤÐ¾Ð¹": 1224,
      "ĠÑģÐ²Ð¾ÐµÐ¹": 1225,
      "ÑıÐ¶": 1226,
      "ÐºÐ°Ð¼Ð¸": 1227,
      "ÑģÐ°": 1228,
      "ĠÑĥÑģÐ¿": 1229,
      "ĠÐ¿ÑĢÐ¾ÑĪ": 1230,
      "ĠÑıÐ²Ð»ÑıÐµÑĤÑģÑı": 1231,
      "Ð¸Ð»Ð¾ÑģÑĮ": 1232,
      "ĠÐ¶Ð¸Ð·Ð½Ð¸": 1233,
      "Ð»Ð¾Ð¶": 1234,
      "ĠÐ¼ÐµÑĤ": 1235,
      "ÑĨÐ¸Ð¾Ð½": 1236,
      "ĠÐ´Ð°Ð²": 1237,
      "ÐµÐ½Ð½ÑĭÐµ": 1238,
      "ĠÑģÐ²Ð¾Ñİ": 1239,
      "ÑĤÑĥ": 1240,
      "ĠÐ³Ð»Ð°Ð·Ð°": 1241,
      "ĠÑģÐµÐ¼": 1242,
      "ĠÐ»Ð¸ÑĪÑĮ": 1243,
      "ĠÐ¡ÑĤ": 1244,
      "ÐµÐ³Ð´Ð°": 1245,
      "ĠÐŀÐ½Ð°": 1246,
      "Ð±Ð¾": 1247,
      "ÑĢÑĭ": 1248,
      "ĠÑħÐ¾Ñĩ": 1249,
      "ÑģÐºÐ¸Ðµ": 1250,
      "ĠÑĥÐ¿": 1251,
      "ĠÐ½Ð°Ðº": 1252,
      "Ð°Ð½Ð¾": 1253,
      "ÑĥÑĤÑĮ": 1254,
      "ĠA": 1255,
      "ĠÐ¾ÑģÐ¾Ð±": 1256,
      "Ð½ÑĥÐ»Ð°": 1257,
      "ĠÐ¼Ð¾Ð³ÑĥÑĤ": 1258,
      "ĠÑģÐ¾Ð·Ð´": 1259,
      "ÑĢÐ°ÑĦ": 1260,
      "ÑĨÐµÐ²": 1261,
      "ĠÑĥÐº": 1262,
      "ĠÑĤÐµÐ±Ðµ": 1263,
      "ÐµÐºÐ¾ÑĤÐ¾ÑĢ": 1264,
      "ĠÐ²Ð°Ñģ": 1265,
      "Ð½Ð°ÐºÐ¾": 1266,
      "ÐºÐ»ÑİÑĩ": 1267,
      "Ð¿ÑĢÐ¾Ñģ": 1268,
      "Ð¨": 1269,
      "ĠÐ¿Ð¾Ð½Ð¸Ð¼": 1270,
      "ĠÐ¼Ð¸Ð½": 1271,
      "ĠÐ½ÐµÐ¾Ð±": 1272,
      "Ð»Ð¸Ð½": 1273,
      "ĠÐ¾Ð±Ñī": 1274,
      "ĠÑĢÐ°Ð´": 1275,
      "ĠÑĤÐ°Ð¼": 1276,
      "ÐºÐ°Ñħ": 1277,
      "ÑįÑĤÐ¾Ð¼Ñĥ": 1278,
      "ĠÐ²Ð¾ÑĤ": 1279,
      "ĠÐ¿Ð¾Ð³": 1280,
      "ĠÐ§ÑĤÐ¾": 1281,
      "ÐµÑģÑĤÐ¸": 1282,
      "ĠÐ½ÐµÐ¹": 1283,
      "ĠC": 1284,
      "ÑĦÑĦ": 1285,
      "ĠÐ½ÑĥÐ¶Ð½Ð¾": 1286,
      "Ð°Ð¹ÑĤÐµ": 1287,
      "ĠÐºÐ¾ÑĤÐ¾ÑĢÐ°Ñı": 1288,
      "ĠÐ´Ð¾Ð±": 1289,
      "ĠÑģÐ¸Ð»ÑĮ": 1290,
      "ÑĢÐ¾Ð¼": 1291,
      "Ð½Ð¸Ð¹": 1292,
      "ÑĳÐ¼": 1293,
      "ÑģÑĤÑĥÐ¿": 1294,
      "Ð°ÑģÐº": 1295,
      "ĠÑģÐ¸ÑģÑĤÐµÐ¼": 1296,
      "Ð»Ð°Ñģ": 1297,
      "ĠÐ¿ÑĢÐ¾Ð´Ð¾Ð»Ð¶": 1298,
      "ÐµÐ½Ð½ÑĭÐ¹": 1299,
      "ĠÐ½Ð¸ÑĩÐµÐ³Ð¾": 1300,
      "ĠÐ³Ð»Ð°Ð²": 1301,
      "ĠÐ²ÑģÑĤÑĢ": 1302,
      "ÑĤÑĭ": 1303,
      "ÑıÐ½": 1304,
      "Ð°ÑĤÐ¾": 1305,
      "ÑħÐ¾Ð´Ð¸ÑĤ": 1306,
      "ĠÐµÑīÑĳ": 1307,
      "it": 1308,
      "ĠÐ¿Ð¾Ð¼Ð¾Ñī": 1309,
      "Ð»ÐµÑĤ": 1310,
      "Ð°ÑĤÑĭ": 1311,
      "ĠÐ¾ÑģÑĤÐ°Ð²": 1312,
      "ĠÐºÑĢÐ¾Ð²": 1313,
      "ÐµÑĢÐ³": 1314,
      "Ð¾Ð±Ñī": 1315,
      "ÐµÐ½Ð½Ð¾Ð¹": 1316,
      "ĠÐĲÐ½": 1317,
      "Ð»Ð¾Ð²": 1318,
      "Ð°Ð»ÑĮÐ½Ð¾Ð¹": 1319,
      "ĠÐ¿ÑĢÐ¸Ñĩ": 1320,
      "ĠÐºÑĢÐ°Ñģ": 1321,
      "ĠÐ´ÑĢ": 1322,
      "Ð¾Ð½Ð¾Ð¼": 1323,
      "ÐµÐ½Ð¾": 1324,
      "ĠÐ¼ÐµÐ´": 1325,
      "is": 1326,
      "ĠÑĤÐ¾ÑĤ": 1327,
      "ĠÐ»ÐµÐ³": 1328,
      "Ð¸Ð²Ð°ÐµÑĤ": 1329,
      "ÑĥÐ´ÑĮ": 1330,
      "ĠÐ½ÐµÐ¾Ð±ÑħÐ¾Ð´": 1331,
      "ĠÐºÐ°ÑĢ": 1332,
      "ĠÑĤÐµ": 1333,
      "Ð²ÑĪ": 1334,
      "ĠÐ¼Ð°Ð»": 1335,
      "Ð¸Ð½Ð¸": 1336,
      "Ð½Ð°ÑĢ": 1337,
      "ĠÐµÐ¹": 1338,
      "ÑģÐ»ÐµÐ´Ð¾Ð²": 1339,
      "ÑģÑĥÐ´": 1340,
      "ĠÑģÑĤÐ¾ÑĢÐ¾Ð½": 1341,
      "Ð»Ð¸ÑģÑĮ": 1342,
      "Ð¸Ñī": 1343,
      "ĠÐ½Ð°Ð²": 1344,
      "ÑĤÐ°Ðº": 1345,
      "ĠÐ²ÑģÐµÐ³Ð´Ð°": 1346,
      "Ð°Ð½Ð¸Ð¹": 1347,
      "ĠÑĤÑĥÑĤ": 1348,
      "ÑģÐ¼Ð¾ÑĤÑĢ": 1349,
      "ĠÑģÑĩÐ¸ÑĤ": 1350,
      "ĠÐ¿ÑĢÐ¸Ñģ": 1351,
      "Ð½Ñİ": 1352,
      "ĠÐ¸ÑģÑĤÐ¾ÑĢ": 1353,
      "ÑĥÑİÑĤ": 1354,
      "ÐºÐ¸Ð¹": 1355,
      "Ð³Ð°": 1356,
      "Ð¾ÑıÑĤ": 1357,
      "ĠÐ³Ð¾ÑĢ": 1358,
      "ĠÐ´Ð¾Ðº": 1359,
      "ĠM": 1360,
      "ÑĥÐ»Ñı": 1361,
      "ĠÐ½Ð°Ð±": 1362,
      "ĠÐ»ÑİÐ´ÐµÐ¹": 1363,
      "ĠÑįÑĤÐ¸": 1364,
      "ĠÐ·Ð´ÐµÑģÑĮ": 1365,
      "ĠÐ¿Ð¾ÑĤÐ¾Ð¼Ñĥ": 1366,
      "Ð¾Ð½Ñĩ": 1367,
      "Ð¸ÑĨ": 1368,
      "ĠÑģÐµÐº": 1369,
      "Ð¸Ð¾Ð½": 1370,
      "ĠÑģÐ²Ð¾Ð¹": 1371,
      "Ð³Ð¸": 1372,
      "Ð¾ÐºÐ°": 1373,
      "ĠÑĩÑĥÐ²ÑģÑĤÐ²": 1374,
      "ĠÐŀÑĤ": 1375,
      "ĠÐ½Ð¸Ð¼": 1376,
      "ĠÐ¾Ð¿ÑĢÐµÐ´ÐµÐ»": 1377,
      "Ð¾ÑĢÐ°": 1378,
      "Ð¾Ð´Ð°": 1379,
      "Ð°ÑĤÐµÐ»ÑĮÐ½Ð¾": 1380,
      "Ð¤": 1381,
      "ĠÐ¾ÑĢÐ³Ð°Ð½Ð¸Ð·": 1382,
      "ĠÐ³Ð¾Ð»Ð¾Ñģ": 1383,
      "Ð¸ÑĩÐµÑģÐºÐ¾Ð¹": 1384,
      "ÑĥÐ¹": 1385,
      "ĠÐ¾ÑĤÐ½Ð¾ÑĪ": 1386,
      "ĠÐ²ÑĤÐ¾ÑĢ": 1387,
      "Ð¾Ð¼ÐµÐ½ÑĤ": 1388,
      "ÑĢÐ°ÑĪ": 1389,
      "ĠÑĤÐ¾Ð¶Ðµ": 1390,
      "ĠÑģÐ¼Ð¾ÑĤÑĢ": 1391,
      "ÐµÑĢÐµ": 1392,
      "ĠÑģÐ¾ÑģÑĤÐ°Ð²": 1393,
      "ĠÐ²Ð·Ð³Ð»ÑıÐ´": 1394,
      "Ð¸ÑĩÐµÑģÐºÐ¸Ñħ": 1395,
      "ÐµÐ³Ð¾Ð´": 1396,
      "ĠÑģÐºÐ¾ÑĢ": 1397,
      "ĠÑĥÐ¶": 1398,
      "ĠÐ¶Ð¸Ð·Ð½": 1399,
      "Ð¸ÑĤÑĥ": 1400,
      "Ð¾ÑĢÐ¾Ð²": 1401,
      "Ð½Ð¸ÐºÐ¸": 1402,
      "Ð°ÑĤÐ°": 1403,
      "Ð¾Ð»ÑĮÑĪ": 1404,
      "ĠÐ½Ð°Ð¿ÑĢÐ°Ð²": 1405,
      "ÑģÐºÐ°Ñı": 1406,
      "ĠÐ²Ð¼ÐµÑģÑĤ": 1407,
      "ĠÐ²Ð½Ñĥ": 1408,
      "ĠÐ¼Ð¾Ð¼ÐµÐ½ÑĤ": 1409,
      "ÐµÑĩÐ½Ð¾": 1410,
      "Ð»Ð°Ð²": 1411,
      "le": 1412,
      "ĠÐ¾ÑĤÐ´": 1413,
      "Ð»Ð¸Ð·": 1414,
      "ĠÐ´Ð°": 1415,
      "Ð¸Ð²Ð°ÑĤÑĮ": 1416,
      "Ð±Ñĭ": 1417,
      "ĠÑĥÐ·": 1418,
      "ĠÑģÐ²Ð¾Ð¸": 1419,
      "Ġ18": 1420,
      "ĠÐ³ÑĢÑĥÐ¿Ð¿": 1421,
      "ĠÐ½ÐµÐºÐ¾ÑĤÐ¾ÑĢ": 1422,
      "Ð¾ÑĢÑĤ": 1423,
      "ĠÑĥÐ²Ð¸Ð´": 1424,
      "ĠÐ¸Ð´": 1425,
      "ĠÑĤÐµÐ¿ÐµÑĢÑĮ": 1426,
      "ĠP": 1427,
      "ĠÐ½ÐµÐ±": 1428,
      "ĠÑģÐ»ÑĥÑĩÐ°": 1429,
      "ĠÑĥÐ³": 1430,
      "ĠÐ´Ð¾Ð²": 1431,
      "ĠÐ²ÑĢÐµÐ¼ÐµÐ½Ð¸": 1432,
      "Ð¥": 1433,
      "ĠÑĢÐ°Ð½": 1434,
      "ĠÐ¿ÑĢÐ¾Ñģ": 1435,
      "ÑĢÐ¸Ð¼ÐµÑĢ": 1436,
      "ic": 1437,
      "ĠÐ¿Ð¾ÐºÐ°Ð·": 1438,
      "ĠÐŀÐ´": 1439,
      "ĠÐłÐ¾ÑģÑģ": 1440,
      "ĠÐ¿ÑĭÑĤ": 1441,
      "Ð½ÐµÐ²": 1442,
      "ÑĭÑĩ": 1443,
      "Ġs": 1444,
      "Ð°ÑĩÐµ": 1445,
      "ÑĢÑĥÐ·": 1446,
      "ĠÐ¼Ð½Ð¾Ð³": 1447,
      "ĠÐ¿Ð¾ÐºÐ°": 1448,
      "ĠÐ»Ð¸ÑĨ": 1449,
      "ĠÑģÐ¾ÑģÑĤÐ¾Ñı": 1450,
      "ÑĢÑĥÑĪ": 1451,
      "ĠÐ¸Ð½ÑĤÐµÑĢÐµÑģ": 1452,
      "ou": 1453,
      "Ð°ÐºÑĤÐµÑĢ": 1454,
      "ĠÐ¾Ð³ÑĢ": 1455,
      "ĠÑģÐ¾Ð²ÐµÑĢÑĪ": 1456,
      "Ð°Ð»ÑĮÐ½ÑĭÑħ": 1457,
      "ĠÑıÐ·Ñĭ": 1458,
      "ĠÐ¿Ð¾Ð»Ð¾Ð¶": 1459,
      "ĠÑĩÐµÐ³Ð¾": 1460,
      "ĠÑĢÐµÐ·ÑĥÐ»ÑĮÑĤ": 1461,
      "ĠÑģÐ¾Ð³": 1462,
      "ĠÑĩÐ°Ñģ": 1463,
      "Ð¾ÐºÐ¾": 1464,
      "ÑĢÑĥÐº": 1465,
      "Ð°Ð½Ð¸ÐµÐ¼": 1466,
      "ĠÑģÐ¿ÑĢÐ¾Ñģ": 1467,
      "ĠÐ¿ÑĢÐ¾Ð±Ð»ÐµÐ¼": 1468,
      "ĠÑģÑĥÑīÐµÑģÑĤÐ²": 1469,
      "ĠÐ¾ÑĤÐ²": 1470,
      "ÐµÐ»Ð¾": 1471,
      "ÑīÐµÐµ": 1472,
      "Ð²Ð°": 1473,
      "ÐµÐ´Ð¸Ð½": 1474,
      "ĠÐ½Ð¾Ð³": 1475,
      "Ð»ÐµÐ´": 1476,
      "Ð¸ÑĩÐµÑģÐºÐ¸": 1477,
      "Ġ201": 1478,
      "Ð½ÑıÐ»": 1479,
      "ĠÑĢÐ°ÑģÑģÐº": 1480,
      "ÑģÑĥÐ´Ð°ÑĢ": 1481,
      "ĠÐ²Ð½Ð¸Ð¼": 1482,
      "ĠÐ²Ð´": 1483,
      "Ð¾Ð²Ð¾Ð¹": 1484,
      "Ð°ÑĤÑĥ": 1485,
      "ĠÐ¼Ð¸Ð½ÑĥÑĤ": 1486,
      "ĠÐ¿ÑĢÐ¸Ð¼": 1487,
      "Ð¾Ð²Ð°Ð½Ð¸Ñı": 1488,
      "ĠÐ¿ÑĢÐ¸Ðº": 1489,
      "Ġ6": 1490,
      "re": 1491,
      "ĠÐ¿Ð¾ÑĤÐ¾Ð¼": 1492,
      "ÐµÑĨÐ¸": 1493,
      "ĠÐ¿Ð¾Ð·Ð²Ð¾Ð»": 1494,
      "Ð°Ð»Ðµ": 1495,
      "ĠÑİ": 1496,
      "ĠÐ¼Ð¾ÑĢ": 1497,
      "ĠÑĩÐµÐ»Ð¾Ð²ÐµÐºÐ°": 1498,
      "ĠT": 1499,
      "ĠÑģÐ¾Ð´": 1500,
      "ÐºÐ¸Ñħ": 1501,
      "ĠÐ²Ð°Ð¶": 1502,
      "ĠÐ¿ÑĢÐ¸ÑĪ": 1503,
      "ĠÑĢÑıÐ´": 1504,
      "Ð°Ð»ÑĮÐ½ÑĭÐµ": 1505,
      "ÐŁÑĢ": 1506,
      "ĠÐľÑĭ": 1507,
      "ĠÐºÐ¾ÑĤÐ¾ÑĢÑĭÑħ": 1508,
      "ĠÐ·ÐµÐ¼": 1509,
      "ÑĩÐ¸Ð²": 1510,
      "Ð°Ñī": 1511,
      "Ð¾Ð¼Ð¸Ð½": 1512,
      "Ð½Ð¾Ð²Ð°": 1513,
      "ĠÑĤÐ°ÐºÐ¾Ð¹": 1514,
      "ĠÑģÐ²Ð¾ÐµÐ³Ð¾": 1515,
      "ĠÐ¿ÑĢÐ¸Ð´": 1516,
      "ÑģÑĤÐ²Ð¾Ð¼": 1517,
      "ĠÐ¾ÑĤÐº": 1518,
      "ĠÐ¿ÑĢÐ¾Ð¸Ñģ": 1519,
      "Ð»Ð°Ð³": 1520,
      "Ð¼ÐµÑĤ": 1521,
      "Ð°ÑĤÐµ": 1522,
      "ĠÐ³Ð¾ÑĤÐ¾Ð²": 1523,
      "ĠÐ²ÑĭÐ¿": 1524,
      "ĠÐĿÑĥ": 1525,
      "ÑĥÐ½Ðº": 1526,
      "ĠÐ¿ÑĢÐ¾ÑĨÐµÑģÑģ": 1527,
      "ĠÐ³Ð¾ÑģÑĥÐ´Ð°ÑĢ": 1528,
      "Ġ200": 1529,
      "ĠÑģÐ¾Ð¾Ð±Ñī": 1530,
      "Ð¾ÐºÐ¾Ð¹": 1531,
      "ÑĢÐ°Ñħ": 1532,
      "ĠÑģÐ²Ð¾Ð¸Ñħ": 1533,
      "ĠÑģÑĭ": 1534,
      "ĠÐ²ÑĭÐ·": 1535,
      "ĠÐ´Ð¾ÑĢ": 1536,
      "Ð¸ÑĩÐµ": 1537,
      "ÐµÐ³Ð¾Ð´Ð½Ñı": 1538,
      "Ð¼Ðµ": 1539,
      "ĠÐ²ÑģÐµÐ¼": 1540,
      "Ð¾Ð²Ð°Ð»": 1541,
      "Ð²ÐµÐ´": 1542,
      "ÐµÐ½Ð½Ð¾Ð³Ð¾": 1543,
      "Ð¸ÑĩÐµÑģÐºÐ¸Ðµ": 1544,
      "ÑĳÐ»": 1545,
      "ĠÐ¿Ð¾Ð¶": 1546,
      "ÐµÐºÑĤ": 1547,
      "Ð½Ð°ÐºÐ¾Ð¼": 1548,
      "ĠÐºÐ¾Ð¼Ð½": 1549,
      "ÑģÐµÐ¼": 1550,
      "ĠÐŀÐ½Ð¸": 1551,
      "ĠÐºÐ½Ð¸": 1552,
      "ĠÑĢÑĥÐºÐ¸": 1553,
      "ĠÑĨÐµÐ»": 1554,
      "ĠÐ¦": 1555,
      "ĠÑĢÑĭ": 1556,
      "as": 1557,
      "ĠÑĢÐµÐº": 1558,
      "ĠÑģÑĤÐ°Ð»": 1559,
      "ĠÑĥÑģ": 1560,
      "ĠÐ®": 1561,
      "Ð°Ð½Ñģ": 1562,
      "ÑĢÐ¾Ð¿": 1563,
      "Ð´Ñĭ": 1564,
      "ÑĭÐ²Ð°ÐµÑĤ": 1565,
      "Ð¸ÑĢÐ¾Ð²Ð°ÑĤÑĮ": 1566,
      "Ð¾ÑĩÑĮ": 1567,
      "ĠÐ¿ÑĥÑĤ": 1568,
      "ĠÑģÐ¾Ð±Ð¾Ð¹": 1569,
      "Ð½ÑĥÐ»Ð°ÑģÑĮ": 1570,
      "ĠÐ½Ð°ÑĩÐ¸Ð½": 1571,
      "ĠÐºÐ¾ÑĤÐ¾ÑĢÐ¾Ð¹": 1572,
      "ĠÐ¾ÑĤÐ»Ð¸Ñĩ": 1573,
      "ĠÐ´Ð²Ð°": 1574,
      "ÐµÐ½ÑĤÐ¾Ð²": 1575,
      "ĠÐ¾ÐºÐ°Ð·": 1576,
      "ĠÐŁÐ¾Ñģ": 1577,
      "ĠÐ½Ð°Ð´Ð¾": 1578,
      "Ð¾ÑģÐº": 1579,
      "ĠÑĢÐµÐ±": 1580,
      "ĠÐ¸Ð½ÑĦÐ¾ÑĢÐ¼": 1581,
      "ĠÐ¶ÐµÐ½Ñī": 1582,
      "ĠÐ²ÐµÐ´ÑĮ": 1583,
      "Ð¾ÑĤÐ²ÐµÑĤ": 1584,
      "ĠÑĢÐ°Ð²": 1585,
      "om": 1586,
      "Ð°Ð³Ð¾": 1587,
      "ĠÑĪÐº": 1588,
      "ÑħÐ²Ð°ÑĤ": 1589,
      "ĠÐĸ": 1590,
      "ĠÐ´Ðµ": 1591,
      "ĠÑĥÑĩÐ°ÑģÑĤ": 1592,
      "ĠÐ²ÐµÐ»": 1593,
      "ĠÐ¸Ð·Ð²ÐµÑģÑĤ": 1594,
      "ÑĤÐ¾Ñĩ": 1595,
      "Ð°Ð½Ð¸Ñİ": 1596,
      "Ð°ÑĤÐ¸": 1597,
      "Ð°ÑĤÑĢ": 1598,
      "ÐµÐ½ÑĤÐ°": 1599,
      "ÑģÐºÐ¾Ð¼": 1600,
      "ĠÐŀÐ±": 1601,
      "Ð¸ÑĤÐµÐ»Ñı": 1602,
      "Ð°ÑĢÐ°ÐºÑĤÐµÑĢ": 1603,
      "Ð¾Ð±ÑīÐµ": 1604,
      "ĠÐ¿Ð»Ð¾": 1605,
      "ĠÐ·Ð°ÑĢ": 1606,
      "ÐļÐ°Ðº": 1607,
      "ĠÐºÐ°ÑĩÐµ": 1608,
      "Ð²Ð¾ÑĢ": 1609,
      "ĠÑĥÑĤ": 1610,
      "ĠÑħÐ¾ÑĢÐ¾ÑĪÐ¾": 1611,
      "ÑĢÐ°ÑģÑĤ": 1612,
      "ĠÑĢÐ°Ð·ÑĢ": 1613,
      "ĠÐ¿Ð¾ÑĤÑĢ": 1614,
      "ÑĩÐ¸Ðº": 1615,
      "Ð°Ð»ÑĮÐ½Ð¾Ð³Ð¾": 1616,
      "Ð°ÑĢÐ°": 1617,
      "ĠÐ¿Ð¾Ñħ": 1618,
      "Ð»Ð¸ÑĪ": 1619,
      "ÑĨÐµÐ½": 1620,
      "Ð°ÑĤÐ¸Ð²": 1621,
      "ĠÑħÐ¾ÑĤÐµÐ»": 1622,
      "ĠÑĤÐ¾Ð³Ð´Ð°": 1623,
      "Ð»ÑıÐµÑĤ": 1624,
      "ĠÑĥÑĢÐ¾Ð²": 1625,
      "ĠÐ´ÑĢÑĥÐ³Ð¸Ñħ": 1626,
      "ĠÑģÐ´ÐµÐ»Ð°ÑĤÑĮ": 1627,
      "ĠÑģÐ±": 1628,
      "ĠB": 1629,
      "Ð¾Ð»ÐµÐ²": 1630,
      "ĠÑĢÐ°Ð·Ð»Ð¸Ñĩ": 1631,
      "ĠÐ·Ð°Ð¼ÐµÑĤ": 1632,
      "Ð¾Ñİ": 1633,
      "ĠÐ¼ÐµÐ½": 1634,
      "Ð¸ÑĪÑĮ": 1635,
      "Ð³Ð¾ÑĤÐ¾Ð²": 1636,
      "ĠÐ¿Ð¾Ð»Ð¸ÑĤ": 1637,
      "ÑĭÐ²Ð°ÑĤÑĮ": 1638,
      "Ð°ÑĨÐ¸Ñİ": 1639,
      "Ð¸ÑĢÐ¾Ð²Ð°Ð½": 1640,
      "Ġ10": 1641,
      "ÑĤÐ¾ÑĢÐ°": 1642,
      "ĠÑĤÐ¾Ñĩ": 1643,
      "Ð²Ð°ÑĢ": 1644,
      "ÑģÑĤÑĢÐ¾Ð¹": 1645,
      "ÑĳÑĢ": 1646,
      "ĠÑģÐ¾Ð´ÐµÑĢÐ¶": 1647,
      "ÑıÑħ": 1648,
      "Ð¾Ð±Ð¾Ð´": 1649,
      "ĠÑįÑĤÐ¸Ñħ": 1650,
      "ĠÐ¿Ð¾ÑıÐ²": 1651,
      "ÑıÐ³": 1652,
      "ĠÑģÐ»ÑĥÑĩÐ°Ðµ": 1653,
      "ÐµÑĢÐµÐ²": 1654,
      "ĠÐ´Ð¸": 1655,
      "ĠÐ½ÐµÐ·": 1656,
      "Ð°Ð»ÑĮÐ½ÑĭÐ¹": 1657,
      "ĠÑģÐ¾Ð±ÑģÑĤÐ²ÐµÐ½": 1658,
      "ĠÐĺÐ·": 1659,
      "ÐµÑĩÐµÐ½Ð¸Ðµ": 1660,
      "Ð½Ð¸Ñħ": 1661,
      "ĠÐŁÑĢÐ¸": 1662,
      "ĠÐ¿Ð¾Ð²ÐµÑĢ": 1663,
      "Ð¸Ð½Ð³": 1664,
      "ĠÑģÐ½Ð¾Ð²Ð°": 1665,
      "Ġc": 1666,
      "ĠÐ¸ÑģÑģÐ»ÐµÐ´Ð¾Ð²": 1667,
      "ĠÐ¸Ð¼ÐµÐ½Ð½Ð¾": 1668,
      "ĠÐ¿ÑĢÐ¾Ð¸Ð·Ð²Ð¾Ð´": 1669,
      "ĠÑĢÐ°Ð·Ð²Ð¸ÑĤ": 1670,
      "ĠÐ»ÑĥÑĩÑĪÐµ": 1671,
      "Ð½ÐµÐ¼": 1672,
      "ĠÐĲÑĢ": 1673,
      "ĠÐ¿Ð¾ÑĩÑĤÐ¸": 1674,
      "Ð¾ÑĤÐ²ÐµÑĤÑģÑĤÐ²": 1675,
      "ĠÐ¾Ð±ÑīÐµ": 1676,
      "Ð¾Ð²Ð°Ð½": 1677,
      "Ð¾Ð²Ð°": 1678,
      "ĠÐ¿Ð¾ÑģÐ¼Ð¾ÑĤÑĢ": 1679,
      "ĠÑģÐ¸Ð´": 1680,
      "Ġ7": 1681,
      "Ð¸ÑĩÐµÑģÐºÐ¾Ð³Ð¾": 1682,
      "19": 1683,
      "ĠÑĤÑĢÐµÐ±": 1684,
      "ĠÐ¾Ð±ÑĢÐ°Ð·Ð¾Ð¼": 1685,
      "ÑıÐ±": 1686,
      "ĠÐ½Ð°Ð¹": 1687,
      "ĠÐ¼ÑĥÐ¶Ñĩ": 1688,
      "ÐµÐ½Ð´": 1689,
      "ĠÐ³ÑĥÐ±": 1690,
      "ĠÐ¿ÑĢÑıÐ¼": 1691,
      "ĠÐ´Ð¾Ð»Ð¶Ð½Ñĭ": 1692,
      "ÑĢÐ°Ð·Ñĥ": 1693,
      "ĠÑĨÐ²ÐµÑĤ": 1694,
      "Ð¾Ð»Ð¾Ð´": 1695,
      "ĠÑģÐ¿ÐµÑĨÐ¸": 1696,
      "Ð¼Ð¾": 1697,
      "Ð°ÐµÑĪÑĮ": 1698,
      "ĠÐ²ÐºÐ»ÑİÑĩ": 1699,
      "ĠÑĩÐ¸Ñģ": 1700,
      "ĠÐ¶Ð¸Ð·Ð½ÑĮ": 1701,
      "ĠÐ¿ÐµÑĢÐµÐ²": 1702,
      "ĠÐ¿ÑĢÐ¸Ð·": 1703,
      "ĠÑģÑĤÐ°ÑĤÑĮ": 1704,
      "ĠÑģÐ»Ð¾Ð¶": 1705,
      "ĠÐ¸Ð·Ð¼ÐµÐ½": 1706,
      "ĠÐľÐ°ÑĢ": 1707,
      "ĠÐ´Ð¾Ð»Ð¶ÐµÐ½": 1708,
      "ĠÑħÐ¾ÑĤÑı": 1709,
      "ĠÐ·Ð°Ð³": 1710,
      "ĠÑģÐ²ÐµÑĤ": 1711,
      "Ð¸ÑĤÐµÐ»ÐµÐ¹": 1712,
      "Ð»ÑİÐ´": 1713,
      "Ð¸Ð½Ð¾Ð¹": 1714,
      "ÑĪÐ¸Ð¹": 1715,
      "ĠÐ¼Ð°Ð³": 1716,
      "Ð¾ÑĤÐ°": 1717,
      "ĠÐ¼Ñĥ": 1718,
      "ĠÑħÐ°ÑĢÐ°ÐºÑĤÐµÑĢ": 1719,
      "ĠÐ½Ð°Ð·Ð²": 1720,
      "ĠÑģÐµÑĢÐ´": 1721,
      "ÐĿÐ°": 1722,
      "ÐºÐ¸Ðµ": 1723,
      "ĠÐ²Ð¼ÐµÑģÑĤÐµ": 1724,
      "ĠÐ¼Ð°ÑĤÐµÑĢÐ¸": 1725,
      "Ð½Ð¾Ñģ": 1726,
      "Ð¸ÑģÑģ": 1727,
      "ĠÐ»ÑİÐ´Ð¸": 1728,
      "ÑĥÑĢÑĭ": 1729,
      "Ð½ÐµÐ³Ð¾": 1730,
      "ĠÐ²ÑĭÐ¿Ð¾Ð»": 1731,
      "ĠÑĢÐ°ÑģÑĤ": 1732,
      "20": 1733,
      "ĠÐ·Ð°Ñī": 1734,
      "ĠÐ¼ÐµÑģÑĤÐ¾": 1735,
      "ĠÐ°Ð´": 1736,
      "Ð»Ð¸ÑĪÐºÐ¾Ð¼": 1737,
      "Ð¾Ð½Ðµ": 1738,
      "ĠÐ½ÐµÐ¼Ð½Ð¾Ð³Ð¾": 1739,
      "ĠÐ´Ð²Ð¸Ð¶": 1740,
      "ĠÐ¿Ð¾Ð´Ð´ÐµÑĢÐ¶": 1741,
      "ĠÐºÐ°ÐºÐ¾Ð¹": 1742,
      "ÑıÐ¼Ð¸": 1743,
      "Ð¾ÑĦ": 1744,
      "ĠÐ½Ð¸ÐºÐ¾Ð³Ð´Ð°": 1745,
      "ĠÑī": 1746,
      "ÐµÐºÑĤÐ¸Ð²": 1747,
      "ĠÐºÐ°Ð¼": 1748,
      "ĠÐ¿Ð¾ÑįÑĤÐ¾Ð¼Ñĥ": 1749,
      "ĠÑģÐ»ÐµÐ´ÑĥÑİÑī": 1750,
      "ĠÐ´Ð¾Ð¿": 1751,
      "ĠÐºÐ°Ð¿": 1752,
      "Ð¸ÐºÐ°Ð½": 1753,
      "ĠÑĤÐ¾ÑĢ": 1754,
      "ĠÑĤÑĢÑĥÐ´": 1755,
      "Ð¾Ð»Ð¾": 1756,
      "ÑĢÐ°Ñĩ": 1757,
      "Ð»Ð°ÑģÑĤÐ¸": 1758,
      "ĠÐ±ÑĭÑģÑĤÑĢÐ¾": 1759,
      "Ġd": 1760,
      "ÐµÑĢÐµÐ´": 1761,
      "ĠÐĺÐ½": 1762,
      "ÑĥÑĤÑģÑĤÐ²": 1763,
      "ÑĤÐ¾ÑĢÑĥ": 1764,
      "ÑĮÐµ": 1765,
      "ĠÑģÐ¾Ð¾ÑĤÐ²ÐµÑĤÑģÑĤÐ²": 1766,
      "ĠÐ¿ÑĢÐµÐº": 1767,
      "ĠÐ¸Ð´Ðµ": 1768,
      "ĠÐĴÑģÐµ": 1769,
      "ÑĥÐ±Ð»Ð¸": 1770,
      "Ð¸Ð½Ð¾Ð²": 1771,
      "ĠÑĤÑĢÐ¸": 1772,
      "ĠÐ¼Ð¸Ð»": 1773,
      "Ð¾Ð»ÑĮÐ½Ð¾": 1774,
      "ĠÐ±ÐµÐ»": 1775,
      "ĠÐ²ÑģÑĤÑĢÐµÑĩ": 1776,
      "ÑģÐ¸Ñħ": 1777,
      "ĠD": 1778,
      "ÐµÑĢÐ¼": 1779,
      "ÑħÑĢÐ°Ð½": 1780,
      "ÑĥÐ¶Ð´": 1781,
      "ĠÐ»Ð¸Ñĩ": 1782,
      "ĠÐ·Ð°Ñģ": 1783,
      "ĠÐ¾Ð±ÑĢÐ°ÑĤ": 1784,
      "ÑģÐ¾Ð½": 1785,
      "Ð°Ð½Ð¸Ñĩ": 1786,
      "ĠÐ¿Ð¾ÑĪ": 1787,
      "Ġ8": 1788,
      "Ġthe": 1789,
      "Ð¨ÐĲ": 1790,
      "ĠÑģÑĥÐ´": 1791,
      "Ð°ÑĨÐ¸Ð¾Ð½": 1792,
      "Ð½Ð¸Ð»": 1793,
      "ĠÐºÐ¾Ð»Ð¸ÑĩÐµ": 1794,
      "ed": 1795,
      "ĠR": 1796,
      "Ð½ÐµÑĤ": 1797,
      "Ð¾Ð³ÑĢÐ°ÑĦ": 1798,
      "Ð¾Ð¶ÐµÑĤ": 1799,
      "ĠÑĢÐµÐ³": 1800,
      "ĠÐ¼Ð°ÑĪ": 1801,
      "el": 1802,
      "Ġp": 1803,
      "Ð»Ð¾Ð½": 1804,
      "Ð¾Ð±ÑĢÐ°Ð·": 1805,
      "ÐµÑĦ": 1806,
      "Ð¾Ð¹Ð´": 1807,
      "ĠÐ¿Ð¾ÑĩÐµÐ¼Ñĥ": 1808,
      "ĠÑĥÐ´Ð¸Ð²": 1809,
      "ĠÐ¸Ð·Ð±": 1810,
      "ĠÐļÐ¾Ð½": 1811,
      "ĠÐ¿Ð¾Ð»ÑĮÐ·": 1812,
      "ĠÐ¾Ð´Ð½Ð¾Ð¹": 1813,
      "ĠÐ·Ð°Ñı": 1814,
      "ĠÐ²ÑģÐ¿": 1815,
      "Ð½Ð¸Ð±": 1816,
      "ĠÐ¾Ð·": 1817,
      "Ð½Ð¸Ð·": 1818,
      "ĠW": 1819,
      "ĠÐ²ÑĭÑħÐ¾Ð´": 1820,
      "ĠÑģÑĤÐ¾ÑĢÐ¾Ð½Ñĭ": 1821,
      "ac": 1822,
      "ĠÐĿÐ¸Ðº": 1823,
      "ÐµÐ½ÑĤÑĭ": 1824,
      "ĠÑģÐ¾Ð¿": 1825,
      "ĠÐ½Ð¸ÐºÐ°Ðº": 1826,
      "ing": 1827,
      "Ð»ÐµÐºÑĤÑĢ": 1828,
      "Ġw": 1829,
      "ĠÑĢÑĥÑģ": 1830,
      "et": 1831,
      "ĠÐ½Ð°Ð·ÑĭÐ²": 1832,
      "ĠÑħÐ¾Ð´": 1833,
      "Ð³Ð¾Ð²": 1834,
      "Ġ,": 1835,
      "ÑıÑĤÑģÑı": 1836,
      "ÐµÑĢÑĭ": 1837,
      "ĠÑĥÑģÐ»Ð¾Ð²": 1838,
      "ÐµÐ¶Ð´": 1839,
      "ĠÑģÐºÐ°Ð·Ð°ÑĤÑĮ": 1840,
      "ĠÐ¿ÑĢÐ¸Ð±": 1841,
      "Ð»Ð¾Ð¼": 1842,
      "Ð»ÑıÑĤÑĮ": 1843,
      "Ð¸Ð²Ð°Ñı": 1844,
      "ÐµÐ½Ð½ÑĭÐ¼": 1845,
      "ĠÐ²ÑĭÑĪ": 1846,
      "ĠÑģÐ»ÑĥÐ¶": 1847,
      "ĠÑģÐ»Ð¸ÑĪÐºÐ¾Ð¼": 1848,
      "ÑĢÑĥÐ¿": 1849,
      "ro": 1850,
      "ĠÑģÐ»Ð¾Ð²Ð°": 1851,
      "ĠÐ¿ÑĢÐ¾Ð¿": 1852,
      "ĠÐ¿ÑĢÐ¾Ð³ÑĢÐ°Ð¼": 1853,
      "Ð°Ð»Ð¸ÑģÑĤ": 1854,
      "ĠÐ·Ð½Ð°Ñİ": 1855,
      "Ð¾Ð²Ð°Ð½Ð¸Ðµ": 1856,
      "Ð´Ð¶": 1857,
      "Ð½Ð¸Ð¸": 1858,
      "ĠÐ¼Ð°ÑĢ": 1859,
      "Ð¸ÑĦ": 1860,
      "ĠÑĢÑĥÐºÑĥ": 1861,
      "ĠÐ´ÐµÐ²ÑĥÑĪÐºÐ°": 1862,
      "ĠÐ½Ð°ÑģÑĤÐ¾Ñı": 1863,
      "ĠÑĥÑģÑĤÐ°Ð½Ð¾Ð²": 1864,
      "ĠÐ¡Ð¨ÐĲ": 1865,
      "ĠÐ¾Ð¶": 1866,
      "ĠÑģÐ¼Ð¾Ð³": 1867,
      "ĠÐ´Ð°Ð»ÑĮ": 1868,
      "ĠÑĤÑıÐ¶": 1869,
      "Ð½Ð¸Ð±ÑĥÐ´ÑĮ": 1870,
      "ÐµÑĢÐº": 1871,
      "ĠÐ¼Ð¾Ð´": 1872,
      "Ð»ÐµÐºÑģ": 1873,
      "ĠÑģÑĢÐ°Ð·Ñĥ": 1874,
      "ĠÑģÐ¾Ð³Ð»Ð°Ñģ": 1875,
      "ĠÑįÑĤÑĥ": 1876,
      "ĠÐ±Ð»Ð°Ð³": 1877,
      "ion": 1878,
      "Ð¸ÐºÐµ": 1879,
      "ÑĩÐµ": 1880,
      "ÑĪÐ¸Ñħ": 1881,
      "ĠÐ¿Ð¾Ð¼Ð¾Ð³": 1882,
      "ĠÐºÐ¾ÑĤÐ¾ÑĢÐ¾Ð³Ð¾": 1883,
      "ĠÐºÐ¾Ð½ÑĤÑĢ": 1884,
      "ĠÐ¿Ð»ÐµÑĩ": 1885,
      "ĠÐ±Ð¾ÑĢ": 1886,
      "ĠÐ±ÑĥÐ´ÑĥÑĤ": 1887,
      "ĠF": 1888,
      "ĠÐ²ÐµÑģ": 1889,
      "ĠÐ¿ÑĢÐ°ÐºÑĤ": 1890,
      "ÑıÐµÑĤ": 1891,
      "ĠÐ¿ÑĢÐµÐ´Ð»Ð¾Ð¶": 1892,
      "Ð¿Ð¾Ð»Ð¾Ð¶": 1893,
      "ĠÐ¸Ð¼ÐµÐµÑĤ": 1894,
      "ĠÐ²ÑĭÑģÐ¾Ðº": 1895,
      "am": 1896,
      "ĠÐ²ÐµÑģÑĮ": 1897,
      "ĠÐ¿ÑĢÐ¸Ñħ": 1898,
      "Ð¾ÑĤÐ¸Ð²": 1899,
      "ÑĢÐ¾Ð±": 1900,
      "ĠÑįÐ½": 1901,
      "ĠÑģÐµÐ³Ð¾Ð´Ð½Ñı": 1902,
      "ĠÐ½ÐµÑģ": 1903,
      "ĠG": 1904,
      "Ð²Ñĭ": 1905,
      "ÑģÐºÐ¸Ð¼": 1906,
      "ĠÐ¿Ð¾ÑĤÐµÑĢ": 1907,
      "ĠÐ´ÑĢÑĥÐ³Ð¾Ð¹": 1908,
      "ĠÐ¿ÑĢÐ¸Ð¼ÐµÑĢ": 1909,
      "Ð°ÑĤÐµÐ»Ñı": 1910,
      "ĠÐºÐ¾Ð¼Ð°Ð½Ð´": 1911,
      "ÑĨÐ¸Ñİ": 1912,
      "ĠÐ²ÑģÑı": 1913,
      "ĠÐ´Ð²ÑĥÑħ": 1914,
      "ĠÐºÐ»Ð°ÑģÑģ": 1915,
      "ĠÐ·Ð°ÑĤÐµÐ¼": 1916,
      "ÑĥÐ»Ð¸": 1917,
      "Ð°Ð¶ÐµÑĤÑģÑı": 1918,
      "Ð¸ÑĩÐµÑģÐºÐ¸Ð¹": 1919,
      "ĠÑĢÑıÐ´Ð¾Ð¼": 1920,
      "Ð¾ÐµÐ²": 1921,
      "ĠÑĨÐµÐ½ÑĤ": 1922,
      "||": 1923,
      "ĠÐ¿Ð°Ð»ÑĮ": 1924,
      "ĠÐ¾Ð±ÐµÑģÐ¿": 1925,
      "Ġm": 1926,
      "ĠÐ¿ÑĢÐµÐ²": 1927,
      "Ð¸ÑĤÐ°": 1928,
      "ĠÑĦÐ¸Ð»ÑĮ": 1929,
      "ĠÑĩÐ°ÑģÑĤÑĮ": 1930,
      "ĠÐ¼Ð¾Ð¹": 1931,
      "ĠÐ¾ÑĤÐ¿ÑĢÐ°Ð²": 1932,
      "ĠÑĪÐºÐ¾Ð»": 1933,
      "ĠÑģÐ¾Ñģ": 1934,
      "ĠÐ²ÐµÑĩ": 1935,
      "ĠÐ¿ÑĢÐ¾Ð´ÑĥÐº": 1936,
      "ĠÐ²Ð¾Ð»Ð¾Ñģ": 1937,
      "ĠÐ²Ð¸Ð´Ðµ": 1938,
      "ĠÑĪÑĤ": 1939,
      "Ġo": 1940,
      "ĠÐºÐ°Ð·": 1941,
      "ĠÐ·Ð°Ð½Ð¸Ð¼": 1942,
      "ĠÑıÐ²": 1943,
      "ĠÑįÑĤÐ¸Ð¼": 1944,
      "ĠÐºÐ¾ÑĤÐ¾ÑĢÐ¾Ðµ": 1945,
      "ĠÑģÐ¾Ð²ÑģÐµÐ¼": 1946,
      "Ð¸ÑĤÐµÐ»Ð¸": 1947,
      "ĠÐ½ÐµÐ¾Ð±ÑħÐ¾Ð´Ð¸Ð¼": 1948,
      "ĠÑĤÐ¾Ð»": 1949,
      "ĠÐ²Ð¿": 1950,
      "ĠÐ´Ð°Ð»": 1951,
      "ĠÐ²Ð¿ÐµÑĢ": 1952,
      "ÑĢÐµÐ·": 1953,
      "Ð¸Ð½Ð¾": 1954,
      "ĠÐ´Ð¾ÑĢÐ¾Ð³": 1955,
      "ĠÑģÑĤÐ°Ð½Ð¾Ð²": 1956,
      "ĠÑĥÐ¿ÑĢÐ°Ð²": 1957,
      "ĠÐ½Ð¾Ñģ": 1958,
      "ĠÑģÐ¾ÑĨÐ¸": 1959,
      "Ð¾Ð´Ð°ÑĢ": 1960,
      "ĠÐļÐ¾Ð³Ð´Ð°": 1961,
      "il": 1962,
      "ĠÐ´ÐµÐ»Ð°ÑĤÑĮ": 1963,
      "ÑĢÐ¸ÑģÑĤ": 1964,
      "Ð³Ð¾Ð²Ð¾ÑĢ": 1965,
      "ÑĤÐ¾ÑĢÑĥÑİ": 1966,
      "ĠÐ³Ð¾Ð»Ð¾Ð²Ñĥ": 1967,
      ".,": 1968,
      "Ð½ÑĥÑĤ": 1969,
      "ĠÐ¼Ð¾Ð³Ñĥ": 1970,
      "ĠÐ½Ð°Ð»": 1971,
      "ĠÐ½Ð°ÑĢÐ¾Ð´": 1972,
      "ĠÐºÐ°ÑĤ": 1973,
      "ĠÐ¾Ð±ÑıÐ·": 1974,
      "Ð¾Ð±ÑĢÐ°Ð¶": 1975,
      "ĠÐ¡Ðº": 1976,
      "ĠÐĿÐµÑĤ": 1977,
      "ĠÐ²Ð¾Ð¾Ð±ÑīÐµ": 1978,
      "ĠÐ´Ð¾Ð±Ð°Ð²": 1979,
      "ĠÐ²Ð¾ÑģÐ¿": 1980,
      "ĠÑģÐ²Ð¾Ð¸Ð¼": 1981,
      "Ð¿ÑĢÐ¸": 1982,
      "ĠÐĵÐ°ÑĢ": 1983,
      "ĠÐ·Ð°ÑıÐ²": 1984,
      "ĠÑĤÐ°ÐºÐ¾Ðµ": 1985,
      "Ð¾Ð·Ð¼Ð¾Ð¶": 1986,
      "us": 1987,
      "ĠÑĥÐ²ÐµÑĢ": 1988,
      "ĠÐ¼Ð¾Ð¶ÐµÑĤÐµ": 1989,
      "ĠÐ¿ÑģÐ¸Ñħ": 1990,
      "and": 1991,
      "ÐµÐ½Ñģ": 1992,
      "ĠÐ½ÐµÐµ": 1993,
      "ĠÐ¿ÑıÑĤ": 1994,
      "Ð°ÑĢÐ¾Ð²": 1995,
      "Ð¾ÑıÐ½": 1996,
      "ĠÐ²ÐµÐº": 1997,
      "Ġ9": 1998,
      "ĠÐ¿ÑĢÐµ": 1999,
      "ĠÐ±ÐµÑĢ": 2000,
      "ĠÐºÑĥÑĢ": 2001,
      "Ð¾ÑĤÑĢÑı": 2002,
      "Ð¾Ð½ÐµÑĨ": 2003,
      "ĠÑĢÐ°ÑģÐ¿": 2004,
      "ÑĪÐµÐ¹": 2005,
      "ĠÑģÐ¸ÑĤÑĥ": 2006,
      "ĠÐ´ÑĢÑĥÐ³Ð¸Ðµ": 2007,
      "ĠÐ°ÐºÑĤÐ¸Ð²": 2008,
      "ĠÑįÑĦÑĦ": 2009,
      "Ð¸ÐµÐ¼": 2010,
      "Ð²Ð¾": 2011,
      "ĠÐ´ÐµÑĢÐµÐ²": 2012,
      "ĠÐ½Ð°ÑĩÐ°Ð»": 2013,
      "ĠÐ´ÑĥÑĪ": 2014,
      "Ð¾ÑĢÐµ": 2015,
      "Ð½ÐµÑĪ": 2016,
      "Ð¸ÐºÐ¾Ð²": 2017,
      "ĠÐŀÐ´Ð½Ð°ÐºÐ¾": 2018,
      "ÑıÑĤÐµÐ»ÑĮ": 2019,
      "ĠÐ¿ÐµÑĢÐµ": 2020,
      "ÐµÐºÑģÑĤ": 2021,
      "ĠÐ¼Ð¾Ð»Ð¾Ð´": 2022,
      "ÐŃÑĤÐ¾": 2023,
      "ĠÑĩÐ°ÑģÑĤÐ¸": 2024,
      "ÑĢÐ¾Ðº": 2025,
      "ĠÐ´Ð¾Ð¼Ð°": 2026,
      "ÑĢÐµÑĤ": 2027,
      "ĠÐĴÐ¾ÑĤ": 2028,
      "ĠÐķÐ³Ð¾": 2029,
      "ĠÑĤÐ°ÐºÐ¸Ðµ": 2030,
      "Ġb": 2031,
      "ĠÐ²ÐµÑī": 2032,
      "ĠÐ¡Ð¿": 2033,
      "ĠÐĽÑİ": 2034,
      "ÐµÑģÑĤÑĮ": 2035,
      "ĠÐ¿Ð¾Ð´Ð¾Ð±": 2036,
      "ĠN": 2037,
      "ĠÑģÐ»ÑĭÑĪ": 2038,
      "ĠÐ½Ð°Ð·Ð°Ð´": 2039,
      "ĠÐ¸Ð½ÑģÑĤ": 2040,
      "ĠÐ¾ÑĤÑģ": 2041,
      "ÑįÐ½": 2042,
      "Ð²ÐµÑĢÐ¶": 2043,
      "ĠÑįÐ»ÐµÐºÑĤÑĢ": 2044,
      "ĠL": 2045,
      "Ġa": 2046,
      "ĠÐ¿ÑĢÐ¾ÑĦ": 2047,
      "ĠÐ³Ð»ÑĥÐ±": 2048,
      "Ð°ÑĤÐ¾ÑĩÐ½Ð¾": 2049,
      "Ġf": 2050,
      "ÐµÐ½Ð½Ð¾Ðµ": 2051,
      "ĠÑģÐ¾Ð±Ð¸ÑĢ": 2052,
      "ĠÑĢÐ°Ð·Ð´": 2053,
      "ĠÑģÐ¾ÑĤ": 2054,
      "ĠÑĢÐ°Ð±Ð¾ÑĤÑĭ": 2055,
      "ĠÑģÐ²Ð¾Ð±Ð¾Ð´": 2056,
      "ĠÐ¸Ð³": 2057,
      "ĠÐµÐ´Ð¸Ð½": 2058,
      "Ð°Ð½Ðµ": 2059,
      "Ð¸Ð´Ð°": 2060,
      "ĠÐºÐ¾Ð½ÑĨ": 2061,
      "ĠÑĤÐ¸Ð¿": 2062,
      "Ð²Ð¸Ð½": 2063,
      "ĠÐ¿ÑĢÐ¾Ð²Ð¾Ð´": 2064,
      "ÑĥÐ·": 2065,
      "Ð¾Ð½Ð¾Ð²": 2066,
      "ĠÐ¼ÐµÑģÑı": 2067,
      "ÐµÐ½ÐµÑĢ": 2068,
      "Ð¿Ð¾Ð´": 2069,
      "Ð»ÐµÐ½Ð½Ð¾": 2070,
      "ĠÐŁÐ¾Ð´": 2071,
      "ÑĭÐ²Ð°Ñı": 2072,
      "ÑĥÐµÑĤÑģÑı": 2073,
      "ÐµÐ½Ð½Ð°Ñı": 2074,
      "ĠÐ·Ð°ÑģÑĤÐ°Ð²": 2075,
      "Ð°ÑĢÐ´": 2076,
      "Ð°ÑİÑīÐ¸Ñħ": 2077,
      "ĠÑģÐ²Ð¾Ðµ": 2078,
      "ĠE": 2079,
      "Ð°Ð½Ð½ÑĭÐµ": 2080,
      "Ð³Ð»Ð¸": 2081,
      "ĠÐĶÐ»Ñı": 2082,
      "Ð¾Ð´Ñĭ": 2083,
      "Ð»Ð¾ÑĤ": 2084,
      "ĠÐ¿Ð¸Ñģ": 2085,
      "ÐķÑģÐ»Ð¸": 2086,
      "ĠÐķÐ²": 2087,
      "ĠÐ¿Ð¾ÑĤÑĢÐµÐ±": 2088,
      "ĠÑģÑĤÐ¾ÑĢÐ¾Ð½Ñĥ": 2089,
      "ĠÑĩÐ°ÑģÑĤÐ¾": 2090,
      "ĠÐ±ÐµÑģ": 2091,
      "Ð½Ð¸ÑĩÐµÑģÐº": 2092,
      "ĠÐ´ÐµÑĢÐ¶": 2093,
      "Ð»ÑģÑı": 2094,
      "ÐĿÐ¾": 2095,
      "ÑıÑĤÐ¸Ñı": 2096,
      "Ð½Ð¸ÑĤÑĮ": 2097,
      "ĠÐ¾Ð´Ð½Ð¾Ð³Ð¾": 2098,
      "Ð½ÐµÐ½Ð¸Ñı": 2099,
      "ÑģÐºÐ¾Ðµ": 2100,
      "ĠÐ½Ð°ÑĩÐ°Ð»Ð°": 2101,
      "ÐµÐ·Ð´": 2102,
      "ĠÐ¿Ð¾Ð¿ÑĭÑĤ": 2103,
      "ĠÐ´ÐµÐ»Ð¾": 2104,
      "ĠÑĪÐ¸ÑĢ": 2105,
      "ĠH": 2106,
      "Ð°Ð´ÑĨ": 2107,
      "ĠÑģÑĤÐ¾Ð¸ÑĤ": 2108,
      "ĠÐ²Ð½ÑĥÑĤÑĢ": 2109,
      "ĠÐ±Ð¾Ð³": 2110,
      "ÑģÑĤÐ²ÐµÐ½Ð½Ð¾": 2111,
      "ĠÑĤÐ¾Ð¼Ñĥ": 2112,
      "ĠÐ½Ð¾ÑĢÐ¼": 2113,
      "ÑģÑĥ": 2114,
      "ĠÑģÑĥÐ¼": 2115,
      "ĠÐ±ÐµÑģÐ¿": 2116,
      "ĠÐłÐ¾ÑģÑģÐ¸Ð¸": 2117,
      "ĠÐ¿ÐµÑĢÐ¸": 2118,
      "ĠÐ³Ð¾Ð²Ð¾ÑĢÐ¸ÑĤ": 2119,
      "Ð»Ð°ÑģÑĤ": 2120,
      "Ð²Ðµ": 2121,
      "Ð»Ð°Ð¼": 2122,
      "ÑıÐ²Ð»Ñı": 2123,
      "ĠÐ½Ð°Ð³": 2124,
      "ĠÐ²ÐµÐ´": 2125,
      "ĠÐ±ÑĥÐ´ÑĤÐ¾": 2126,
      "ĠÑįÑĤÐ°": 2127,
      "ĠÑģÐ¼ÐµÑĢ": 2128,
      "ĠÐ¿Ð°ÑĢÑĤ": 2129,
      "ĠÑįÐºÑģÐ¿": 2130,
      "Ð¼ÐµÑĢÐ¸ÐºÐ°Ð½": 2131,
      "ÐŀÐ½": 2132,
      "ĠÐ¼Ð°Ð»ÐµÐ½ÑĮ": 2133,
      "Ð»Ð¸Ðº": 2134,
      "ĠÐºÐ°ÑĢÑĤ": 2135,
      "ĠÑģÐºÐ°Ð·Ð°Ð»Ð°": 2136,
      "ÐµÐ»Ñİ": 2137,
      "ĠÐ¾Ð±Ñĭ": 2138,
      "Ð¸Ð·Ð½ÐµÑģ": 2139,
      "ÑĪÐ¸Ðµ": 2140,
      "ÑĨÐ¸Ð¹": 2141,
      "ĠÑĢÐ°Ð·Ð±": 2142,
      "ĠÑģÐ¸Ð¼": 2143,
      "--": 2144,
      "ĠÐ²Ð·Ð´": 2145,
      "ĠÑĦÑĥÐ½Ðº": 2146,
      "ĠÑģÑĤÐ°Ð½": 2147,
      "Ð»Ð¾ÑģÑĮ": 2148,
      "ĠÐ¿ÑĢÐ¾Ñĩ": 2149,
      "Ð½Ð¸Ñı": 2150,
      "ĠX": 2151,
      "Ð¾Ð»ÐµÐµ": 2152,
      "ĠÐ¿ÑĢÐ¸ÑħÐ¾Ð´": 2153,
      "ÐµÐ»Ð¸Ñĩ": 2154,
      "ĠÐ¿Ð¾ÑģÑĤÐ¾ÑıÐ½": 2155,
      "ÑĢÐ°Ðº": 2156,
      "Ġh": 2157,
      "ĠÐ¾ÑĪ": 2158,
      "ol": 2159,
      "âĢĿ": 2160,
      "Ġ15": 2161,
      "Ð°ÐµÑĤÐµ": 2162,
      "ĠÑĪÐ°Ð³": 2163,
      "ĠÐ¾Ñī": 2164,
      "ĠÑįÐºÐ¾Ð½Ð¾Ð¼": 2165,
      "10": 2166,
      "ĠÐ¿ÑĢÐ¾Ð¼": 2167,
      "ÑĩÐ¸ÑĤ": 2168,
      "ÑıÑĤÑĮÑģÑı": 2169,
      "ÑĪÐµÐ³Ð¾": 2170,
      "Ð¾ÑģÑĤÐ°Ð²": 2171,
      "Ð°Ð´Ð¸": 2172,
      "ĠÐ½ÐµÐ±Ð¾Ð»ÑĮÑĪ": 2173,
      "ĠÑĢÐ°Ð±": 2174,
      "Ð¾Ð²ÑĭÑħ": 2175,
      "ĠÐľÐ½Ðµ": 2176,
      "ĠÐºÐ²": 2177,
      "ÑıÐ»Ð°": 2178,
      "ĠÐ¶Ð´": 2179,
      "ĠÐºÐ°Ð¶Ð´ÑĭÐ¹": 2180,
      "Ð¸ÑĤÐµÑĢ": 2181,
      "Ð°ÑİÑīÐ¸Ðµ": 2182,
      "ÐĿÐµ": 2183,
      "ĠÐ¾ÑĦ": 2184,
      "Ð°ÐºÑģ": 2185,
      "ÑĨÐ¸Ð¿": 2186,
      "Ð½ÑĥÐ²": 2187,
      "Ð±Ð°": 2188,
      "ÑĢÐµÐ½": 2189,
      "ĠÐ²ÑĭÐ´": 2190,
      "ÑĢÐ°Ð³": 2191,
      "ÑıÑģÑĮ": 2192,
      "Ð¼Ð°Ð½": 2193,
      "ĠÐ´ÐµÑģÑı": 2194,
      "ÐµÑĩÑĮ": 2195,
      "ĠÑħÐ¾Ð»Ð¾Ð´": 2196,
      "ĠÐ²Ð¾Ð·Ð½Ð¸Ðº": 2197,
      "ĠÐ¼ÐµÐ½ÑĮ": 2198,
      "ĠÐ¾Ð´Ð½Ð¾": 2199,
      "Ð¾ÑĢÐ¾ÑĤ": 2200,
      "ĠÐºÐ¾ÑĤÐ¾ÑĢÑĥÑİ": 2201,
      "Ð¸Ð²Ð°ÐµÑĤÑģÑı": 2202,
      "ĠÑĤÐ²Ð¾": 2203,
      "ÑĢÐµÐ²": 2204,
      "ĠÐ±ÑĢÐ°ÑĤ": 2205,
      "Ð°ÑİÑīÐ¸Ð¹": 2206,
      "ĠÐ¾Ð±ÐµÑģÐ¿ÐµÑĩ": 2207,
      "ÐµÐ²ÐµÑĢ": 2208,
      "ĠÑģÐ¾Ð²ÐµÑĤ": 2209,
      "ĠÑģÐ°Ð¼Ð¾Ð¼": 2210,
      "ĠÑĥÐ´Ð°ÑĢ": 2211,
      "Ð°Ð»ÑĮÐ½Ð¾Ðµ": 2212,
      "Ð»Ð¸Ñı": 2213,
      "âĢĵ": 2214,
      "Ð±Ñĥ": 2215,
      "Ð½Ð¾ÑģÑĤÐµÐ¹": 2216,
      "ĠÐ·Ð°ÐºÐ»ÑİÑĩ": 2217,
      "ĠÐ¼Ð°ÑģÑģ": 2218,
      "Ð·Ñı": 2219,
      "ĠÐ¶Ð¸Ð²Ð¾ÑĤ": 2220,
      "Ġ[": 2221,
      "Ð¾Ð·Ð½": 2222,
      "ĠÑħÐ¾ÑĩÑĥ": 2223,
      "ÐºÐ¸Ð¼": 2224,
      "ĠÐ°Ð»": 2225,
      "ĠÐ¾ÑģÑĤÐ°Ð½Ð¾Ð²": 2226,
      "ĠÐ¾ÐºÐ¾Ð»Ð¾": 2227,
      "ÐµÑĢÐ¾Ð²": 2228,
      "Ġ.": 2229,
      "ĠÐ¼ÐµÐ½ÐµÐµ": 2230,
      "ĠÑĤÑĢÑĥ": 2231,
      "ĠÑĩÐ¸ÑĤ": 2232,
      "ent": 2233,
      "ĠÑģÑĩÐ°ÑģÑĤ": 2234,
      "ĠÐºÑĥÐ´Ð°": 2235,
      "ĠÑĥÐ·Ð½": 2236,
      "ĠÐ¼Ð¾Ð½": 2237,
      "ĠÑĦÐ¸Ð·": 2238,
      "ĠÑĤÐ°ÐºÐ¸Ñħ": 2239,
      "ĠÐ¾ÑĤÐ½Ð¾Ñģ": 2240,
      "ĠÑĤÐ°ÐºÐ¸Ð¼": 2241,
      "ĠÐ¿Ð¾ÑģÑĤÐ°Ð²": 2242,
      "ÐºÐ¾Ð²Ð¾Ð´": 2243,
      "ĠÐ´ÐµÐ¼": 2244,
      "ĠÐ¾ÑĤÑĩ": 2245,
      "Ð´Ð¾": 2246,
      "ÑģÑĤÐ²Ñĥ": 2247,
      "18": 2248,
      "Ð¾Ð²ÑĭÐµ": 2249,
      "ÐºÐ°Ñı": 2250,
      "ĠÐ°Ð²ÑĤÐ¾Ð¼": 2251,
      "ĠÐ²Ð¾Ð·Ð²": 2252,
      "ÐµÐ¶Ð´Ðµ": 2253,
      "Ð°ÑİÑģÑĮ": 2254,
      "ĠÐ´Ð¾Ð³": 2255,
      "ĠÐ¾Ð±ÑĬÑıÑģ": 2256,
      "ĠÐ»Ð¸ÑĨÐ¾": 2257,
      "ĠÐłÐ°Ð·": 2258,
      "ĠÐ·Ð°Ð»": 2259,
      "ĠÑĢÐ°ÑģÑģÐºÐ°Ð·": 2260,
      "Ð°Ð¼Ð°": 2261,
      "ĠÐŁÐ¾ÑĤ": 2262,
      "ĠÐ¿Ð¾Ð±ÐµÐ´": 2263,
      "Ð½Ð°ÑĢÑĥÐ¶": 2264,
      "ĠÐ½Ð°Ð¿ÑĢÐ¸Ð¼ÐµÑĢ": 2265,
      "ĠÐ·Ð°Ð²Ð¸Ñģ": 2266,
      "Ð°ÑĦ": 2267,
      "Ð¾Ð»ÑĮÐºÑĥ": 2268,
      "ĠÐ·ÑĢ": 2269,
      "ÐµÑĢÐ¾Ð¼": 2270,
      "ĠÐ½ÑĢÐ°Ð²": 2271,
      "ĠÑıÑĢ": 2272,
      "ĠÐ½Ð°Ð¿Ð¸Ñģ": 2273,
      "ÑĥÐ»ÑıÑĢ": 2274,
      "Ð»ÐµÐ½Ð¸Ð¸": 2275,
      "ĠÑĥÑĪ": 2276,
      "ÑĢÑĭÑĤ": 2277,
      "ĠÑĩÑĥÑĤÑĮ": 2278,
      "Ð´ÑĥÑħ": 2279,
      "Ð¾Ð·Ñı": 2280,
      "ĠÐ¾Ð¿ÐµÑĢ": 2281,
      "Ð¸ÐºÑĥ": 2282,
      "Ð¸ÑıÑħ": 2283,
      "ÑģÑıÑĩ": 2284,
      "ĠÑģÐµÑĢÑĮ": 2285,
      "Ð¾Ð»Ñı": 2286,
      "Ð°Ð¹ÑĤ": 2287,
      "Ð»Ð°ÑģÑĮ": 2288,
      "ĠÐ¿Ð»Ð°Ð½": 2289,
      "Ð¾ÑĢÐ¾Ð¶": 2290,
      "Ð¼Ð¾ÑĤÑĢ": 2291,
      "ĠÐļÐ°ÑĢ": 2292,
      "ĠÐ¿ÑĢÐµÐ·": 2293,
      "ĠÐºÐ¾Ð½ÐµÑĩÐ½Ð¾": 2294,
      "ĠÐ¸ÑģÐ¿Ð¾Ð»ÑĮÐ·Ð¾Ð²Ð°ÑĤÑĮ": 2295,
      "ÑıÐ±ÑĢÑı": 2296,
      "ĠÐ¼Ð¸ÑĢÐ°": 2297,
      "?!": 2298,
      "ĠÑĨÐ¸": 2299,
      "Ð°Ð»ÑĮÐ½Ð°Ñı": 2300,
      "ĠÑĥÐºÐ°Ð·": 2301,
      "ÐºÐ¾Ð³Ð¾": 2302,
      "ĠÐ½Ð¾Ñĩ": 2303,
      "ÑģÑĤÐ°Ð½Ð¾Ð²": 2304,
      "Ð²Ð¸": 2305,
      "Ð¾Ð»Ñİ": 2306,
      "ĠÐŁÐ¾ÑģÐ»Ðµ": 2307,
      "ĠÐ²ÑĭÑģÑĤÑĥÐ¿": 2308,
      "Ð¼ÐµÐ½ÑĤ": 2309,
      "ÐŁÐ¾": 2310,
      "ĠÐ»Ð°Ð´": 2311,
      "ĠÐ¿Ð¾Ð¼Ð¾ÑīÑĮÑİ": 2312,
      "ÐµÐ½Ð½Ð¾ÑģÑĤÐ¸": 2313,
      "Ð¿ÑĢÐ¾ÑģÑĤ": 2314,
      "ÑģÐ¸": 2315,
      "ÑĤÑĢÐ¸": 2316,
      "ÑĢÐ°Ð´": 2317,
      "ĠÐ¼Ð½Ð¾Ð¹": 2318,
      "ÐµÑĩÐ°ÑĤ": 2319,
      "Ð°ÑĤÐ¾Ð²": 2320,
      "Ð¢Ð°Ðº": 2321,
      "Ġof": 2322,
      "ĠÑĢÐ°ÑģÐº": 2323,
      "ĠÐºÐ»Ð¸": 2324,
      "Ð½ÑĥÐ²ÑĪ": 2325,
      "ĠÐ´ÑĥÑħ": 2326,
      "ĠÐºÐ¾Ð¶": 2327,
      "ĠÑģÐ¼Ñĭ": 2328,
      "ĠÐ¾Ð¿Ð¸Ñģ": 2329,
      "ÑħÐ¾": 2330,
      "Ð°Ð½Ð½ÑĭÐ¹": 2331,
      "ĠÐ¾Ð¿Ð°Ñģ": 2332,
      "ĠÐ¿Ð°ÑĢÐµÐ½ÑĮ": 2333,
      "ĠÑģÑĤÐµÐ½": 2334,
      "Ð¾Ð¿Ð°Ñģ": 2335,
      "ÐµÐ»ÐµÐ¼": 2336,
      "ĠÐ¿Ð¾ÑĢÑıÐ´": 2337,
      "ÑĥÑĢÐ°": 2338,
      "ĠÐ¾Ð³ÑĢÐ¾Ð¼": 2339,
      "ÑĢÐ¾Ð½": 2340,
      "Ġ199": 2341,
      "Ð¾ÑĤÑı": 2342,
      "Ð¸Ð²Ð°Ð»": 2343,
      "Ð¾Ð»ÐµÑĤ": 2344,
      "ĠÑĤÐ¸Ñħ": 2345,
      "ĠÑģÐ¾ÑħÑĢÐ°Ð½": 2346,
      "ÐµÐ»ÐµÐ½": 2347,
      "ĠÐ´Ð¾Ð»Ð³Ð¾": 2348,
      "ĠÐ¿ÑĢÐ¸Ð½Ð¸Ð¼": 2349,
      "ĠÐºÐ¾ÑĤÐ¾ÑĢÐ¾Ð¼": 2350,
      "ĠÐ´ÐµÑıÑĤÐµÐ»ÑĮ": 2351,
      "ÑĢÐµÐ¹": 2352,
      "Ð»ÑĥÑĩ": 2353,
      "ĠÐ²Ð°ÑĢÐ¸": 2354,
      "Ð¾ÑĩÐµÐ¼Ñĥ": 2355,
      "ĠÐ¾Ð½Ð¾": 2356,
      "ĠÑĢÐµÐ±ÐµÐ½": 2357,
      "Ð°ÑĢÑĮ": 2358,
      "ÐŁÐ¾Ñģ": 2359,
      "ÑģÐºÑĥÑİ": 2360,
      ".-": 2361,
      "Ð»Ñĥ": 2362,
      "ĠÐ°Ð±": 2363,
      "ÐŀÑĤ": 2364,
      "ow": 2365,
      "ĠâĢľ": 2366,
      "ĠÐºÐ¾Ð½ÑĦ": 2367,
      "ĠÐ¾ÑģÑĤÑĢ": 2368,
      "Ð¸ÑĤÐ°Ð½": 2369,
      "Ð°Ð»Ð¾Ð²": 2370,
      "ĠÐ¾Ð´Ð½Ð°": 2371,
      "ĠÐ¸ÑģÐ¿Ð¾Ð»ÑĮÐ·Ð¾Ð²": 2372,
      "ĠÐ´Ð½Ñı": 2373,
      "ĠÐ¿ÑĢÑıÐ¼Ð¾": 2374,
      "Ð¸Ð³ÑĢ": 2375,
      "ĠÐ´Ð¾ÑģÑĤÐ°ÑĤÐ¾ÑĩÐ½Ð¾": 2376,
      "ÐµÑĢÐ±": 2377,
      "ĠÐºÐ¾Ð½ÑĤ": 2378,
      "ĠÐ½Ð°ÑĥÑĩ": 2379,
      "ĠÐ´ÐµÐ¹ÑģÑĤÐ²Ð¸ÑĤÐµÐ»ÑĮÐ½Ð¾": 2380,
      "ĠÐ²ÑĭÑĢÐ°Ð¶": 2381,
      "Ð°ÑĤÐµÐ»ÐµÐ¹": 2382,
      "Ġ12": 2383,
      "ĠÐ¾ÑĪÐ¸Ð±": 2384,
      "ĠÑģÐ½": 2385,
      "ÑĩÐµÑģÐº": 2386,
      "ĠÐ¾Ð±ÑĢÐ°Ñī": 2387,
      "ot": 2388,
      "Ð°ÑĤÑĥÑĢ": 2389,
      "ĠÑģÐ¿ÑĢÐ¾ÑģÐ¸Ð»": 2390,
      "II": 2391,
      "ĠÐ°Ð¼ÐµÑĢÐ¸ÐºÐ°Ð½": 2392,
      "ĠÐ´Ð²ÐµÑĢÑĮ": 2393,
      "ĠÐ¿ÑĢÐ¸Ð·Ð½": 2394,
      "ĠÑĢÐµÐ´": 2395,
      "ĠÐ±Ð»Ð¸Ð·": 2396,
      "ĠÐ²Ð¾Ð·Ð´ÑĥÑħ": 2397,
      "ĠÑĥÐ»Ð¸": 2398,
      "ĠÑĤÐ¾ÑĩÐ½Ð¾": 2399,
      "Ð¾Ð±ÑĭÑĤ": 2400,
      "ĠÑĩÐ»ÐµÐ½": 2401,
      "Ð²Ð°Ð»": 2402,
      "ĠÐ¿ÑĢÐµÐ¿": 2403,
      "Ð°Ð»ÑĮÐ½ÑĭÐ¼": 2404,
      "ĠÐĴÐ¾": 2405,
      "Ð¾ÐºÑĢÐ°ÑĤ": 2406,
      "ĠÐ²ÑģÑİ": 2407,
      "ĠÐ²Ð¾Ðº": 2408,
      "ĠÐ¿ÐµÑĢÐ²ÑĭÐ¹": 2409,
      "ĠÐ¿ÑĢÐµÐºÑĢÐ°Ñģ": 2410,
      "ĠÑĤÐµÑĩÐµÐ½Ð¸Ðµ": 2411,
      "ĠÐ»ÐµÐ¶": 2412,
      "Ð¸ÑĩÐµÑģÐºÐ°Ñı": 2413,
      "ch": 2414,
      "ĠÑģÐ¸ÑģÑĤÐµÐ¼Ñĭ": 2415,
      "ĠÑĥÐ²ÐµÐ»Ð¸Ñĩ": 2416,
      "Ð¾ÑģÑĤÑĮÑİ": 2417,
      "ĠÐ·Ð´Ð¾ÑĢÐ¾Ð²": 2418,
      "ĠÑģÐ»ÐµÐ´ÑĥÐµÑĤ": 2419,
      "ÐµÑĢÑĥ": 2420,
      "ĠÑįÐ½ÐµÑĢÐ³": 2421,
      "Ð¸ÐµÐ¹": 2422,
      "Ð²Ð°Ð½": 2423,
      "ĠÑĤÑĭÑģÑıÑĩ": 2424,
      "ĠÑģÐ¿Ð¾ÐºÐ¾Ð¹": 2425,
      "ĠÐ²Ð½Ð¸Ð¼Ð°Ð½Ð¸Ðµ": 2426,
      "ĠÑĤÑĥ": 2427,
      "Ð»ÐµÐ¹": 2428,
      "ĠÐ´Ð¾Ð»Ð¶Ð½Ð°": 2429,
      "ÑĥÑĪÐºÐ°": 2430,
      "ĠÑĤÑĢÐ°Ð½": 2431,
      "ĠÐ½ÐµÐ¾Ð±ÑħÐ¾Ð´Ð¸Ð¼Ð¾": 2432,
      "ĠÐ¼ÑĥÐ·Ñĭ": 2433,
      "ĠÐ¿Ð¾Ð´ÑĥÐ¼": 2434,
      "ĠÑĩÑĥÐ²": 2435,
      "ĠÑģÑĤÐ°Ð»Ð°": 2436,
      "ĠÐºÐ°Ð¶ÐµÑĤÑģÑı": 2437,
      "ĠÑĩÐµÑĤÑĭ": 2438,
      "ĠÐ±ÑĢÐ¾Ñģ": 2439,
      "ĠÑģÑĤÐ°Ð»Ð¸": 2440,
      "ĠÐ·Ð½Ð°ÐºÐ¾Ð¼": 2441,
      "ĠÐ¿ÑĥÑģÑĤ": 2442,
      "ĠÐ¿ÑĢÐ°Ð²Ð¸Ð»ÑĮ": 2443,
      "ÐµÑİ": 2444,
      "ĠÐ³Ð°Ð·": 2445,
      "st": 2446,
      "ĠÐ½Ð°ÑĢÑĥÑĪ": 2447,
      "ĠÐºÐ°ÑĩÐµÑģÑĤÐ²Ðµ": 2448,
      "ĠÑģÐ»Ð¾Ð²Ð½Ð¾": 2449,
      "ĠÐºÐ¾Ð½ÑĨÐµ": 2450,
      "ĠÐ²ÐµÑĤ": 2451,
      "ĠÐ¿ÑĢÐ¸Ð»": 2452,
      "ĠÐ²Ð¾Ð¹Ð½Ñĭ": 2453,
      "ĠÐ±Ð»Ð¸": 2454,
      "Ð»ÐµÐ¶": 2455,
      "ĠÑģÑĤÐ°Ð»Ð¾": 2456,
      "ÑģÐºÐ¾Ð»ÑĮÐºÑĥ": 2457,
      "ĠÐ´ÑĢÑĥÐ³Ð°": 2458,
      "ĠÐºÑĢÑĥÐ¿": 2459,
      "ĠÐºÑĢÐ°Ð¹": 2460,
      "ĠÐĴÑģ": 2461,
      "ĠÐºÐ¾Ñģ": 2462,
      "ĠÐ´ÐµÑĤÐµÐ¹": 2463,
      "ÑıÐ»Ð¸": 2464,
      "ĠÐ½Ð°ÑģÑĤÐ¾ÑıÑī": 2465,
      "ĠÑĩÐ¸ÑģÑĤ": 2466,
      "ĠÐ½Ð°Ð¹ÑĤÐ¸": 2467,
      "ĠÐ¼Ð°Ñģ": 2468,
      "Ð½ÑıÑı": 2469,
      "id": 2470,
      "ĠÐŁÐ¾Ð»": 2471,
      "ÑģÑĭ": 2472,
      "Ð½Ð¸ÐºÐ¾Ð¼": 2473,
      "ĠÐ¿Ð°Ð»": 2474,
      "ÐµÐ´Ð¸": 2475,
      "ĠÐºÑĥÐ¿": 2476,
      "Ð»ÐµÐ³": 2477,
      "ĠÐ¼ÐµÑģÑĤÐµ": 2478,
      "ĠÐ¾Ð±Ð½Ð°ÑĢÑĥÐ¶": 2479,
      "Ð½Ð¸ÑĨÐ°": 2480,
      "ĠÐĵÐ°ÑĢÑĢÐ¸": 2481,
      "ĠÐºÐ¾Ð³Ð¾": 2482,
      "Ð§ÑĤÐ¾": 2483,
      "ĠÐ¼ÑĭÑģÐ»": 2484,
      "ĠÐļÑĢ": 2485,
      "ÑĢÑĮ": 2486,
      "ĠÑģÐµÐºÑĥÐ½": 2487,
      "Ð°ÑģÑĤÐ²": 2488,
      "ĠÐľÐ¾ÑģÐº": 2489,
      "!!": 2490,
      "ÑĤÐ¾Ð½": 2491,
      "ad": 2492,
      "ĠÑģÐ¸Ð½": 2493,
      "ÐµÑĩÐµÑģÐº": 2494,
      "ĠÐ¾Ð´Ð½Ð°ÐºÐ¾": 2495,
      "ĠÐ´Ð¾Ð²Ð¾Ð»ÑĮÐ½Ð¾": 2496,
      "ĠÑĢÑĥÐºÐ¾Ð²Ð¾Ð´": 2497,
      "ĠÑģÐ¾Ð²ÐµÑĢÑĪÐµÐ½Ð½Ð¾": 2498,
      "ĠÐ´ÐµÐ»Ðµ": 2499,
      "ÐµÐ»ÑĮÐ·Ñı": 2500,
      "ĠÐ¾ÐºÑĢÑĥÐ¶": 2501,
      "Ð¾ÑıÑĤÐµÐ»ÑĮ": 2502,
      "ÑģÑĤÐ²ÐµÐ½Ð½Ð¾Ð¹": 2503,
      "ĠÑĢÐ°Ð·Ð´ÐµÐ»": 2504,
      "Ġ0": 2505,
      "ĠÐ¿ÐµÑĢÐ¸Ð¾Ð´": 2506,
      "ÑĢÐ¸ÑĤÐ¾ÑĢ": 2507,
      "ĠÐ½Ð°Ð±Ð»ÑİÐ´": 2508,
      "ÑĢÑıÐ´": 2509,
      "ĠÐ¼ÐµÑĩ": 2510,
      "ÐĴÑĭ": 2511,
      "ĠÐ³ÐµÑĢ": 2512,
      "ĠÐ¿Ð¾Ð¹": 2513,
      "ĠÑģÐ¿ÑĢÐ°Ð²": 2514,
      "un": 2515,
      "ĠÐ¸Ð·ÑĥÑĩ": 2516,
      "ĠÑĢÐ°Ð·Ð¼": 2517,
      "Ð¾Ð·Ð¼Ð¾Ð¶Ð½Ð¾": 2518,
      "ĠÐ¾ÑĤÐºÑĢÑĭÑĤ": 2519,
      "Ð°Ð½Ð½ÑĭÑħ": 2520,
      "ÐµÐ¿ÐµÑĢÑĮ": 2521,
      "Ð¸Ð¼Ð¾ÑģÑĤÐ¸": 2522,
      "ĠÑģÐ¿Ð°Ñģ": 2523,
      "ĠÐ¿Ð¾Ð»Ð½Ð¾ÑģÑĤÑĮÑİ": 2524,
      "Ð°Ð½ÑĮ": 2525,
      "ĠÑħÐ¾ÑĤÑĮ": 2526,
      "Ġin": 2527,
      "ĠÑįÐ»ÐµÐ¼": 2528,
      "Ð¾ÑĩÐºÐ°": 2529,
      "ĠÑĤÐ¾Ð½": 2530,
      "ÑĢÐ°Ð±Ð¾ÑĤ": 2531,
      "Ð»Ð°ÑĤ": 2532,
      "Ð²ÐµÑĢÑģ": 2533,
      "ĠÐºÐ½Ð¸Ð³": 2534,
      "ÑĢÐµÑģ": 2535,
      "ĠÐ²Ð¾Ð·ÑĢÐ°ÑģÑĤ": 2536,
      "ĠÑģÐ¾Ð»": 2537,
      "ĠÐµÐ²": 2538,
      "ĠÐ¡Ð¾Ð²": 2539,
      "ĠÐ¼Ð¾ÐµÐ¹": 2540,
      "ĠÐ¾ÑģÐ²": 2541,
      "ĠÐ²Ð½ÐµÑĪ": 2542,
      "ĠÐ¼ÑĭÑĪ": 2543,
      "ĠÐ¿Ð¸ÑģÑĮ": 2544,
      "Ð°ÐºÐ°": 2545,
      "Ð½ÑĮ": 2546,
      "Ð¿Ð¸Ñģ": 2547,
      "ĠÑįÑĤÐ¾Ð¼Ñĥ": 2548,
      "ĠÐ´ÑĢÑĥÐ·": 2549,
      "Ð¾Ð½Ð´": 2550,
      "ĠÐ´Ð²Ðµ": 2551,
      "Ð¿ÑĢÐ¾ÑģÑĤÑĢÐ°Ð½": 2552,
      "ĠÐ¿Ð¾ÑģÑĤÑĥÐ¿": 2553,
      "ĠÐ¿Ð¾Ð´ÑħÐ¾Ð´": 2554,
      "ĠÐ¸Ð·Ð´": 2555,
      "ĠÐ°ÑĢÐ¼": 2556,
      "ĠÐ¾Ð±Ð¾ÑĢ": 2557,
      "ĠÐµÐ´": 2558,
      "ĠV": 2559,
      "ĠÑģÐ¸Ð»ÑĮÐ½Ð¾": 2560,
      "ÑĥÑı": 2561,
      "ĠÐ¼Ð¸ÑĢÐµ": 2562,
      "ÑİÐ´Ð°": 2563,
      "Ð¾ÑĩÐºÐ¸": 2564,
      "ĠÐ½Ð°Ð¿ÑĢÑı": 2565,
      "ĠÑĢÐ°Ð´Ð¸": 2566,
      "ĠÐĿÐ°Ð¿": 2567,
      "ĠÑĦÐ¸Ð½": 2568,
      "ĠÐ¿ÑĢÐ¾Ð¸ÑģÑħÐ¾Ð´Ð¸ÑĤ": 2569,
      "Ð°ÐºÐ¸": 2570,
      "ĠÑĢÐ°Ð¹": 2571,
      "Ðĸ": 2572,
      "ĠÑĩÐµÑĤ": 2573,
      "ĠÑĤÐµÑĢÑĢÐ¸ÑĤÐ¾ÑĢ": 2574,
      "ĠÐ¾ÑĤÐ²ÐµÑĤÐ¸Ð»": 2575,
      "Ð¾Ð¼Ðµ": 2576,
      "ĠÑĤÐ°ÐºÐ¾Ð³Ð¾": 2577,
      "ĠÐ¿ÑĢÐ¾Ðº": 2578,
      "Ð½Ð°ÑĢÐ¾Ð´": 2579,
      "ÑĪÐµÐµ": 2580,
      "Ð»Ð¸Ð±Ð¾": 2581,
      "ĠÐ»Ð¸Ð±Ð¾": 2582,
      "ĠÑĤÐµÐºÑģÑĤ": 2583,
      "ĠÐ²Ð¾Ð·Ð¼Ð¾Ð¶Ð½Ð¾": 2584,
      "ĠÐ¸ÑģÐºÑĥÑģ": 2585,
      "ĠÐ²Ð½ÑĥÑĤÑĢÐµÐ½": 2586,
      "ĠÐ½Ð¸ÐºÑĤÐ¾": 2587,
      "ĠÐļÐ¾ÑĢ": 2588,
      "ĠÐ¾Ð±ÑĭÑĩÐ½Ð¾": 2589,
      "ÐºÐ°Ð¼": 2590,
      "ĠÐ¿ÑĢÐ¾ÑĦÐµÑģÑģ": 2591,
      "12": 2592,
      "ĠÑĨÐµÐ½": 2593,
      "Ð»Ð°ÑĪ": 2594,
      "ĠÑĢÐµÐ¶": 2595,
      "ĠÐ·Ð°Ð´Ð°Ñĩ": 2596,
      "ĠÐ¾Ð±ÑĭÑĩ": 2597,
      "ÑģÑĤÐ°": 2598,
      "ĠÐ¸ÑģÐºÐ»ÑİÑĩ": 2599,
      "ÑĨÐ°Ð¼Ð¸": 2600,
      "Ð½Ð¾Ð²ÑĮ": 2601,
      "ĠÐ½ÐµÐ½": 2602,
      "ĠÐ±ÑĭÑģÑĤÑĢ": 2603,
      "ĠÐ¾ÑģÐ¾Ð±ÐµÐ½Ð½Ð¾": 2604,
      "ĠÑħÐ²Ð°ÑĤ": 2605,
      "ĠÐ¾ÑīÑĥÑī": 2606,
      "ÑĤÐµÑĢÐµÑģ": 2607,
      "ĠÑĥÐ¶Ð°Ñģ": 2608,
      "ĠÐ²ÑħÐ¾Ð´": 2609,
      "ĠÐĲÐ»ÐµÐºÑģ": 2610,
      "ĠÐ²ÑĤÐ¾ÑĢÐ¾Ð¹": 2611,
      "ĠÐ¸Ñİ": 2612,
      "Ð¸Ð²ÑĪÐ¸ÑģÑĮ": 2613,
      "Ð¸ÑĩÐµÑģÐºÐ¾Ðµ": 2614,
      "ÑĤÐ°ÐºÐ¸": 2615,
      "ĠÐ¿Ð¾Ð»ÑĮÐ·Ð¾Ð²": 2616,
      "Ġ17": 2617,
      "ĠÐ¸ÑĤ": 2618,
      "ĠÐ¿Ð°Ð¼": 2619,
      "ĠÐ¿ÐµÑĢÐµÐ¼": 2620,
      "ĠÐ±ÐµÐ·Ð¾Ð¿Ð°Ñģ": 2621,
      "ĠÑĤÐ¾Ð²": 2622,
      "ĠÐ¾Ð¿ÑĭÑĤ": 2623,
      "ÐµÑı": 2624,
      "Ð½ÑĥÑĤÑĮÑģÑı": 2625,
      "ĠÐºÑĥÐ»ÑĮÑĤ": 2626,
      "ĠÑģÐ¾Ð±ÑĭÑĤ": 2627,
      "ĠÐ²Ð´ÑĢÑĥÐ³": 2628,
      "Ð½Ð¾ÑĪ": 2629,
      "ĠÐºÑĢÐµÐ¿": 2630,
      "ĠÐ¿ÑĢÐ¾Ð¸Ð·Ð¾ÑĪ": 2631,
      "ĠÐ¿Ð¾Ð²ÑĤÐ¾ÑĢ": 2632,
      "ĠÑĦÐ°Ðº": 2633,
      "ter": 2634,
      "ĠÐ½ÐµÐ¼Ñĥ": 2635,
      "ĠÑģÐ¶": 2636,
      "Ð¾Ð²Ð¾Ð³Ð¾": 2637,
      "ÐľÑĭ": 2638,
      "ÑįÐ¹": 2639,
      "ĠÑģÑĤÑĢÐ°Ð½Ñĭ": 2640,
      "ÑħÐ¾ÑĤ": 2641,
      "Ġ/": 2642,
      "Ð¾Ð²Ð°Ð»Ð°": 2643,
      "ĠÑģÐ²ÑıÐ·Ð¸": 2644,
      "ĠÑģÐ°Ð¼Ð¾Ð³Ð¾": 2645,
      "ĠÐ¾Ð³": 2646,
      "ĠÐ¶ÐµÑģÑĤ": 2647,
      "ĠÐºÐ°Ð½": 2648,
      "ÐµÑĢÑħ": 2649,
      "ĠÐºÐ°ÐºÐ¸Ðµ": 2650,
      "ÑĢÐ°ÑĤÑĮ": 2651,
      "ĠÐ¼Ð¾Ð·": 2652,
      "ĠÐ¾ÑĤÐ²ÐµÑĩ": 2653,
      "ĠÐ¿ÑĢÐ¸ÑĢ": 2654,
      "ĠÑĤÐµÐ»ÐµÑĦ": 2655,
      "ĠÑĥÑĤÑĢ": 2656,
      "ĠÑĢÐ°ÑģÐ¿Ð¾Ð»Ð¾Ð¶": 2657,
      "ĠÑĦÐ°ÐºÑĤ": 2658,
      "ÑĤÐ¾ÑĢÐ¾Ð²": 2659,
      "Ð¸ÑĤÑĭ": 2660,
      "ĠÑıÐ²Ð»ÑıÑİÑĤÑģÑı": 2661,
      "ĠÐĺÐ¼": 2662,
      "ÐºÐ¾Ðµ": 2663,
      "ÐµÐ»Ð¸Ðº": 2664,
      "ĠÐ¾ÑĤÐ½Ð¾ÑĪÐµÐ½Ð¸Ñı": 2665,
      "ĠÑģÐ¾ÑĢ": 2666,
      "ĠÐ½Ð¸Ð¼Ð¸": 2667,
      "ĠÐ¼ÐµÑĢÐµ": 2668,
      "ĠÐ¿ÑĢÐ°Ð²Ð¸ÑĤÐµÐ»ÑĮ": 2669,
      "ĠÑĢÐ°ÑģÑģ": 2670,
      "ĠÐ²Ð¾Ð·Ð¼Ð¾Ð¶Ð½Ð¾ÑģÑĤÑĮ": 2671,
      "ÑģÑıÑĤ": 2672,
      "ĠÐ¼Ð¸Ð»Ð»Ð¸": 2673,
      "ĠÐ¸ÑģÐ¿ÑĭÑĤ": 2674,
      "ĠÑģÐ»Ð°Ð±": 2675,
      "ĠÐ¾ÑĤÐ¿": 2676,
      "ĠÐ±Ð»Ð°Ð³Ð¾Ð´Ð°ÑĢ": 2677,
      "ĠÐ¾ÑĤÐ¼": 2678,
      "ĠÐ´Ð²Ð¸Ð³": 2679,
      "ĠÑĥÐ½Ð¸": 2680,
      "ÑĢÐ°Ð»": 2681,
      "ĠÑĥÑģÑĤÑĢÐ¾Ð¹": 2682,
      "ĠÐ²ÑĭÑĪÐµ": 2683,
      "Ð¾Ð¶Ð´ÐµÐ½Ð¸Ñı": 2684,
      "ĠÐ¿ÑĢÐ¾Ð²ÐµÑĢ": 2685,
      "oo": 2686,
      "ÑıÑĤÐ½Ð¾": 2687,
      "ĠÑģÑĤÐµÐ¿": 2688,
      "ĠÑģÐ¾Ð²ÑĢÐµÐ¼": 2689,
      "ÑĩÑĤÐ¾": 2690,
      "ĠÑģÑĤÑĢÐ°Ñħ": 2691,
      "ĠÐ¼ÐµÑģÑĤÐ°": 2692,
      "ĠÐ²Ð½Ð¾Ð²ÑĮ": 2693,
      "ĠÑĢÐ°Ð·Ð³Ð¾Ð²Ð¾ÑĢ": 2694,
      "Ð¦": 2695,
      "ĠÐ²ÑģÐº": 2696,
      "ĠÑĢÐ°ÑģÑģÐ¼": 2697,
      "ÐµÐ½Ð½ÑĥÑİ": 2698,
      "Ð°Ð²Ð»Ð¸Ð²": 2699,
      "ĠÑģÑĢÐµÐ´Ð¸": 2700,
      "ĠÐ¸Ð½Ð´": 2701,
      "ĠÐ²Ð¾ÐºÑĢÑĥÐ³": 2702,
      "Ð¾ÑĢÑĭ": 2703,
      "ĠÐ²Ð¾Ð´Ñĭ": 2704,
      "ĠÐºÐ°Ð±": 2705,
      "ÐµÐ²Ð°": 2706,
      "ĠÐ´Ð¾Ð¿Ð¾Ð»Ð½": 2707,
      "ĠÐ¿ÑĢÐµÑģÑĤ": 2708,
      "ĠÐ¸Ð½ÑĤ": 2709,
      "Ð¾Ð¿Ð¾Ð»": 2710,
      "ÑģÑģ": 2711,
      "ĠÐ¼Ð¾Ð³Ð»Ð°": 2712,
      "ĠÑĤÐ°Ð½": 2713,
      "ĠÐ¼Ð°Ð»ÑĮ": 2714,
      "ĠÐ·Ð°ÐºÐ¾Ð½": 2715,
      "ĠÐ·Ð°ÐºÐ¾Ð½Ñĩ": 2716,
      "ĠÐ½Ð°ÐºÐ¾Ð½ÐµÑĨ": 2717,
      "ĠÐ³Ð¾Ð²Ð¾ÑĢÐ¸ÑĤÑĮ": 2718,
      "ĠÑĨÐµÐ»ÑĮ": 2719,
      "ĠÐ²ÑģÑĤ": 2720,
      "ĠÐºÐ¾Ð»Ð¸ÑĩÐµÑģÑĤÐ²Ð¾": 2721,
      "Ð¾Ð»Ð¾Ð²": 2722,
      "ÐµÐ¿ÑĤ": 2723,
      "ĠÑħÐ¾Ð·Ñı": 2724,
      "ĠÐ²Ð½": 2725,
      "ĠÐ¾Ð¶Ð¸Ð´": 2726,
      "Ð°Ð»Ñĭ": 2727,
      "Ð¡ÑĤ": 2728,
      "ÑĢÐ¾Ð¼Ðµ": 2729,
      "ĠÐ¾Ð±Ð»Ð°ÑģÑĤÐ¸": 2730,
      "Ð¸Ð±Ð¾Ð»ÐµÐµ": 2731,
      "ĠÐ¤ÑĢÐ°Ð½": 2732,
      "Ð¸Ð²Ð°ÑİÑĤ": 2733,
      "Ġ194": 2734,
      "ĠÐ³Ð¾ÑĢÐ¾Ð´Ð°": 2735,
      "ĠÐ½ÐµÐºÐ¾ÑĤÐ¾ÑĢÑĭÐµ": 2736,
      "Ġl": 2737,
      "ÑģÐºÐ¸": 2738,
      "Ð¾ÑĤÐ¾": 2739,
      "ĠÐ¿ÑĢÐ¸Ð¼ÐµÐ½": 2740,
      "ĠÑģÑĢÐ°Ð²": 2741,
      "Ð°ÑĢÑĥ": 2742,
      "Ð¾ÑģÑĤÐ¾": 2743,
      "ĠÑģÑĤÑĢÐ¾": 2744,
      "ĠÐ±Ð¾Ð»ÐµÐ·": 2745,
      "ĠÐ¼ÐµÐ»": 2746,
      "Ð¸ÑĤÐµÐ»ÑĮÐ½ÑĭÐµ": 2747,
      "ĠÑĥÐ´Ð¾Ð²": 2748,
      "ĠÑĢÐ°Ð·ÑĢÐ°Ð±Ð¾ÑĤ": 2749,
      "ĠÑģÐ¾Ñĩ": 2750,
      "ĠÐ´Ð¾ÑģÑĤÑĥÐ¿": 2751,
      "ĠÑĤÐµÐ»Ð¾": 2752,
      "ĠÐ°Ð»ÑĮ": 2753,
      "ĠÐºÑĢÑĥÐ³": 2754,
      "ĠÐ²ÐµÐ»Ð¸Ðº": 2755,
      "ĠÐ¾ÐºÐ¾Ð½Ñĩ": 2756,
      "ĠÑħÑĥÐ´": 2757,
      "Ð¾ÑĤÑĭ": 2758,
      "Ð°ÑĤÐµÐ»Ð¸": 2759,
      "ÑģÑĤÑĢÐ°": 2760,
      "ĠÑĥÑģÐ»ÑĭÑĪ": 2761,
      "Ð¸Ð»Ð»": 2762,
      "ĠÑĢÐ°ÑģÐ¿ÑĢÐ¾ÑģÑĤÑĢÐ°Ð½": 2763,
      "ÑĥÐµÐ¼": 2764,
      "ĠÐ³ÑĢÐ¾Ð¼": 2765,
      "ĠÑĢÐµÐ²": 2766,
      "Ġ16": 2767,
      "ĠÐ¿Ð¾Ð¶Ð°Ð»": 2768,
      "ĠÐ´Ð°Ð²Ð½Ð¾": 2769,
      "Ð¾ÑĢÐ´": 2770,
      "im": 2771,
      "Ġand": 2772,
      "ĠÐ¾ÑģÑĥÑīÐµÑģÑĤÐ²": 2773,
      "ĠÐŀÑģ": 2774,
      "ĠÐ¿Ð¾Ð´Ð¾ÑĪ": 2775,
      "ĠÐĹÐ°": 2776,
      "Ð¿Ð¾Ð»Ð°Ð³": 2777,
      "ĠÐķÐ²ÑĢÐ¾Ð¿": 2778,
      "15": 2779,
      "ĠÑĢÐµÐ·ÑĥÐ»ÑĮÑĤÐ°ÑĤÐµ": 2780,
      "ĠÐ¼Ð¾Ð»Ñĩ": 2781,
      "ĠÐ´ÐµÐ¹ÑģÑĤÐ²Ð¸Ñı": 2782,
      "ĠÐ±ÐµÐ´": 2783,
      "ĠÐ¿ÑĢÐ¾Ð²ÐµÐ´": 2784,
      "ĠÐĳÐ¾Ð³": 2785,
      "ĠÐŁÐ¾ÑįÑĤÐ¾Ð¼Ñĥ": 2786,
      "ĠÑĢÐ°Ð·Ð¼ÐµÑĢ": 2787,
      "ĠÑĢÐ°Ð±Ð¾ÑĤÑĥ": 2788,
      "ĠÐ·Ð½Ð°ÑĩÐ¸ÑĤ": 2789,
      "Ð¾Ð»Ð¾Ð³Ð¸Ð¸": 2790,
      "ĠÐ¼ÑĭÑģÐ»Ð¸": 2791,
      "ĠÐ½ÐµÐ¶": 2792,
      "ĠÐ¿Ð¾Ð´ÑĤ": 2793,
      "ĠÐ¼Ð¾Ð³Ð»Ð¸": 2794,
      "ĠÐ¸Ð·Ð¼": 2795,
      "ĠÑĢÐ°Ð²Ð½Ð¾": 2796,
      "ĠÐ´Ð¾Ð±ÑĢ": 2797,
      "ÐºÑĥÑģ": 2798,
      "Ð¾Ð·Ð´": 2799,
      "Ð°ÐºÐ¾Ð²": 2800,
      "ĠÐ´ÐµÐº": 2801,
      "Ð¾Ð±ÑĢÐµÑĤ": 2802,
      "ĠÐ·Ð»": 2803,
      "Ġâ": 2804,
      "ÑĢÐ¾ÑĤÐ¸Ð²": 2805,
      "Ð»ÐµÐ½Ð¸ÐµÐ¼": 2806,
      "ĠÐ·Ð½Ð°Ð»": 2807,
      "ĠÐ¾ÑĤÐ´ÐµÐ»ÑĮ": 2808,
      "Ð½Ð¸ÑĤ": 2809,
      "ĠÐŁÐµÑĤ": 2810,
      "ĠÐ¸ÑģÑĤÐ¾ÑĢÐ¸Ð¸": 2811,
      "ĠÐ¿Ð¸ÑĤ": 2812,
      "ĠÐ·Ð°Ð±Ð¾Ð»ÐµÐ²": 2813,
      "ÐĻ": 2814,
      "Ġ30": 2815,
      "ĠÑĥÑħ": 2816,
      "ÑĥÑĢÐ½": 2817,
      "ÑģÑĤÐ¾Ñı": 2818,
      "ĠÐ·Ð°Ð¼ÐµÑĩ": 2819,
      "ĠÐ±Ð°Ð·": 2820,
      "ĠÐ¿Ð¾ÑĨ": 2821,
      "ĠÐ¿Ð¾Ð²ÐµÐ´": 2822,
      "ĠÐ¸ÑģÑĤÐ¾Ñĩ": 2823,
      "ĠÐ²ÑģÐµÐ¹": 2824,
      "ĠÐ¿ÐµÑĢÐµÑģÑĤ": 2825,
      "ĠÑģÐ¾Ð·Ð½": 2826,
      "Ð¸Ð±Ð¾": 2827,
      "ĠÐ»Ð¸ÑĪ": 2828,
      "ÑģÑĤÐ²Ð¸Ñı": 2829,
      "ĠÑĤÐµÐ¾ÑĢ": 2830,
      "Ð°Ð¶Ð´Ð°Ð½": 2831,
      "ÑģÑĤÐ²ÐµÐ½Ð½ÑĭÑħ": 2832,
      "000": 2833,
      "Ð¸Ð¼ÑģÑı": 2834,
      "ÑģÑĤÐ²Ð¸Ðµ": 2835,
      "ĠÐ¼ÐµÑĤÐ¾Ð´": 2836,
      "Ð°Ð¹Ð½": 2837,
      "ĠÑģÐ¿Ð¾ÑĢ": 2838,
      "Ð¸ÑħÑģÑı": 2839,
      "ÐŀÐ±": 2840,
      "ĠÐ½Ð°ÑħÐ¾Ð´Ð¸ÑĤÑģÑı": 2841,
      "ĠÐ»ÑİÐ±Ð¾Ð²": 2842,
      "ĠÐ´Ð¾Ð»Ð¶Ð½Ð¾": 2843,
      "ĠÐ½ÐµÐ»ÑĮÐ·Ñı": 2844,
      "ĠÐ¿Ð¾ÑģÐºÐ¾Ð»ÑĮÐºÑĥ": 2845,
      "ĠÐºÐ¸Ð²": 2846,
      "ĠÑģÐµÐ¼ÑĮ": 2847,
      "ĠÐ½Ð°ÑģÐ»": 2848,
      "ĠÑĢÑĥÐ±": 2849,
      "ĠÐ´Ð¾ÐºÑĥÐ¼": 2850,
      "ĠÐ¿ÑĢÐ¸Ð½ÑĨÐ¸Ð¿": 2851,
      "ÑģÐ»Ð¾Ð²": 2852,
      "ÑİÑīÐ¸Ðµ": 2853,
      "Ð¾Ð²Ð°Ð»Ð¸": 2854,
      "Ð²Ð¸Ð´": 2855,
      "ÐµÑĢÑĤÐ²": 2856,
      "Ð¾Ð»Ð¾ÑĤ": 2857,
      "ĠÐ»Ð¸ÑĨÐ°": 2858,
      "Ð¸ÑĢÐ°": 2859,
      "Ð½ÑıÐ»Ð°": 2860,
      "ĠÐ´Ð½ÐµÐ¹": 2861,
      "ĠÑĢÐ°Ð±Ð¾Ñĩ": 2862,
      "ur": 2863,
      "Ð¸ÑĢÐ¾Ð²Ð°Ð½Ð¸Ñı": 2864,
      "Ð»ÑıÐ´": 2865,
      "ĠÑĤÐ°": 2866,
      "ÐļÐ¾Ð³Ð´Ð°": 2867,
      "ĠÑģÐµÑĢÑĮÐµÐ·": 2868,
      "ig": 2869,
      "ÑģÐ¾Ð²": 2870,
      "ĠÐ¿ÑĢÐ¾ÑħÐ¾Ð´": 2871,
      "ĠÐ¾Ð´Ð½Ð¸Ð¼": 2872,
      "ĠÐ±Ð°Ð½": 2873,
      "ĠÐ±Ð¾Ð»ÑĮÑĪÐ¸Ð½": 2874,
      "ĠÐ¿Ð¾Ð²ÐµÑĢÑħ": 2875,
      "ĠÐ½Ð¸Ð·": 2876,
      "ĠÐ²Ð»Ð¸Ñı": 2877,
      "ĠÐ¾Ð´Ð½Ñĥ": 2878,
      "ÑĮÑĤÐµ": 2879,
      "Ġto": 2880,
      "Ð½Ð°ÑĩÐ°Ð»Ð°": 2881,
      "ÑĤÐ¾ÑĢÑĭ": 2882,
      "ĠÐ±Ð°ÑĢ": 2883,
      "ĠO": 2884,
      "ĠÐ·Ð°Ñĩ": 2885,
      "ĠÐ²Ð¾Ð·Ð²ÑĢÐ°Ñī": 2886,
      "ĠÐ¿ÑĢÐµÐ´ÑģÑĤÐ°Ð²Ð»Ñı": 2887,
      "Ð¾Ð±Ð¾Ð¹": 2888,
      "ĠÐ»ÑİÐ±Ð¸Ð¼": 2889,
      "ĠÐ²Ð·Ð°": 2890,
      "ĠÐ¿ÐµÑģ": 2891,
      "ĠÐ¼Ð¾Ð¸": 2892,
      "ĠÐ´Ð°Ð»ÑĮÑĪÐµ": 2893,
      "ĠÐŁÐ°ÑĢ": 2894,
      "Ð¸ÑĤÐµÐ»ÑĮÐ½Ð¾Ð¹": 2895,
      "ĠÐ¼Ð¾Ñı": 2896,
      "ĠÐ±ÑĥÐ´Ñĥ": 2897,
      "Ð°Ð½Ð½Ð¾Ð¹": 2898,
      "Ð°ÑİÑīÐµÐ¹": 2899,
      "ĠÑģÐ¸Ð»Ñĭ": 2900,
      "ĠÐ¿Ð¾Ð½ÑıÑĤÑĮ": 2901,
      "ĠÐ½ÐµÐº": 2902,
      "ÑģÑĤÐ²ÐµÐ½Ð½ÑĭÐ¹": 2903,
      "ĠÐ½ÐµÑģÐºÐ¾Ð»ÑĮ": 2904,
      "ĠÐ²Ð¾Ð·Ð´": 2905,
      "ĠÑĢÐ°Ð·Ð²Ð¸ÑĤÐ¸Ñı": 2906,
      "ĠÑģÐµÑĤ": 2907,
      "Ð°Ð²Ð°ÑĤÑĮ": 2908,
      "ÑĪÐ¸ÑĢ": 2909,
      "ĠÑģÐ²Ð¾Ð¸Ð¼Ð¸": 2910,
      "ĠÑģÐºÐ°Ð¶": 2911,
      "Ð¡Ð¡": 2912,
      "Ð°Ð·ÑĭÐ²Ð°ÐµÑĤ": 2913,
      "ĠÑĤÐ¾Ð¹": 2914,
      "Ġn": 2915,
      "ĠÐ¡Ð°Ð¼": 2916,
      "ĠÐ¾ÑĤÑĤ": 2917,
      "ĠÐ¸Ð·Ð¾Ð±ÑĢÐ°Ð¶": 2918,
      "Ð°Ð´Ð°": 2919,
      "ĠÐ³Ð¾Ð»Ð¾Ð²Ð¾Ð¹": 2920,
      "ĠÐ¿Ð°ÑĢÑĥ": 2921,
      "ĠÑįÐ¿": 2922,
      "ĠÑģÐ¼ÑĭÑģÐ»": 2923,
      "ĠÑģÐ°Ð¼Ð°": 2924,
      "ÑĥÐºÐ¸": 2925,
      "ĠÐ¿ÑĢÐµÐ·Ð¸Ð´": 2926,
      "ĠÐ¼Ð¸ÑĢÐ¾Ð²": 2927,
      "ÑģÐºÐ°Ð·": 2928,
      "ĠÑĢÐµÐ°Ðº": 2929,
      "ĠÐĲÐ²": 2930,
      "Ð°Ð»Ð¾Ð³": 2931,
      "ÐŁÑĢÐ¸": 2932,
      "Ð»ÑĥÑĪ": 2933,
      "ĠÐ¸Ð¼Ñı": 2934,
      "ÑĭÐ²Ð°Ð»": 2935,
      "ÑģÑĤÐµ": 2936,
      "ĠÐ¿Ð¾Ð²ÑĭÑĪ": 2937,
      "Ð½Ð¸Ð¶": 2938,
      "ĠÑģÐ»ÑĥÑĪ": 2939,
      "ĠÐ½ÐµÑĳ": 2940,
      "ĠÐ¢Ð¾Ð»ÑĮÐºÐ¾": 2941,
      "ĠÐ±ÑĥÐº": 2942,
      "Ð¸ÑģÐ°": 2943,
      "ĠÐ¿ÐµÑĩ": 2944,
      "Ð¾Ð»Ð¸": 2945,
      "ĠÐ½ÐµÐ¸Ð·": 2946,
      "ĠÐ²Ð¾Ð¹ÑģÐº": 2947,
      "ÑıÐ»ÑģÑı": 2948,
      "ĠÑģÐ´ÐµÐ»Ð°Ð»": 2949,
      "ĠÐ¿Ð¾Ð»Ð¾Ð²": 2950,
      "ÑĢÐ¸Ðº": 2951,
      "Ð»ÐµÐ½Ñĭ": 2952,
      "ÐµÑĩÐµÐ½Ð¸Ñı": 2953,
      "ĠÑįÑĦÑĦÐµÐºÑĤÐ¸Ð²": 2954,
      "Ð¼Ð¸Ð½": 2955,
      "ĠÐ½ÐµÐ´Ð¾ÑģÑĤ": 2956,
      "ĠÐ¿ÑĢÐµÐ¶Ð´Ðµ": 2957,
      "ĠÑģÐ¾Ð»Ð½": 2958,
      "ÑĭÑĤÑĮ": 2959,
      "ĠÑģÐ¾ÑĤÑĢÑĥÐ´": 2960,
      "Ð°Ð¼ÐµÐ½": 2961,
      "ĠÐ²ÑģÑĤÑĢÐµÑĤ": 2962,
      "ÑĢÐµÐ¼ÐµÐ½Ð½Ð¾": 2963,
      "ĠÐºÐ°Ñģ": 2964,
      "ĠÐºÐ¾Ð¼Ð¿Ð°Ð½Ð¸Ð¸": 2965,
      "Ð¸ÑĤÐµÐ»ÑĮÐ½ÑĭÐ¹": 2966,
      "ĠÑģÐ°Ð¼Ð¾Ðµ": 2967,
      "ĠÐĵÐµÑĢ": 2968,
      "ĠÐ²Ð¾Ð²": 2969,
      "Ð¾Ð¶Ð°Ð»": 2970,
      "ĠÑģÐ°Ð¼ÑĭÑħ": 2971,
      "ĠÑģÐ»ÑĥÑĩÐ°Ð¹": 2972,
      "ÐµÐ²Ð¾Ð¹": 2973,
      "ÑĥÑģÐ°": 2974,
      "ĠÑģÑĤÑĢÐµÐ¼": 2975,
      "ĠÐ¿Ð¾Ð¸ÑģÐº": 2976,
      "ĠÐ¿ÑĢÐ¾Ð±Ð»ÐµÐ¼Ñĭ": 2977,
      "Ð¸ÑĤÐµÑģÑĮ": 2978,
      "Ð½Ð¸ÑĨÑĭ": 2979,
      "ĠÐ¡Ð²": 2980,
      "Ð¾Ð½ÑĤ": 2981,
      "ÑĮÑİÑĤÐµÑĢ": 2982,
      "ĠÐ½Ð¾Ð³Ð¸": 2983,
      "Ð¿Ð¾Ñĩ": 2984,
      "ÐµÐ½ÑĨÐ¸": 2985,
      "Ð½Ð¾Ðº": 2986,
      "ÐµÑĢÐµÐ·": 2987,
      "ÑģÑĤÐ²ÐµÐ½Ð½Ð¾Ð³Ð¾": 2988,
      "ÑĢÐ¸Ð¿": 2989,
      "Ġ14": 2990,
      "Ð¸ÑĨÐ¸Ð¸": 2991,
      "ĠÑĢÑĥÐº": 2992,
      "Ð´Ð°ÐµÑĤÑģÑı": 2993,
      "ĠÑģÐ¼ÐµÑĢÑĤÐ¸": 2994,
      "ĠÐ»ÐµÐ³ÐºÐ¾": 2995,
      "ÑĪÐ¸Ð¼": 2996,
      "ĠÐ¾ÑĤÐºÐ°Ð·": 2997,
      "Ð´Ð°ÐµÑĤ": 2998,
      "ĠÐŁÐ¾ÑĩÐµÐ¼Ñĥ": 2999,
      "ĠÑģÑĤÑĢÑĥÐº": 3000,
      "ĠÑĥÐ¼ÐµÑĢ": 3001,
      "ĠÐ¿Ð¾Ð·Ð´": 3002,
      "ĠÐ²ÐµÑĢÑħ": 3003,
      "ĠÐ·Ð½Ð°ÐµÑĤ": 3004,
      "Ð¾Ð´Ñĥ": 3005,
      "ĠÑĤÐ²Ð¾ÑĢ": 3006,
      "ÐµÐ½Ð¸ÑıÐ¼Ð¸": 3007,
      "ĠÐ±Ð¾Ð»ÑĮÑĪÐ¾Ð¹": 3008,
      "Ð°Ð½Ð½Ð¾": 3009,
      "ĠÐ¿Ð¾Ð»ÑĥÑĩÐ¸ÑĤÑĮ": 3010,
      "ĠÐ½Ð°Ð·Ð½Ð°Ñĩ": 3011,
      "ĠÐ²ÑĭÐ´ÐµÐ»": 3012,
      "ĠÑģÐµÑģÑĤ": 3013,
      "ĠÑĩÐ°ÑģÐ¾Ð²": 3014,
      "ĠÐ´Ð¾ÑģÑĤÐ¸Ð³": 3015,
      "Ð°Ð¹Ð»": 3016,
      "ĠÐ³Ð¾Ð²Ð¾ÑĢÐ¸Ð»": 3017,
      "Ð°Ð¼ÐµÑĤ": 3018,
      "ĠÐ´Ð¸Ð²": 3019,
      "Ð°Ð»ÑĮÐ½ÑĥÑİ": 3020,
      "Ð»Ð¾Ð¿": 3021,
      "ĠÐ²Ð¾Ð»Ð¾ÑģÑĭ": 3022,
      ",-": 3023,
      "Ð½Ð¾Ð³": 3024,
      "ec": 3025,
      "ĠÐ»ÐµÑģ": 3026,
      "ĠÐ±Ð¾ÑĢÑĮ": 3027,
      "Ð³Ð»Ð¸Ð¹": 3028,
      "ĠÐ´Ð¸ÑģÐº": 3029,
      "ÐµÐ½Ð½ÑĭÐ¼Ð¸": 3030,
      "17": 3031,
      "Ð°ÑĨÐ¸Ð¹": 3032,
      "Ð¾ÐºÐ¸": 3033,
      "ay": 3034,
      "iv": 3035,
      "ut": 3036,
      "ĠÐ¼Ð½Ð¾Ð³Ð¸Ðµ": 3037,
      "Ð¾Ð¶Ð¸Ð´": 3038,
      "ĠÐ±ÑĥÐ´ÑĥÑī": 3039,
      "ĠÐ¾ÑĨÐµÐ½": 3040,
      "Ð½ÑĥÐ²ÑĪÐ¸ÑģÑĮ": 3041,
      "Ð»ÐµÐ½Ð°": 3042,
      "ĠÐ¿ÑĢÐ¸Ð²Ð¾Ð´": 3043,
      "ÐĺÐ·": 3044,
      "Ð¾ÑĢÑĥÐ¶": 3045,
      "ĠÑģÑĤÐ°Ð²": 3046,
      "ÑĭÐ²Ð°ÑİÑĤ": 3047,
      "ĠÐĲÐ»": 3048,
      "ĠU": 3049,
      "ĠÐ½ÐµÑĢÐ²": 3050,
      "ĠÑĢÐ¾ÑģÑĤ": 3051,
      "ĠÑĨÐ°ÑĢ": 3052,
      "ĠÐ¼Ð½Ð¾Ð¶Ðµ": 3053,
      "ĠÑĤÐµÐ»Ð°": 3054,
      "ĠÐ¾ÑĤÑģÑĥÑĤÑģÑĤÐ²": 3055,
      "ÐµÐ¹Ð½": 3056,
      "Ð¸ÑĩÐµÑģÐºÐ¸Ð¼": 3057,
      "ĠÐĴÐ°Ñģ": 3058,
      "ĠÐ¾Ð±Ð»Ð°Ð´": 3059,
      "ĠÐºÐ¾ÑĤÐ¾ÑĢÑĭÐ¼": 3060,
      "ĠÑĤÑĢÐ°Ð²": 3061,
      "Ð°ÐºÑģÐ¸Ð¼": 3062,
      "ÑĮÑĪÐµ": 3063,
      "ĠÐ²ÑĢÐ°Ñĩ": 3064,
      "ĠÑĢÐµÑĪÐ¸Ð»": 3065,
      "ĠÐ´ÑĥÐ¼Ð°Ñİ": 3066,
      "ĠÐ´Ð°Ð½Ð½ÑĭÑħ": 3067,
      "ĠÐ¿Ð¾Ð´Ð³Ð¾ÑĤÐ¾Ð²": 3068,
      "ÑĢÐ¸ÑıÑĤ": 3069,
      "ĠÑģÐ¾Ð¼": 3070,
      "ĠÐ¢Ð¾Ð¼": 3071,
      "Ð²Ð¾Ð·": 3072,
      "ĠÐ²Ð½ÑĥÑĤÑĢÐ¸": 3073,
      "ĠÐ½Ð¾Ð¼": 3074,
      "ĠÑĢÐ¾Ð»ÑĮ": 3075,
      "ĠÐ¿ÑĢÐ¸Ð³": 3076,
      "ĠÐºÑĢÐ¾Ð¼Ðµ": 3077,
      "ĠÐ²Ð¸Ð´ÐµÐ»": 3078,
      "ĠÐ¸ÑģÑĩ": 3079,
      "ĠÐ¾ÑĢÑĥÐ¶": 3080,
      "ĠÐ¾Ð³ÑĢÐ°Ð½Ð¸Ñĩ": 3081,
      "ĠÑĤÐ¾Ð±Ð¾Ð¹": 3082,
      "ĠÐ±Ð¾Ñı": 3083,
      ".)": 3084,
      "ĠÐ¿Ð°Ð´": 3085,
      "ĠÐ¾ÑĤÐ´ÐµÐ»": 3086,
      "ĠÐ¿ÑıÑĤÑĮ": 3087,
      "ĠÐ¿Ð¾Ð´Ñĩ": 3088,
      "ĠÐ³ÑĢÑĥÐ¿Ð¿Ñĭ": 3089,
      "ĠÐ¶ÑĥÑĢÐ½": 3090,
      "ĠÐ¼Ð³": 3091,
      "ĠÑĢÐ¸ÑģÐº": 3092,
      "ÑĥÑģÑĤÑĮ": 3093,
      "ĠÐ¿Ð°Ð¿": 3094,
      "Ð°Ð·Ð´": 3095,
      "Ð±Ð¾Ð»": 3096,
      "Ð»Ð¸Ð²Ð¾": 3097,
      "16": 3098,
      "ĠÐ²Ð·Ð³Ð»Ñı": 3099,
      "ÐµÐ²Ð¸Ð´": 3100,
      "Ð¸ÑĤÐµÑĤ": 3101,
      "ĠÐ¼ÐµÐ´Ð»ÐµÐ½Ð½Ð¾": 3102,
      "ĠÐ¸Ð¼Ð¿ÐµÑĢ": 3103,
      "ĠÑįÐ¼Ð¾": 3104,
      "ÑĭÐ²Ð°ÐµÑĤÑģÑı": 3105,
      "ĠÑģÐ¸Ð³": 3106,
      "ÑĨÐµÐ¼": 3107,
      "__": 3108,
      "ĠÐ²Ð»Ð°Ð´": 3109,
      "ĠÐ½Ð°ÑĪÐµÐ¹": 3110,
      "Ð²ÐµÑĢÐ¶Ð´": 3111,
      "ĠÐ¼ÐµÑĢ": 3112,
      "ĠÑĥÐ´Ð°Ð»": 3113,
      "ĠÐ¼ÑıÐ³": 3114,
      "ĠÐ¿ÑĢÐµÐ´Ð¾ÑģÑĤÐ°Ð²": 3115,
      "Ð²ÐµÑĢÐ´": 3116,
      "Ð»Ð°Ð¶": 3117,
      "ÐĶÐ°": 3118,
      "ĠÐĵÐ¾Ñģ": 3119,
      "ĠÑĢÐ°Ð½ÑĮÑĪÐµ": 3120,
      "ĠÐŁÐµÑĢÐ²": 3121,
      "ĠÐ¿Ð¾ÑħÐ¾Ð¶": 3122,
      "Ġ13": 3123,
      "ÑģÐ¾Ð»": 3124,
      "ag": 3125,
      "ĠÑģÐ²Ð¸Ð´": 3126,
      "ĠÐ²Ð·Ð´Ð¾Ñħ": 3127,
      "ÐĶÐ»Ñı": 3128,
      "ĠÐ²ÑĭÐ¿Ð¾Ð»Ð½": 3129,
      "ĠÐ¸Ð¼ÐµÑİÑĤ": 3130,
      "Î¿": 3131,
      "ĠÐ³Ð¾Ð»Ð¾Ð²Ðµ": 3132,
      "Ð¸ÑĤÐµÐ»ÑĮÐ½ÑĭÑħ": 3133,
      "ÐµÐ»Ðµ": 3134,
      "ĠÑĢÑĥÐºÐ¾Ð¹": 3135,
      "ĠÑģÐ²Ð¾ÐµÐ¼": 3136,
      "ĠÐ³ÑĢÐ°Ð¶Ð´Ð°Ð½": 3137,
      "ĠÐ½Ð°Ð²ÐµÑĢ": 3138,
      "em": 3139,
      "ĠÐ½Ð°ÑĨÐ¸Ð¾Ð½": 3140,
      "ĠÐºÐ¾ÑĢÐ¾ÑĤ": 3141,
      "ÐµÐ¼Ð°": 3142,
      "ĠÐºÑĢÐ¾Ð²Ð¸": 3143,
      "Ð²Ð¸Ð³": 3144,
      "Ð²Ð¸Ð¶": 3145,
      "ĠÐ¿ÑĢÐµÐ´Ð»Ð°Ð³": 3146,
      "ĠÐ½Ð°ÑģÐµÐ»": 3147,
      "ÑĤÐ¾Ð¶": 3148,
      "ĠÑģÐµÑĢÐ´ÑĨÐµ": 3149,
      "ir": 3150,
      "ÐºÐ¸Ð¼Ð¸": 3151,
      "ĠÑĦÑĢÐ°Ð½": 3152,
      "ĠÑĥÐ¿ÑĢ": 3153,
      "ĠÑģÐ°Ð¼Ð¾Ð¹": 3154,
      "ĠÐ¿Ð¾Ð¼Ð¾ÑĩÑĮ": 3155,
      "ĠÑĦÐ¸Ð³": 3156,
      "ĠÐļÐ¾Ð¼": 3157,
      "ĠÐĳÑĢ": 3158,
      "Ð¾ÑĢÐ¾Ð½": 3159,
      "Ð°ÑİÑīÐµÐ³Ð¾": 3160,
      "ĠÐºÐ¾Ð¼Ð¿ÑĮÑİÑĤÐµÑĢ": 3161,
      "ĠÐ£Ðº": 3162,
      "ĠÐ¿ÐµÑĢÐµÐ¿": 3163,
      "ĠÐ²Ðµ": 3164,
      "ĠÑģÐ°Ð¼Ð¾": 3165,
      "ĠÐ¾Ð¿ÑıÑĤÑĮ": 3166,
      "ĠÑĥÐºÑĢ": 3167,
      "ĠÐ¥Ð¾ÑĤÑı": 3168,
      "ÑĩÐ¸": 3169,
      "ĠÐºÑĢÐ°ÑģÐ¸Ð²": 3170,
      "ĠÑĦÐ¾ÑĤ": 3171,
      "ÐµÐºÑģ": 3172,
      "ĠÐ¸Ð½Ð¾Ð³Ð´Ð°": 3173,
      "ĠÐºÐ¾ÑģÑĤ": 3174,
      "ĠÑĥÐ½Ð¸Ð²ÐµÑĢÑģ": 3175,
      "ĠÐ¿ÑĢÐ¸ÑģÑĥÑĤÑģÑĤÐ²": 3176,
      "ĠÐ¿Ð¾Ð½ÑıÐ»": 3177,
      "ĠÐ´Ð»Ð¸Ð½": 3178,
      "ĠÑģÑģ": 3179,
      "ĠÐ°Ð²ÑĤÐ¾ÑĢ": 3180,
      "ĠÐ±Ð°Ð»": 3181,
      "ĠÐ°ÑĢÑħ": 3182,
      "Ð½ÑİÑİ": 3183,
      "ĠÐ¿ÑĢÐ°Ð²Ð°": 3184,
      "11": 3185,
      "ĠÐ¿Ð°ÑĤ": 3186,
      "ĠÐ¼Ð°Ð»Ð¾": 3187,
      "ĠÑģÐ¾Ðº": 3188,
      "ĠÐ¿Ð¾Ð»ÐµÐ·": 3189,
      "ĠÑģÐ°Ð¼ÑĭÐ¹": 3190,
      "ĠÐ¿Ð¾Ð»Ñĥ": 3191,
      "ĠÐ³Ð¾ÑģÐ¿": 3192,
      "ĠÐ½Ð°ÑĢ": 3193,
      "ĠÑĢÐ°Ð·ÑĥÐ¼": 3194,
      "ĠÐ¿ÑĥÑĤÐ¸": 3195,
      "Ð»Ð°ÑģÑĤÑĮ": 3196,
      "ÑģÐºÐ¾ÑĢ": 3197,
      "ĠÐ¼Ð½Ð¾Ð³Ð¸Ñħ": 3198,
      "ÑĪÐ°Ñı": 3199,
      "ĠÑģÐºÐ¾Ð»ÑĮÐºÐ¾": 3200,
      "ĠÐ´Ð¾Ð¼Ð¾Ð¹": 3201,
      "ĠÐŁÑĢÐ°Ð²": 3202,
      "ĠÑģÐ°Ð¼ÑĭÐ¼": 3203,
      "ĠÐ¼ÐµÐ½ÑĮÑĪÐµ": 3204,
      "ĠÐ³Ð»Ð°Ð·Ð°Ð¼Ð¸": 3205,
      "ĠÐ½Ð°Ð¸Ð±Ð¾Ð»ÐµÐµ": 3206,
      "ĠÑģÐ»Ð¾Ð²Ð¾": 3207,
      "Ð°Ð½Ñĥ": 3208,
      "Ð°Ð´ÑĨÐ°ÑĤÑĮ": 3209,
      "ĠÐ¿Ð°ÑĢÐ½Ñı": 3210,
      "ĠÑĤÑĥÑĢ": 3211,
      "Ð¸Ð¹ÑģÑı": 3212,
      "Ð²ÑĭÐµ": 3213,
      "ĠÐ´Ð¾Ð³Ð¾Ð²Ð¾ÑĢ": 3214,
      "ĠÐ²Ð»Ð°ÑģÑĤÐ¸": 3215,
      "ĠÐ²ÑģÐ¿Ð¾Ð¼": 3216,
      "ĠÐĽÑĥ": 3217,
      "ĠÐ¼ÐµÑħ": 3218,
      "ĠÐºÐ¾Ð¼Ð½Ð°ÑĤÑĥ": 3219,
      "ĠÑģÐ¾ÐµÐ´Ð¸Ð½": 3220,
      "Ð°Ð´Ð»ÐµÐ¶": 3221,
      "ÑĭÐ¿": 3222,
      "ĠÑħÐ¾ÑĩÐµÑĤ": 3223,
      "ĠÐ¢ÐµÐ¿ÐµÑĢÑĮ": 3224,
      "ÑĥÑĢÐ³": 3225,
      "ĠÐ¿ÐµÑĢÐµÑģ": 3226,
      "Ð°ÑĪÐ°": 3227,
      "Ð±Ðµ": 3228,
      "Ð±Ð¾ÑĢ": 3229,
      "ĠÐ²Ð½Ð¸Ð·": 3230,
      "ĠÐ¿Ð¸Ñī": 3231,
      "ĠÐ·Ð°Ð¿Ð¸Ñģ": 3232,
      "Ð¾ÑĤÑĢÐµÐ±": 3233,
      "ĠÐ²Ð·Ð°Ð¸Ð¼": 3234,
      "ÐŁÐ¾ÑģÐ»Ðµ": 3235,
      "Ð¸Ð½Ð°Ð¼": 3236,
      "ĠÑĤÐ°ÐºÐ°Ñı": 3237,
      "Ð°Ð²Ð½Ð¾": 3238,
      "ĠÐ¿ÑĢÐ¾ÐµÐº": 3239,
      "ĠÐ·Ð°Ð´ÑĥÐ¼": 3240,
      "Ð°Ð²Ð¸Ñģ": 3241,
      "ĠÐ¼Ð¸": 3242,
      "ÑĢÐµÑģÑģ": 3243,
      "ĠÑĤÐ°Ð±": 3244,
      "ĠÑĢÐµÐ·ÐºÐ¾": 3245,
      "ĠÑģÑĤÑĢÐ°ÑĪ": 3246,
      "ĠÐ³Ð¾Ð´Ñĭ": 3247,
      "ĠÑģÑĬ": 3248,
      "Ð¸Ð¼Ð¾ÑģÑĤÑĮ": 3249,
      "Ð½Ð¸ÑĨ": 3250,
      "Ð¾ÐºÑģ": 3251,
      "ĠÐ¾Ð±ÑĥÑĩ": 3252,
      "Ð´ÐµÐ½": 3253,
      "ĠÐ¾ÑĩÐµÑĢÐµÐ´": 3254,
      "Ð¾Ð²ÑĭÐ¹": 3255,
      "Ð°ÑĤÐµÐ¼": 3256,
      "ĠÐ²Ð¾Ð¿ÑĢÐ¾ÑģÑĭ": 3257,
      "ĠÐĵÐµÑĢÐ¼": 3258,
      "Ð°Ð»ÑĮÐ½Ð¾Ð¼": 3259,
      "Ð¸Ð²Ð°ÑĤÑĮÑģÑı": 3260,
      "ĠÐ½Ñĥ": 3261,
      "Ð»ÐµÐ½Ð¸Ð¹": 3262,
      "Ð¸ÑĤÐµÐ»ÑĮÐ½Ð¾Ð³Ð¾": 3263,
      "Ð¼Ð¸Ð½Ð¸": 3264,
      "ÐŀÐ´": 3265,
      "ĠÐ»Ð¾Ð¶": 3266,
      "ĠÐ¡Ð¾": 3267,
      "ĠÐ±Ð¾ÐµÐ²": 3268,
      "ĠÐ¸Ð½ÑĦ": 3269,
      "ÐºÐ°Ð½": 3270,
      "ĠÐ³ÑĢÐ°Ð½Ð¸": 3271,
      "Ð¾Ð·Ð²": 3272,
      "ĠÐ¼Ð¾Ñī": 3273,
      "ĠÐºÐ¾Ð¼Ð°Ð½": 3274,
      "ÑĤÑĥÑĢ": 3275,
      "ĠÑģÑĤÐ°Ð½Ð¾Ð²Ð¸ÑĤÑģÑı": 3276,
      "ĠÐ¼ÑĥÐ¶ÑĩÐ¸Ð½Ð°": 3277,
      "ĠÐ±ÑĥÐ¼": 3278,
      "ÑĥÐ¹ÑĤÐµ": 3279,
      "Ð¿Ð¾Ð»Ð½Ðµ": 3280,
      "14": 3281,
      "ĠÐ²ÐµÑĢÐ¾ÑıÑĤ": 3282,
      "ĠÐ¸Ð½ÑĦÐ¾ÑĢÐ¼Ð°ÑĨÐ¸Ð¸": 3283,
      "ĠÑĢÐ°Ð·ÑĢÐµÑĪ": 3284,
      "ĠÐ¸Ð¼ÐµÑĤÑĮ": 3285,
      "ĠÐ¾Ð·Ð½Ð°Ñĩ": 3286,
      "ĠÑĤÐ¸ÑħÐ¾": 3287,
      "ĠÐºÐ¾Ð¿": 3288,
      "ĠÑĢÐ°ÑģÑģÐ¼Ð°ÑĤÑĢ": 3289,
      "ÐŁÐ¾Ð´": 3290,
      "ĠÐ·Ð½Ð°ÑĤÑĮ": 3291,
      "Ð¾Ð¼ÐµÐ½": 3292,
      "ĠÐ¿Ð¾ÑģÑĤÑĢÐ¾": 3293,
      "Ð¸Ð¶Ñĥ": 3294,
      "ĠÐºÐ»ÑİÑĩ": 3295,
      "Ð°Ð½Ð°Ð²Ð»Ð¸Ð²": 3296,
      "ĠÐ±ÑĭÐ²": 3297,
      "ĠÐĴÐµÐ»Ð¸Ðº": 3298,
      "ÐµÐ½Ð½Ð¾ÑģÑĤÑĮ": 3299,
      "ation": 3300,
      "ĠÐĹÐ°Ð¿": 3301,
      "ĠÑģÐ´": 3302,
      "ĠÐ¿Ð¾ÑĩÑĥÐ²ÑģÑĤÐ²": 3303,
      "ÑĨÑĥÐ·": 3304,
      "Ð»ÑıÑı": 3305,
      "13": 3306,
      "ĠÑĤÐµÐ¼Ð¿ÐµÑĢ": 3307,
      "ÐµÐ¹ÑĤ": 3308,
      "ĠÐ¸ÑģÑģÐ»ÐµÐ´Ð¾Ð²Ð°Ð½Ð¸Ñı": 3309,
      "ĠÐ±Ð»Ð°Ð³Ð¾": 3310,
      "ĠÐĿÐ°Ð´": 3311,
      "ĠÑĤÐµÑħÐ½": 3312,
      "ÑĢÐ¸Ð¸": 3313,
      "ĠÐ½Ð°Ð¿ÑĢÑıÐ¶": 3314,
      "Ð»ÑıÐµÑĤÑģÑı": 3315,
      "ĠÑĥÐ»ÑĭÐ±Ð½ÑĥÐ»ÑģÑı": 3316,
      "Ð¼Ð°ÑĤ": 3317,
      "ĠÑģÐ¼ÐµÑĪ": 3318,
      "ĠÐ¿Ð¾ÐºÑĥÐ¿": 3319,
      "Ð»ÐµÐ½Ð½ÑĭÐµ": 3320,
      "ÑĩÐµÑĤ": 3321,
      "ÑĪÑĤ": 3322,
      "ĠÐ¿ÑĢÐ¾ÑģÑĤÑĢÐ°Ð½": 3323,
      "ĠÑģÑĤÐ°ÑĤ": 3324,
      "ÐµÐ½Ð¸ÑıÑħ": 3325,
      "ĠÐºÐ»ÐµÑĤ": 3326,
      "ĠÐ¿ÑĢÐ¸Ð½Ð°Ð´Ð»ÐµÐ¶": 3327,
      "ÐŀÐ½Ð°": 3328,
      "ÑģÑĤÐ²ÐµÐ½Ð½ÑĭÐµ": 3329,
      "ĠÑĢÑĥÐºÐ°Ñħ": 3330,
      "ĠÐ¿Ð¾ÑģÑĤÐ¾ÑıÐ½Ð½Ð¾": 3331,
      "ĠÐ²ÑĢÐµÐ¼ÐµÐ½": 3332,
      "ĠÐľÐ¾Ð¶ÐµÑĤ": 3333,
      "ĠÐ¿Ð»Ð°ÑĤ": 3334,
      "ĠÐ¿ÑĢÐ°Ð²Ð´Ð°": 3335,
      "ĠÐ¿Ð¾Ð¼Ð¾ÑīÐ¸": 3336,
      "ÑĳÑĤÑģÑı": 3337,
      "Ð°ÑĤÐ¾ÑĢ": 3338,
      "ĠÑĤÐµÑģÑĤ": 3339,
      "ĠÐºÐ¾ÑĢÐ°Ð±": 3340,
      "ĠÐ·ÑĥÐ±": 3341,
      "ĠÐ²ÑĭÐ²Ð¾Ð´": 3342,
      "ĠÐĲÐ»ÐµÐºÑģÐ°Ð½Ð´": 3343,
      "ÐµÐ½Ð¸ÑĢÐ¾Ð²": 3344,
      "Ð°Ð½Ð³": 3345,
      "ĠÐ¿ÑĢÐ¾Ð¸ÑģÑħÐ¾Ð´": 3346,
      "ĠÐ¿ÑĢÐµÑģÑĤÑĥÐ¿": 3347,
      "ĠÐ²Ð¾ÑģÑĤ": 3348,
      "ÐĺÐ½": 3349,
      "ht": 3350,
      "ÑĭÐ»Ð°": 3351,
      "ĠÐ´ÑĢÐµÐ²": 3352,
      "Ð¾Ð¹ÑĤÐ¸": 3353,
      "ĠÑģÑĤÑĢÐ°Ð½Ð¸": 3354,
      "ĠÐ¿ÐµÑĢÐµÐº": 3355,
      "ĠÐ¿ÑĢÐ¸Ð»Ð¾Ð¶": 3356,
      "ÐºÑĥÑİ": 3357,
      "ÑĩÐ°ÑģÑĤ": 3358,
      "ĠÐºÐ¸Ñģ": 3359,
      "Ð¸Ð²Ð°Ð½Ð¸Ñı": 3360,
      "ĠÐ´ÐµÐ½": 3361,
      "ĠÐ¿Ð¾Ð´Ð½ÑıÐ»": 3362,
      "ĠÐ¿ÐµÑĢÐ²Ð¾Ð¹": 3363,
      "ÑĢÑĥÑĤ": 3364,
      "ĠÐ¿ÐµÑĢÐµÐ¶": 3365,
      "ĠÐ¿Ð¸ÑĪ": 3366,
      "Ð»ÐµÐ½Ð¸Ñİ": 3367,
      "ĠÑĩÐ¸ÑģÐ»Ðµ": 3368,
      "ÐµÐ¶Ð°ÑĤÑĮ": 3369,
      "os": 3370,
      "ĠÐ³Ð¾ÑģÑĤ": 3371,
      "Ð³Ð¾ÑĢ": 3372,
      "ÑĢÐµÐ¶Ð´": 3373,
      "ĠÐ¿Ð¾Ð´Ð½Ð¸Ð¼": 3374,
      "Ġ198": 3375,
      "Ð¾Ð»Ð°": 3376,
      "ĠÐ¿ÑĢÐ°ÐºÑĤÐ¸ÑĩÐµÑģÐºÐ¸": 3377,
      "ĠÑĥÐ³ÑĢ": 3378,
      "ĠÐ¢Ð¾Ð³Ð´Ð°": 3379,
      "Ġ25": 3380,
      "Ð¿Ð¸Ð¾Ð½": 3381,
      "ĠÑģÑĥÐ±": 3382,
      "ĠÐ±ÐµÐ³": 3383,
      "ĠÐ¾Ð´Ð½Ð¾Ð¼": 3384,
      "ĠÐ°Ð½Ð°Ð»Ð¸Ð·": 3385,
      "ĠÐ¾ÑĩÐµÑĢ": 3386,
      "ĠÐ¾ÑĤÐ¼ÐµÑĤ": 3387,
      "ĠÐ³Ð¾ÑĢÑı": 3388,
      "ĠÑĦÑĥÑĤ": 3389,
      "ĠÐ¼ÐµÐ¶Ð´ÑĥÐ½Ð°ÑĢÐ¾Ð´": 3390,
      "Ð¸ÑĩÐµÑģÐºÑĥÑİ": 3391,
      "ĠÐĹÐ´": 3392,
      "ĠÐ°Ð½Ð³Ð»Ð¸Ð¹": 3393,
      "ĠÑĤÐ¾ÑĢÐ³Ð¾Ð²": 3394,
      "ÑģÐºÐ¾Ð¼Ñĥ": 3395,
      "ĠÑĩÐµÐ»Ð¾Ð²ÐµÑĩÐµÑģÐº": 3396,
      "ĠÐ²ÑĭÐ±Ð¾ÑĢ": 3397,
      "ĠÐ¿Ð¾ÑģÐ»ÐµÐ´Ð¾Ð²": 3398,
      "Ð½Ð¸ÑĩÑĤÐ¾Ð¶": 3399,
      "ÑĨÐ¾Ð²": 3400,
      "ĠÐ²Ð°ÑĢÐ¸Ð°Ð½ÑĤ": 3401,
      "Ð´ÐµÑĢ": 3402,
      "ĠÑģÑĩÐµÑĤ": 3403,
      "Ð°ÑĢÐº": 3404,
      "Ð¾ÑģÑģÐ¸Ð¹": 3405,
      "ĠÐ´ÐµÑģÑıÑĤ": 3406,
      "Ð¸ÑĩÐ½Ð¾": 3407,
      "Ð¾ÑĢÐ¾ÑĪÐ¾": 3408,
      "ĠÑĥÑħÐ¾Ð´": 3409,
      "ĠÑĥÑģÐ¸Ð»Ð¸": 3410,
      "ĠÐ²ÐµÑīÐ¸": 3411,
      "Ġth": 3412,
      "ĠÑĢÐµÑĪÐµÐ½Ð¸Ðµ": 3413,
      "Ð±Ð»": 3414,
      "ĠJ": 3415,
      "ĠÐ²Ð·Ð³Ð»ÑıÐ´Ð¾Ð¼": 3416,
      "Ð¸Ð»Ñı": 3417,
      "ĠÐºÐ¾ÑĪ": 3418,
      "Ð¸ÐºÐ¾Ð¼": 3419,
      "ĠÑħÐ¾ÑĤÐµÐ»Ð¾ÑģÑĮ": 3420,
      "ĠÑĤÑıÐ¶ÐµÐ»": 3421,
      "ĠÐ³ÑĥÐ±Ñĭ": 3422,
      "ĠÑĨÐµÐ½ÑĤÑĢ": 3423,
      "Ð±Ð¸": 3424,
      "ĠÐ¸ÑģÑĩÐµÐ·": 3425,
      "ĠÐ²ÐµÐºÐ°": 3426,
      "ĠÐŃÑĤÐ¾ÑĤ": 3427,
      "ĠÐ¾Ð²": 3428,
      "Ð°ÑĢÑĭ": 3429,
      "].": 3430,
      "um": 3431,
      "ĠÐ´ÐµÐ²ÑĥÑĪÐºÐ¸": 3432,
      "ÑģÐ¾Ð»ÑİÑĤ": 3433,
      "ĠÐ½ÐµÑģÐºÐ¾Ð»ÑĮÐºÐ¸Ñħ": 3434,
      "ĠÑģÑĤÑĥÐ´": 3435,
      "ĠÑĢÐ°Ð·Ð»Ð¸ÑĩÐ½ÑĭÑħ": 3436,
      "ĠÑģÐ¸Ð¼Ð¿": 3437,
      "Ð¾ÑĩÐºÑĥ": 3438,
      "ĠÑģÐ¿ÑĥÑģÑĤ": 3439,
      "ĠÐ¿ÑĢÐ°Ð²Ð¾": 3440,
      "ĠÐ¶Ð°Ð»": 3441,
      "ÑĩÐ¸Ñģ": 3442,
      "ĠÐ°Ð²ÑĤÐ¾Ð¼Ð¾Ð±": 3443,
      "ĠÐ³Ð°ÑĢ": 3444,
      "ĠÑĢÐ¸Ñģ": 3445,
      "ÑĦÐµÑĢ": 3446,
      "Ð¾Ð»Ð¾Ñģ": 3447,
      "Ð»ÐµÐ½Ð½ÑĭÑħ": 3448,
      "ĠÑģÐºÐ¾ÑĢÐµÐµ": 3449,
      "ul": 3450,
      "ÐµÐ½Ð½Ð¾Ð¼": 3451,
      "Ð¸ÑĤÐµÐ»ÑĮÐ½Ð¾Ðµ": 3452,
      "ĠÑĤÑĢÐµÑħ": 3453,
      "ĠÑıÑģ": 3454,
      "ĠÐ¿Ð¾Ð¼ÐµÑī": 3455,
      "ĠÐ½ÐµÐºÐ¾ÑĤÐ¾ÑĢÑĭÑħ": 3456,
      "Ð¸Ð½ÑĤÐµÑĢÐµÑģ": 3457,
      "ĠÐ²ÐµÑīÐµ": 3458,
      "ĠÑĥÐ´Ð°Ð»Ð¾ÑģÑĮ": 3459,
      "ĠÐ¿Ð»Ð¾Ñī": 3460,
      "ĠÐĲÐ»Ð¸": 3461,
      "ĠÐ¸ÑģÐ¿Ð¾Ð»Ð½": 3462,
      "ÑģÐ»Ð°Ð±": 3463,
      "ĠÐ´ÐµÐ»Ð°": 3464,
      "Ġg": 3465,
      "ÐºÐ¸Ð½": 3466,
      "Ð¸Ð·Ð¼": 3467,
      "ĠÐļÑĢÐ¾Ð¼Ðµ": 3468,
      "Ð²Ð°ÑĤÑĮ": 3469,
      "ÐºÑĢÐµÑĤ": 3470,
      "ĠÐ¶Ð¸ÑĤÑĮ": 3471,
      "ÑĥÑİÑīÐ¸Ñħ": 3472,
      "ĠÑĢÐ¾Ð¼": 3473,
      "ĠÐ¢ÐµÐ¼": 3474,
      "ĠÐ½ÐµÐ¿ÑĢ": 3475,
      "ĠÐ½Ð°Ð½": 3476,
      "ĠÑĢÑĥÐºÐ°Ð¼Ð¸": 3477,
      "ĠÐ¼Ð³Ð½Ð¾Ð²": 3478,
      "ĠÑģÐ¾Ð±ÑĢ": 3479,
      "ĠÐĲÐ»ÑĮ": 3480,
      "ĠÐ´Ð²ÐµÑĢÐ¸": 3481,
      "ĠÑĤÐµÐ»ÐµÑĦÐ¾Ð½": 3482,
      "ĠÐ¿Ð°Ð¼ÑıÑĤ": 3483,
      "ĠÐ·Ð°ÐºÑĢ": 3484,
      "ÑģÐºÐ¸Ð¼Ð¸": 3485,
      "ĠÑĩÑĤ": 3486,
      "ĠÐ¿Ð¾ÑģÐ¼Ð¾ÑĤÑĢÐµÐ»": 3487,
      "ĠÐ¿ÐµÑĢÑģÐ¾Ð½": 3488,
      "ĠÐ¿Ð¾ÑıÐ²Ð»Ñı": 3489,
      "ĠÐ½Ð°ÑģÑĤÑĢÐ¾": 3490,
      "ĠÑģÐ°Ð¼Ð¸": 3491,
      "ĠÑĤÑĥÐ´Ð°": 3492,
      "Ð³ÑĥÑģÑĤ": 3493,
      "ĠÑĥÑģÐ¼": 3494,
      "Ð»ÑĥÑĩÑĪ": 3495,
      "Ð¸Ð¼Ð°": 3496,
      "Ð¸Ð±Ð»Ð¸": 3497,
      "Ð±ÐµÑĢ": 3498,
      "ĠÑĦÐ¾ÑĤÐ¾Ð³ÑĢÐ°ÑĦ": 3499,
      "ÑıÑĩ": 3500,
      "ĠÐŀÑĢ": 3501,
      "ĠÐŁÑĢÐ¾": 3502,
      "Ð°ÑĤÐ¾Ð¼": 3503,
      "ĠÐ¾ÑĦÐ¸ÑĨÐ¸": 3504,
      "ĠÐ´ÐµÐ»Ð°ÐµÑĤ": 3505,
      "ĠÐµÐ´Ð²Ð°": 3506,
      "Ð½Ð¸ÐºÐ°Ð¼Ð¸": 3507,
      "ÑĢÐ¸Ð´": 3508,
      "ĠÑĦÐ¸Ð½Ð°Ð½Ñģ": 3509,
      "ĠÐĶÐµÐ²": 3510,
      "Ð»ÐµÐ²": 3511,
      "ĠÐ²Ð¿Ð¾Ð»Ð½Ðµ": 3512,
      "ÑİÑīÐ¸Ñħ": 3513,
      "ĠÐ¿Ð¾ÑĢÐ°Ð¶": 3514,
      "Ð¾ÑĤÑĥ": 3515,
      "Ð°ÑĨÐ¸ÐµÐ¹": 3516,
      "Ð½Ð°ÑĩÐµ": 3517,
      "Ð¸Ð²Ð°Ð»Ð¸": 3518,
      "ĠÐ²Ð¾Ð·Ð¼Ð¾Ð¶Ð½Ð¾ÑģÑĤÐ¸": 3519,
      "ĠÐ´Ð²Ð¾ÑĢ": 3520,
      "ĠÐ²Ð¾ÑĪ": 3521,
      "ĠÐ´ÑĢÑĥÐ³Ð¾Ð¼": 3522,
      "ĠÐºÐ¾Ð½ÑģÑĤ": 3523,
      "ĠÐ»Ð¸ÑĤÐµÑĢ": 3524,
      "ĠÐ¶ÐµÐ»ÐµÐ·": 3525,
      "Ð½Ð¸ÑĨÑĥ": 3526,
      "ÑĦÐµ": 3527,
      "Ð»ÐµÑĩ": 3528,
      "ĠÑĤÑĢÐµÑĤÑĮ": 3529,
      "Ð¼ÑĥÑĢ": 3530,
      "ĠÐ»ÑİÐ±Ð¾Ð¹": 3531,
      "ĠÑĢÐµÐ¿": 3532,
      "ĠÐ¼Ð¾ÐµÐ³Ð¾": 3533,
      "ÑİÐ·": 3534,
      "ÑģÑĤÐ²ÐµÐ½Ð½Ð¾Ðµ": 3535,
      "ĠÑĢÐ°Ð±Ð¾ÑĤÐ°ÑĤÑĮ": 3536,
      "ĠÐ´ÐµÐ½ÑĮÐ³Ð¸": 3537,
      "ĠÐ´ÐµÑıÑĤÐµÐ»ÑĮÐ½Ð¾ÑģÑĤÐ¸": 3538,
      "Ð½ÐµÐ½Ð¸Ðµ": 3539,
      "30": 3540,
      "Ð½ÐµÑģ": 3541,
      "ĠÐ¿ÑĢÐ¾Ð¸Ð·Ð½ÐµÑģ": 3542,
      "ĠÑģÑĥÐ¿": 3543,
      "ÑĭÐº": 3544,
      "ĠÐ±ÑĭÐ²ÑĪ": 3545,
      "Ð»Ð°Ð·": 3546,
      "ÑĤÑĢÐ°": 3547,
      "Ð¡Ð¿": 3548,
      "ĠÐ½Ð°ÑģÑĤÐ¾Ð»ÑĮÐºÐ¾": 3549,
      "ĠÐ¿Ð¾Ð»ÑĥÑĩÐ¸Ð»": 3550,
      "ĠÑĥÑģÐ¿ÐµÑħ": 3551,
      "ĠÐ½Ð°ÑģÑĤÑĥÐ¿": 3552,
      "ÑĢÐ¸Ð³": 3553,
      "ĠÑĥÐ½Ð¸ÑĩÑĤÐ¾Ð¶": 3554,
      "Ð¾Ð²Ð°Ñı": 3555,
      "ĠÐ¢Ð¾": 3556,
      "Ð½Ð¸ÑĤÐµ": 3557,
      "Ð¾Ð³Ðµ": 3558,
      "ĠÐºÑĥÑħ": 3559,
      "ĠÐ½Ð¾Ð²ÑĭÐ¹": 3560,
      "ÑĥÐºÐ°": 3561,
      "ĠÐ¾ÑĢÐ³Ð°Ð½Ð¸Ð·Ð°ÑĨÐ¸Ð¸": 3562,
      "ĠÐ½Ð¾Ð²ÑĭÐµ": 3563,
      "ÑĢÐ¾Ð´Ðµ": 3564,
      "ĠÑģÐ¸Ð»Ñĥ": 3565,
      "ÑĳÐ·": 3566,
      "ĠÐ¿ÑĢÐ¾Ð¸Ð·Ð²ÐµÐ´": 3567,
      "Ð²ÐµÑĢÐ³": 3568,
      "ĠÐĶÐ°Ð¶Ðµ": 3569,
      "ĠÑĢÐ°Ð·Ð½ÑĭÑħ": 3570,
      "Ġy": 3571,
      "ĠK": 3572,
      "Ð¼Ð¿": 3573,
      "ĠÐĵÑĢ": 3574,
      "Ð°ÑīÐµ": 3575,
      "Ð¸ÑĢÐ¾Ð²Ð°Ð»": 3576,
      "ĠÐ£ÐºÑĢÐ°": 3577,
      "ĠÐ´Ð¾Ð»Ð»": 3578,
      "ĠÐ±Ð¸": 3579,
      "Ð°Ð²ÑĪÐ¸ÑģÑĮ": 3580,
      "ĠÐŁÐµÑĢ": 3581,
      "ĠÐ´ÑĢÑĥÐ·ÑĮÑı": 3582,
      "ĠÐ¾ÑĤÐµÑĨ": 3583,
      "Ð¾ÑĨÐ¸": 3584,
      "ĠÐ¿ÑĢÐµÐ´Ð¿Ð¾Ñĩ": 3585,
      "ĠÐ³ÐµÐ½ÐµÑĢ": 3586,
      "ĠÑħÐ¾ÑĤÐµÐ»Ð°": 3587,
      "ÐĶÐ¶": 3588,
      "ĠÐ¿ÑĢÐ¸ÑĤ": 3589,
      "ĠÐ·Ð°ÑģÑĤ": 3590,
      "Ġ11": 3591,
      "ĠÑģÐ»ÐµÐ´Ð¾Ð²": 3592,
      "ĠÐĳÐµÐ»": 3593,
      "ĠÐ¿ÑĢÐ¸Ð³Ð¾ÑĤÐ¾Ð²": 3594,
      "ÐĴÑģÐµ": 3595,
      "ÑĮÐ¼Ð¸": 3596,
      "Ð¾Ð¶Ð½Ð¾": 3597,
      "ĠÐµÑģÑĤÐµ": 3598,
      "....": 3599,
      "Ð¸ÑĤÐ°Ð¹": 3600,
      "Ð¸ÐµÑģÑı": 3601,
      "ÑıÐµÑĤÑģÑı": 3602,
      "ĠÐ²Ð¸Ð´ÐµÑĤÑĮ": 3603,
      "ĠÐ½Ð°Ð¹Ð´": 3604,
      "Ð½Ð¾Ð¿": 3605,
      "ĠÑĦÐ¸Ð»ÑĮÐ¼": 3606,
      "ĠÐºÐ¾Ð½ÐºÑĢÐµÑĤ": 3607,
      "ru": 3608,
      "ĠÐ¿ÑĢÐ¸Ð¶": 3609,
      "ÐºÑĥÐ´Ð°": 3610,
      "ĠÐ¾ÑĩÐµÑĢÐµÐ´ÑĮ": 3611,
      "ÑĭÑģ": 3612,
      "ĠÑģÐ½Ð¸Ð¶": 3613,
      "ĠÐ²Ð¾ÑģÑģÑĤÐ°Ð½Ð¾Ð²": 3614,
      "ÑįÐº": 3615,
      "ĠÑģÑĢÐµÐ´ÑģÑĤÐ²": 3616,
      "ĠÑģÐ»ÐµÐ·": 3617,
      "ÑħÐ°": 3618,
      "ĠÐ·Ð½Ð°ÑĩÐµÐ½Ð¸Ðµ": 3619,
      "ĠÐ¿Ð¾Ð·Ð²Ð¾Ð»ÑıÐµÑĤ": 3620,
      "ĠÐºÐ°Ð·Ð°Ð»Ð¾ÑģÑĮ": 3621,
      "av": 3622,
      "ĠÑģÐ¿ÑĢÐ¾ÑģÐ¸Ð»Ð°": 3623,
      "ĠÐ¿ÑĢÐ¾Ð³ÑĢÐ°Ð¼Ð¼": 3624,
      "ĠÑģÐ¸Ñħ": 3625,
      "ĠÑĥÐ»ÑĥÑĩÑĪ": 3626,
      "ÑĥÐ»Ð¸ÑĢÐ¾Ð²": 3627,
      "ĠÐ³Ð»ÑĥÐ¿": 3628,
      "ĠÐ¿ÑĢÐ¸ÑĪÐ»Ð¾ÑģÑĮ": 3629,
      "Ð¾Ð·Ð½Ð°Ñĩ": 3630,
      "ÐµÐ·Ð¶": 3631,
      "ÑģÐºÐ¾Ð»ÑĮÐºÐ¾": 3632,
      "ĠÐ¼Ð»": 3633,
      "ĠÐºÑĢÐµÑģÑĤ": 3634,
      "ĠÐ»Ð¸Ð´": 3635,
      "ĠÑģÐ°Ð´": 3636,
      "Ð¾Ð¸ÑĤ": 3637,
      "Ð°Ð´Ð½Ð¾": 3638,
      "ĠÐŁÑĢÐµÐ´": 3639,
      "ĠÐ½Ð°ÑĩÐ°Ð»Ðµ": 3640,
      "ĠÐ²ÐºÑĥÑģ": 3641,
      "ĠÐ¾Ð±Ð¾": 3642,
      "ÐµÐ·Ð°Ð¿": 3643,
      "ĠÐļÑĤÐ¾": 3644,
      "ĠÐ´Ð¾Ð»Ð³": 3645,
      "Ð¾Ð·Ð°": 3646,
      "ĠÐ´Ð²Ð¸Ð¶ÐµÐ½Ð¸Ñı": 3647,
      "Ð»ÑİÐ±": 3648,
      "ĠÑģÑħ": 3649,
      "ĠÐ½ÐµÐ¾Ð¶Ð¸Ð´": 3650,
      "Ð¾ÑĢÐ³": 3651,
      "ĠÑģÑĤÑĢÐ°Ð´": 3652,
      "ĠÑĥÐ²Ð¸Ð´ÐµÑĤÑĮ": 3653,
      "ĠÑįÑĤÐ°Ð¿": 3654,
      "ÐµÑĩÐµ": 3655,
      "Ð»Ð°Ð½": 3656,
      "ĠÐ¾ÑĤÐ¼ÐµÑĩ": 3657,
      "ĠÐ½Ð°ÑĪÐ¸": 3658,
      "Ð¸Ð»Ð¾Ñģ": 3659,
      "ÑĥÑİÑĤÑģÑı": 3660,
      "ÐµÐ½ÑĮÑĪ": 3661,
      "Ð¾ÑĩÐ½Ð¾": 3662,
      "ĠÑĥÑĢÐ¾Ð²ÐµÐ½ÑĮ": 3663,
      "ÑĢÑĥÐµÑĤ": 3664,
      "ĠÐ¿ÐµÑĢÐµÑħÐ¾Ð´": 3665,
      "Ð¸ÑĨÐ¸Ð¾Ð½": 3666,
      "ĠÐ³Ð»Ð°Ð·Ð°Ñħ": 3667,
      "Ð»ÐµÑĢ": 3668,
      "ĠÑģÐµÐ½ÑĤ": 3669,
      "ĠÐ²ÐµÑģÑĮÐ¼Ð°": 3670,
      "ĠÐ¾ÐºÐ°Ð·ÑĭÐ²": 3671,
      "ĠÐ¼Ð¸Ðº": 3672,
      "ÐºÐ½ÑĥÐ»": 3673,
      "ÐµÑģÐ¿ÑĥÐ±Ð»Ð¸": 3674,
      "ĠÐ¿ÑĥÑĤÑĮ": 3675,
      "ÑįÑĢ": 3676,
      "Ð«": 3677,
      "ĠÑģÑĤÐµÐ¿ÐµÐ½Ð¸": 3678,
      "ĠÐºÐ²Ð°ÑĢÑĤ": 3679,
      "Ð°Ð¶Ð´Ñĭ": 3680,
      "ĠÑĩÑĥÐ´": 3681,
      "Ð¬": 3682,
      "ĠÐĺÐ»Ð¸": 3683,
      "ĠÑĤÑĢÐµÐ½Ð¸ÑĢÐ¾Ð²": 3684,
      "ĠÐ²Ð°Ð¶Ð½Ð¾": 3685,
      "ĠÑģÐ¿ÑĢÐ°ÑĪ": 3686,
      "ĠÐ¼Ð¸Ð½Ð¸": 3687,
      "ĠÐ¾Ð¿ÑĥÑģÑĤ": 3688,
      "ÑĥÐ¹ÑģÑĤÐ°": 3689,
      "ĠÐ¿ÑĢÐ¾ÑĪÐ»": 3690,
      "ĠÑıÐ²Ð½Ð¾": 3691,
      "Ð½Ð¸ÐºÑĥ": 3692,
      "ĠÐ½ÐµÐ¼ÐµÑĨ": 3693,
      "ĠÐ²ÐµÑĩÐµÑĢ": 3694,
      "ĠÐ¸Ð³ÑĢÑĭ": 3695,
      "ĠÑģÐ»ÑĥÑĩÐ°Ñı": 3696,
      "ĠÐºÐ¾ÑĢÐ¿": 3697,
      "Ð°Ð±Ð°ÑĤ": 3698,
      "Ð»Ð¾ÑĢ": 3699,
      "Ð°Ð½Ð½Ð°Ñı": 3700,
      "ĠÐľÐ°Ðº": 3701,
      "ĠÐºÐ»ÑĥÐ±": 3702,
      "ie": 3703,
      "Ġe": 3704,
      "ap": 3705,
      "ÐµÑĢÐ¾": 3706,
      "ÑģÑĤÐ²ÐµÐ½Ð½ÑĭÐ¼": 3707,
      "ĠÑħÑĢÐ°Ð½": 3708,
      "Ð½Ð¾Ð²ÑĢÐµÐ¼ÐµÐ½Ð½Ð¾": 3709,
      "ÑĨÐ¸ÐµÐ¹": 3710,
      "ĠÐ¸Ð½ÑģÑĤÑĢÑĥ": 3711,
      "ÑĢÑıÐ·": 3712,
      "ĠÐ´ÑĭÑħ": 3713,
      "ĠÐĶÐ¶ÐµÐ¹": 3714,
      "ĠÑģÐ¾ÑģÑĤÐ¾ÑıÐ½Ð¸Ð¸": 3715,
      "ĠÐ´ÑĢÑĥÐ³Ð¸Ð¼": 3716,
      "ind": 3717,
      "ĠÐºÐ¾Ð½Ñģ": 3718,
      "ÐµÐºÐ¸": 3719,
      "ĠÐ²ÐµÑĢÑģ": 3720,
      "oc": 3721,
      "ĠÑģÐ²Ð¾ÐµÐ¼Ñĥ": 3722,
      "ĠÐ²Ð¼ÐµÑģÑĤÐ¾": 3723,
      "Ð¹ÑĤÐ¸": 3724,
      ");": 3725,
      "ĠÐ½Ð¸Ð¶Ðµ": 3726,
      "ĠÐºÐ°Ð¶Ð´Ð¾Ð³Ð¾": 3727,
      "ĠÑĪÐ¸ÑĢÐ¾Ðº": 3728,
      "ÑĥÑİÑīÐ¸Ðµ": 3729,
      "ĠÑģÑĥ": 3730,
      "ĠÑģÑħÐ²Ð°ÑĤ": 3731,
      "ĠÐĴÐ°ÑĪ": 3732,
      "ĠÐļÐ¾Ð½ÐµÑĩÐ½Ð¾": 3733,
      "ÐµÐ²Ð¸Ñĩ": 3734,
      "ĠÐºÐ°ÐºÐ¸Ð¼": 3735,
      "ĠÐ¿Ð¾Ð¿ÑĥÐ»ÑıÑĢ": 3736,
      "Ġ100": 3737,
      "Ð¡Ð¡Ðł": 3738,
      "ĠÐ¼ÐµÑĪ": 3739,
      "ĠÐ¿ÑĢÐ¾ÑĢ": 3740,
      "ÑģÑĤÐ°ÑĤÐ¸": 3741,
      "ĠÐ·ÑĢÐµÐ½Ð¸Ñı": 3742,
      "ĠÑģÐ¸ÑĤÑĥÐ°ÑĨÐ¸Ð¸": 3743,
      "ĠÐ°Ð±ÑģÐ¾Ð»ÑİÑĤ": 3744,
      "ĠÐ¾ÑģÐ½Ð¾Ð²Ðµ": 3745,
      "Ð¢Ñĭ": 3746,
      "ĠÐ¾Ð¿ÑĢÐµÐ´ÐµÐ»Ñı": 3747,
      "ĠÐ±Ð¾Ðº": 3748,
      "Ġ197": 3749,
      "ĠÑĥÐ±Ð¸Ð¹": 3750,
      "ĠÐ¿ÐµÑĢÐµÐ½": 3751,
      "ĠÐ¼Ð¾Ñİ": 3752,
      "ĠÐ¾Ð±ÑĬÑıÐ²": 3753,
      "Ð¾Ð¼ÐµÑĤ": 3754,
      "ÐµÐºÑĤÐ¾ÑĢ": 3755,
      "ĠÐ½Ð°ÑĤ": 3756,
      "Ð°Ð»Ð»": 3757,
      "ĠÐ¿ÑĢÐ¾Ð¸Ð·Ð¾ÑĪÐ»Ð¾": 3758,
      "Ð¸ÑĢÐ¾Ð²Ð°Ð½Ð¸Ðµ": 3759,
      "Ð½ÑĥÐ»Ð¸": 3760,
      "ÐµÐ´ÐµÑĢ": 3761,
      "ĠÑĢÐ°Ð±Ð¾ÑĤÐµ": 3762,
      "50": 3763,
      "ĠÐ¿Ð°ÑĨÐ¸": 3764,
      "ĠÐ½Ð¾ÑĩÑĮ": 3765,
      "ĠÐ²Ð¾ÑģÐº": 3766,
      "ĠÐ¿Ð¾Ð´ÑĢÑĥÐ³": 3767,
      "ĠÐ¡Ð¼": 3768,
      "ĠÑģÑĩÐ°ÑģÑĤÐ»Ð¸Ð²": 3769,
      "ĠÐºÐ°ÐºÐ¾Ðµ": 3770,
      "ĠÐ±ÑĥÑĢ": 3771,
      "ĠÐ¢Ð°Ð¼": 3772,
      "ĠÐ¿ÐµÑĢÐµÐ³": 3773,
      "ÑģÑĤÑĢÐ°Ð½": 3774,
      "ĠÐ¿Ð¾Ð¼Ð¾ÑīÑĮ": 3775,
      "ĠÐ²Ð·ÑıÐ»": 3776,
      "ÑĩÐ°ÑĤ": 3777,
      "ÑĢÐµÐ¼Ñı": 3778,
      "Ð¸Ð»Ð¾ÑģÐ¾ÑĦ": 3779,
      "ĠÐ¿Ð»Ð¾ÑĤ": 3780,
      "ĠÑĤÐ¾ÑĩÐºÐ¸": 3781,
      "ĠÐ³ÑĢÑĥÐ´Ð¸": 3782,
      "ÑıÑİÑĤ": 3783,
      "Ð»ÐµÐ½Ð¾": 3784,
      "ĠÐ±ÑĥÐºÐ²": 3785,
      "ĠÑĥÐ²Ð¸Ð´ÐµÐ»": 3786,
      "ĠÐ´ÑĥÐ¼Ð°Ð»": 3787,
      "ÐµÑĤÐµÐ»ÑĮ": 3788,
      "ĠÐ¸Ð´ÐµÑĤ": 3789,
      "ĠÑĤÐµÑĢÑĢÐ¸ÑĤÐ¾ÑĢÐ¸Ð¸": 3790,
      "ĠÐ·Ð°Ñħ": 3791,
      "ĠÑĢÐ°ÑģÑĪÐ¸ÑĢ": 3792,
      "ÐµÐ¸": 3793,
      "ĠÐ²ÑĭÐ³Ð»ÑıÐ´": 3794,
      "Ð¾ÑĩÐ½Ð¾Ð¹": 3795,
      "ĠÐ·Ð½Ð°ÐµÑĪÑĮ": 3796,
      "ÐĿÑĥ": 3797,
      "ĠÑģÑĨÐµÐ½": 3798,
      "ĠÐŁÐ¾Ð¼": 3799,
      "ĠÑĢÐµÑĩ": 3800,
      "ĠÐ·Ð°Ð¼ÐµÑĤÐ¸Ð»": 3801,
      "Ð½ÐµÐ¼Ñĥ": 3802,
      "ĠÑıÐ½": 3803,
      "ĠÑĥÑĢÐ¾Ð²Ð½Ñı": 3804,
      "ĠÐ·Ð°Ð²ÐµÑĢÑĪ": 3805,
      "ĠÑĦÑĢÐ°Ð½ÑĨÑĥÐ·": 3806,
      "ÑıÐ½ÑĥÐ»": 3807,
      "ĠÐ¿ÑĢÐµÐ´Ð¿ÑĢÐ¸": 3808,
      "ĠÐ±Ð¾Ð»Ð¸": 3809,
      "ÐºÐ¾Ð½": 3810,
      "ĠÐ½Ð°Ð»Ð¸Ñĩ": 3811,
      "Ð¸Ð»ÐµÑĤ": 3812,
      "ĠÐºÐ¾Ð½ÑĨÐ°": 3813,
      "ĠÑģÑİÐ´Ð°": 3814,
      "ĠÐ½Ð°Ð¶": 3815,
      "ĠÐ½Ð°ÑĩÐ°Ð»Ð¸": 3816,
      "ĠÐ¼Ð°Ð³Ð°Ð·": 3817,
      "ĠÐĶÐ¶Ð¾Ð½": 3818,
      "ĠÑģÑģÑĭÐ»": 3819,
      "Ð»ÑıÑİÑĤ": 3820,
      "ĠÑĢÐ°Ð·ÑĢÑĥÑĪ": 3821,
      "Ð¾Ð»Ñĩ": 3822,
      "ĠÐ´Ð¾ÐºÐ°Ð·": 3823,
      "ĠÐľÐ°Ð¹": 3824,
      "Ġ50": 3825,
      "Ð´ÑĥÑī": 3826,
      "ĠÐ·Ð°ÑĪ": 3827,
      "ĠÐ·Ð°ÑīÐ¸ÑĤ": 3828,
      "ÑĨÐµÐ¿": 3829,
      "ĠÑıÐ·ÑĭÐº": 3830,
      "ÑıÑĤÐ¸Ðµ": 3831,
      "Ð¾Ð·Ñĭ": 3832,
      "ĠÐ½Ð¾Ð²ÑĭÑħ": 3833,
      "ĠÑģÐ½Ð¸Ð¼": 3834,
      "Ð°Ð½Ð½Ð¾Ð³Ð¾": 3835,
      "Ð½ÑĥÐ»Ð¸ÑģÑĮ": 3836,
      "ĠÐ¾ÐºÑĤ": 3837,
      "ĠÑĤÐ°Ð¹": 3838,
      "ĠÐĴÐ»Ð°Ð´": 3839,
      "ĠÐ¿ÑĢÐ¸ÑĩÐ¸Ð½": 3840,
      "Ð°ÑģÑĤÑĮ": 3841,
      "ĠÐ¾Ð±ÑĬÐµÐº": 3842,
      "ĠÐ±Ð¸Ð·Ð½ÐµÑģ": 3843,
      "ÐµÐ½Ð·": 3844,
      "ĠÐºÐ°Ð±Ð¸Ð½": 3845,
      "ĠÐ¿ÑĢÐ¸ÐºÐ°Ð·": 3846,
      "ĠÐºÑĢÐ¸ÑĤ": 3847,
      "Ð¾Ð½Ð¸Ð¸": 3848,
      "ÐĲÐ½": 3849,
      "ÑĮÑıÐ½": 3850,
      "ĠÐ±Ð»Ð°Ð³Ð¾Ð´Ð°ÑĢÑı": 3851,
      "Ð°ÑİÑīÐ¸Ð¼": 3852,
      "ĠÑģÐ±Ð¾ÑĢ": 3853,
      "ĠÐ¶ÐµÐ½ÑīÐ¸Ð½Ð°": 3854,
      "ĠÐľÐ°Ð»": 3855,
      "ÑĢÑĥÑĩ": 3856,
      "ĠÐĿÐ°Ð¿ÑĢÐ¸Ð¼ÐµÑĢ": 3857,
      "ĠÐ½ÐµÐ½Ð°Ð²": 3858,
      "ĠÑģÐ¿ÑĢ": 3859,
      "ĠÐ¿ÑĢÐ°Ð·Ð´": 3860,
      "ĠÐĺÑĤ": 3861,
      "ĠÑĢÐµÑģ": 3862,
      "ĠÐ³ÑĢÐ°ÑĦ": 3863,
      "ĠÐ°ÑĤ": 3864,
      "ĠÐ±ÐµÐ·Ð¾Ð¿Ð°ÑģÐ½Ð¾ÑģÑĤÐ¸": 3865,
      "ĠÑĢÐ°Ð¼": 3866,
      "ĠÐ´ÑĢÑĥÐ¶": 3867,
      "ĠÐ´ÑĥÑħÐ¾Ð²": 3868,
      "Ð°Ð¶Ð¸": 3869,
      "ĠÐ±Ð¾Ð¹": 3870,
      "ĠÐ³Ð¾ÑĢÑıÑĩ": 3871,
      "Ð¸ÑĤÐµÐ»ÑĮÐ½ÑĭÐ¼": 3872,
      "Ð²Ð¾ÑģÑĤ": 3873,
      "ĠÑĥÐ¿ÑĢÐ°Ð²Ð»ÐµÐ½Ð¸Ñı": 3874,
      "ĠÐ½ÐµÐ·Ð°Ð²Ð¸Ñģ": 3875,
      "ĠÑģÑĥÐ´ÑĮ": 3876,
      "ÑĢÐ¾Ð¹": 3877,
      "ÑİÑīÐ¸Ð¹": 3878,
      "ĠÐºÐ°Ð¿Ð¸ÑĤ": 3879,
      "ĠÐ°Ð³": 3880,
      "ĠÑĢÐ¾ÑģÑģÐ¸Ð¹": 3881,
      "!\"": 3882,
      "ĠÑħÐ¾ÑĤÐ¸ÑĤÐµ": 3883,
      "ĠÐ¸Ð´ÑĤÐ¸": 3884,
      "ÑĪÐµÐ¼": 3885,
      "ĠÐ»ÐµÐº": 3886,
      "ĠÐĺÑģÐ¿": 3887,
      "ĠÑĨÐ²ÐµÑĤÐ°": 3888,
      "ĠÐ½ÐµÑģÐ¼": 3889,
      "Ð°ÑģÐ¸Ð±Ð¾": 3890,
      "Ð¿ÑĢÐ¾Ñĩ": 3891,
      "ĠÑĩÑĥÐ¶": 3892,
      "ĠÐ±Ð¾": 3893,
      "ĠIn": 3894,
      "ĠÐ¾Ð±Ñģ": 3895,
      "ÑĦÐ¾ÑĢ": 3896,
      "ĠÐ¿Ð¾ÑģÐ»ÐµÐ´Ð½Ð¸Ðµ": 3897,
      "ĠÐ¶ÐµÐ½ÑīÐ¸Ð½": 3898,
      "ĠÑĢÐµÐ²Ð¾Ð»Ñİ": 3899,
      "ĠÐ²ÑĢÐ°Ð³": 3900,
      "ĠÐ±Ð»Ð¾Ðº": 3901,
      "ĠÐ¸ÑģÑħÐ¾Ð´": 3902,
      "ĠÐ¡Ð¡Ð¡Ðł": 3903,
      "ess": 3904,
      "Ð°Ð½Ð½Ð¾Ðµ": 3905,
      "ĠÑĢÐµÑĪÐµÐ½Ð¸Ñı": 3906,
      "Ð»Ð¸Ð¶": 3907,
      "ĠÐ¿Ð»Ð°": 3908,
      "ĠÐ¿ÑĢÐ¸Ð¼ÐµÑĢÐ½Ð¾": 3909,
      "Ġi": 3910,
      "ĠÑģÐ»ÐµÐ³": 3911,
      "Ð¾Ð´Ðµ": 3912,
      "ÑĢÐ¸ÑĨ": 3913,
      "Ð²ÐµÑĢÑħ": 3914,
      "ĠÑĢÑĭÐ½": 3915,
      "Ð°ÑĤÐ¾Ñĩ": 3916,
      "ĠÑģÐ¿Ð¾ÐºÐ¾Ð¹Ð½Ð¾": 3917,
      "ĠÐºÐ¾Ð½ÐºÑĥ": 3918,
      "Ð½Ð°Ð·": 3919,
      "ĠÑģÐ¼Ð¾ÑĤÑĢÐµÐ»": 3920,
      "ĠÐ¼Ð°ÑģÑĤ": 3921,
      "ĠÐ²ÑĭÑĪÐµÐ»": 3922,
      "ĠÐ´ÐµÐ¿": 3923,
      "ĠÑĩÐµÑĤÑĭÑĢÐµ": 3924,
      "Ð¾ÑĢÐ¸": 3925,
      "ÐµÐºÐ°": 3926,
      "ĠÐ¿ÐµÑĢÐ²Ð¾Ð³Ð¾": 3927,
      "ĠÐ·Ð°ÑħÐ²Ð°ÑĤ": 3928,
      "Ð°Ð´ÑĮ": 3929,
      "ÐºÐ°Ðº": 3930,
      "ia": 3931,
      "//": 3932,
      "22": 3933,
      "Ð¾ÑģÐ½Ð¾Ð²": 3934,
      "ĠÐ²Ð¿ÐµÑĢÐ²ÑĭÐµ": 3935,
      "ĠÐĴÐ°Ð¼": 3936,
      "ĠÐ¿Ð¾Ð½Ð¸Ð¼Ð°Ñİ": 3937,
      "ĠÐ¿Ð¾Ð´Ð°ÑĢ": 3938,
      "ĠÑĥÐ±ÐµÐ´": 3939,
      "ĠÐ²Ð½Ð¸Ð¼Ð°Ð½Ð¸Ñı": 3940,
      "ĠÐºÐ¾Ð½ÑĤÑĢÐ¾Ð»": 3941,
      "ĠÑĢÐµÐ±ÐµÐ½ÐºÐ°": 3942,
      "ĠÑģÐ»ÐµÐ³ÐºÐ°": 3943,
      "ĠÐ¼Ð°ÐºÑģÐ¸Ð¼": 3944,
      "ĠÐ´ÑĢÑĥÐ³Ð¸Ð¼Ð¸": 3945,
      "ĠÑģÐ¼Ð¾ÑĤÑĢÐµÑĤÑĮ": 3946,
      "ĠÐ²ÑģÐµÐ¼Ñĥ": 3947,
      "ĠÐ´ÐµÐºÐ°Ð±": 3948,
      "ĠÐĺÐ²": 3949,
      "ĠÐŃÑĤÐ¸": 3950,
      "ĠÐ¿ÑĢÐµÐ´Ð¼ÐµÑĤ": 3951,
      "ĠÐ²Ð¾ÑģÐ¿ÑĢÐ¸": 3952,
      "Ð®": 3953,
      "ĠÐ¶Ð¸Ð´": 3954,
      "ĠÐºÐ¾Ð½ÑĦÐ»Ð¸Ðº": 3955,
      "ĠÐ¿Ð¾ÐºÐ°Ð·ÑĭÐ²": 3956,
      "Ð°ÑĩÐ¸": 3957,
      "ĠÑĥÑģÐ»Ð¾Ð²Ð¸ÑıÑħ": 3958,
      "ĠÑĢÐ°Ð·Ð´ÑĢÐ°Ð¶": 3959,
      "Ð½Ð¸ÑĨÐµ": 3960,
      "Ð¿ÑĢÐ¾ÑĩÐµÐ¼": 3961,
      "ĠÐ´Ð°Ð½Ð½ÑĭÐµ": 3962,
      "ĠÐ°Ð½ÑĤ": 3963,
      "ĠÐ´Ð¾Ð²ÐµÑĢ": 3964,
      "ĠÐ´Ð¸ÑĢ": 3965,
      "ĠÑģÑĥÑīÐµÑģÑĤÐ²ÑĥÐµÑĤ": 3966,
      "ĠÑĤÐ¸Ð¿Ð°": 3967,
      "ĠÑĩÑĳÑĢ": 3968,
      "ĠÑĥÐ¼ÐµÐ½ÑĮÑĪ": 3969,
      "ĠÐ¿Ð¾Ð´Ð¾Ð·": 3970,
      "ĠÐ¼Ð°ÑĤÑĮ": 3971,
      "Ð³Ð»ÑıÐ´ÐµÐ»": 3972,
      "ĠÐ¡ÐµÐ¹ÑĩÐ°Ñģ": 3973,
      "ĠÐ½Ð°Ð¼Ð¸": 3974,
      "ĠÐ¾ÑĤÐ²ÐµÑĤÐ¸Ð»Ð°": 3975,
      "Ð¸ÑħÐ°": 3976,
      "ĠÐ½Ð°Ð¿Ð¾Ð¼Ð¸Ð½": 3977,
      "ĠÐĴÐµÐ´ÑĮ": 3978,
      "ĠÐĹÐ°ÑĤÐµÐ¼": 3979,
      "Ð¿Ð°": 3980,
      "ĠÐ´Ð°Ð»ÐµÐºÐ¾": 3981,
      "ĠÐ¸Ð·Ð¼ÐµÐ½ÐµÐ½Ð¸Ñı": 3982,
      "ĠÐµÐ¶": 3983,
      "ÐºÐ»": 3984,
      "ĠÑĥÐ·Ð½Ð°ÑĤÑĮ": 3985,
      "ÑĭÑĢ": 3986,
      "ĠÑĢÐ°ÑģÑģÐºÐ°Ð·ÑĭÐ²": 3987,
      "Ð¿Ð¾Ð½": 3988,
      "ĠÑģÑĥÑĤ": 3989,
      "ce": 3990,
      "ĠÐºÐ½Ð¸Ð³Ð¸": 3991,
      "ĠÑĢÐµÐ»Ð¸": 3992,
      "ĠÑģÐ½Ð°ÑĩÐ°Ð»Ð°": 3993,
      "ĠÐ½ÑĢÐ°Ð²Ð¸ÑĤÑģÑı": 3994,
      "Ð°ÐºÑĥ": 3995,
      "ĠÑĥÑĩÐµÐ½": 3996,
      "ĠÐ²ÑĭÑĤ": 3997,
      "ĠÐ¸Ð½ÑĦÐ¾ÑĢÐ¼Ð°ÑĨÐ¸Ñİ": 3998,
      "Ð»Ð°Ð½Ð´": 3999,
      "ÑģÐ»ÑĥÐ¶": 4000,
      "ĠÐ³Ð¾ÑģÑĥÐ´Ð°ÑĢÑģÑĤÐ²Ð°": 4001,
      "ĠÐ¾Ð±ÑĢÐ°Ð·Ð¾Ð²": 4002,
      "Ġ196": 4003,
      "ÐµÑĪÐµ": 4004,
      "ĠÑĨÐµÑĢ": 4005,
      "Ð¼Ð¾Ñģ": 4006,
      "ĠÐ¿ÑĥÐ½Ðº": 4007,
      "ĠÐ½Ð°ÑĪÐ¸Ñħ": 4008,
      "ĠÐ½Ð°Ñħ": 4009,
      "ĠÑģÑĥÑīÐµ": 4010,
      "ĠÐ¸Ð½Ð°ÑĩÐµ": 4011,
      "ÑİÑĢ": 4012,
      "ĠÐ¾Ð±ÐµÑī": 4013,
      "Ð¸ÑĤÐµÑĤÐ°": 4014,
      "ĠÐŀÐº": 4015,
      "ÐµÐ¼ÑĮ": 4016,
      "Ð¸ÑıÐ¼Ð¸": 4017,
      "ĠÐ·Ð°Ð¿Ð°Ñħ": 4018,
      "ĠÐ°Ð½Ð³": 4019,
      "Ð½Ð¸ÐºÐµ": 4020,
      "Ð¾ÑģÑĤÐ¾ÑıÑĤÐµÐ»ÑĮ": 4021,
      "ĠÐºÑĢÐ¾Ð²Ð°ÑĤÐ¸": 4022,
      "ĠÐ¿ÑĢÐ°Ð²Ð¸Ð»Ð¾": 4023,
      "ĠÐ¡Ð¾Ð²ÐµÑĤ": 4024,
      "Ð°ÑİÑīÐ°Ñı": 4025,
      "Ð¸Ð»Ð¸Ð·": 4026,
      "ĠÐ´Ð¶": 4027,
      "ĠÐ·Ð½Ð°Ðº": 4028,
      "ĠÐ¿ÐµÑĢÐµÐ±": 4029,
      "ĠÐ¼Ð¸Ð½Ð¸Ð¼": 4030,
      "Ð°Ð»ÑĮÐ½ÑĭÐ¼Ð¸": 4031,
      "ÐµÐ½ÑĤÐ¾Ð¼": 4032,
      "Ð¸ÑĤÐµÐ»ÐµÐ¼": 4033,
      "ĠÑĤÑĢÐ°Ð´": 4034,
      "Ð¸Ð²Ð°ÑıÑģÑĮ": 4035,
      "ĠÐ»Ð¸ÑĨÐµ": 4036,
      "ĠÐ¿ÑĥÐ±Ð»Ð¸": 4037,
      "ÐµÐ½ÑĨÐ¸Ð¸": 4038,
      "ĠÐ³Ð¾Ð²Ð¾ÑĢÑıÑĤ": 4039,
      "?\"": 4040,
      "ĠÐ¾ÑĤÑĨÐ°": 4041,
      "Ð°ÑĤÑĥÑĢÑĭ": 4042,
      "ĠÐŁÑĢÐ¾ÑģÑĤÐ¾": 4043,
      "ĠÑģÑĤÐ¾ÑıÐ»": 4044,
      "ÐµÑĢÐ´": 4045,
      "ers": 4046,
      "ĠÑĥÐ»ÑĭÐ±Ð½ÑĥÐ»Ð°ÑģÑĮ": 4047,
      "ĠÐ±ÑĥÐ´ÐµÐ¼": 4048,
      "ĠÐ½ÐµÐ´Ð¾Ð²": 4049,
      "ĠÑħÐ¾ÑĩÐµÑĪÑĮ": 4050,
      "ĠÑģÐ¾Ð½": 4051,
      "ĠÐ¼Ð»Ð°Ð´": 4052,
      "ĠÑģÑĢÐ°Ð²Ð½": 4053,
      "ĠÐ¿ÑĢÐ¾ÑıÐ²": 4054,
      "ÑĢÑĥÐ³Ð¾": 4055,
      "ĠÑĥÑģÐ¿ÐµÑĪ": 4056,
      "ĠÑģÐ¸Ð³Ð½": 4057,
      "ĠÐ¿Ð»Ð¾ÑħÐ¾": 4058,
      "ÑĢÐ¸Ñı": 4059,
      "ĠÑģÐ¾ÑģÑĤÐ¾ÑıÐ½Ð¸Ðµ": 4060,
      "ÐµÐ½ÑĤÑĢ": 4061,
      "Ð°Ð»Ð¸Ð¸": 4062,
      "ĠÐĲÐ½Ð´": 4063,
      "ĠÐŀÑĩ": 4064,
      "ĠÐ¡ÐµÐ²ÐµÑĢ": 4065,
      "ĠÐ²Ð¾Ð·Ð´ÐµÐ¹ÑģÑĤÐ²": 4066,
      "ĠÐ´Ð°ÑĤÑĮ": 4067,
      "Ð¸ÑĢÑĥÐµÑĤ": 4068,
      "ĠÑĢÐµÐ°Ð»Ð¸Ð·": 4069,
      "ÑĢÐ¸ÑģÑĤÐ¸": 4070,
      "ÑĭÐ³": 4071,
      "ĠÐ´Ð¾Ð¶Ð´": 4072,
      "ĠÐ³Ð¾ÑĢÐ¾Ð´Ðµ": 4073,
      "ĠÐ¾ÑĤÑĢÐ°Ð¶": 4074,
      "Ġ+": 4075,
      "ĠÐ½ÐµÑģÐ¼Ð¾ÑĤÑĢÑı": 4076,
      "ĠÑģÐ¸ÑģÑĤÐµÐ¼Ð°": 4077,
      "ĠÐ¸Ð¼ÐµÐ½Ð¸": 4078,
      "ĠÐ±Ð¾Ð³Ð°ÑĤ": 4079,
      "ĠÐ²Ð¸Ð·": 4080,
      "ĠÐ±ÐµÑĢÐµÐ³": 4081,
      "op": 4082,
      "----": 4083,
      "ĠÐ¾Ð±ÑĢÐ°ÑĤÐ½Ð¾": 4084,
      "ĠÐ±ÑĥÐ¼Ð°Ð³": 4085,
      "od": 4086,
      "ĠÐĶÐ°Ð²": 4087,
      "ĠÐ´Ð²ÑĥÐ¼": 4088,
      "ĠÐ´ÐµÐ²ÑĥÑĪÐºÑĥ": 4089,
      "ĠÐ´Ð°Ð»ÑĮÐ½ÐµÐ¹": 4090,
      "ÐºÐ¾ÑģÑĤÑĮ": 4091,
      "ĠÐ´Ð²ÐµÑĢ": 4092,
      "ĠÑģÑĥÑħ": 4093,
      "ĠÑģÑĤÐµÐº": 4094,
      "ĠÐ¾ÑģÐ¾Ð·Ð½": 4095,
      "ĠÑģÑĤÐ¾Ð»ÑĮ": 4096,
      "ĠÐ½ÐµÐ³": 4097,
      "ĠÑģÐ»ÑĥÑĩÐ¸Ð»Ð¾ÑģÑĮ": 4098,
      "ĠÐºÐ¾Ð¼Ð½Ð°ÑĤÐµ": 4099,
      "ĠÐŃÐ¹": 4100,
      "ĠÐ¾Ð´Ð½Ð¾Ð²ÑĢÐµÐ¼ÐµÐ½Ð½Ð¾": 4101,
      "ĠÑĥÐ´Ð¾Ð±": 4102,
      "ĠÑĥÑģÐ¼ÐµÑħ": 4103,
      "ĠÐ±ÐµÑģÑģ": 4104,
      "th": 4105,
      "ĠÐ¾Ð·Ð½Ð°ÑĩÐ°ÐµÑĤ": 4106,
      "ĠÑĤÐ¾Ð¿": 4107,
      "ĠÐ¿Ð¾Ð¿Ð°Ð´": 4108,
      "ĠÐĲÐº": 4109,
      "ĠÐ·Ð°ÑıÐ²Ð¸Ð»": 4110,
      "ĠÑĪÑĥÐ¼": 4111,
      "Ð°Ð½Ð¸ÑĢÐ¾Ð²": 4112,
      "ĠÐ²ÑĭÐ¿ÑĥÑģÐº": 4113,
      "ĠÑıÐ½Ð²Ð°ÑĢ": 4114,
      "ÑĭÐ»ÑĮ": 4115,
      "ĠÐ¿ÑĢÐ¸Ð·Ð½Ð°Ðº": 4116,
      "Ħĸ": 4117,
      "Ð½ÑıÑĤÑĮ": 4118,
      "Ð°ÑĢÑħ": 4119,
      "ĠÐ³Ð¾ÑĢÐ°Ð·": 4120,
      "Ġv": 4121,
      "ÑĭÑĪÐ»ÐµÐ½": 4122,
      "ÑĢÐ¾Ð³": 4123,
      "Ð¸Ð´Ñĥ": 4124,
      "ĠÐ¾ÑħÑĢÐ°Ð½": 4125,
      "ÐłÐ°Ð·": 4126,
      "Ð¾Ð»ÑĮÑĪÐµ": 4127,
      "ĠÐĲÐ´": 4128,
      "ĠÐ¿Ð»Ð¾Ñħ": 4129,
      "ÐĴÐ¾": 4130,
      "ĠÑĥÐ´ÐµÑĢÐ¶": 4131,
      "Ð°Ð´Ðµ": 4132,
      "Ð¸ÑĩÐµÑģÐºÐ¾Ð¼": 4133,
      "ĠÑģÐ´ÐµÑĢÐ¶": 4134,
      "ĠÐĹÐµÐ¼": 4135,
      "ÑĦÐ°": 4136,
      "Ð¾Ð³Ð»Ð°Ñģ": 4137,
      "ĠÐ¼Ð¾Ð¶ÐµÐ¼": 4138,
      "Ð¾ÑĢÐ¾Ð¼": 4139,
      "ĠÐ¿Ð¾ÑģÐ»ÐµÐ´Ð½Ð¸Ð¹": 4140,
      "ĠÐ¿Ð¾Ð¿ÑĢÐ¾Ñģ": 4141,
      "ĠÐ°Ð¿ÑĢ": 4142,
      "ĠÐºÐ°ÐºÐ°Ñı": 4143,
      "ĠÑįÐºÑģÐ¿ÐµÑĢ": 4144,
      "ĠÐ³Ð¾ÑĢÐ°Ð·Ð´Ð¾": 4145,
      "ĠÐ·Ð°Ð¶": 4146,
      "com": 4147,
      "ĠÐ¿ÑĢÐ¾Ð¶": 4148,
      "Ð¸Ð²Ð°ÐµÐ¼": 4149,
      "ĠÐ¿ÑĢÐ°Ð²Ð¸Ð»ÑĮÐ½Ð¾": 4150,
      "ĠÐ²ÑģÑĤÑĥÐ¿": 4151,
      "ĠÐ½Ð¾Ð²Ð¾Ð³Ð¾": 4152,
      "ĠÐ°Ð²Ð³ÑĥÑģÑĤ": 4153,
      "ĠÐ¸Ð·Ð²": 4154,
      "ĠÐ²Ð¿ÐµÑĢÐµÐ´": 4155,
      "ĠÐ¼Ð°Ð½": 4156,
      "ĠÑĢÐ¾ÑĤ": 4157,
      "ĠÑĢÐ°Ð±Ð¾ÑĤÐ°ÐµÑĤ": 4158,
      "ĠÑĥÐ¿Ð¾ÑĤÑĢÐµÐ±": 4159,
      "ĠÑģÑĢÐµÐ´ÑģÑĤÐ²Ð°": 4160,
      "ĠÐ°ÑĢÐ¼Ð¸Ð¸": 4161,
      "ĠÐĳÑĥÐ´": 4162,
      "Ð°ÑĪÐµ": 4163,
      "ĠÑĨÐµÐ¿": 4164,
      "ĠÐ¿ÑĢÐ¸Ð²Ð»ÐµÐº": 4165,
      "Ð¾ÑģÑĢÐµÐ´": 4166,
      "ĠÐ¼Ð¾Ð¸Ñħ": 4167,
      "ĠÑĦÐ¾ÑĢ": 4168,
      "ĠÐ²ÑĢÐµÐ´": 4169,
      "ĠÐ»Ð¾Ð³": 4170,
      "ĠÐ¾ÑĤÐ±": 4171,
      "ĠÑģÐ¾ÑģÐµÐ´": 4172,
      "ĠÑĥÐ²ÐµÑĢÐµÐ½": 4173,
      "Ð°Ð²ÑĪÐ¸Ð¹": 4174,
      "ĠÐ»ÑİÐ±Ð»Ñİ": 4175,
      "ĠÐ¿Ð¾ÑĢÑıÐ´ÐºÐµ": 4176,
      "ĠÐĲÐ¼ÐµÑĢ": 4177,
      "ĠÐŃÑĤÐ°": 4178,
      "Ð¾Ð²ÑĭÐ¼": 4179,
      "ÑĢÐ¾ÑģÑĤ": 4180,
      "ĠÐ´ÑĢÑĥÐ³Ð¾Ð³Ð¾": 4181,
      "ĠÐ¿ÑĢÐµÐ´Ð¿Ð¾Ð»Ð°Ð³": 4182,
      "Ð¸Ð²Ð°ÑİÑĤÑģÑı": 4183,
      "ĠÑĥÑĩÐµÐ±": 4184,
      "Ð°Ð½Ð¸ÑĩÐµÑģÐº": 4185,
      "ĠÐļÐ¾Ð»": 4186,
      "ÑįÐ¼": 4187,
      "ĠÑģÑĤÐ°Ð½ÐµÑĤ": 4188,
      "ÑĢÐ¾Ð¿ÐµÐ¹": 4189,
      "est": 4190,
      "ĠÑģÐµÐ»": 4191,
      "ĠÐ½Ð¸Ð¶": 4192,
      "Ð¾Ð½Ñĥ": 4193,
      "ĠÐ°Ð´ÑĢÐµÑģ": 4194,
      "ĠÑĦÐ¾ÑĢÐ¼Ñĥ": 4195,
      "ĠÐ¾Ð±ÑīÐµÑģÑĤÐ²Ð°": 4196,
      "ĠÑģÐºÐ¾ÑĢÐ¾": 4197,
      "ĠÐ¼Ð¸ÑģÑģ": 4198,
      "ĠÐ»ÐµÐ²": 4199,
      "Ð¢Ðŀ": 4200,
      "ĠÐ·Ð²Ð¾Ð½": 4201,
      "ĠÑĩÑĥÐ²ÑģÑĤÐ²Ð¾": 4202,
      "ĠÐ´Ð¾ÑģÑĤÐ°Ð²": 4203,
      "Ð¸Ð½ÑĥÐ»": 4204,
      "ĠÐ½Ð°ÑĩÐ¸Ð½Ð°ÐµÑĤ": 4205,
      "ĠÐ¼Ð½Ð¾Ð¶ÐµÑģÑĤÐ²Ð¾": 4206,
      "ĠÑĨÐµÐ»Ð¸": 4207,
      "tp": 4208,
      "ĠÐ³ÑĢÑĥÐ´": 4209,
      "Ð³ÑĢÐµÑģÑģ": 4210,
      "ĠÐ³ÐµÐ½": 4211,
      "Ð°Ð»Ð¾Ð¼": 4212,
      "ĠÐĳÑĭ": 4213,
      "Ð»Ð°Ð²Ð°": 4214,
      "ĠÐ½Ð°ÑĪÐµÐ³Ð¾": 4215,
      "ĠÐ¿ÑĢÐ¸ÑıÑĤ": 4216,
      "ĠÐŃÐ½": 4217,
      "Ð¸ÑĤÐ¾Ð²": 4218,
      "Ð³Ñĥ": 4219,
      "ĠÑħÐ¾Ð·ÑıÐ¹": 4220,
      "ÐµÑĢÐ¿": 4221,
      "ĠÑĢÐµÐ·ÑĥÐ»ÑĮÑĤÐ°ÑĤ": 4222,
      "Ð²Ð¾Ð·ÑĮ": 4223,
      "ĠÑĨÐµÐ»ÑĮÑİ": 4224,
      "ĠÐļÐ°Ð½": 4225,
      "ĠÐ¿ÑĢÐ¸ÐµÐ¼": 4226,
      "ĠÑĦÐ¸Ð»Ð¾ÑģÐ¾ÑĦ": 4227,
      "ĠÐ°Ð¿Ð¿": 4228,
      "Ð¸ÐµÑħ": 4229,
      "ĠÐ²Ð°ÑĪÐµÐ³Ð¾": 4230,
      "ĠÐ¿ÑĢÐµÐ´ÑģÑĤÐ°Ð²Ð»ÑıÐµÑĤ": 4231,
      "ĠÐ·Ð¾Ð»Ð¾ÑĤ": 4232,
      "ĠÐºÐ¾ÑĢÐ¸Ð´": 4233,
      "ÐµÑĢÑĭÐ²": 4234,
      "ÑıÑĤÐ°": 4235,
      "ÑĤÐ¸Ð¼": 4236,
      "ĠÐ²Ð¿ÐµÑĩÐ°ÑĤ": 4237,
      "ĠÑģÐµÐ¼ÑĮÐ¸": 4238,
      "Ð¼Ð°ÑĤÑĢ": 4239,
      "ĠÐ¸Ð·Ð¼ÐµÐ½Ð¸": 4240,
      "Ð»ÑıÐµÐ¼": 4241,
      "ĠÐ¾ÑģÑĤÐ¾ÑĢÐ¾Ð¶": 4242,
      "ĠÐºÐµÐ¼": 4243,
      "ÑĪÑĥÑİ": 4244,
      "ÑĨÐµÐ½Ð¸": 4245,
      "ÐĴÐ¾ÑĤ": 4246,
      "Ð°ÐºÐµÑĤ": 4247,
      "ÑĥÑĪÐºÐ¸": 4248,
      "ĠÑĩÐ°ÑīÐµ": 4249,
      "ĠÐ¼Ð°Ð¼": 4250,
      "Ð¿Ð¾": 4251,
      "ĠÐ»Ð¾Ðº": 4252,
      "ĠÑĥÑĩÐ°ÑģÑĤÐ²": 4253,
      "ÑıÑı": 4254,
      "ĠÑĥÑĩÐµÐ½Ð¸": 4255,
      "ĠÐĹÐ´ÐµÑģÑĮ": 4256,
      "ĠÐ²Ð°ÑĪÐµÐ¹": 4257,
      "ĠÐ±Ð»Ð¸Ð¶": 4258,
      "ĠÐ½ÐµÑĢ": 4259,
      "ĠÑĩÐ°ÑģÐ°": 4260,
      "Ġyou": 4261,
      "Ð°Ð¹Ð´": 4262,
      "ĠÐ²ÑĢÐ¾Ð´Ðµ": 4263,
      "Ġ193": 4264,
      "ĠÑĥÐ´Ð¾Ð²Ð¾Ð»ÑĮ": 4265,
      "ĠÐ¿ÑĢÐµÐ¸Ð¼": 4266,
      "ri": 4267,
      "ĠÐ£Ñĩ": 4268,
      "Ð¸ÑĩÐµÑģÐºÐ¸Ð¼Ð¸": 4269,
      "ĠÐ³Ð¾Ð²Ð¾ÑĢÑı": 4270,
      "ÑĦÑĢ": 4271,
      "ĠÐ§ÑĤÐ¾Ð±Ñĭ": 4272,
      "Ð»ÐµÑĤÐ²Ð¾ÑĢ": 4273,
      "ĠÐ²Ð¸Ð´Ñĥ": 4274,
      "ĠÐ´Ñĥ": 4275,
      "Ð¸Ð²Ð°Ñİ": 4276,
      "Ð°ÑĢÐ¸Ð¸": 4277,
      "Ġ...": 4278,
      "Ð²Ñĥ": 4279,
      "Ð¾Ð¿ÑĭÑĤ": 4280,
      "Ð¾Ð´ÐµÐ¹ÑģÑĤÐ²": 4281,
      "ĠÑĩÐµÑĤÐ²ÐµÑĢ": 4282,
      "ÑĪÐ¸ÑģÑĮ": 4283,
      "ĠÑģÐµÐ²ÐµÑĢ": 4284,
      "ĠÑģÐ¸Ð»ÑĮÐ½ÐµÐµ": 4285,
      "ĠÐ¿ÑĭÑĤÐ°ÑıÑģÑĮ": 4286,
      "ĠÐ·Ð°ÑīÐ¸Ñī": 4287,
      "ĠÐ´ÐµÑĤÐ¸": 4288,
      "ÐµÐ¹ÑģÑı": 4289,
      "Ð°Ð½Ð´Ð°ÑĢÑĤ": 4290,
      "ĠÐºÐ¾Ð¼Ñĥ": 4291,
      "ÑĩÐ¸ÐºÐ°": 4292,
      "ÐĿÐĺ": 4293,
      "ĠÐ¸Ð·Ð²ÐµÑģÑĤÐ½Ð¾": 4294,
      "25": 4295,
      "ÐĺÑģÑĤ": 4296,
      "Ġ|": 4297,
      "ĠÑĢÐ°Ð±Ð¾ÑĤÐ°": 4298,
      "ĠÐ²Ð°Ð¼Ð¸": 4299,
      "ĠÐ¿Ð¾Ð»Ð¾Ð¶ÐµÐ½Ð¸Ðµ": 4300,
      "ĠÐļÑĢÐ°Ñģ": 4301,
      "ĠÐ¾ÑĤÐ½Ð¾ÑĪÐµÐ½Ð¸Ð¸": 4302,
      "ĠÑģÐ¼Ð¾Ð¶": 4303,
      "Ð¸ÑĤÑĥÑĤ": 4304,
      "ĠÐ½ÐµÐ²ÐµÑĢ": 4305,
      "Ð°Ð½Ð½ÑĭÐ¼": 4306,
      "ĠÐ½Ñĭ": 4307,
      "ĠÑģÑĤÑĢÐ°Ð½Ðµ": 4308,
      "ĠÐ½Ð°ÑģÑĤÐ¾ÑıÑīÐµÐµ": 4309,
      "ÑıÐ»Ð°ÑģÑĮ": 4310,
      "ab": 4311,
      "ĠÐĳÐ°ÑĢ": 4312,
      "ĠÑħÐ¾Ð»": 4313,
      "ĠÐ²Ð¸Ð½Ð¾Ð²": 4314,
      "ĠÐºÐ¾ÑĢÐ¾Ð»ÐµÐ²": 4315,
      "ĠÐ¿Ð¾ÑģÑĢÐµÐ´": 4316,
      "ĠÑĥÑģÐ»ÑĥÐ³": 4317,
      "ĠÑģÐ°Ð¼Ð¾ÑģÑĤÐ¾ÑıÑĤÐµÐ»ÑĮ": 4318,
      "ĠÐĴÐµÑĢ": 4319,
      "ĠÑģÑĢÐ¾Ðº": 4320,
      "ÐµÐ´Ð¶": 4321,
      "ĠÐ³Ð»ÑĥÐ±Ð¾Ðº": 4322,
      "Ð¾Ð´Ð½Ð¾": 4323,
      "ĠÐ¿Ð¾Ð³Ð¾Ð²Ð¾ÑĢ": 4324,
      "ĠÐ´ÐµÐ¼Ð¾Ð½": 4325,
      "ĠÑĥÑģÑĤÑĢÐ¾": 4326,
      "Ð¿ÑĢÐµÐ´ÐµÐ»": 4327,
      "Ġ40": 4328,
      "Ð½Ð¸Ð»Ð°": 4329,
      "ĠThe": 4330,
      "ĠÑĢÐ°ÑģÑĤÐ²": 4331,
      "Ð°Ð´Ñĭ": 4332,
      "all": 4333,
      "ov": 4334,
      "ĠÑģÐµÐºÑĥÐ½Ð´": 4335,
      "ĠÑĢÐµÐºÐ¾Ð¼ÐµÐ½": 4336,
      "ĠÐ¿Ð¾Ð´ÑĢÐ¾Ð±": 4337,
      "ĠÐºÐ°ÐºÐ¸Ñħ": 4338,
      "Ð»Ð¾Ðº": 4339,
      "ĠÐ´Ð¾Ð»Ð»Ð°ÑĢÐ¾Ð²": 4340,
      "ĠÐ´Ð¾ÑģÑĤÐ¸Ð¶": 4341,
      "ĠÑĩÐµÑģÑĤ": 4342,
      "ĠÑģÑĦ": 4343,
      "ÑĢÐ¾ÑģÐ»": 4344,
      "ĠÑĥÐ´Ð°": 4345,
      "ĠÑģÑĤÑĢÐ°ÑĤ": 4346,
      "ĠÑĦÐ¾ÑĢÐ¼Ñĭ": 4347,
      "ĠÑĦÐ¾ÑĢÐ¼Ðµ": 4348,
      "ĠÐ¿Ð¾ÑĨÐµÐ»": 4349,
      "Ð¾Ð»Ð³Ð¾": 4350,
      "ÐµÐ³Ð¾ÑģÑı": 4351,
      "ĠÐ¿Ð¾Ð»Ñı": 4352,
      "ĠÑģÐµÐ·": 4353,
      "ĠÐ½Ð¾Ð¶": 4354,
      "Ð¾Ð½ÑĮ": 4355,
      "ĠÐºÐ¾Ð¼Ð°Ð½Ð´Ñĭ": 4356,
      "ĠÐ½ÐµÐ²Ð¾Ð·Ð¼Ð¾Ð¶Ð½Ð¾": 4357,
      "ĠÐ·Ð°ÑĩÐµÐ¼": 4358,
      "ĠÑģÑĤÐ¾Ð»ÑĮÐºÐ¾": 4359,
      "ĠÑģÐ¾Ð²Ð¼ÐµÑģÑĤ": 4360,
      "?-": 4361,
      "Ð»ÑĥÐ¶": 4362,
      "ÑĭÐ²Ð°Ð»Ð¸": 4363,
      "ÐµÐ·Ð´Ð°": 4364,
      "Ð¾Ñĥ": 4365,
      "ĠÐ¿ÐµÑĢÐ²ÑĥÑİ": 4366,
      "ĠÐ²Ð¾Ð¾ÑĢÑĥÐ¶": 4367,
      "Ð½Ð¸ÑģÑĤ": 4368,
      "Ð»ÐµÐ½Ð½ÑĭÐ¹": 4369,
      "ÑıÑĤÐ¾": 4370,
      "ĠÐ¿ÑĢÐ¾ÑĦÐµÑģÑģÐ¸Ð¾Ð½": 4371,
      "ĊĊ": 4372,
      "Ð¾ÐºÐµ": 4373,
      "Ð¾ÑģÐ¿": 4374,
      "ist": 4375,
      "ĠÐ·Ð°Ð´ÐµÑĢÐ¶": 4376,
      "ĠÑģÐ°Ð¼ÑĭÐµ": 4377,
      "ÑĢÑĥÐ³Ð¾Ðµ": 4378,
      "ĠÑĢÐ°Ð½ÐµÐµ": 4379,
      "ĠÑģÐ»ÑĥÑĩÐ°ÑıÑħ": 4380,
      "ĠÐĳÐ¾Ð»ÑĮÑĪ": 4381,
      "ĠÐ·Ð°Ð±Ð¾ÑĤ": 4382,
      "ĠÐºÑĢÐ¸Ñĩ": 4383,
      "Ð¾ÑĢÑĥ": 4384,
      "Ð¸ÑĨÐ¸Ñı": 4385,
      "ĠÐ´Ð»": 4386,
      "ĠÐ±Ð»Ð¸Ð¶Ðµ": 4387,
      "Ð¼Ð¸ÑĤÐµ": 4388,
      "ĠÑĤÐµÑĢÐ¿": 4389,
      "Ð¸Ð²Ð°Ð»Ð°": 4390,
      "ĠÑıÐ·ÑĭÐºÐ°": 4391,
      "ĠÐ¾ÑĩÐµÐ²Ð¸Ð´": 4392,
      "Ð°Ð¹ÑĤÐµÑģÑĮ": 4393,
      "ĠÐ´Ð¾Ð¼Ðµ": 4394,
      "Ð°Ð»ÑĮÐ½Ð¾ÑģÑĤÐ¸": 4395,
      "ww": 4396,
      "Ð°Ð½ÑĤÐ¾Ð²": 4397,
      "Ð»ÐµÐ±": 4398,
      "ĠÑģÐ¸Ð¼Ð¿ÑĤÐ¾Ð¼": 4399,
      "ĠÐ´Ð¾ÑħÐ¾Ð´": 4400,
      "Ð°Ð¼Ð¿": 4401,
      "ĠÐ½Ð°Ð´Ðµ": 4402,
      "ĠÑģÐ¾Ð¿ÑĢÐ¾Ð²": 4403,
      "ĠÐ¾ÐºÐ°Ð·Ð°Ð»ÑģÑı": 4404,
      "Ð¸Ð·Ð¼Ð°": 4405,
      "ĠÑĪÐºÐ¾Ð»Ñĭ": 4406,
      "ĠÑĤÐµÑħÐ½Ð¾Ð»Ð¾Ð³": 4407,
      "Ð¾Ð²Ð¾": 4408,
      "Ġ24": 4409,
      "ĠÑģÐµÐ¼ÐµÐ¹": 4410,
      "ĠÐ¼ÐµÐ´Ð¸ÑĨ": 4411,
      "ĠÑĦÐµÐ²": 4412,
      "ĠÐ¿ÑĢÐµÐ´ÐµÐ»": 4413,
      "ÑĥÐ¶Ðµ": 4414,
      "ĠÑĥÑĤÐ²ÐµÑĢÐ¶Ð´": 4415,
      "Ð¾Ð³Ð¸": 4416,
      "ĠÐłÐ°Ñģ": 4417,
      "ĠÐ¾Ð±ÑģÑĤ": 4418,
      "ĠÑĢÐ°ÑģÑģÐ¼Ð¾ÑĤÑĢ": 4419,
      "ĠÐ½Ð¾Ð²Ð¾Ð¹": 4420,
      "ĠÐ¥Ð¾ÑĢÐ¾ÑĪÐ¾": 4421,
      "ĠÑĥÑĩÐ°ÑģÑĤÐ¸Ðµ": 4422,
      "ĠÐºÐ¾Ð½ÐµÑĩ": 4423,
      "ĠÐ¼Ð°Ñı": 4424,
      "ĠÐ²Ð·ÑıÑĤÑĮ": 4425,
      "ÑĢÐ¾ÑĦ": 4426,
      "ĠÑģÐ»Ð¾Ð²Ð°Ð¼": 4427,
      "Ð¸Ð²ÐµÑĤ": 4428,
      "Ð¾Ð¹ÑĩÐ¸Ð²": 4429,
      "Ð¸Ð½Ð¾Ð¼": 4430,
      "ĠÐ²Ð¾Ð²ÑģÐµ": 4431,
      "ĠÑĤÐ°ÐºÐ¾Ð¼": 4432,
      "ĠÐ¿ÐµÑĢÐµÐ²Ð¾Ð´": 4433,
      "ĠÐ´ÐµÐ¹ÑģÑĤÐ²Ð¸Ð¹": 4434,
      "ĠÐ¶ÐµÐ½ÑīÐ¸Ð½Ñĭ": 4435,
      "://": 4436,
      "ĠÐºÐ¾Ð»Ð»ÐµÐº": 4437,
      "ĠÑĩÑĥÐ²ÑģÑĤÐ²Ð°": 4438,
      "ĠÑĩÐµÐ¼Ð¿Ð¸Ð¾Ð½": 4439,
      "ÑįÐ»ÑĮ": 4440,
      "ĠÑĤÑĢÐ°Ð½ÑģÐ¿": 4441,
      "ÑĦÐ¸Ðº": 4442,
      "ĠÐĶÐ¾": 4443,
      "ÑĢÑĭÑĤÑĮ": 4444,
      "ĠÑģÐ¾ÑİÐ·": 4445,
      "ĠÐºÐ¾Ð¼Ð½Ð°ÑĤÑĭ": 4446,
      "ĠÐºÐ°ÑĤÐµÐ³Ð¾": 4447,
      "ĠÑģÐ»Ð°Ð²": 4448,
      "Ð¸ÑĤÐµÐ»ÑĮÐ½Ð¾ÑģÑĤÐ¸": 4449,
      "ĠÑģÐºÑĢ": 4450,
      "ĠÑĢÐµÑĩÑĮ": 4451,
      "Ð¾Ð¶Ñĥ": 4452,
      "ĠÐºÐ¾ÑĦÐµ": 4453,
      "Ð¾Ð¶Ð´ÐµÐ½Ð¸Ðµ": 4454,
      "ĠÐ»Ð¾Ð²": 4455,
      "ĠÐ´Ð¾Ð¼Ð°ÑĪ": 4456,
      "ĠÐ¾ÑĤÐ½Ð¾ÑģÐ¸ÑĤÐµÐ»ÑĮÐ½Ð¾": 4457,
      "ĠÑįÐºÑĢÐ°Ð½": 4458,
      "ĠÐ¾Ð±Ð²Ð¸Ð½": 4459,
      "ĠÐºÐ°Ð¶Ð´Ð¾Ð¹": 4460,
      "Ð´Ð°ÑİÑĤ": 4461,
      "ĠÐ·Ð°Ð²Ð¸ÑģÐ¸Ð¼Ð¾ÑģÑĤÐ¸": 4462,
      "ĠÐĹÐ°Ðº": 4463,
      "Ð¾Ð¸": 4464,
      "ÐµÐ¶Ð°Ð»": 4465,
      "ĠÐ¼ÐµÑģÑıÑĨÐµÐ²": 4466,
      "ÐºÐ¾ÑģÑĤÐ¸": 4467,
      "ĠÐºÑĢÐ¸Ðº": 4468,
      "ÑĪÐ¸": 4469,
      "ĠÐ¿Ð¾ÑıÑģ": 4470,
      "ĠÐ²ÑĢÐµÐ¼ÐµÐ½ÐµÐ¼": 4471,
      "ĠÐŁÐ°Ð²": 4472,
      "ĠÑĦÑĥÑĤÐ±Ð¾Ð»": 4473,
      "ÐŀÑģ": 4474,
      "ĠÐĺÐ¼ÐµÐ½Ð½Ð¾": 4475,
      "ĠÐ°ÑĤÐ°Ðº": 4476,
      "Ð°Ð»Ñĥ": 4477,
      "ĠÐ´Ð¸Ðº": 4478,
      "ĠÑĩÐ°Ð¹": 4479,
      "ĠÐ½Ð°Ð¿Ð°Ð´": 4480,
      "ĠÐ¿Ð¾Ð³Ð¸Ð±": 4481,
      "21": 4482,
      "ĠÐ¿Ð¾ÑĢÑĤ": 4483,
      "ĠÑģÑĤÑĢÐ°ÑĤÐµÐ³": 4484,
      "ĠÐ¿Ð¾Ð¿ÑĢÐ¾Ð±": 4485,
      "ĠÑĦÐ°Ð¹": 4486,
      "Ð¾Ð¹Ð´ÐµÑĤ": 4487,
      "ĠÐ²ÑģÑĤÐ°Ð²": 4488,
      "Ð¡Ðº": 4489,
      "ĠÐ¸Ð¼ÐµÐ»": 4490,
      "ĠÐºÐ½Ñı": 4491,
      "ÑģÑĤÐ²ÐµÐ½Ð½Ð°Ñı": 4492,
      "ĠÐ³Ð¾ÑģÐ¿Ð¾Ð´": 4493,
      "ĠÐ¿Ð»Ð°ÑģÑĤ": 4494,
      "Ð³Ð¾Ð²Ð°ÑĢ": 4495,
      "Ð»Ð°Ð³Ð¾Ð´Ð°ÑĢ": 4496,
      "ĠÐ»ÑİÐ±Ð¾Ð²ÑĮ": 4497,
      "ĠÑģÐ¾Ð»Ð´": 4498,
      "ĠÑĢÐµÐ¶Ð¸Ð¼": 4499,
      "ĠÐ±ÑĢÑİ": 4500,
      "ĠÐ²ÑĭÐ¶": 4501,
      "âĢĻ": 4502,
      "ĠÐ¸Ð½Ð´Ð¸Ð²": 4503,
      "ĠÐ·Ð½Ð°Ð»Ð°": 4504,
      "ĠÐĵÐ¾ÑĢ": 4505,
      "ĠÐ½Ð°Ð·ÑĭÐ²Ð°ÐµÐ¼": 4506,
      "ĠÑĦÑĢÐ¾Ð½": 4507,
      "ĠÑĩÐ°ÑģÑĤÐ½Ð¾ÑģÑĤÐ¸": 4508,
      "Ð°ÑģÑĤÐ¸": 4509,
      "ĠÑģÐ²Ð¾Ñĳ": 4510,
      "ĠÐ¾ÑĤÐºÑĢÑĭÐ»": 4511,
      "ĠÐ·ÐµÐ¼Ð»Ð¸": 4512,
      "Ð¸ÑĢÐ°ÑĤÑĮ": 4513,
      "ak": 4514,
      "ĠÑĪÑĥÑĤ": 4515,
      "ĠÑĢÐ°Ð·Ð½ÑĭÐµ": 4516,
      "ĠÐ¾Ð±ÑĬÐµÐ´Ð¸Ð½": 4517,
      "ĠÐĳÐµÑĢ": 4518,
      "ĠÐºÑĢÐ¾Ð²ÑĮ": 4519,
      "ĠÐ¿Ð»Ð°ÑĤÑĮ": 4520,
      "ĠÐ³Ð°Ð»": 4521,
      "Ð¾Ð³Ð°": 4522,
      "ĠÐ¿ÑģÐ¸ÑħÐ¾Ð»Ð¾Ð³": 4523,
      "Ð»ÐµÐ´Ð¾Ð²": 4524,
      "ĠÐ²Ð¾Ð´Ñĥ": 4525,
      "ĠÐ²Ð¾ÑĢ": 4526,
      "ĠSt": 4527,
      "ĠÐ¿Ð¾ÑģÐ²": 4528,
      "ĠÐºÑĥÐ»ÑĮÑĤÑĥÑĢ": 4529,
      "ĠÑĢÐµÑĪÐ¸Ð»Ð°": 4530,
      "ĠÐ¿ÑĢÐµÐ²ÑĢÐ°ÑĤ": 4531,
      "ĠÐµÐ´Ð¸": 4532,
      "ÑģÑĤÐµÑĢ": 4533,
      "ĠÐ¿Ð¾Ð»Ðµ": 4534,
      "ĠÐĲÐ·": 4535,
      "ĠâĦĸ": 4536,
      "ĠÐ±ÑĢÐ°ÑĤÑĮ": 4537,
      "ĠÐ¾Ð±ÑıÐ·Ð°ÑĤÐµÐ»ÑĮÐ½Ð¾": 4538,
      "Ð¾Ð²ÐµÑĢ": 4539,
      "ÑĩÐ°": 4540,
      "ĠÐ·Ð°Ð±Ð¾Ð»ÐµÐ²Ð°Ð½Ð¸Ñı": 4541,
      "ĠÐ¸ÑģÐ¿Ð¾Ð»ÑĮÐ·Ð¾Ð²Ð°Ð½Ð¸Ñı": 4542,
      "ĠÐ°Ð¿": 4543,
      "Ð½Ð¾ÑģÑĤÑĢÐ°Ð½": 4544,
      "ĠÐĵÐµÑĢÐ¼Ð¸": 4545,
      "ew": 4546,
      "ĠÑĢÐ¾Ð·": 4547,
      "ĠÐ´ÑĥÐ¼Ð°ÑĤÑĮ": 4548,
      "ĠÑĨÐµÐ»Ð¾Ð¼": 4549,
      "Ð°Ð½Ð¾Ð¼": 4550,
      "ĠÐ½Ð¸ÐºÐ°ÐºÐ¸Ñħ": 4551,
      "Ð½Ð¾Ñĩ": 4552,
      "ÑģÐµÐ´": 4553,
      "Ð¸Ð½ÐºÐ¸": 4554,
      "Ð¿ÑĢÐ¾": 4555,
      "ĠÐ¿Ð¾Ð´Ð°Ð²": 4556,
      "ĠÑĢÐµÑģÑĥÑĢ": 4557,
      "ĠÑĤÐµÐ¼Ð½Ð¾": 4558,
      "ÑĪÐ°": 4559,
      "ĠÐ±Ð¸ÑĤ": 4560,
      "ĠÐ»ÑİÐ´ÑıÐ¼": 4561,
      "ÑĥÐ±Ð»Ð¸ÐºÐ¾Ð²": 4562,
      "Ð¸ÑĨÑĭ": 4563,
      "ÑģÑĤÐ²ÑĥÐµÑĤ": 4564,
      "ĠÐ¾ÑģÐ½Ð¾Ð²Ð½Ð¾Ð¼": 4565,
      "ÐºÐ¾Ð³": 4566,
      "ĠÑģÐ¼Ð¾Ð¶ÐµÑĤ": 4567,
      "ĠÐ¿ÑĢÐ¸ÐµÑħ": 4568,
      "ĠÑģÐ²ÐµÑĢÑħ": 4569,
      "Ð°ÑĤÐµÐ»ÑĮÐ½ÑĭÑħ": 4570,
      "Ð¼Ð¾Ð²": 4571,
      "ĠÐ»ÑİÐ±Ð²Ð¸": 4572,
      "ĠÐ½Ð°ÑģÐºÐ¾Ð»ÑĮÐºÐ¾": 4573,
      "ĠÐ´Ð¸Ð°Ð³": 4574,
      "ĠÐ½Ð°Ð·Ð²Ð°Ð½Ð¸Ðµ": 4575,
      "ĠÐ½Ð°ÑģÐµÐ»ÐµÐ½Ð¸Ñı": 4576,
      "pp": 4577,
      "ĠÐ½Ð°Ð´ÐµÐ¶": 4578,
      "Ð¸ÑĤÐµÐ»ÑĮÐ½Ð¾ÑģÑĤÑĮ": 4579,
      "ĠÐ¿ÐµÑĢÐ²ÑĭÐ¼": 4580,
      "ĠÐļÑĥÑĢ": 4581,
      "ĠÑĩÐµÑĤÑĭÑĢ": 4582,
      "ĠÐ´Ð»Ð¸": 4583,
      "ĠÐ¼Ð°Ð»ÑĮÑĩÐ¸Ðº": 4584,
      "ĠÐ¢Ð°ÐºÐ¶Ðµ": 4585,
      "ĠÑģÐ¸Ð¼Ð²Ð¾Ð»": 4586,
      "ĠÐ¼Ð¾Ðµ": 4587,
      "ĠÑģÐµÐºÑĢÐµÑĤ": 4588,
      "ĠÐ¾ÑĤÐ²ÐµÑĢ": 4589,
      "ĠÐºÑĥ": 4590,
      "ĠÐ¾ÑĤÑĢÐ¸ÑĨ": 4591,
      "ĠÑģÐ¾Ð³Ð»Ð°ÑĪ": 4592,
      "ĠÐ¿Ð¾Ð´Ð¿Ð¸Ñģ": 4593,
      "ĠÐ½Ð°ÑģÐ»ÐµÐ´": 4594,
      "ĠÐ¾ÑħÐ¾ÑĤ": 4595,
      "ĠÑģÐ¾ÑģÑĤÐ¾Ð¸ÑĤ": 4596,
      "ĠÐ¾ÑģÑĤÑĢÐ¾Ð²": 4597,
      "Ð¸ÑĤÑĢ": 4598,
      "ÐµÐ¿ÐµÐ½Ð½Ð¾": 4599,
      "ĠÐ·Ð°Ð¿ÑĢ": 4600,
      "ĠÐ¿ÑĢÐ¸Ð²ÑĭÑĩ": 4601,
      "ĠÐ¿Ð¾Ð·Ð²": 4602,
      "ĠÐºÐ¾ÑĤ": 4603,
      "ĠÐ¾Ð±Ð¼": 4604,
      "Ð¾ÐºÐ¾Ð»": 4605,
      "ĠÐŃÐ¼": 4606,
      "ĠÐ²Ð½ÐµÐ·Ð°Ð¿": 4607,
      "ĠÐ²Ð°ÑĪÐ¸": 4608,
      "Ġ=": 4609,
      "Ð¾ÑĤÑĮ": 4610,
      "ĠÑģÑĤÐ¸Ñħ": 4611,
      "ĠÐ¿Ð¾ÑĤÐµÐ½ÑĨÐ¸": 4612,
      "ĠÐ¡Ð°Ð½": 4613,
      "ĠÐºÑĥÑģ": 4614,
      "ĠÐ¼ÐµÑĤÐ°Ð»": 4615,
      "ĠÐ¿Ð¾Ð½ÑĢÐ°Ð²": 4616,
      "ÑĥÐ´Ð¸": 4617,
      "ub": 4618,
      "ĠÐ·Ð²ÑĥÑĩ": 4619,
      "ĠÐ»ÑİÐ´ÑĮÐ¼Ð¸": 4620,
      "ĠÐºÐ¸Ð²Ð½ÑĥÐ»": 4621,
      "ĠÐ¸Ð·Ð¾Ð±ÑĢÐµÑĤ": 4622,
      "ÑģÐ¾Ð¼": 4623,
      "ĠÑģÐ¿ÐµÑĨÐ¸Ð°Ð»Ð¸ÑģÑĤ": 4624,
      "ĠÐĺÑħ": 4625,
      "ĠÑĢÑĥÑĩ": 4626,
      "ĠÐ¿ÑĢÐµÐºÑĢÐ°ÑģÐ½Ð¾": 4627,
      "ĠÐ³Ð»ÑıÐ´": 4628,
      "ĠÐ¼Ð°ÑĪÐ¸Ð½Ñĭ": 4629,
      "ĠÑĩÐµÑĢÑĤ": 4630,
      "ĠÐ²ÑģÐµÐ¼Ð¸": 4631,
      "ĠÑĤÐº": 4632,
      "ÑĨÐµÑģÑģ": 4633,
      "ĠÐ´ÑĢÐ¾Ð¶": 4634,
      "ĠÐ¿Ð°ÑĢÑĤÐ½": 4635,
      "ĠÐ¿ÑĢÐµÐ´Ñĥ": 4636,
      "ĠÐ·ÐµÐ¼Ð»Ñİ": 4637,
      "Ð°ÑĤÐµÐ»ÐµÐ¼": 4638,
      "Ð¸Ð²Ð°Ð½Ð¸Ðµ": 4639,
      "ÐµÐºÑĥ": 4640,
      "ÐŁÐ¾Ð»": 4641,
      "ĠÐ³Ð³": 4642,
      "ÐļÐ¾Ð½": 4643,
      "ĠÑģÐ¼ÐµÑĢÑĤÑĮ": 4644,
      "Ð¾ÑĤÐµ": 4645,
      "ĠÐ¼ÑĭÑģÐ»ÑĮ": 4646,
      "ĠÑģÐ²ÐµÐ¶": 4647,
      "ĠÑĩÐµÐ»Ð¾Ð²ÐµÐºÐ¾Ð¼": 4648,
      "ÑĢÐ¸ÑģÑĤÐ¸Ð°Ð½": 4649,
      "ĠÐ²ÑĭÐ½Ñĥ": 4650,
      "Ð°Ð²ÑĪÐ¸Ñħ": 4651,
      "ĠÑĢÐµÐºÐ»Ð°Ð¼": 4652,
      "ĠÐĴÑģÑĳ": 4653,
      "ÑĨÐ°Ð¼": 4654,
      "Ð¸Ð¹ÑģÐºÐ¾Ð¹": 4655,
      "ÐºÐ½Ð¾Ð²": 4656,
      "ĠÑĢÐ°Ð·Ð°": 4657,
      "ĠÑĥÑĢÐ¾Ðº": 4658,
      "Ð½Ð¾ÑĢ": 4659,
      "ĠÐ¿ÑĢÐ¾ÐµÐºÑĤ": 4660,
      "ĠÐ¿ÑĢÐ¾ÑĤÑıÐ¶": 4661,
      "ÐµÐ½ÐºÐ¾": 4662,
      "ĠÐ²ÑĭÐ³": 4663,
      "ĠÐ½Ð°ÑĩÐ°ÑĤÑĮ": 4664,
      "ĠÐ¿ÑĥÑģÑĤÑĮ": 4665,
      "ĠÐ²Ð°Ð»": 4666,
      "ĠÐ½ÐµÐ¸Ð·Ð²ÐµÑģÑĤ": 4667,
      "ĠÑĥÑĢÐ¾Ð²Ð½Ðµ": 4668,
      "ÑĥÑģÐ»Ð¾Ð²": 4669,
      "ÐµÐ¼Ð°ÑĤ": 4670,
      "ĠÐ¢Ð°ÐºÐ¸Ð¼": 4671,
      "ĠÐ²Ð²ÐµÑĢÑħ": 4672,
      "**": 4673,
      "ĠÐ¾ÑĤÐ²ÐµÑĤÑģÑĤÐ²ÐµÐ½": 4674,
      "ĠÐ²Ð¸Ð´ÐµÐ¾": 4675,
      "ĠÐ²Ð»Ð°ÑģÑĤÑĮ": 4676,
      "ĠÐ¾Ð±ÐµÑĢ": 4677,
      "ĠÐ¿ÑĢÐ¾ÑıÐ²Ð»Ñı": 4678,
      "200": 4679,
      "Ð°Ð²ÐµÑĢ": 4680,
      "Ð½Ð¸ÑĩÐµ": 4681,
      "ĠÑĤÑĢÑĥÐ±": 4682,
      "ĠÑĤÑıÐ¶ÐµÐ»Ð¾": 4683,
      "Ġre": 4684,
      "Ð°ÑĤÑĥÑĢÐ°": 4685,
      "ĠÐ¡ÑĢÐµÐ´": 4686,
      "ĠÐ¼ÑıÑģ": 4687,
      "ÐµÐ½Ð³": 4688,
      "ĠÑĩÐ¸ÑģÐ»Ð¾": 4689,
      "ĠÐ¿ÑĢÐ¸Ð½ÐµÑģ": 4690,
      "ĠÐºÐ¾ÑĤÐ¾ÑĢÐ¾Ð¼Ñĥ": 4691,
      "Ð°ÑĤÐµÐ»ÑĮÐ½ÑĭÐ¹": 4692,
      "ĠÐ»Ð¸ÑģÑĤ": 4693,
      "ĠÐ¿ÑĭÑĤÐ°Ð»ÑģÑı": 4694,
      "ĠÐ¿Ð¾Ð·Ð¶Ðµ": 4695,
      "ĠÐ¿ÑĢÐ¾Ð³ÑĢÐ°Ð¼Ð¼Ñĭ": 4696,
      "Ð½Ð°Ð¿": 4697,
      "ÑĥÑĤÑģÑı": 4698,
      "ĠÐ²ÑĭÐ¸Ð³ÑĢ": 4699,
      "ÐµÑģÐ°": 4700,
      "ĠÐ¿Ð¾ÑģÐ¿": 4701,
      "ĠÐ§ÐµÑħ": 4702,
      "ÑĩÐµÑĢÐ°": 4703,
      "ÐµÑİÑģÑĮ": 4704,
      "Ð°ÑģÐ°": 4705,
      "ĠÑĥÐ²Ð°Ð¶": 4706,
      "ĠÐ¿ÑĢÐ¸Ð²ÐµÐ´": 4707,
      "ĠÐ²ÐµÐ»Ð¸Ñĩ": 4708,
      "ĠÑģÐ¾Ð¿ÑĢÐ¾ÑĤÐ¸Ð²": 4709,
      "ĠÐ¼Ð¾Ð¶ÐµÑĪÑĮ": 4710,
      "Ð¾ÑĤÐ¾Ñĩ": 4711,
      "Ð°ÑĤÐµÐ»ÑĮÑģÑĤÐ²Ð°": 4712,
      "ĠÐ¿ÑĢÐµÐ¿Ð°ÑĢ": 4713,
      "ÑĥÑģÑĤÐ¸ÑĤÑĮ": 4714,
      "ĠÐ¾Ð±ÑīÐµÐ¼": 4715,
      "ĠÐºÐ°ÐºÑĥÑİ": 4716,
      "ĠÑģÐ»Ð°Ð´": 4717,
      "Ð»Ð¾Ñī": 4718,
      "Ð°ÑĩÐµÐ¼": 4719,
      "ĠÑģÑĤÐ°Ð´": 4720,
      "ĠÑįÐºÐ·": 4721,
      "24": 4722,
      "ĠÑĢÐ°Ð·Ð²ÐµÑĢ": 4723,
      "ĠÑģÐ¿ÑĥÑģÑĤÑı": 4724,
      "Ð¾Ð²Ð°ÑĤÑĮÑģÑı": 4725,
      "ĠÑĤÑĢÑĥÐ´Ð½Ð¾": 4726,
      "Ð¸ÑĤÐ°ÑĢ": 4727,
      "ĠÑģÑĢÐ°Ð¶": 4728,
      "ĠÐ´ÑĢÑĥÐ³Ð¾Ðµ": 4729,
      "ĠÑĪÐ°Ð½Ñģ": 4730,
      "ÑıÑīÐ¸Ð¹": 4731,
      "ĠÐ¿Ð¾ÑģÐ¼Ð¾ÑĤÑĢÐµÐ»Ð°": 4732,
      "ĠÐ´Ð¸Ñģ": 4733,
      "ĠÐĴÐ¸Ð´": 4734,
      "ĠÐ¿Ð¾Ð²Ð¾ÑĢ": 4735,
      "ĠÐļÐ°Ð¶Ð´": 4736,
      "ĠÑģÐ¾Ð¶Ð°Ð»": 4737,
      "ÐµÑĤÑĥ": 4738,
      "nd": 4739,
      "Ð¸ÑĨÐµÐ¹": 4740,
      "ĠÐ´Ð°ÐµÑĤ": 4741,
      "ÑĤÐ¾ÑĢÐ¾Ð¼": 4742,
      "ĠÐ½ÐµÐ¿Ð¾ÑģÑĢÐµÐ´": 4743,
      "ĠÐ²Ð¾Ð¿": 4744,
      "Ð²Ð¾Ð¹": 4745,
      "ĠÐ»ÐµÑĩ": 4746,
      "Ð¾Ð²Ð¾Ðµ": 4747,
      "Ð°Ð½Ð½ÑĥÑİ": 4748,
      "ĠÐ¿Ð°ÑĢÑĤÐ¸Ð¸": 4749,
      "ĠÐ¾Ñħ": 4750,
      "ĠÐĻ": 4751,
      "ĠÑĥÑģÑĤÐ°Ð²": 4752,
      "ĠÑĤÑİ": 4753,
      "ĠÐĵÐµÑĢÐ¼Ð°Ð½Ð¸Ð¸": 4754,
      "ĠÐ¸Ð½Ð¾ÑģÑĤÑĢÐ°Ð½": 4755,
      "ĠÑĥÐ´Ð¾Ð²Ð»ÐµÑĤÐ²Ð¾ÑĢ": 4756,
      "ĠÑģÐ»Ð¾Ð²Ð°Ð¼Ð¸": 4757,
      "ĠÑĢÐ°Ð·Ð½Ð¾": 4758,
      "ĠÑģÐ²Ð¸Ð´ÐµÑĤÐµÐ»ÑĮ": 4759,
      "ĠÐ±ÑĥÑĤ": 4760,
      "ĠÑģÐ¼Ðµ": 4761,
      "ÐĹÐ°": 4762,
      "ĠÑģÐ°Ñħ": 4763,
      "ÐŁÐµÑĢÐ²": 4764,
      "Ð°Ð¶Ð°": 4765,
      "ĠÐºÐ¾Ð´": 4766,
      "ĠÐ²Ð¸Ð¶Ñĥ": 4767,
      "ĠÐĿÑĮÑİ": 4768,
      "ĠÑģÐ¾Ð¾ÑĤÐ²ÐµÑĤÑģÑĤÐ²Ð¸Ð¸": 4769,
      "Ð½ÑıÐµÑĤ": 4770,
      "ĠÑģÐ¾Ð·Ð´Ð°Ð½Ð¸Ñı": 4771,
      "ĠÐ²Ð·ÑĢÐ¾ÑģÐ»": 4772,
      "ĠÐ´ÐµÐ½ÐµÐ³": 4773,
      "Ð°Ð´ÐµÐ¼": 4774,
      "ÐµÐ½Ðµ": 4775,
      "ĠÐ´Ð¾ÐºÑĥÐ¼ÐµÐ½ÑĤ": 4776,
      "ill": 4777,
      "ĠÐ³Ð¾Ð»ÑĥÐ±": 4778,
      "Ð¹ÑĤÐµ": 4779,
      "Ð´Ð¾Ð²": 4780,
      "ĠÐ½Ð¾Ð¼ÐµÑĢ": 4781,
      "qu": 4782,
      "ĠÑĢÐµÐ¼": 4783,
      "ĠÐľÐ¸Ð½": 4784,
      "ĠÑįÐ½ÐµÑĢÐ³Ð¸Ð¸": 4785,
      "ĠÐ´Ð²ÑĥÐ¼Ñı": 4786,
      "Ð¼Ð°ÑĢ": 4787,
      "ĠÐ¿ÑĢÐ°Ð²Ð¸Ð»": 4788,
      "ĠÐ¾Ð±Ð°": 4789,
      "Ð°ÑĤÐµÐ»ÑĮÐ½Ð¾Ð¹": 4790,
      "Ð½Ð¸Ð²": 4791,
      "ĠÑģÑĤÑĥÐ¿": 4792,
      "ĠÑĥÑģÐ»Ð¾Ð²Ð¸Ñı": 4793,
      "ĠÐ¿ÑĢÐµÑģ": 4794,
      "ĠÐ²ÑĭÑĪÐ»Ð°": 4795,
      "ĠÑĦÐ¾Ð½": 4796,
      "ĠÑģÑĤÑĢÐµÐ»": 4797,
      "ÐºÐ»Ð°Ð´": 4798,
      "Ð°Ð¶Ñĥ": 4799,
      "ĠÐºÑĢÐ°Ð¹Ð½ÐµÐ¹": 4800,
      "ĠÐ¿ÑĢÐ¾ÑĨÐµÐ´": 4801,
      "Ð½Ð¾Ð³Ð¸Ðµ": 4802,
      "ĠÐ³Ð¸Ð±": 4803,
      "ĠÑħÐ¸Ð¼": 4804,
      "ÐŀÐ½Ð¸": 4805,
      "ÑĢÐ¾ÑĢ": 4806,
      "ÑĥÑİÑīÐ¸Ð¹": 4807,
      "ĠÐ¿ÑĢÐ¸Ð½ÑıÑĤÑĮ": 4808,
      "ĠÐºÐ¾Ð¼Ð¿Ð°Ð½Ð¸Ñı": 4809,
      "Ð¾ÑĩÐµÐº": 4810,
      "ĠÐºÑĢÐµÑģ": 4811,
      "Ð´ÑĢÑĥÐ³": 4812,
      "ows": 4813,
      "ĠÐ·Ð°Ð²Ð¸ÑģÐ¸ÑĤ": 4814,
      "ĠÐ±Ð°Ð±": 4815,
      "ĠÐĽÐµ": 4816,
      "ĠÐ°Ð²ÑĤÐ¾Ð¼Ð°ÑĤ": 4817,
      "ĠÐ½ÐµÐ¿ÑĢÐ°Ð²": 4818,
      "ĠÐ¿Ð¾Ð½ÑıÐ»Ð°": 4819,
      "ĠÐ·ÐµÐ»ÐµÐ½": 4820,
      "Ð¾Ð±ÑĭÑĩ": 4821,
      "ĠÐ¾Ð±ÑģÑĤÐ¾ÑıÑĤÐµÐ»ÑĮ": 4822,
      "Ð°ÑĢÑı": 4823,
      "ĠÐļÐ°Ð·": 4824,
      "ĠÑģÐ°Ð»": 4825,
      "ĠÐ²ÑĭÑıÑģ": 4826,
      "Ð¶Ð¸": 4827,
      "ĠÑĢÐ°Ð·Ð²Ð¸ÑĤÐ¸Ðµ": 4828,
      "ÐµÐ¶Ð°Ð»Ð°": 4829,
      "ĠÐ°ÐºÐºÑĥ": 4830,
      "Ð²ÐµÐ¹": 4831,
      "ĠÐºÐ°ÐºÐ¾Ð³Ð¾": 4832,
      "ĠÐ¾Ð´Ð½": 4833,
      "Ġ22": 4834,
      "ÐµÐºÐ¾ÑĤÐ¾ÑĢÑĭÐµ": 4835,
      "ĠÐ¾Ð±ÑĢÐ°Ð±Ð¾ÑĤ": 4836,
      "ÑĳÐ´": 4837,
      "Ġ:": 4838,
      "ĠÐ¿ÑĢÐ¸Ð¼ÐµÐ½Ñı": 4839,
      "ĠÑģÐ»ÐµÐ´ÑĥÑİÑīÐ¸Ð¹": 4840,
      "ĠÐ±Ð¾Ð»ÑĮÑĪÐ¸Ð½ÑģÑĤÐ²Ð¾": 4841,
      "ĠÑĩÑĢÐµÐ·": 4842,
      "Ð¸Ð»Ð»Ð¸": 4843,
      "ĠÐĶÑĥÐ¼": 4844,
      "ĠÐ²Ð¸Ð´Ð½Ð¾": 4845,
      "ÐµÐ¼ÑģÑı": 4846,
      "ĠÐ²Ð¾ÑģÐ¿Ð¾Ð¼Ð¸Ð½": 4847,
      "ĠÐ¿ÑĢÐ¸Ð´ÐµÑĤÑģÑı": 4848,
      "ĠÑĢÐ°ÑģÑģÑĤÐ¾Ñı": 4849,
      "ÑĤÐµÑģÑĮ": 4850,
      "ĠÐ¿Ð¾ÑĪÐ»Ð°": 4851,
      "ĠÐ²ÑĭÑģÐº": 4852,
      "Ð¸ÑĤÐµÐ»ÑĮÐ½Ð°Ñı": 4853,
      "ĠÐ½Ð°ÑĩÐ°Ð»ÑĮ": 4854,
      "ra": 4855,
      "ÑĳÑģ": 4856,
      "ĠÐ¼Ð°ÑĤÐµÑĢ": 4857,
      "Ð¾Ð¼Ð°": 4858,
      "ĠÐ¾Ð±ÑıÐ·Ð°Ð½": 4859,
      "ĠÐ¸ÑĤÐ¾Ð³Ðµ": 4860,
      "ĠÐ»ÑĮ": 4861,
      "ĠÐ¾Ð±Ðµ": 4862,
      "ĠÑĢÐ°Ð·Ð»Ð¸ÑĩÐ½ÑĭÐµ": 4863,
      "ĠÑĦÐ¾ÑĤÐ¾": 4864,
      "ĠÐ½ÐµÑĩ": 4865,
      "ĠÑĢÐµÐ³Ð¸Ð¾Ð½": 4866,
      "ĠÐ¸Ð·Ð±Ð°Ð²": 4867,
      "ĠÐ¾Ð³Ð¾": 4868,
      "ÑĭÐ²Ð°ÐµÐ¼": 4869,
      "Ð¾Ð¿Ð¾Ð»Ð¾Ð¶": 4870,
      "ĠÐ±ÑĢÐ¾Ð²": 4871,
      "ĠÑĥÑĩÐ¸ÑĤ": 4872,
      "ĠÐ±Ð»Ð¸Ð¶Ð°Ð¹": 4873,
      "ĠÐ²ÑĭÑĢ": 4874,
      "ĠÐ¿Ð°Ð¼ÑıÑĤÐ¸": 4875,
      "ĠÑģÐ¼Ð¾ÑĤÑĢÑı": 4876,
      "ÑģÑĤÐ²Ð°Ð¼Ð¸": 4877,
      "ĠÐ¼Ð¸ÑģÑĤ": 4878,
      "Ð¸ÑģÐ¾Ðº": 4879,
      "ĠÐ¿ÑĢÐµÐ´Ð¿Ð¾Ð»Ð¾Ð¶": 4880,
      "ĠÐ³Ð¾Ð»Ð¾Ð²Ñĭ": 4881,
      "ĠÐ±ÑĭÑģÑĤÑĢÐµÐµ": 4882,
      "ĠÐ½ÐµÐ´ÐµÐ»Ñİ": 4883,
      "ĠÐ²ÐºÐ»ÑİÑĩÐ°Ñı": 4884,
      "ĠÑĥÑģÐ¿ÐµÐ»": 4885,
      "ĠÐ¿Ð¾ÑģÐµÑĤ": 4886,
      "ĠÑģÐµÐ½ÑĤÑıÐ±ÑĢÑı": 4887,
      "ĠÐºÐ½Ð¾Ð¿": 4888,
      "ĠÐ·Ð°Ð¿Ð°Ð´": 4889,
      "Ð¾Ð²ÑĥÑİ": 4890,
      "ĠÐ¼ÐµÑħÐ°Ð½Ð¸Ð·": 4891,
      "ĠÐ½Ð°Ð²ÐµÑĢÐ½Ð¾Ðµ": 4892,
      "ĠÐºÐ¾Ð¼Ð¼Ñĥ": 4893,
      "ÑĢÐµÐ±": 4894,
      "ĠÑįÐºÑģÐ¿ÐµÑĢÐ¸Ð¼": 4895,
      "ĠÐ´Ð²Ð¸Ð¶ÐµÐ½Ð¸Ðµ": 4896,
      "ĠÐ¸Ð³ÑĢÐ°ÑĤÑĮ": 4897,
      "ĠÑĥÑģÐ¿Ð¾ÐºÐ¾": 4898,
      "ĠÐ´ÑĢÑĥÐ³Ñĥ": 4899,
      "Ð¸ÑĤÐµÐ»ÑıÐ¼Ð¸": 4900,
      "ĠÐ²Ð¸Ð½": 4901,
      "ĠÑĥÑĢ": 4902,
      "ĠÐ¸Ð¼ÐµÐ½": 4903,
      "ĠÐ¼Ð½ÐµÐ½Ð¸Ñİ": 4904,
      "ĠÑıÐ·ÑĭÐºÐµ": 4905,
      "ĠÐ½Ð°Ð¼ÐµÑĢ": 4906,
      "ÐĿÐµÑĤ": 4907,
      "ĠÑģÐ¾Ð·Ð´Ð°ÑĤÑĮ": 4908,
      "ĠÑģÑĭÐ½": 4909,
      "ĠÐºÐ°ÑģÐ°ÐµÑĤÑģÑı": 4910,
      "ĠÐ°ÑģÑģ": 4911,
      "ĠÑħÐ¾ÑĩÐµÑĤÑģÑı": 4912,
      "ÐĽÑİ": 4913,
      "Ð»ÑıÐ½": 4914,
      "ĠÐ§ÐµÑĢ": 4915,
      "ĠÐ½ÐµÐ¿ÑĢÐ¸ÑıÑĤ": 4916,
      "ĠÐķÑģÑĤÑĮ": 4917,
      "ĠÐ²ÑĭÐ·Ð²": 4918,
      "ĠÐºÑĢÑĭÑĪ": 4919,
      "ÐºÑĥÐ¿": 4920,
      "Ð±Ð¾Ð¹": 4921,
      "ĠÐ¡Ð¸ÑĢ": 4922,
      "ĠÑĢÑı": 4923,
      "Ð°Ð»ÑĮÐ½Ð¾ÑģÑĤÑĮ": 4924,
      "ÐµÐ²ÑĭÑħ": 4925,
      "ĠÐľÐ¾Ð¶Ð½Ð¾": 4926,
      "ÑıÑīÐµÐ³Ð¾": 4927,
      "ĠÐ·Ð°ÐºÑĢÑĭÐ²": 4928,
      "ĠÐ¿Ð¸ÑĪÐµÑĤ": 4929,
      "ĠÐ¼ÑĥÑĩ": 4930,
      "ÑĤÐ¾Ð½Ð°": 4931,
      "Ð¿Ð»": 4932,
      "ĠÐĳÐµÐ·": 4933,
      "ĠÑĥÐ»Ð¸ÑĨÐµ": 4934,
      "ĠÑģÐºÑĢÑĭÐ²": 4935,
      "ĠÐ¾Ð±ÑģÑĥÐ¶Ð´": 4936,
      "ĠÑģÐ¸ÑģÑĤÐµÐ¼Ñĥ": 4937,
      "ĠÐ¿ÑĢÐ¸Ð´ÑĥÐ¼": 4938,
      "ÐµÐ½Ð¸ÑıÐ¼": 4939,
      "Ð¾ÑĤÐ¾Ð¼": 4940,
      "ĠÐ¿ÑĥÑĤÐµÑĪÐµ": 4941,
      "Ð°Ð¹ÑģÑı": 4942,
      "ĠÐ¶ÐµÐ»Ð°Ð½Ð¸Ðµ": 4943,
      "ĠÐ·Ð¾Ð²": 4944,
      "ÑĳÐ³": 4945,
      "ĠÐ¿ÑĢÐ¾Ð¸Ð·Ð²Ð¾Ð´ÑģÑĤÐ²Ð°": 4946,
      "ĠÐ³ÑĢÑıÐ·": 4947,
      "ĠÑĥÐ²Ð¸Ð´ÐµÐ»Ð°": 4948,
      "ĠÐ±Ð¾Ð»ÑĮÑĪÐ¾Ðµ": 4949,
      "Ð½ÐµÐ½Ð¸Ð¹": 4950,
      "ĠÐķÑīÐµ": 4951,
      "ÑĢÐ°ÑĨÐ¸Ð¸": 4952,
      "ĠÐ¿Ð¸ÑĢ": 4953,
      "ĠÐ¾Ð¿ÑĥÐ±Ð»Ð¸ÐºÐ¾Ð²": 4954,
      "ĠÐ¿Ð¾Ð»Ð°Ð³": 4955,
      "ĠÐ¿Ð¾Ð¶Ð°Ð»ÑĥÐ¹ÑģÑĤÐ°": 4956,
      "ĠÐ°Ð´Ð¼Ð¸Ð½Ð¸": 4957,
      "ĠÐ²ÑĭÐ´ÐµÑĢÐ¶": 4958,
      "ĠÐĴÑĤÐ¾ÑĢ": 4959,
      "Ð½Ð°Ð·Ð½Ð°Ñĩ": 4960,
      "ĠÑģÐµÑĢÐµÐ´": 4961,
      "ĠÐºÑĢÐ°": 4962,
      "ĠÑĢÐ¾Ð´Ð°": 4963,
      "ĠÐ¿Ð¾Ð²Ð¾Ð´Ñĥ": 4964,
      "ĠÐ¸Ð·Ð¼ÐµÑĢ": 4965,
      "ĠÐ²ÐµÑĤÐµÑĢ": 4966,
      "ĠÑģÐ¿Ð¸Ð½Ð¾Ð¹": 4967,
      "ĠÑģÑħÐ¾Ð´": 4968,
      "ĠÑģÑĤÐ°ÑĤÑĮÐ¸": 4969,
      "ĠÐ¸ÑģÑĤÐ¾ÑĢÐ¸Ñı": 4970,
      "Ð¹Ð´": 4971,
      "ĠÐ¿ÑĢÐ¾Ñħ": 4972,
      "ÑĥÐ½Ð´": 4973,
      "ĠÐ·Ð°Ð½ÑıÑĤ": 4974,
      "ĠÐµÐ²ÑĢÐ¾Ð¿ÐµÐ¹": 4975,
      "Ð°ÑĪÐ¸": 4976,
      "ĠÑģÐºÐ»Ð°Ð´": 4977,
      "Ð¾Ð²Ð°Ð»ÑģÑı": 4978,
      "Ð¡Ð¢": 4979,
      "ĠÐ³ÑĢÐ°Ð¼": 4980,
      "ĠÐ¿Ð¾ÑħÐ¾Ð´": 4981,
      "og": 4982,
      "ĠÑģÐ²ÐµÑĤÐ°": 4983,
      "âĢ¢": 4984,
      "ĠÐ¿ÑĢÐ¸ÑģÑĤÑĥÐ¿": 4985,
      "ĠÑĩÐµÐ¼Ñĥ": 4986,
      "ĠÐ¾ÑĤÐºÑĥÐ´Ð°": 4987,
      "ĠÐ³Ð¾Ð´Ð¾Ð²": 4988,
      "ĠÐ³Ð¸Ð¿": 4989,
      "ĠÐ½Ð°ÑĩÐ°Ð»Ð¾": 4990,
      "ĠÐ¶ÐµÑĢÑĤÐ²": 4991,
      "ĠÐºÐ¾Ð½ÑĨÐ¾Ð²": 4992,
      "ĠÐĲÐ½Ð³Ð»Ð¸": 4993,
      "Ð¼Ð¾ÑĤÑĢÑı": 4994,
      "Ð°Ð½ÐµÐµ": 4995,
      "ĠÐ¿Ð¾ÑģÐ¼Ð¾ÑĤÑĢÐµÑĤÑĮ": 4996,
      "ĠÐ¿Ð¾Ð´Ñģ": 4997,
      "ĠÐ¿Ð°Ð»ÑĮÑĨÑĭ": 4998,
      "ĠÐºÐ¸Ð½Ð¾": 4999,
      "ÑģÐºÐ°": 5000,
      "ĠÐłÑĥÑģ": 5001,
      "ĠÑģÐ¸ÑĤÑĥÐ°ÑĨÐ¸Ñı": 5002,
      "ĠÐ¿ÑĥÑĤÐµÐ¼": 5003,
      "ĠÐ¾Ð±Ð»ÐµÐ³": 5004,
      "Ð°ÑĤÐµÐ»ÑĮÐ½ÑĭÐµ": 5005,
      "ĠÐ¿ÐµÑĢÐ²ÑĭÐµ": 5006,
      "ĠÐºÐ¾Ð»ÑĮ": 5007,
      "ĠÑģÐ¾Ð³Ð»Ð°ÑģÐ½Ð¾": 5008,
      "ĠÐ»ÐµÑĩÐµÐ½Ð¸Ñı": 5009,
      "Ġ23": 5010,
      "ĠY": 5011,
      "ĠÐ½Ð°ÐºÐ°Ð·": 5012,
      "ĠÐĴÐ¾Ð·Ð¼Ð¾Ð¶Ð½Ð¾": 5013,
      "ÑĤÐ¸ÑĢÑĥ": 5014,
      "ĠÐķÐ¼Ñĥ": 5015,
      "ct": 5016,
      "ft": 5017,
      "ĠÐ·Ð°ÐºÐ°Ð·": 5018,
      "ĠÑħÐ¾Ð´Ðµ": 5019,
      "ĠÐ´Ð½Ð¸": 5020,
      "Ð¸ÑĦÐ¸Ðº": 5021,
      "Ð¸Ð½Ð´": 5022,
      "ĠÑĤÐ°ÐºÑĥÑİ": 5023,
      "Ð¸ÑĢÐ¾Ð²Ð°Ð»Ð¸": 5024,
      "ĠÐ±ÑĢÐ°ÑĤÐ°": 5025,
      "ĠÐ»Ð¸ÑĨÐ¾Ð¼": 5026,
      "Ð·Ð¸": 5027,
      "ĠÐ·Ð½Ð°ÐµÑĤÐµ": 5028,
      "ĠÐ·Ð½Ð°Ð¼ÐµÐ½": 5029,
      "ĠÐ·Ð²ÑĥÐº": 5030,
      "ĠÐ²Ð·ÑĢÑĭÐ²": 5031,
      "Ð°ÑİÑīÑĥÑİ": 5032,
      "Ð¸Ð¼Ð°Ñı": 5033,
      "ĠÑģÐµÑĢÐ´ÑĨÐ°": 5034,
      "ĠÑģÐ¿Ð°ÑĤÑĮ": 5035,
      "ĠÑĪÐºÐ¾Ð»Ðµ": 5036,
      "ĠÑĦÑĥÐ½ÐºÑĨÐ¸Ð¸": 5037,
      "Ð½Ð¸ÐºÐ°Ð¼": 5038,
      "ĠÑģÑĤÐ°Ð½Ð´Ð°ÑĢÑĤ": 5039,
      "ĠÑģÐ¾ÑĩÐµÑĤ": 5040,
      "ÑİÑģÑĮ": 5041,
      "Ð¼ÐµÑĪ": 5042,
      "ÑĭÐ²Ð°Ð»Ð°": 5043,
      "ĠÐ²ÑģÐ¿Ð¾Ð¼Ð¸Ð½": 5044,
      "Ð¸ÑĢÐµ": 5045,
      "Ð²ÐµÑģÑĤÐ¸": 5046,
      "ĠÐ¤ÑĢÐ°Ð½ÑĨÐ¸Ð¸": 5047,
      "Ġon": 5048,
      "ĠÐ¼Ð°Ð¼Ð°": 5049,
      "Ð°Ð²Ð°Ð»": 5050,
      "ĠÐ¶Ð°ÑĢ": 5051,
      "indows": 5052,
      "ĠÐ¸Ð½Ð²ÐµÑģÑĤ": 5053,
      "Ð¾ÑĢÐ¾": 5054,
      "ĠÐ²Ð¾Ð·Ð±": 5055,
      "ĠÐ°Ð±ÑģÐ¾Ð»ÑİÑĤÐ½Ð¾": 5056,
      "ĠÑģÐºÐ²Ð¾Ð·ÑĮ": 5057,
      "ÐļÐ¾Ð¼": 5058,
      "ĠÐ²ÐµÑĢÑĤ": 5059,
      "ĠÑĩÐ°ÑģÑĤÑĮÑİ": 5060,
      "ĠÐĴÐ¾ÑģÑĤ": 5061,
      "Ġfor": 5062,
      "ĠÐ²Ð´Ð¾Ñħ": 5063,
      "ĠÐ²Ð¾Ð·Ð»Ðµ": 5064,
      "ÑĭÐ´ÑĥÑī": 5065,
      "ĠÐ¿ÑĢÐµÐ·Ð¸Ð´ÐµÐ½ÑĤ": 5066,
      "ÑĩÐ¸ÐºÐ¸": 5067,
      "ĠÐ±Ð¾Ð»ÑĮÑĪÐ¸Ð¼": 5068,
      "ĠÐĵÐ¾ÑģÐ¿Ð¾Ð´": 5069,
      "Ð¸ÑģÑĤÑĢ": 5070,
      "ĠÐ¡Ð¿Ð°ÑģÐ¸Ð±Ð¾": 5071,
      "ĠÐ¿Ð¾ÑĨÐµÐ»Ð¾Ð²": 5072,
      "Ð³Ð°ÑĢ": 5073,
      "ĠÑģÐ¾Ð¾Ð±ÑīÐ°ÐµÑĤ": 5074,
      "ĠÐ¿Ð°": 5075,
      "ĠÐ¼ÐµÐ´Ð¸ÑĨÐ¸Ð½": 5076,
      "ĠÐ°Ð²Ð¸": 5077,
      "ĠÐ²Ð¾Ð´Ð¾Ð¹": 5078,
      "Ð¾Ð³ÑĢÐ°Ð¼": 5079,
      "ÑĥÐ´Ð¾Ð²": 5080,
      "ÑĥÑĩÐ¸": 5081,
      "ĠÐ½ÐµÐ±Ð¾Ð»ÑĮÑĪÐ¾Ð¹": 5082,
      "ĠÐ²ÑĭÐ½ÑĥÐ¶": 5083,
      "ĠÑĩÑĳÐ¼": 5084,
      "ÐµÐ´Ð»Ð¸Ð²": 5085,
      "ĠÐ³Ðµ": 5086,
      "ine": 5087,
      "ĠÐ¿ÑĢÐ¸Ð²Ð¾Ð´Ð¸ÑĤ": 5088,
      "ĠÐ´ÐµÑģÑıÑĤÑĮ": 5089,
      "ÑĥÐ´ÑĢ": 5090,
      "ÑīÐ¸Ðº": 5091,
      "ĠÑĪÐ°ÑĢ": 5092,
      "ĠÑģÐ¸Ð´ÐµÐ»": 5093,
      "ĠÐ¸ÑģÐ¿ÑĥÐ³": 5094,
      "Ð¾ÑħÑĢÐ°Ð½": 5095,
      "ĠÐ¿Ð¾Ð´ÑĩÐ¸Ð½": 5096,
      "Ð°Ð½ÑĤÐ°": 5097,
      "Ð¸Ð»ÑĮÐ½Ð¾": 5098,
      "ÑĭÐ»Ð¸": 5099,
      "ÑĢÐ¸Ñģ": 5100,
      "ĠÑĤÐ²Ð¾Ð¹": 5101,
      "ĠÐ¼Ð°ÑĢÑĤÐ°": 5102,
      "Ð¸Ð²Ð¾": 5103,
      "Ð¸Ð»Ðµ": 5104,
      "ÐµÐ´Ð°": 5105,
      "ĠÐ¿ÑĢÐ¸Ð²ÑĭÐº": 5106,
      "Ð²ÑĤÐ¾ÑĢ": 5107,
      "23": 5108,
      "ĠÐ³Ð»Ð°Ð²Ð½Ð¾Ðµ": 5109,
      "ÑĤÐµÑĢÐ½": 5110,
      "ĠÐ¸Ð±Ð¾": 5111,
      "Ð¾ÐµÐ´Ð¸Ð½": 5112,
      "Ð¿ÑĢÐµÐ¶": 5113,
      "ĠÐ¸ÑģÐ¿ÑĢÐ°Ð²": 5114,
      "ĠÑĥÐ»ÑĭÐ±ÐºÐ¾Ð¹": 5115,
      "ĠÑĤÑĢÐµÐ²": 5116,
      "ĠÑĤÐµÑħÐ½Ð¸ÑĩÐµÑģÐº": 5117,
      "ĠÑģÐ¾ÑģÑĤÐ°Ð²Ð»ÑıÐµÑĤ": 5118,
      "ĠÐ¿ÑĢÐ¾Ð±Ð»ÐµÐ¼Ð°": 5119,
      "Ġ195": 5120,
      "ĠÐ¾ÐºÑĤÑıÐ±ÑĢÑı": 5121,
      "ĠÐ³Ð»ÑıÐ´Ñı": 5122,
      "ĠÐ¿Ð¾Ð¹Ð¼": 5123,
      "ĠÑįÐ»ÐµÐºÑĤÑĢÐ¾Ð½": 5124,
      "ÐµÐ½Ñĥ": 5125,
      "ÑĪÐµÐ±": 5126,
      "art": 5127,
      "ÑģÑĤÑĢÐµÐ»": 5128,
      "ĠÑģÐ¼ÑĭÑģÐ»Ðµ": 5129,
      "ĠÐ»ÐµÑģÑĤ": 5130,
      "ĠÑĥÐ¿ÑĢÐ°Ð¶": 5131,
      "ÑĥÐ¶ÐµÐ»Ð¸": 5132,
      "ĠÑħÑĥÐ´Ð¾Ð¶": 5133,
      "ĠÑĥÐ³Ð¾Ð»": 5134,
      "ĠÑģÐµÑĤÐ¸": 5135,
      "ĠÑĤÐ¸ÑĪ": 5136,
      "ÑĥÑĢÑĥ": 5137,
      "ĠÐ¿ÐµÑĢÐ²ÑĭÑħ": 5138,
      "Ġ$": 5139,
      "ĠÐ¼Ð¾ÑĤÐ¸Ð²": 5140,
      "ĠÐ²Ð²ÐµÐ´": 5141,
      "ĠÑģÐµÐºÑĥÐ½Ð´Ñĥ": 5142,
      "Ð°ÐºÐ¾Ð¼": 5143,
      "ĠÐ¿ÑĢÐ¾Ð³Ð¾Ð²Ð¾ÑĢ": 5144,
      "ĠÐ¿Ð¾Ð²ÐµÑĢÑħÐ½Ð¾ÑģÑĤÐ¸": 5145,
      "ĠÐ¿ÑĢÐµÐ²ÑĢÐ°Ñī": 5146,
      "ĠÐºÐ¾Ð½ÑģÑĤÑĢÑĥÐº": 5147,
      "ĠÐ¿Ð¾ÑģÑĤÐµÐ¿ÐµÐ½Ð½Ð¾": 5148,
      "ÐĿÐ°Ð¿": 5149,
      "ĠÐ´Ð¾Ñĩ": 5150,
      "ĠÐŁÐ¾ÑĤÐ¾Ð¼": 5151,
      "ĠÐ¸Ð³ÑĢÐ¾Ðº": 5152,
      "ĠÐ±Ð°ÑĤ": 5153,
      "ĠÐ²ÑĭÐ³Ð»ÑıÐ´ÐµÐ»": 5154,
      "Ġr": 5155,
      "ĠÐ¼Ð¾Ð¼ÐµÐ½ÑĤÐ°": 5156,
      "ĠÑģÐºÑĥÑĩ": 5157,
      "ĠÐ¶Ð¸Ð²Ð¾ÑĤÐ½ÑĭÑħ": 5158,
      "Ð¸ÐºÐ¾Ð¹": 5159,
      "ĠÐºÐ¼": 5160,
      "ĠÑģÑĭÐ½Ð°": 5161,
      "ÐµÑģÐ¼Ð¾ÑĤÑĢÑı": 5162,
      "ĠÐ¿ÑĢÐ¾Ñī": 5163,
      "ĠÐ¿ÑĢÐµÐ´Ð½Ð°Ð·Ð½Ð°Ñĩ": 5164,
      "ĠÐ¸ÑģÑĤÐ¾ÑĢÐ¸Ñİ": 5165,
      "ĠÑģÐ¼ÐµÑĢÑĤ": 5166,
      "ĠÐŃÐ´": 5167,
      "ĠÐ°ÑĢÑĤ": 5168,
      "ÐŀÐĿ": 5169,
      "ĠÐ·Ð°ÐºÑĢÑĭÑĤ": 5170,
      "ĠÐºÐ¾Ð¼Ð¿Ð¾Ð½": 5171,
      "ĠÐ¼Ð¾Ð·Ð³Ð°": 5172,
      "ĠÑħÐ°ÑĢÐ°ÐºÑĤÐµÑĢÐ¸ÑģÑĤ": 5173,
      "ĠÐ±ÑĭÐ²Ð°ÐµÑĤ": 5174,
      "ĠÐ¿ÑĢÐ¸ÑĪÐµÐ»": 5175,
      "ĠÐ±ÑĥÐ´ÐµÑĪÑĮ": 5176,
      "ĠÐºÐ°Ð»": 5177,
      "ĠÐ¿Ð¾Ð¼Ð¾Ð¶ÐµÑĤ": 5178,
      "ÑıÑīÐ¸Ñħ": 5179,
      "ĠÑĪÐµÑģÑĤ": 5180,
      "ĠÐ·Ð°Ð²ÑĤÑĢÐ°": 5181,
      "ÐĲÑĢ": 5182,
      "ĠÑĤÐµÐ¿Ð»": 5183,
      "ĠÐłÐ¾Ð´": 5184,
      "ĠÐ´ÑĢÑĥÐ·ÐµÐ¹": 5185,
      "ĠÑĤÐµÐº": 5186,
      "Ð¸ÑĩÐµÐ³Ð¾": 5187,
      "ik": 5188,
      "ĠÑģÑĤÐ¾ÑĢÐ¾Ð½Ðµ": 5189,
      "ĠÐ¼ÑĥÐ¶ÑĩÐ¸Ð½Ñĭ": 5190,
      "ĠÐ§ÐµÑĢÐµÐ·": 5191,
      "Ð¾Ð»Ðµ": 5192,
      "ĠÐ²ÑĭÑģÑĤÐ°Ð²": 5193,
      "ĠÐ¼Ð°Ð»ÑĭÑĪ": 5194,
      "ĠÐ¼Ð¾Ð³Ð»Ð¾": 5195,
      "Ð¾Ð²Ð°ÑĢ": 5196,
      "Ġ60": 5197,
      "ÑĨÐ°Ñħ": 5198,
      "ĠÐ»ÐµÐºÐ°ÑĢ": 5199,
      "ĠÑĢÐ°Ð·Ð³Ð¾Ð²Ð°ÑĢ": 5200,
      "ĠÐ±Ð¾Ð»ÑĮÑĪÑĥÑİ": 5201,
      "Ð¸Ð±Ð»Ð¸Ð¾ÑĤ": 5202,
      "ĠÐ»Ð¸Ð½Ð¸Ð¸": 5203,
      "ĠÐ¾Ð¿ÑĢÐ°Ð²": 5204,
      "Ð½ÑıÐ»Ð¸": 5205,
      "ĠÐ¼ÐµÑĩÑĤ": 5206,
      "Ð¸Ð¼Ð¾Ð¹": 5207,
      "ĠÐºÑĢÑĥÐ¶": 5208,
      "ÐµÑĤÐ¾Ð¼": 5209,
      "ĠÐ¶Ð¸Ð»": 5210,
      "ĠÐ±ÑĥÐ´ÐµÑĤÐµ": 5211,
      "Ð¸ÑĢÐ°Ñı": 5212,
      ".\"": 5213,
      "Ð»ÑıÑİÑī": 5214,
      "Ġde": 5215,
      "Ð¾ÑĢÐ²": 5216,
      "ĠÑĤÑī": 5217,
      "ĠÑĢÐ°ÑģÑħÐ¾Ð´": 5218,
      "ard": 5219,
      "ÐµÑīÐµÐ½Ð¸Ñı": 5220,
      "Ð¾Ð´Ð¾Ð²": 5221,
      "ĠÑĢÐµÐ·ÑĥÐ»ÑĮÑĤÐ°ÑĤÑĭ": 5222,
      "ort": 5223,
      "ÑģÐ»Ñı": 5224,
      "are": 5225,
      "ÐµÑĢÐºÐ²Ð¸": 5226,
      "ĠÑħÐ»Ð¾Ð¿": 5227,
      "ĠÐ´ÐµÐºÐ°Ð±ÑĢÑı": 5228,
      "ĠÐ¸Ð½Ð´Ð¸Ð²Ð¸Ð´Ñĥ": 5229,
      "ĠÐĶÐµÐ²ÑĥÑĪÐºÐ°": 5230,
      "ĠÑģÐ¼Ð¾ÑĤÑĢÐ¸ÑĤ": 5231,
      "ÑĥÑİÑīÐµÐµ": 5232,
      "ĠÐ¾ÑĤÐ´ÑĭÑħ": 5233,
      "ĠÐ²Ð·Ð°Ð¸Ð¼Ð¾Ð´ÐµÐ¹ÑģÑĤÐ²": 5234,
      "ÑĥÐºÐ¾Ð²": 5235,
      "ĠÐ¾ÑĤÐ»Ð¸ÑĩÐ¸Ðµ": 5236,
      "ĠÐºÑĥÐ»": 5237,
      "ĠÑģÐ°Ð¹": 5238,
      "ÐºÐ°Ñĩ": 5239,
      "ĠÑģÐ»ÑĥÑħ": 5240,
      "ĠÐ¿ÑĢÐµÐ¿Ð¾Ð´": 5241,
      "Ġis": 5242,
      "Ð¿Ð¾Ñģ": 5243,
      "ĠÐ°Ð²ÑĤ": 5244,
      "Ð¸ÑģÑĤÐ¾Ð²": 5245,
      "ÑıÐ½ÑĥÑĤ": 5246,
      "Ìģ": 5247,
      "ĠÐ·Ð½Ð°ÑĩÐ¸ÑĤÐµÐ»ÑĮÐ½Ð¾": 5248,
      "ĠÑĥÐ·Ð½Ð°": 5249,
      "ĠÐ¿Ð¸ÑģÐ°Ð»": 5250,
      "ĠÐ°Ð½ÑĤÐ¸": 5251,
      "ĠÐ¿Ð¾Ð´ÑĢÐ°Ð·": 5252,
      "ĠÐ¿Ð¸ÑģÑĮÐ¼Ð¾": 5253,
      "ĠÐºÐ¾Ðµ": 5254,
      "ÑĭÐ²Ð°Ñİ": 5255,
      "ĠÑįÐ»ÐµÐ¼ÐµÐ½ÑĤ": 5256,
      "ĠÐºÐ¾Ð¼Ð¼ÐµÐ½ÑĤ": 5257,
      "ĠÐ¾ÑģÑĤÐ°ÐµÑĤÑģÑı": 5258,
      "ĠÑĦÑĢÐ°Ð·": 5259,
      "ĠÐ¿Ð¾ÑħÐ¾Ð¶Ðµ": 5260,
      "ĠÐ¿ÑĢÐ¾Ð¼ÑĭÑĪÐ»ÐµÐ½": 5261,
      "ĠÐĵÐ´Ðµ": 5262,
      "ĠÐ¿ÑĢÐ¸Ð±Ð»Ð¸Ð¶": 5263,
      "ĠÐ¼ÑĥÐ·ÑĭÐº": 5264,
      "Ð¾Ð»Ðº": 5265,
      "ÑĪÑĤÐ°Ð±": 5266,
      "ĠÑıÑģÐ½Ð¾": 5267,
      "ĠÐ¾Ð±Ð¾Ð·Ð½Ð°Ñĩ": 5268,
      "ĠÐºÐ¾ÑĤÐ¾ÑĢÑĭÐ¼Ð¸": 5269,
      "Ð¾ÑĤÐ²": 5270,
      "ĠÐ¡Ð¾Ñİ": 5271,
      "ĠÐļÐ»": 5272,
      "ĠÐ°Ð»ÐºÐ¾Ð³": 5273,
      "ÐµÐ»Ð»Ð¸": 5274,
      "ĠÑģÐ¾ÑģÑĢÐµÐ´": 5275,
      "ĠÐĴÐ¸Ðº": 5276,
      "Ð¸ÑĢÐ°ÐµÑĤ": 5277,
      "ĠÑĢÐµÑĨ": 5278,
      "ĠÐ²ÑģÐ»ÐµÐ´": 5279,
      "40": 5280,
      "ĠÐ¿Ð»ÐµÑĩÐ¾": 5281,
      "ÑĥÐ·Ñĭ": 5282,
      "ĠÐ¿Ð¾ÑĪÐ»Ð¸": 5283,
      "ĠÐ¿Ð¾Ð´ÑĥÐ¼Ð°Ð»": 5284,
      "ĠÐ±ÑĥÐºÐ²Ð°Ð»ÑĮÐ½Ð¾": 5285,
      "ÐŁÑĢÐµÐ´": 5286,
      "ĠÐ¾Ð±ÑĢ": 5287,
      "Ġ21": 5288,
      "ÑįÑĤÐ¾": 5289,
      "ĠÑıÐ½Ð²Ð°ÑĢÑı": 5290,
      "ĠÐºÐ¾ÑĢÐ¼": 5291,
      "ook": 5292,
      "ĠÐ²ÐµÑģÑĤÐ¸": 5293,
      "ĠÐ±Ñİ": 5294,
      "ÑĢÐ°Ð¶Ð´": 5295,
      "ÑģÑĤÐ²Ð°Ñħ": 5296,
      "ĠÐ¢ÑĥÑĢ": 5297,
      "ÑıÑīÐ¸Ðµ": 5298,
      "ĠÐ¿ÑĢÐ¸Ð¾Ð±ÑĢÐµÑĤ": 5299,
      "ĠÐºÐ¾Ð½ÐºÑĥÑĢ": 5300,
      "Ð³Ðµ": 5301,
      "ĠÐ¿ÑĢÐ¸Ð²ÐµÑģÑĤÐ¸": 5302,
      "ĠÐ´ÑĭÑĪ": 5303,
      "ĠÐ¾ÑĤÐ½Ð¾ÑĪÐµÐ½Ð¸Ð¹": 5304,
      "ĠÐ¿Ð¾Ð²ÑĢÐµÐ¶Ð´": 5305,
      "Ð½Ð¾ÑģÑĤÑıÐ¼Ð¸": 5306,
      "ÑĭÐ²Ð°ÑĤÑĮÑģÑı": 5307,
      "ĠÐ»ÑİÐ±Ð¸ÑĤ": 5308,
      "ĠÐ¾ÑģÑĤÐ°Ð»Ð¾ÑģÑĮ": 5309,
      "ĠÐ¾ÑģÐ²Ð¾Ð±": 5310,
      "Ð»ÑıÐ»": 5311,
      "ĠÐ¸Ð½ÑĤÐµÑĢÐµÑģÐ½Ð¾": 5312,
      "ĠÐ¡ÑĤÑĢ": 5313,
      "):": 5314,
      "ĠÐĲÑĢÐ¼": 5315,
      "ĠÐ²Ð»Ð¸ÑıÐ½Ð¸Ðµ": 5316,
      "Ð¸ÑĢÑĭ": 5317,
      "ĠÐ¿ÑĢÐ¾ÑĪÐ»Ð¾": 5318,
      "ÐŀÐĴ": 5319,
      "ĠÐĲÐ±": 5320,
      "ĠÐ±ÐµÑģÐº": 5321,
      "Ð¼Ð¾ÑĤ": 5322,
      "ĠÐŃÑĢ": 5323,
      "ĠÑģÐ²ÑıÐ·ÑĮ": 5324,
      "Ð»ÐµÐ½Ð½Ð¾Ð¹": 5325,
      "ĠÐºÑĢÐ¾Ð²Ð°ÑĤÑĮ": 5326,
      "ĠÑģÑĤÑĢÐ°Ð½Ð½Ð¾": 5327,
      "ĠÐ°Ð¼": 5328,
      "ĠÐĵÐ»Ð°Ð²": 5329,
      "ĠÐºÐ¾ÑĢÑĢ": 5330,
      "Ð¾ÑĢÑıÐ´": 5331,
      "ex": 5332,
      "ĠÐ¸ÑģÑĤÐ¸Ð½": 5333,
      "ĠÑģÐ¾Ð´ÐµÑĢÐ¶Ð¸ÑĤ": 5334,
      "ÐºÐ¾ÑĢ": 5335,
      "ÐŀÐ´Ð½Ð°ÐºÐ¾": 5336,
      "ĠÑģÐ´ÐµÐ»Ð°Ð»Ð°": 5337,
      "ĠÐľÐµÐ½Ñı": 5338,
      "ĠÐºÐ¾Ð¶Ð¸": 5339,
      "ĠÐ³ÑĢÑĥÐ¿Ð¿Ð°": 5340,
      "ĠÐŁÐ¾ÑĤÐ¾Ð¼Ñĥ": 5341,
      "ĠÐļÐ¸": 5342,
      "ĠÐ¾Ð±Ð»ÐµÐ³Ñĩ": 5343,
      "ĠÐłÐ¾Ð±": 5344,
      "ĠÐ½ÐµÐ´Ð°Ð²Ð½Ð¾": 5345,
      "ÐºÐ°Ð·": 5346,
      "ĠÐ¼ÑĥÐ¶ÑĩÐ¸Ð½": 5347,
      "ĠÐ´ÑĥÑĢ": 5348,
      "ĠÐ¾Ð¼": 5349,
      "ĠÐ²ÐµÑĢÐ½ÑĥÑĤÑĮÑģÑı": 5350,
      "ĠÑĥÐ¼Ð°": 5351,
      "ĠÑĤÑĢÑĥÐ´Ð°": 5352,
      "ĠÐ¿ÑĢÐ¾ÑĤÑıÐ¶ÐµÐ½Ð¸Ð¸": 5353,
      "ĠÐ¾Ð±ÑĬÐµÐ¼": 5354,
      "ÐµÑĢÐµÐ¶": 5355,
      "ĠII": 5356,
      "ĠÐ½Ð¾ÑıÐ±ÑĢÑı": 5357,
      "ĠÐ¿ÑĢÐµÐ´ÑĭÐ´ÑĥÑī": 5358,
      "ĠÐľÐ°ÑĢÐº": 5359,
      "ĠÐ¼Ð¸Ð¼Ð¾": 5360,
      "ĠÐ¾ÐºÐ½Ð¾": 5361,
      "Ð¾Ð³Ð»Ð°ÑģÐ½Ð¾": 5362,
      "ÑĩÐµÑĢ": 5363,
      "ĠÐ¿Ð¾ÑģÐ²ÑıÑī": 5364,
      "ĠÐºÐ½Ð¸Ð³Ñĥ": 5365,
      "ĠÐ»Ð¸ÑĤÐµÑĢÐ°ÑĤÑĥÑĢ": 5366,
      "ĠÑĪÐµÐ»": 5367,
      "ĠÐ¿ÑĢÐ¾ÑĨÐµÑģÑģÐµ": 5368,
      "ĠÐ±Ð¾Ð»ÐµÐ·Ð½Ð¸": 5369,
      "ÐµÐ²Ð°ÑĤÑĮ": 5370,
      "Ð°ÐºÐ¾Ð½ÐµÑĨ": 5371,
      "ĠÐ¸ÑģÐ¿Ð¾Ð»ÑĮÐ·ÑĥÐµÑĤÑģÑı": 5372,
      "ÑģÐºÐ¾": 5373,
      "ĠÐ»Ð¾ÑĪ": 5374,
      "Ð°ÑĤÐºÐ¸": 5375,
      "ĠÐ°Ð²Ð³ÑĥÑģÑĤÐ°": 5376,
      "ÐłÐĲ": 5377,
      "ĠÐ½ÐµÑĦ": 5378,
      "ĠÑģÐ»Ð¾Ð¶Ð½Ð¾": 5379,
      "ĠÐ¿Ð¾Ð´Ð±": 5380,
      "Ð°ÐºÐ¾Ð½": 5381,
      "Ð²Ð°ÑĢÐ´": 5382,
      "ĠÑģÐ¼ÐµÑħ": 5383,
      "ĠÐ¸Ð´Ð¸": 5384,
      "ĠÐ²Ð¸Ð´Ð°": 5385,
      "Ð¸ÑĨÐ¸ÑĢÐ¾Ð²": 5386,
      "ĠÑģÐ¾Ð±ÑĭÑĤÐ¸Ñı": 5387,
      "ĠÐ¾Ð±Ð½Ð¾Ð²": 5388,
      "ĠÑģÐ¸Ð»Ð¾Ð¹": 5389,
      "ant": 5390,
      "ĠÐ´Ð°Ð½Ð½ÑĭÐ¹": 5391,
      "Ð¾ÑĢÐ¸Ñı": 5392,
      "ĠÐ»ÐµÐ´": 5393,
      "ÐµÐ·Ð´Ðµ": 5394,
      "ÑģÑĤÐ°Ð½": 5395,
      "ĠÐºÐ¾Ð½Ñĩ": 5396,
      "!!!": 5397,
      "Ð°Ð²ÑĪÐ¸Ðµ": 5398,
      "ĠÐ¡ÑĤÐ°ÑĢ": 5399,
      "ĠÐ¸Ñī": 5400,
      "ĠÐ¸ÑİÐ½Ñı": 5401,
      "ĠÑĤÑĢÐµÑĤ": 5402,
      "ĠÐĿÐ¸ÐºÐ¾Ð»": 5403,
      "Ð¿ÑĢÐ¾Ð²": 5404,
      "ĠÑĢÐ°Ð·Ð²ÐµÐ´": 5405,
      "ÑĨÐ¾Ð¼": 5406,
      "ĠÐ±ÑĢÐ¸ÑĤÐ°Ð½": 5407,
      "ĠÐ¼Ð¸Ð½ÑĥÑĤÑĥ": 5408,
      "Ð¾Ð¿ÑĢÐ¸ÑıÑĤ": 5409,
      "ĠÐ¿ÐµÑĢÐ²Ð¾Ð¼": 5410,
      "Ð»ÑıÑĤÑĮÑģÑı": 5411,
      "ĠÑĤÐ°Ð»": 5412,
      "Ð°Ð²Ð°Ñı": 5413,
      "Ð¾Ð¿Ð¸Ñģ": 5414,
      "ĠÑĢÐµÑĪÐ¸Ð»Ð¸": 5415,
      "ĠÐ¾ÑĤÑĩÐ°Ñı": 5416,
      "ĠÐ¿Ð°Ð½": 5417,
      "Ð¸ÑĨÐ°": 5418,
      "ĠÐ¼Ð¸Ð³": 5419,
      "ĠÐĿÐ°Ð¼": 5420,
      "ĠÐ²Ð¾ÑģÐ¿Ð¸ÑĤ": 5421,
      "ĠÐ¸Ð¼Ð¿": 5422,
      "Ð¾Ð±ÑĢÐ¸ÑĤ": 5423,
      "ÑĤÐ°Ñī": 5424,
      "ĠÐ¿Ð¾ÑģÐ»ÐµÐ´Ð½ÐµÐµ": 5425,
      "ĠÐ¸Ð»": 5426,
      "ÑĤÐ¾Ðµ": 5427,
      "Ð½Ð¾Ð·": 5428,
      "Ð¾Ð±Ð¾ÑĢÐ¾ÑĤ": 5429,
      "ĠÐ½ÐµÐ´ÐµÐ»Ð¸": 5430,
      "ĠÐºÐ°ÑĢÑĮ": 5431,
      "ĠÐºÐ¾Ð½ÐµÑĨ": 5432,
      "ĠÐ¾ÐºÐ½Ð°": 5433,
      "ĠÐ¾ÐºÐ°Ð·Ð°Ð»Ð¾ÑģÑĮ": 5434,
      "ĠÐ´ÑĥÑĪÐ¸": 5435,
      "ÑĭÐ²Ð°Ð½Ð¸Ñı": 5436,
      "ĠÐ¿Ð»ÐµÑĩÐ°Ð¼Ð¸": 5437,
      "ĠÐ²ÐµÑĢÐ½ÑĥÐ»ÑģÑı": 5438,
      "ĠÐ³Ð¾Ð²Ð¾ÑĢÑİ": 5439,
      "ĠÐ¼ÐµÑģÑıÑĨ": 5440,
      "Ð´Ð°ÑİÑī": 5441,
      "ĠWindows": 5442,
      "ĠÐ¼Ð¸ÑĢÐ¾Ð²Ð¾Ð¹": 5443,
      "ĠÐ¸ÑģÐºÐ°ÑĤÑĮ": 5444,
      "our": 5445,
      "Ð»Ð¸Ð¼Ð¿": 5446,
      "ĠÐ°Ð¿ÑĢÐµÐ»Ñı": 5447,
      "ÑĢÐ°Ð¸Ð½": 5448,
      "ĠÐ°Ð½Ð°Ð»Ð¾Ð³": 5449,
      "ĠÐĽÑİÐ±": 5450,
      "ÑģÑĤÐ²Ð¸Ð¸": 5451,
      "ĠÐĿÐ°ÑģÑĤ": 5452,
      "ĠÐ±ÐµÑģÐ¿Ð»Ð°ÑĤ": 5453,
      "ĠÐ½Ð¸ÐºÐ°ÐºÐ¾Ð³Ð¾": 5454,
      "ĠÑĥÐºÑĢÐµÐ¿": 5455,
      "Ð°Ð»ÑĮÑıÐ½": 5456,
      "ĠÐ¾Ð´ÐµÐ¶": 5457,
      "ĠÐ¢ÑĢ": 5458,
      "ĠÐŁÐ¾ÐºÐ°": 5459,
      "Ð½Ð¸Ð¼Ð¸": 5460,
      "ĠÐ¿ÑĢÐ¾ÑĨÐµÑģÑģÐ°": 5461,
      "ĠÑĤÑĢÐ°Ð´Ð¸ÑĨÐ¸Ð¾Ð½": 5462,
      "ell": 5463,
      "Ð¾Ð½Ð°Ñĩ": 5464,
      "ĠÐ¿Ð¾Ð´Ð²ÐµÑĢÐ³": 5465,
      "Ð¿ÐµÑĢÐ²": 5466,
      "ĠÐ´Ð°Ð½Ð½Ð¾Ð¹": 5467,
      "Ð½Ð¾Ð´": 5468,
      "ĠÐ²Ð¸ÑĤ": 5469,
      "ĠÑīÐµÐº": 5470,
      "Ð¸ÑĩÐ°": 5471,
      "ĠÐ¡ÐµÑĢÐ³": 5472,
      "ĠÑĢÐ°Ð¼ÐºÐ°Ñħ": 5473,
      "ÑİÐ¶": 5474,
      "ÐµÐ½ÑĮÐµ": 5475,
      "Ð¡Ð°Ð¼": 5476,
      "ĠÐ½Ð¾ÑĩÐ¸": 5477,
      "ĠÐ¸ÑİÐ»Ñı": 5478,
      "Ġ28": 5479,
      "ĠÐ§ÐµÐ¼": 5480,
      "ĠÑĢÐ¾Ð»Ð¸": 5481,
      "ĠÑģÐ¾Ð±ÑĭÑĤÐ¸Ð¹": 5482,
      "ĠÐľÐ¾ÑĢ": 5483,
      "Ġ*": 5484,
      "ĠÑģÐµÐ»ÑĮ": 5485,
      "ĠÑģÐ¾ÑģÑĤÐ¾ÑıÐ½Ð¸Ñı": 5486,
      "Ð·Ð´": 5487,
      "ĠÐ´ÐµÐ¼Ð¾ÐºÑĢÐ°ÑĤ": 5488,
      "ĠÐ²ÐµÑĢÐ¾ÑıÑĤÐ½Ð¾": 5489,
      "ĠÑĢÐ°ÑģÑģÑĩÐ¸ÑĤ": 5490,
      "ĠÐ½Ð°Ð¿ÑĢÐ¾ÑĤÐ¸Ð²": 5491,
      "ĠÐ¶Ð´Ð°ÑĤÑĮ": 5492,
      "ĠÐ¿ÑĢÐ¾ÑĪÐ»Ð¾Ð¼": 5493,
      "ĠÐ³Ð¾Ð»Ð¾ÑģÐ¾Ð¼": 5494,
      "ÑıÐ±ÑĢÐµ": 5495,
      "Ð¾Ð²Ð°Ð»Ð¾": 5496,
      "ĠÐ·ÐµÑĢÐº": 5497,
      "ĠÑĦÐ¸ÑĢ": 5498,
      "ÐµÑĢÐ±ÑĥÑĢÐ³": 5499,
      "ĠÐ²Ð¾Ð·ÑĢÐ°ÑģÑĤÐµ": 5500,
      "ĠÐ·ÐµÐ¼Ð»Ðµ": 5501,
      "ÑĨÐµÐ»": 5502,
      "ĠÐ¾ÑĤÐ½Ð¾ÑģÐ¸ÑĤÑģÑı": 5503,
      "Ð½ÑıÐºÐ°": 5504,
      "ĠÐ³Ð¾Ð½": 5505,
      "ĠÐ´Ð°Ð½Ð½ÑĭÐ¼": 5506,
      "eb": 5507,
      "ĠÑĢÐµÑĩÐ¸": 5508,
      "Ð¾Ð¸Ð½": 5509,
      "Ġ189": 5510,
      "ĠÐ·Ð½Ð°Ð½Ð¸Ñı": 5511,
      "ĠÑħÑĥÐ¶Ðµ": 5512,
      "ĠÐ±ÐµÐ·ÑĥÐ¼": 5513,
      "ÑĢÐ¸ÐµÐ½ÑĤ": 5514,
      "ÑĢÐ¸ÑĢÑĥ": 5515,
      "ĠÑģÑĤÑĢÑĥÐºÑĤÑĥÑĢ": 5516,
      "Ð°Ð½Ð´Ð°": 5517,
      "ĠÐ¾ÑģÑĤÐ°Ð½": 5518,
      "ĠÑģÐºÐ»Ð¾Ð½": 5519,
      "ĠÐ²ÐµÐ´ÑĥÑī": 5520,
      "ĠÐ²ÑĭÐ´Ð¾Ñħ": 5521,
      "ĠÐķÐµ": 5522,
      "ĠÑģÑĤÐ°Ðº": 5523,
      "ĠÑĨÐµÑĢÐºÐ¾Ð²": 5524,
      "ĠÐ¿ÑĢÐ¸Ð±Ñĭ": 5525,
      "ÐĶÐµÐ²": 5526,
      "Ð»ÑıÑĤ": 5527,
      "ĠÐºÐ¾Ð½ÑĤÑĢÐ¾Ð»ÑĮ": 5528,
      "ĠÐ½Ð°Ð·ÑĭÐ²Ð°ÐµÑĤÑģÑı": 5529,
      "ĠÐ´Ð¸Ð·": 5530,
      "ĠÐ¿Ð¾ÐµÐ·Ð´": 5531,
      "ĠÐ±Ð»Ð¾Ð½": 5532,
      "Ð°ÑĤÐµÐ»ÑĮÑģÑĤÐ²Ð¾": 5533,
      "ĠÐ²Ð¸Ð´ÐµÐ»Ð°": 5534,
      "ĠÑģÐ²ÐµÐ´": 5535,
      "____": 5536,
      "ĠÐ·Ð½Ð°ÑĩÐµÐ½Ð¸Ñı": 5537,
      "Ð¸ÑĤÐµÐ»ÑĮÐ½ÑĥÑİ": 5538,
      "Ð¾ÑĢÑĤÐ°": 5539,
      "Ð°ÑĢÐ¸Ð¹": 5540,
      "ĠÐ·Ð°Ð¸Ð½ÑĤÐµÑĢÐµÑģ": 5541,
      "ÑĮÐ¸": 5542,
      ".:": 5543,
      "Ð°ÑĤÐµÐ»ÑĮÐ½Ð¾Ð³Ð¾": 5544,
      "ĠÐ½Ð¸ÐºÐ¾Ð³Ð¾": 5545,
      "ĠÐ°ÐºÐºÑĥÑĢÐ°ÑĤ": 5546,
      "ĠÐ¼ÐµÑģÑıÑĨÐ°": 5547,
      "ĠÐ¿ÑĢÐ¸Ð²ÐµÑĤ": 5548,
      "ĠÐ±Ð¾Ð»ÑĮÑĪÐ°Ñı": 5549,
      "ĠÐ½ÑĥÐ¶ÐµÐ½": 5550,
      "26": 5551,
      "ÑĨÐ¸Ð¾Ð½Ð¸": 5552,
      "ĠÑĢÐ¾Ð²": 5553,
      "ĠÐ¿Ð¾Ð¼Ð¾Ð³Ð°ÐµÑĤ": 5554,
      "Ð»Ð°Ð¹Ð½": 5555,
      "ĠÑĨÐ¸ÑĦ": 5556,
      "27": 5557,
      "ĠÐ¼Ð°ÑĪÐ¸Ð½": 5558,
      "ÑĢÐ°Ð»Ñı": 5559,
      "ĠÐ½ÑĥÐ¶Ð½Ð°": 5560,
      "ĠÑģÐ»ÐµÐ´ÑĥÑİÑīÐ¸Ðµ": 5561,
      "ĠÐ¨ÑĤ": 5562,
      ".).": 5563,
      "ĠÐĽÐ°Ð´Ð½Ð¾": 5564,
      "ĠÑĪÐºÐ¾Ð»Ñĥ": 5565,
      "ÑĥÑĪÐºÑĥ": 5566,
      "ĠÐ²Ð»Ð¸": 5567,
      "Ð¾ÑĢÐ°Ñĩ": 5568,
      "ĠÐĲÑħ": 5569,
      "Ð¾Ð»Ð¾Ð³Ð¸Ñı": 5570,
      "Ð¼Ð¾Ð½": 5571,
      "ĠÐ¾Ð±Ð¸Ð´": 5572,
      "ĠÐ¾ÑĦÐ¸ÑĨ": 5573,
      "Ð°Ð½Ð´Ð¸Ð´": 5574,
      "ĠÑĤÐ°ÐºÐ¸Ð¼Ð¸": 5575,
      "ĠÑĥÐ¼Ðµ": 5576,
      "ÑĭÐ¶": 5577,
      "ĠÐŀÐ¿": 5578,
      "ÐµÑģÐ»Ð¸": 5579,
      "ĠÑħÑĢÐ°Ð¼": 5580,
      "ĠÐ°Ð¿Ð¿Ð°ÑĢ": 5581,
      "ÑĨÐ°ÑĢ": 5582,
      "ĠÐµÑħ": 5583,
      "ĠÐ¾ÑĨÐµÐ½Ð¸": 5584,
      "Ð¸Ð½Ð³Ð°": 5585,
      "ver": 5586,
      "ĠÐĶÐ¶ÐµÐ¹Ð¼": 5587,
      "ĠÑĢÐ¾Ð¶Ð´ÐµÐ½Ð¸Ñı": 5588,
      "ĠÐºÐ¸ÑĤÐ°Ð¹": 5589,
      "Ð¾ÑĩÐ½ÑĭÑħ": 5590,
      "ĠÐĺÐ²Ð°Ð½Ð¾Ð²": 5591,
      "ĠÐ¾Ð¿ÐµÑĢÐ°ÑĨÐ¸Ð¸": 5592,
      "ĠÑģÐ²ÑıÑĤ": 5593,
      "Ð»Ð¸ÑĩÐµÑģÐº": 5594,
      "ĠÐ¿Ð»Ð°Ð²": 5595,
      "ĠÐ½ÐµÐ¿Ð¾Ð´": 5596,
      "Ð¸Ð½Ðº": 5597,
      "ĠÐ¾Ð±ÑĢÐ°Ð·Ð¾Ð²Ð°Ð½Ð¸Ñı": 5598,
      "Ð§ÑĤÐ¾Ð±Ñĭ": 5599,
      "ĠÑĤÐµÐ¼Ñĥ": 5600,
      "ĠÐºÐ¸Ð»": 5601,
      "ĠÐ½Ð°Ð±Ð»Ñİ": 5602,
      "ĠÑģÑĭÐ³ÑĢ": 5603,
      "ĠÐºÑĢÐ°ÑĤ": 5604,
      "ĠÐ³ÑĢÑĥÐ·": 5605,
      "ĠÐ¿Ð¾Ð·Ð½Ð°ÐºÐ¾Ð¼": 5606,
      "ĠÐ½ÐµÐºÐ¾ÑĤÐ¾ÑĢÐ¾Ðµ": 5607,
      "ĠÑģÑĢ": 5608,
      "ĠÑģÑĤÐµÐ½Ñĭ": 5609,
      "if": 5610,
      "ĠÐ¿ÑĥÐ³": 5611,
      "ÐµÐ²ÑĭÐµ": 5612,
      "ĠÐ¾ÑģÑĤÐ°Ð»ÑĮÐ½ÑĭÐµ": 5613,
      "ĠÐ¼Ð¾ÑģÑĤ": 5614,
      "ĠÐ¿Ð¾Ð´ÑĬ": 5615,
      "ĠÐ²Ð¾Ð¿ÑĢÐ¾ÑģÐ¾Ð²": 5616,
      "ĠÐ³Ð¸": 5617,
      "ĠÑħÑĢÐ¸ÑģÑĤÐ¸Ð°Ð½": 5618,
      "ĠÐ±ÑĢÐ¾Ð½": 5619,
      "ÑĢÐ°ÑīÐµÐ½Ð¸Ñı": 5620,
      "ĠÐ¿ÑĢÐ¾Ð´ÑĥÐºÑĤÐ¾Ð²": 5621,
      "Ð¼Ð¾Ð¼": 5622,
      "ĠÐĴÐ°Ð»": 5623,
      "ĠÐŀÐ´Ð¸Ð½": 5624,
      "ĠÐĶÐ¾Ð½": 5625,
      "Ġ27": 5626,
      "ĠÑĩÐµÐ»Ð¾Ð²ÐµÐºÑĥ": 5627,
      "ĠÐ¿Ð°Ð»ÑĮÑĨÐ°Ð¼Ð¸": 5628,
      "ĠÐĶÑį": 5629,
      "ĠÐ¾ÑĤÐ²ÐµÑĤÐ°": 5630,
      "ĠÐ¿ÑĢÐ¸ÑĪÐ»Ð°": 5631,
      "ĠÐ²Ð°ÑĪÐµ": 5632,
      "ĠÐ½Ð°ÑħÐ¾Ð´ÑıÑĤÑģÑı": 5633,
      "ĠÑĩÑĤÐ¾Ð±": 5634,
      "ĠÐĿÐ°ÑĢ": 5635,
      "ĠÐ¿Ð¾Ð´Ð¿": 5636,
      "ĠÐ²Ð¾Ð·Ð´ÑĥÑħÐ°": 5637,
      "ĠÐ¿ÑĢÐ¾Ð½Ð¸Ðº": 5638,
      "ĠÐ¾ÐºÐ°Ð·Ð°Ð»Ð°ÑģÑĮ": 5639,
      "ĠÑĪÐºÐ¾Ð»ÑĮ": 5640,
      "Ð½Ð¸Ñİ": 5641,
      "ĠÑĢÐ°ÑģÑģÐ»Ð°Ð±": 5642,
      "ĠÐ·Ð°Ð¹": 5643,
      "ĠÐºÐ»Ð°Ð´": 5644,
      "ĠÐĺÑģ": 5645,
      "ĠÐ¿ÑĤÐ¸": 5646,
      "ĠÐ½ÐµÐ²ÐµÑĢÐ¾ÑıÑĤ": 5647,
      "ĠÐĲÐ¼": 5648,
      "ĠÐ»ÑİÐ±Ð¾Ð¼": 5649,
      "âĢĿ.": 5650,
      "ĠÐ½ÐµÐ¾Ð±ÑħÐ¾Ð´Ð¸Ð¼Ð¾ÑģÑĤÐ¸": 5651,
      "ĠÐ½Ð¾Ð²ÑĥÑİ": 5652,
      "ĠÐ¼Ð¾Ñĩ": 5653,
      "ĠÐĿÐ¾Ð²": 5654,
      "ĠÑĥÐºÐ°Ð·ÑĭÐ²": 5655,
      "Ð³Ð¸Ð¾Ð·": 5656,
      "ĠÐ¼ÑĥÑģ": 5657,
      "ĠÐ¼Ð»Ð½": 5658,
      "ĠÑģÐ¸ÑģÑĤÐµÐ¼Ðµ": 5659,
      "ĠÑĢÐµÐ±ÐµÐ½Ð¾Ðº": 5660,
      "ĠÐ´Ð°ÑĢ": 5661,
      "ĠÐ´ÐµÑıÑĤÐµÐ»ÑĮÐ½Ð¾ÑģÑĤÑĮ": 5662,
      "ĠÐĿÐ°Ñĩ": 5663,
      "ÐµÐ½Ð¸Ð½": 5664,
      "Ð¼Ð¸Ð³": 5665,
      "ĠÑįÑĤÐ¸Ð¼Ð¸": 5666,
      "ĠÐ¿Ð¾Ð¼Ð½Ñİ": 5667,
      "ÐµÐ·Ð¸Ð´": 5668,
      "ĠÐĶÐ¸": 5669,
      "Ð¸ÑĨÐ¸Ñİ": 5670,
      "Ġ26": 5671,
      "ĠÐ¿ÑĢÐ¾ÑĪÐµÐ¿ÑĤ": 5672,
      "ĠÑĢÐ°Ð·Ð²Ðµ": 5673,
      "ĠXV": 5674,
      "ĠÑĥÑģÐ¸Ð»": 5675,
      "ĠÐ²ÑģÐºÐ¾ÑĢÐµ": 5676,
      "ÑĳÐ½Ð½Ð¾": 5677,
      "ÑĥÐ»Ð°": 5678,
      "ĠÐ¿Ð¾ÑĪÐµÐ»": 5679,
      "ÑĥÑģÑĤÐ¸Ð»": 5680,
      "ÑĮÑİÑĤ": 5681,
      "ĠÐ½Ð°Ð¼Ð½Ð¾Ð³Ð¾": 5682,
      "ĠÐ´ÑĥÐ¼Ð°Ð»Ð°": 5683,
      "ĠÐ¸Ð½ÑĦÐµÐº": 5684,
      "Ð¾ÑĩÐ½ÑĭÐµ": 5685,
      "Ð°Ð¾": 5686,
      "ĠÐ±Ð¾Ð»ÑĮÑĪÐ¸Ðµ": 5687,
      "ĠÑĦÐµÐ²ÑĢÐ°Ð»Ñı": 5688,
      "ĠÑĪÐµÐ¿": 5689,
      "Ð°ÑĢÐµ": 5690,
      "ĠÑĢÐ°Ð¹Ð¾Ð½Ðµ": 5691,
      "ĠÐ²Ð¾Ð¹Ð½Ð°": 5692,
      "ĠÑĪÐµÑģÑĤÑĮ": 5693,
      "ĠÐ»Ð¸Ð¼": 5694,
      "Ð°Ð½Ð¸ÑıÑħ": 5695,
      "Ġ190": 5696,
      "ate": 5697,
      "ĠÑģÑĩÐ¸ÑĤÐ°ÐµÑĤ": 5698,
      "ĠÐ¿Ð»Ñİ": 5699,
      "Ð¸ÐºÐ°Ð¼Ð¸": 5700,
      "ĠÐĵÐµÑĢÐ¼Ð¸Ð¾Ð½Ð°": 5701,
      "ĠÐ²Ð²Ð¾Ð´": 5702,
      "ĠÐ¿ÑĢÐ¾Ð²ÐµÑģÑĤÐ¸": 5703,
      "ĠÐ¹": 5704,
      "Ð°Ð¼ÐµÐ½ÑĤ": 5705,
      "ÐµÐ³Ð°": 5706,
      "ĠÐ¼Ð°ÑģÑĤÐµÑĢ": 5707,
      "ĠÐ¿Ð»ÐµÐ¼": 5708,
      "ĠÐ¸ÑģÐ¿Ð¾Ð»": 5709,
      "ĠÐ½Ð°Ð¿ÑĢÐ°Ð²Ð»ÐµÐ½Ð¸Ð¸": 5710,
      "ĠÐ®Ð¶": 5711,
      "ÑĥÐ³Ð¾Ð»ÑĮ": 5712,
      "Ð°ÑĢÐ¸Ñī": 5713,
      "ĠÐ°ÑĥÐ´Ð¸": 5714,
      "Ġst": 5715,
      "ĠÐ¿ÐµÑĢÐµÐ³Ð¾Ð²Ð¾ÑĢ": 5716,
      "ĠÑģÐ¾ÑģÑĢÐµÐ´Ð¾ÑĤÐ¾Ñĩ": 5717,
      "Ð»Ð¸ÑĤ": 5718,
      "ĠÐľÐµÐ¶Ð´Ñĥ": 5719,
      "ĠÐ¢Ð¾ÑĤ": 5720,
      "ĠÑģÐ¿Ð¸Ð½Ñĥ": 5721,
      "ĠÑģÑĤÐ¾ÑıÐ»Ð°": 5722,
      "ĠÐ¼Ð°ÑĪÐ¸Ð½Ñĥ": 5723,
      "28": 5724,
      "ĪĴ": 5725,
      "ĠÐļÐ¾": 5726,
      "ÑĢÐ¸Ð³Ð¸Ð½": 5727,
      "ĠÐ¿Ð¾Ð»ÑĥÑĩÐµÐ½Ð¸Ñı": 5728,
      "ĠÐ¼Ð¾Ð±": 5729,
      "ĠÐ¸Ð½ÑģÑĤÐ¸ÑĤÑĥÑĤ": 5730,
      "ĠÐŀÑĩÐµÐ½ÑĮ": 5731,
      "ĠÑģÑĤÑĢÐ°Ð½Ð°Ñħ": 5732,
      "Ð²ÐµÐ»": 5733,
      "ĠÑģÐ¿ÐµÑĪ": 5734,
      "ĠÑĤÐµÐ¿Ð»Ð¾": 5735,
      "ĠÐ½Ð°ÑĢÐ¾Ð´Ð°": 5736,
      "ĠÐ´Ð°Ð»ÐµÐµ": 5737,
      "ĠÐ¼Ð°ÑĤÐµÑĢÐ¸Ð°Ð»": 5738,
      "ĠÐŁÐ¾Ð²": 5739,
      "ĠÐ¿Ð¾Ð»ÑĮÐ·Ñĥ": 5740,
      "ĠÐŀÑģÑĤ": 5741,
      "ĠÐĶÑĢÑĥÐ³": 5742,
      "Ð¸ÐºÑģ": 5743,
      "ĠÐ¸Ð½ÑĦÐ¾ÑĢÐ¼Ð°ÑĨÐ¸Ñı": 5744,
      "ĠÐ¼Ð¾Ð´ÐµÐ»Ð¸": 5745,
      "ÑĭÑģÐº": 5746,
      "ĠÐ±Ð¾Ð»ÑĮÐ½Ð¾": 5747,
      "ĠÐ¾ÑĢÐ¸ÐµÐ½ÑĤ": 5748,
      "ĠÐ´Ð¾ÑĩÑĮ": 5749,
      "Ð»Ð¾Ð½Ð¸Ð»": 5750,
      "ĠÑĥÐ±ÐµÐ¶Ð´": 5751,
      "ÐµÐµÑĤÑģÑı": 5752,
      "ĠÐ·Ð°Ð¿ÑĢÐµÑī": 5753,
      "ĠÐºÐ°ÑĦ": 5754,
      "Ð°ÑĤÐµÐ»ÑĮÐ½ÑĭÐ¼": 5755,
      "ĠÐ¼ÐµÑĤÑĢÐ¾Ð²": 5756,
      "ĠÐ±ÐµÑĢÐµÐ¼": 5757,
      "ĠÐĴÐµÐ»Ð¸ÐºÐ¾Ð±ÑĢÐ¸ÑĤ": 5758,
      "ud": 5759,
      "ĠÑģÐ°Ð¼Ð°Ñı": 5760,
      "ĠÑģÐ¿Ð¸ÑģÐ¾Ðº": 5761,
      "Ð¾Ð¼Ð±": 5762,
      "ĠÑħÐ²Ð¾ÑģÑĤ": 5763,
      "ĠÑĢÐ¾Ð´Ð¸ÑĤÐµÐ»Ð¸": 5764,
      "ĠÐ±Ð¸Ð±Ð»Ð¸Ð¾ÑĤ": 5765,
      "ĠÑģÐ»ÑĥÑĩÐ°ÐµÐ²": 5766,
      "ĠÐ´ÑĢÑĥÐ³ÑĥÑİ": 5767,
      "ĠÐ½Ð¾ÑĩÑĮÑİ": 5768,
      "ĠÐľÐ¾ÑģÐºÐ²Ðµ": 5769,
      "ĠÑĤÑĥÐ¼": 5770,
      "ĠÐ°ÑģÐ¿": 5771,
      "ĠÑĪÐ¸ÑĢÐ¾ÐºÐ¾": 5772,
      "ĠÐŀÑģÐ¾Ð±": 5773,
      "Ð¸Ð²Ð°": 5774,
      "Ð°ÐµÑĪÑĮÑģÑı": 5775,
      "ĠÑģÐ¾Ð¶Ð°Ð»ÐµÐ½Ð¸Ñİ": 5776,
      "ĠÐ¼Ð¸Ð»Ð»Ð¸Ð¾Ð½Ð¾Ð²": 5777,
      "ĠÐ¾ÑĢÑĥÐ¶Ð¸Ðµ": 5778,
      "âĢ¦âĢ¦": 5779,
      "Ð»ÑĥÐ±": 5780,
      "Ð»Ð°Ñĩ": 5781,
      "Â°": 5782,
      "ĠÐ¸ÑģÐ¿Ð¾Ð»ÑĮÐ·Ð¾Ð²Ð°Ð½Ð¸Ðµ": 5783,
      "ĠÑĨÐµÐ½ÑĤÑĢÐµ": 5784,
      "ÐµÐ¹Ñģ": 5785,
      "ĠÐ´ÑĭÑħÐ°Ð½Ð¸Ðµ": 5786,
      "ĠÐķÐ²ÑĢÐ¾Ð¿Ñĭ": 5787,
      "ÑĳÑħ": 5788,
      "ĠÐ¿Ð¾ÑıÐ²Ð¸Ð»ÑģÑı": 5789,
      "ĠÑĥÑĤÑĢÐ¾Ð¼": 5790,
      "ĠÑĪÐµÑİ": 5791,
      "ÐµÐ»ÑģÑı": 5792,
      "ĠÐ¢Ð¾Ð»": 5793,
      "ÐµÐºÐ¾Ð¼": 5794,
      "ĠÐ²Ð¾Ð»ÑĪÐµÐ±": 5795,
      "ĠÑĤÐµÑĢÐ°Ð¿": 5796,
      "ĠÐ½ÐµÐ¾Ð¶Ð¸Ð´Ð°Ð½Ð½Ð¾": 5797,
      "ĠÐ·Ð½Ð°Ð¼ÐµÐ½Ð¸ÑĤ": 5798,
      "ĠÐ¸Ð½ÑĤÐµÑĢÐ²": 5799,
      "ĠÐ°ÑĤÐ¼Ð¾Ñģ": 5800,
      "ÑĤÑĥÑĢÑĭ": 5801,
      "ĠÐ¾Ð¿ÑĢÐµÐ´ÐµÐ»Ð¸ÑĤÑĮ": 5802,
      "ĠÑĤÑĢÐµÐ±ÑĥÐµÑĤ": 5803,
      "ĠÐ¾ÑĤÑģÑĤÑĥÐ¿": 5804,
      "Ð¸ÑĤÐ¸": 5805,
      "ĠÐ¿Ð»ÐµÐ½": 5806,
      "ĠÐ¿Ð¾Ð´ÐºÐ»ÑİÑĩ": 5807,
      "ÑģÑıÑĤÑģÑı": 5808,
      "ĠÐ»Ð°Ð³": 5809,
      "ĠÑģÐ¿Ð¸ÑģÐº": 5810,
      "Ð»Ð°Ðº": 5811,
      "29": 5812,
      "ĠÐ³Ð¾Ð²Ð¾ÑĢÐ¸Ð»Ð°": 5813,
      "ÑĢÑĥÑģ": 5814,
      "Ð¸ÑĤÐµÐ»ÑıÐ¼": 5815,
      "ĠÐ²Ð½Ð¸Ð¼Ð°ÑĤÐµÐ»ÑĮÐ½Ð¾": 5816,
      "ĠÑħÑĢ": 5817,
      "ĠÑĢÐµÐ±ÑĳÐ½": 5818,
      "ĠÐ¿ÑĢÐ¾Ð»": 5819,
      "ÑĩÐ¸ÐºÐ¾Ð²": 5820,
      "ĠÐ¿Ð»ÐµÑĩÐ¸": 5821,
      "ĠÐ²ÑģÑĤÐ°Ð»": 5822,
      "Ð½Ð¾Ð¶": 5823,
      "ĠÑĢÐ¾Ð´Ð¸ÑĤÐµÐ»ÐµÐ¹": 5824,
      "Ð¾Ð¼Ð°ÑĤ": 5825,
      "ĠÐľÐ¸ÑĢ": 5826,
      "ĠÑĢÐ°Ð·Ð½Ð¾Ð¾Ð±ÑĢÐ°Ð·": 5827,
      "ob": 5828,
      "ĠÐ¿Ð¾Ð´ÑĩÐµÑĢÐº": 5829,
      "ĠÐ³Ð¾Ð²Ð¾ÑĢÐ¸Ð»Ð¸": 5830,
      "one": 5831,
      "ÑĥÑģÑĮ": 5832,
      "ĠÐ¼Ð¾Ð¸Ð¼": 5833,
      "ĠÐºÑĢÐ°Ð¹Ð½Ðµ": 5834,
      "ÑĭÐ²Ð°ÑİÑĤÑģÑı": 5835,
      "ĠÐ¾ÑĤÐ½Ð¾ÑĪÐµÐ½Ð¸Ðµ": 5836,
      "ĠÐ½Ð°Ð·ÑĭÐ²Ð°ÑİÑĤ": 5837,
      "ĠÑĥÑĤÑĢÐ¾": 5838,
      "ĠÑİÐ½Ð¾ÑĪ": 5839,
      "ĠÐ²Ð°ÑĢ": 5840,
      "ĠÐ¸Ð»Ð»Ñİ": 5841,
      "ĠÐ²Ð·Ð´Ð¾ÑħÐ½ÑĥÐ»": 5842,
      "ĠÐĵÐ¾Ð»": 5843,
      "Ð²ÑıÐ·": 5844,
      "ÑĥÐ¼Ð°": 5845,
      "Ð¼Ð°Ñħ": 5846,
      "ord": 5847,
      "ĠÐ¿ÐµÑĢÐµÑĩ": 5848,
      "ĠÐ²Ð½ÐµÐ·Ð°Ð¿Ð½Ð¾": 5849,
      "!-": 5850,
      "ÑĳÑĢÑĤ": 5851,
      "Ð¾ÑģÐ°": 5852,
      "ÑĥÑİÑīÐµÐ³Ð¾": 5853,
      "ĠÐ¿ÑĢÐ¸ÑĩÐµÐ¼": 5854,
      "ĠÐºÐ¸Ð½": 5855,
      "ĠÑģÐµÐ¼ÑĮÐµ": 5856,
      "ĠÑģÐ°Ð¼Ð¾Ð»": 5857,
      "Ð°ÐµÐ¼ÑģÑı": 5858,
      "ĠÐ¿ÑĢÐ¸ÑĩÐ¸Ð½Ñĭ": 5859,
      "ity": 5860,
      "ĠÐ·Ð°ÑħÐ¾ÑĤ": 5861,
      "ĠÐ¿Ð¾Ð»Ð½Ð¾Ð¹": 5862,
      "ĠÐĶÑĢÐ°Ðº": 5863,
      "Ð¼ÑĭÑģÐ»": 5864,
      "Ð½Ð¸ÑĨÐ¸": 5865,
      "ĠÐ¿ÑĢÐµÐ´ÑĥÑģ": 5866,
      "ĠÐļÐ°ÑĤ": 5867,
      "ĠÐłÐ¤": 5868,
      "ĠÐ¢ÐµÐ±Ðµ": 5869,
      "ĠÐĺÑģÑĤ": 5870,
      "ĠÑĢÐ°ÑģÐ¿Ð¾Ð»Ð°Ð³": 5871,
      "ÑģÑĤÐ¾ÑıÑī": 5872,
      "Ð¿Ð°Ð´": 5873,
      "Ð¾ÐºÐ¾Ð¼": 5874,
      "ĠÐ±ÑĥÑĤÑĭÐ»": 5875,
      "Ð°ÑıÑģÑı": 5876,
      "ĠÐ±Ð»Ð¾Ð½Ð´Ð¸Ð½": 5877,
      "ÑĩÐ¸Ð²Ð¾": 5878,
      "Ð³Ð»Ð°Ð²": 5879,
      "ĠÑĢÑĥÐºÐµ": 5880,
      "Ġbe": 5881,
      "Ð¾ÑĩÐ½ÑĭÐ¹": 5882,
      "Ð¸ÑĨÐµ": 5883,
      "ĠÑģÐ³": 5884,
      "Ð¸ÑĤÐ¸Ð²": 5885,
      "ĠÐ½Ð°Ð¿Ð¸ÑĤ": 5886,
      "ĠÑģÐ¾Ð±Ð°Ðº": 5887,
      "ĠÐļÐ¸ÑĢ": 5888,
      "ĠÐ¿Ð¾ÐºÐ¾Ð»": 5889,
      "ĠÑĢÐ¾Ð±": 5890,
      "ĠÐ¿ÐµÑĢÐµÑĪ": 5891,
      "ĠÑĩÑĥÐ²ÑģÑĤÐ²Ð¾Ð²Ð°Ð»": 5892,
      "ĠÐ²ÑģÑĤÑĢÐµÑĩÐ¸": 5893,
      "ĠÐ¿Ð¾ÑģÐ¼": 5894,
      "ÑģÑĤÑĢÐ°Ð´": 5895,
      "ĠÐ²Ð·ÑıÐ»Ð°": 5896,
      "?..": 5897,
      "ĠÐ²Ð¾Ð·Ð½Ð¸ÐºÐ°ÐµÑĤ": 5898,
      "ĠÐ¤ÐµÐ´ÐµÑĢ": 5899,
      "Ð°ÑģÐºÐµ": 5900,
      "ĠÑįÑĦÑĦÐµÐºÑĤ": 5901,
      "ĠÐ¸Ð´ÐµÑı": 5902,
      "ĠÐĴÐ»Ð°Ð´Ð¸Ð¼": 5903,
      "ĠÐ½Ð°ÑĪÐµ": 5904,
      "ĠÐ´Ð¾Ð³Ð°Ð´": 5905,
      "ĠÐ¼Ð¾Ð»Ð¾Ð´Ð¾Ð¹": 5906,
      "ĠÐºÑĥÐ»ÑĮÑĤÑĥÑĢÑĭ": 5907,
      "ĠÐ²ÑĭÑĢÐ°Ð·": 5908,
      "Ð¾ÑĩÐ½Ð¸Ðº": 5909,
      "ĠÐ¿ÑĢÐµÑģÑģ": 5910,
      "ĠÐ¯Ð¿": 5911,
      "ĠÐ¿ÑĢÐµÐ¶": 5912,
      "ĠÐ½ÐµÐ´Ð¾": 5913,
      "ÑĤÐµÑĢÐ°": 5914,
      "ĠÐ»Ð¸ÑĩÐ½Ð¾ÑģÑĤÐ¸": 5915,
      "ĠÐ¿ÑĢÐ°Ð²Ð¸Ð»Ð°": 5916,
      "ĠÑĥÑĤÑĢÐ°": 5917,
      "Ð¿ÑĢÐ¸Ð½": 5918,
      "ĠÑĤÐµÑĢÑĢÐ¾ÑĢ": 5919,
      "ĠÐ¾Ð¿ÑĢÐ°Ð²Ð´": 5920,
      "Ð¾ÑģÑħÐ¾Ð´": 5921,
      "ĠÐ°Ð³ÐµÐ½ÑĤ": 5922,
      "ĠÐ´ÐµÐ¹ÑģÑĤÐ²Ð¸Ðµ": 5923,
      "ÐµÐ½Ð½Ð¾Ð¼Ñĥ": 5924,
      "Ð°ÑİÑīÐµÐµ": 5925,
      "ĠÐºÐ°ÑĩÐµÑģÑĤÐ²Ð°": 5926,
      "ĠÐ¿ÑĢÐ¸ÑģÑĤ": 5927,
      "ĠÐ·Ð°ÐºÐ»ÑİÑĩÐ°ÐµÑĤÑģÑı": 5928,
      "ĠÐ°Ñį": 5929,
      "ĠÐ¿ÑĢÐµÐºÑĢÐ°ÑĤ": 5930,
      "ĠÑģÐ¼Ð¾Ð³Ð»Ð°": 5931,
      "Ð°Ð½Ðº": 5932,
      "ĠÐ¿ÑĢÐ°Ð²Ð¸ÑĤÐµÐ»ÑĮÑģÑĤÐ²Ð¾": 5933,
      "ĠÐ¿ÑĢÐ¸ÑĪÐ»Ð¸": 5934,
      "ĠÐ¾Ð³Ð¾Ð½ÑĮ": 5935,
      "ÑĭÐ½": 5936,
      "ĠÐ°Ð³ÑĢÐµÑģÑģ": 5937,
      "Ð¸ÑĢÐ¾Ð²Ð°ÑĤÑĮÑģÑı": 5938,
      "ĠÐ¼Ð¾Ð´ÐµÐ»ÑĮ": 5939,
      "ÑıÑİÑĤÑģÑı": 5940,
      "ĠÑĢÐ°ÑģÑĤÐ²Ð¾ÑĢ": 5941,
      "Ð¼Ð¾Ð¹": 5942,
      "ĠÑĢÐµÑģÐ¿ÑĥÐ±Ð»Ð¸": 5943,
      "ĠÑĤÐµÐ¾ÑĢÐ¸Ð¸": 5944,
      "ĠÐ½ÐµÐ»": 5945,
      "ĠÐ¿Ð¾Ð»Ð½Ð¾Ð¼": 5946,
      "ÐĻÐ¾ÑĢ": 5947,
      "ĠÐ¼Ð½Ð¾Ð³Ð¾ÑĩÐ¸Ñģ": 5948,
      "Ð½Ð°Ð´ÑĨÐ°ÑĤÑĮ": 5949,
      "ĠÐ¿ÑĢÐµÐ´Ð¾ÑĤÐ²": 5950,
      "ĠÐ´ÐµÐ²Ð¾ÑĩÐºÐ°": 5951,
      "ĠÐ¿ÑĢÐ¾ÑĤÐ¸Ð²Ð½Ð¸ÐºÐ°": 5952,
      "ĠÑģÐµÑĢÐµÐ±": 5953,
      "ĠÐ²Ð¾Ð¹ÑģÐºÐ°": 5954,
      "ĠÑĥÑģÑĤÑĢÐ¾Ð¹ÑģÑĤÐ²Ð°": 5955,
      "ĠÑģÑĦÐ¾ÑĢÐ¼": 5956,
      "ĠÐ´ÐµÐ»Ð°ÑİÑĤ": 5957,
      "ĠÑģÐºÐ¾ÑĢÐ¾ÑģÑĤÑĮ": 5958,
      "Ð¾ÑĤÐ²Ð¾ÑĢ": 5959,
      "ĠÑĤÑĢÐµÐ±Ð¾Ð²Ð°Ð½Ð¸Ñı": 5960,
      "ĠÐ¡ÐµÐ³Ð¾Ð´Ð½Ñı": 5961,
      "ĠÐ¾Ð´Ð¸Ð½Ð¾": 5962,
      "ĠÑĢÐµÐ´Ð°Ðº": 5963,
      "Ð¾Ð²Ñĭ": 5964,
      "ÑİÑĪ": 5965,
      "ÑĢÐµÐ¿": 5966,
      "Ð½Ð¸Ð½": 5967,
      "ĠÐ¿Ð°ÑģÑģ": 5968,
      "ĠÐ¿Ð¾Ð»ÑĥÑĩÐ¸Ð»Ð¸": 5969,
      "ĠÐ¼Ð°ÑĢÐº": 5970,
      "Ð¸Ð´Ð¶": 5971,
      "ĠÐ¿Ð¾ÑıÐ²Ð¸Ð»Ð°ÑģÑĮ": 5972,
      "Ð°ÑİÑīÐ¸Ð¼Ð¸": 5973,
      "ÑĥÑīÐµÐµ": 5974,
      "ld": 5975,
      "ÑĨÐ¾": 5976,
      "ĠÐ»Ð°ÑģÐº": 5977,
      "Ð¾ÑĢÐµÑĩ": 5978,
      "Ð¼ÑĥÑĤ": 5979,
      "ÑģÐºÐ¾Ð²": 5980,
      "ÑģÑĤÐ²Ð¸ÐµÐ¼": 5981,
      "Ð»ÐµÐ½Ð½Ð¾Ð³Ð¾": 5982,
      "ĠÐ¿ÐµÑĢÐ²Ð¾Ðµ": 5983,
      "ĠÐ½Ð¾Ð²Ð¾Ðµ": 5984,
      "Ð¸Ð½ÐºÑĥ": 5985,
      "ĠÑĥÐ±Ð¸ÑĤÑĮ": 5986,
      "ĠÐ¿ÑĢÐ¾Ð´ÑĥÐºÑĤ": 5987,
      "ĠÐ¿Ð¾Ð²ÐµÐ´ÐµÐ½Ð¸Ðµ": 5988,
      "ĠÐºÐ°Ð½Ð´Ð¸Ð´": 5989,
      "ĠÐºÐ¸ÑģÐ»Ð¾ÑĤ": 5990,
      "ĠÐ²Ð¼ÐµÑĪ": 5991,
      "ĠÐ½ÐµÑģÑĩÐ°ÑģÑĤ": 5992,
      "ĠÐ¿Ð°ÑĢÐ°Ð¼ÐµÑĤ": 5993,
      "60": 5994,
      "ĠÐ³ÑĢÐ°Ð½": 5995,
      "ĠÐĿÐ¸ÑĩÐµÐ³Ð¾": 5996,
      "ĠÐ¿ÑĢÐ¸Ð½ÑıÑĤ": 5997,
      "ĠÐ¼Ð½ÐµÐ½Ð¸Ðµ": 5998,
      "ÐľÐ½Ðµ": 5999,
      "ĠÐ½Ð°Ð²Ñĭ": 6000,
      "ĠÑĥÐ¿Ð¾Ð¼Ð¸Ð½": 6001,
      "ĠÐ¿ÐµÑĢÐµÐ»": 6002,
      "ont": 6003,
      "ĠÐ¼Ð¾ÑĢÐµ": 6004,
      "ĠÐ½Ð¾ÑĢÐ¼Ð°Ð»ÑĮÐ½Ð¾": 6005,
      "ĠÐĴÐ¾Ð·": 6006,
      "ly": 6007,
      "ĠÐºÐ¾Ð¼Ð°Ð½Ð´Ð°": 6008,
      "ÐµÑĩÐ½Ð¾Ð¹": 6009,
      "ĠÐŁÑĢÐ°Ð²Ð´Ð°": 6010,
      "ĠÐ²ÑĭÐ±ÑĢ": 6011,
      "Ð¸ÑĩÐ½ÑĭÐ¹": 6012,
      "ĠÐĿÐ¸": 6013,
      "ĠÐ²Ð¾ÑģÐ¿Ð¾Ð»ÑĮÐ·": 6014,
      "ĠÐ½ÐµÐ¾Ð±ÑĭÑĩ": 6015,
      "ĠÑģÑĩÐ¸ÑĤÐ°ÑĤÑĮ": 6016,
      "ĠÐ¿ÑĢÐ¸Ð±Ð»Ð¸Ð·": 6017,
      "ĠÑħÐ¾ÑĤÐµÐ»Ð¸": 6018,
      "Ð¸Ð·Ð°ÑĨÐ¸Ð¸": 6019,
      "ĠÑĦÐ¸Ð»ÑĮÐ¼Ð°": 6020,
      "ĠÑĤÐµÑĢÐ¼Ð¸Ð½": 6021,
      "se": 6022,
      "ĠÐ¿ÑĢÐ¸ÑħÐ¾Ð´Ð¸ÑĤÑģÑı": 6023,
      "ĠÑģÑĢÐ°Ð²Ð½ÐµÐ½Ð¸Ñİ": 6024,
      "ĠÐ»Ð°Ð±": 6025,
      "Ð»Ð°Ñħ": 6026,
      "ĠÑģÑĩÐ¸ÑĤÐ°ÑİÑĤ": 6027,
      "Ð»ÐµÐ·": 6028,
      "Ð°Ð»Ð¸Ð½": 6029,
      "Ð¾Ð²ÐµÑĤ": 6030,
      "ĠÑĦÐ°Ð½ÑĤ": 6031,
      "ÐµÐ»Ð»ÐµÐº": 6032,
      "ĠÑģÐ¿Ð¾ÑĢÑĤ": 6033,
      "ĠÐ´Ð¾ÑĪ": 6034,
      "ĠÐ¿ÑĢÐµÑĤ": 6035,
      "ĠÐ·Ð°Ð¿Ð°Ñģ": 6036,
      "ĠÐ¿Ð¾Ð½ÑıÑĤ": 6037,
      "ĠÐ»Ð°Ð´Ð½Ð¾": 6038,
      "ĠÐ¿ÑĢÐ¾ÑģÑĮ": 6039,
      "Ð¸Ð²Ð°Ð»ÑģÑı": 6040,
      "ĠÑģÐµÐ¼ÑĮÑı": 6041,
      "ĠÑģÐ¾Ð»Ð´Ð°ÑĤ": 6042,
      "ĠÑĢÐµÑģÑĤ": 6043,
      "ĠÐ¿Ð¾Ð¿ÑĢÐ°Ð²": 6044,
      "ÑĥÑİÑīÐ¸Ð¼": 6045,
      "ĠÐ·Ð°Ð¼ÐµÑĤÐ¸Ð»Ð°": 6046,
      "Ð¸Ð²ÑĪÐ¸Ð¹": 6047,
      "ĠÑĤÐ°ÑĢ": 6048,
      "ÑĤÑĥÑĢÐ°": 6049,
      "ĠÑĤÐ²ÐµÑĢÐ´": 6050,
      "Ð½Ð°Ð¿ÑĢÐ¸Ð¼ÐµÑĢ": 6051,
      "ÑĥÐ¶Ñĩ": 6052,
      "ĠÐºÐ¾Ð¼Ð¿Ð»ÐµÐºÑģ": 6053,
      "Ġ000": 6054,
      "ĠÐĹÐ½Ð°Ñĩ": 6055,
      "Ð¸ÑģÑĤÑĭ": 6056,
      "ĠÑįÐ¿Ð¾Ñħ": 6057,
      "ĠÐ¾Ð´Ð½Ð¾Ð¼Ñĥ": 6058,
      "ĠÐĳÐ¾Ð»": 6059,
      "ĠÐ¼Ð°Ðº": 6060,
      "ith": 6061,
      "ĠÐºÐ¾Ð½ÑĤÐ°ÐºÑĤ": 6062,
      "ĠÐ½Ð°ÑģÐ»Ð°Ð¶Ð´": 6063,
      "ĠÑģÑĤÐ°Ð±": 6064,
      "ĠÐĴÐ¾Ð»": 6065,
      "ĠÑĢÐµÐ³ÑĥÐ»ÑıÑĢ": 6066,
      "ÐµÐ¹Ð´": 6067,
      "ĠÑģÐ´ÐµÐ»Ð°Ð»Ð¸": 6068,
      "Ð°Ð¼Ð±": 6069,
      "Ð¸ÑĤÐµÐ»ÑĮÑģÑĤÐ²Ð¾": 6070,
      "ĠÐ¿ÑĢÐµÐ´ÑģÑĤÐ°Ð²Ð¸ÑĤÑĮ": 6071,
      "ĠÐ±ÐµÐ¶": 6072,
      "ĠÐ¿ÑĭÑĤÐ°ÐµÑĤÑģÑı": 6073,
      "ĠÐ·Ð°ÑīÐ¸ÑĤÑĭ": 6074,
      "ĠÐ¸Ð½ÑģÑĤÑĢÑĥÐ¼ÐµÐ½ÑĤ": 6075,
      "Ð¾Ð¹Ð´Ñı": 6076,
      "ive": 6077,
      "ĠÐ¡Ð»Ð¾Ð²": 6078,
      "ÐľÐĺ": 6079,
      "ĠÐ²Ð¾Ð´Ð°": 6080,
      "ĠÑĤÑı": 6081,
      "ĠÐ¿ÑĢÐ¸Ð³Ð»Ð°ÑĪ": 6082,
      "ĠÐ´ÐµÑĢ": 6083,
      "ĠÑĢÑĥÐºÐ°": 6084,
      "ĠÐ¤ÑĢ": 6085,
      "ĠÑĢÐµÐ»Ð¸Ð³Ð¸Ð¾Ð·": 6086,
      "!..": 6087,
      "ĠÐĹÐ°ÑĩÐµÐ¼": 6088,
      "ÐºÐ¾ÑĤ": 6089,
      "ĠÑģÑĤÐ¸Ð¼": 6090,
      "ĠÑģÐ²ÐµÑĤÐµ": 6091,
      "ĠÐ·Ð°Ð³Ð¾Ð²Ð¾ÑĢ": 6092,
      "ĠÐ¿Ð°Ð¼ÑıÑĤÑĮ": 6093,
      "ÑģÑĤÐ²Ð¾Ð²Ð°ÑĤÑĮ": 6094,
      "ĠÐºÐ¾ÑĢÐ¾Ð±": 6095,
      "ÐµÐ´Ð»ÐµÐ½Ð½Ð¾": 6096,
      "ĠÐ°ÑĢÑħÐ¸ÑĤ": 6097,
      "ĠÑĩÑĥÐ²ÑģÑĤÐ²ÑĥÐµÑĤ": 6098,
      "ĠÐ¸Ð·Ð¼ÐµÐ½Ð¸ÑĤÑĮ": 6099,
      "Ð´Ð°ÑİÑĤÑģÑı": 6100,
      "ect": 6101,
      "Ð»ÐµÑĩÑĮ": 6102,
      "ĠÐºÐ¾Ð¼Ð¿Ð¾Ð·": 6103,
      "ĠÐ¿Ð»Ð°ÑĤÑĮÐµ": 6104,
      "ĠÐ²Ð¸ÑĢÑĥ": 6105,
      "ĠÐ¿Ð¾Ð¹ÑĤÐ¸": 6106,
      "ĠÐ°ÑĢÐµÑģÑĤ": 6107,
      "ĠCh": 6108,
      "ÑģÑĤÑĢÐµÐ¼": 6109,
      "ĠÑģÐ»ÑĭÑĪÐ°Ð»": 6110,
      "ĠÐ¸Ð´ÐµÐ¸": 6111,
      "ĠÐ¿ÑĢÐ¸Ð½Ð¸Ð¼Ð°ÑĤÑĮ": 6112,
      "ĠÐºÐ°ÐºÐ¾Ð¼": 6113,
      "ĠÐºÑĥÑĢÑģ": 6114,
      "ĠÑģÐµÑĢÑĮÑĳÐ·": 6115,
      "ĠÐ¿ÐµÑĤ": 6116,
      "ĠÐĴÐ¿ÑĢÐ¾ÑĩÐµÐ¼": 6117,
      "ĠÐ½Ð°Ð¾Ð±Ð¾ÑĢÐ¾ÑĤ": 6118,
      "ĠÐ²ÑĩÐµÑĢÐ°": 6119,
      "Ð¾ÑĤÐ½Ð¾ÑĪ": 6120,
      "ĠÐ¸ÑģÐºÑĢÐµÐ½": 6121,
      "ĠÐ²ÐºÐ»ÑİÑĩÐ°ÐµÑĤ": 6122,
      "ĠÐ¾ÑĩÐµÑĢÐµÐ´Ð½Ð¾Ð¹": 6123,
      "ĠÑĥÐºÑĢÐ°ÑĪ": 6124,
      "Ð¸Ð²Ð°Ð»Ð¸ÑģÑĮ": 6125,
      "ĠÑģÐ²ÐµÑĢ": 6126,
      "ÑĤÑĮÑģÑı": 6127,
      "Ġ80": 6128,
      "ĠÐ¢ÑĥÑĤ": 6129,
      "ĠÐ½Ð°Ð³ÑĢÑĥÐ·": 6130,
      "ĠÑĢÐ¾ÑģÑĤÐ°": 6131,
      "ĠÐ¿ÑĢÐ¾ÑĤÐµÑģÑĤ": 6132,
      "ĠÐ³ÑĢÐ¾Ð¼ÐºÐ¾": 6133,
      "ĠÐ¼Ð¾ÑĢÑı": 6134,
      "ĠÐ²ÑĤÐ¾ÑĢÐ¾Ð³Ð¾": 6135,
      "ere": 6136,
      "Ð¸ÑĢÐ¾Ð²ÐºÐ¸": 6137,
      "Ð¿ÑĢÐµÐ¶Ð½ÐµÐ¼Ñĥ": 6138,
      "Ñĸ": 6139,
      "ĠÐ²Ð°ÑĪÐ¸Ñħ": 6140,
      "ĠÐ²Ð¾ÑģÑħ": 6141,
      "ÑĢÐµÐ¶": 6142,
      "Ð°ÐµÐ¼ÑĭÑħ": 6143,
      "ĠÐ¼Ð³Ð½Ð¾Ð²ÐµÐ½Ð¸Ðµ": 6144,
      "ĠÐ´ÑĥÑĪÐµ": 6145,
      "ĠÐ¸Ð¼Ð¸": 6146,
      "ĠÑıÐ¿Ð¾Ð½": 6147,
      "ĠÐºÐ¾ÑģÑĤÑİ": 6148,
      "ĠÐ¿ÑĢÐµÐ´Ð²Ð°ÑĢ": 6149,
      "ĠÐ¾ÑģÑĤÐ°Ð»ÑģÑı": 6150,
      "ĠÐ¶ÑĥÑĢÐ½Ð°Ð»Ð¸ÑģÑĤ": 6151,
      "ĠÐ²ÐµÑĩÐµÑĢÐ¾Ð¼": 6152,
      "ĠÐ½ÐµÑĥÐ´Ð°": 6153,
      "ĠÐ²Ð¾ÑģÐ¿ÑĢÐ¸Ð½Ð¸Ð¼": 6154,
      "ÑĢÑĥÐ±": 6155,
      "Ð°Ð´ÑĨÐ°ÑĤ": 6156,
      "ĠÐĺÐ½Ð´": 6157,
      "ĠÐ¿Ð»Ð¾ÑīÐ°Ð´": 6158,
      "ĠÐ²Ð»ÑİÐ±": 6159,
      "ĠÐ¼ÑĥÐ·": 6160,
      "ĠÐºÐ»Ð°ÑģÑģÐ°": 6161,
      "ĠÐ³Ð»ÑĥÐ±Ð¾ÐºÐ¾": 6162,
      "Ð¸ÐºÐ¾": 6163,
      "ĠÐłÐ¾ÑģÑģÐ¸Ñı": 6164,
      "ĠÐŁÐµÑĢÐµÐ´": 6165,
      "ÐŁÑĢÐ¾": 6166,
      "ĠÐ¸Ð³ÑĢÐ°": 6167,
      "ĠÑģÐ¾Ð±ÑģÑĤÐ²ÐµÐ½Ð½Ð¾Ð¹": 6168,
      "ĠÑĥÑģÐ¼ÐµÑħÐ½ÑĥÐ»ÑģÑı": 6169,
      "ÑĮÐµÐ²": 6170,
      "Ð°Ð½ÑĩÐ¸Ð²": 6171,
      "ĠÐ¾ÐºÑĢÑĥÐ³": 6172,
      "ĠÐļÐ¾Ð½ÑģÑĤ": 6173,
      "ĠÐºÐ¾Ð»Ð»ÐµÐ³": 6174,
      "ĠÐŁÐ¾ÑģÑĤ": 6175,
      "ĠÐ¼ÐµÑĢÑĤÐ²": 6176,
      "ĠÐ¿ÑĢÐ¾ÑĤÐ¸Ð²Ð¾Ð¿Ð¾Ð»Ð¾Ð¶": 6177,
      "ep": 6178,
      "ĠÐ¼Ð¾Ð»ÑĩÐ°": 6179,
      "Ð½ÑıÐµÑĤÑģÑı": 6180,
      "ĠÐ²ÑĭÐ·ÑĭÐ²Ð°ÐµÑĤ": 6181,
      "ĠÑĩÐ¸ÑĤÐ°ÑĤÑĮ": 6182,
      "ĠÐ²ÑĭÐ¹ÑĤÐ¸": 6183,
      "ĠÐ¾ÐºÐ°Ð·Ð°Ð»Ð¸ÑģÑĮ": 6184,
      "ĠÐĿÐ°Ð´Ð¾": 6185,
      "Ð¸ÑĪÑĮÑģÑı": 6186,
      "ĠÑħÐ¾ÑĤÑıÑĤ": 6187,
      "Ð¾ÑĩÐ½Ð¾Ð³Ð¾": 6188,
      "ĠÑģÑĩÐ¸ÑĤÐ°ÐµÑĤÑģÑı": 6189,
      "ĠÐ³ÑĢÐ¸": 6190,
      "Ġht": 6191,
      "ĠÑĢÑĭÐ¶": 6192,
      "ĠÐ¼Ð°ÑĤÐµÐ¼Ð°ÑĤ": 6193,
      "ĠÐ±ÐµÑģÐºÐ¾Ð½": 6194,
      "ÐµÐ´Ð¾Ð¼": 6195,
      "ÑģÐµÐ³Ð´Ð°": 6196,
      "ĠÐĽÑĥÑĩ": 6197,
      "ĠÐĴÐ¼ÐµÑģÑĤ": 6198,
      "ÑĥÐ½Ð°": 6199,
      "ĠÑģÑĥÑī": 6200,
      "ĠÐ¿ÑıÑĤÐ¸": 6201,
      "ĠÑĥÑģÑĤÐ°Ð»": 6202,
      "ip": 6203,
      "ĠÐ¾Ð¿ÑĤÐ¸Ð¼": 6204,
      "ĠÐŁÑĢÐ¸Ñĩ": 6205,
      "ĠÐ½ÑĳÐ¼": 6206,
      "Ð¿Ð¾Ð·": 6207,
      "ĠÑģÐ¼Ð¾ÑĤÑĢÐµÐ»Ð°": 6208,
      "ĠÐ²Ð¸Ð´Ð¸Ð¼Ð¾": 6209,
      "ĠÐ¿ÑĢÐ¾Ð¸ÑģÑħ": 6210,
      "ĠÑĥÑģÐºÐ¾ÑĢ": 6211,
      "ĠÐ¸Ð½ÑģÑĤÑĢÑĥÐ¼": 6212,
      "Ð²ÑĭÑĩ": 6213,
      "ÐļÐĲ": 6214,
      "Ð°Ð»Ð¸Ð·Ð°ÑĨÐ¸Ð¸": 6215,
      "ĠÐ¿Ð¾Ð²ÐµÐ´ÐµÐ½Ð¸Ñı": 6216,
      "ĠÐ¾ÑģÐ½Ð¾Ð²Ð½ÑĭÑħ": 6217,
      "ĠÑģÐ¾Ð´ÐµÑĢÐ¶Ð°Ñī": 6218,
      "ĠÐ½ÐµÐ·Ð½Ð°ÐºÐ¾Ð¼": 6219,
      "ĠÑĢÐ¸ÑģÑĥÐ½": 6220,
      "ĠÐ²Ð¸Ð´Ð¸ÑĤ": 6221,
      "ÐŁÑĢÐ°Ð²": 6222,
      "ĠÑįÐ¼Ð¾ÑĨÐ¸Ð¾Ð½": 6223,
      "ĠÐ¿ÑĢÐ°Ð²Ð¸ÑĤÐµÐ»ÑĮÑģÑĤÐ²Ð°": 6224,
      "ÑĭÐ´": 6225,
      "ĠXI": 6226,
      "ĠÐ²Ð¾ÑĢÐ¾ÑĤ": 6227,
      "ĠÐ¾ÑģÐ»": 6228,
      "ĠÑĩÐ°ÑĪ": 6229,
      "ĠÐĽÐ¾Ð½Ð´": 6230,
      "ĠÐ¿Ð¾Ð·Ð´Ð½Ð¾": 6231,
      "Ð¾Ð²ÐµÐ´": 6232,
      "ĠÐ±Ð¾Ñİ": 6233,
      "Ð½ÑıÐ²": 6234,
      "Ð°Ð²Ð°": 6235,
      "ĠÑģÐ²Ð¾Ð´": 6236,
      "ĠÐĳÐ¾ÑĢ": 6237,
      "ĠÐ¿Ð¾Ð½Ð¸Ð¼Ð°Ð»": 6238,
      "ĠÐ¿ÑĢÐµÐ´Ð¿Ð¾ÑĩÑĤ": 6239,
      "ĠÐ¿Ð¾Ð»Ð¸ÑĤÐ¸ÐºÐ¸": 6240,
      "ĠÐºÐ°Ð¿Ð¸ÑĤÐ°Ð½": 6241,
      "ĠÐ¿Ð¾Ð´Ð¾ÑĪÐµÐ»": 6242,
      "Ð³Ð¸Ð¿": 6243,
      "ÑĭÐ²Ð°ÑıÑģÑĮ": 6244,
      "ĠÐ¿Ð¾ÐºÐ°Ð·Ð°ÑĤÑĮ": 6245,
      "ĠÐ·Ð²ÐµÑĢ": 6246,
      "ĠÐºÐ¾Ð»Ð¸ÑĩÐµÑģÑĤÐ²Ð°": 6247,
      "ĠÑĤÐ¾Ð»Ð¿": 6248,
      "ĠÐ¿Ð¾Ð´ÐµÐ»": 6249,
      "ĠÐ½Ð°ÑĪÐ°": 6250,
      "ĠÐ»ÑĳÐ³": 6251,
      "ĠÑĤÑĢÐµÐ±Ð¾Ð²": 6252,
      "ĠÐŀÑģÐ½Ð¾Ð²": 6253,
      "ÑĪÐµÐ¼Ñĥ": 6254,
      "Ð±Ð¸Ð½": 6255,
      "ĠÑĤÑĢÐ°Ð½Ñģ": 6256,
      "ĠÐ¿ÑĢÐµÐ·Ð¸Ð´ÐµÐ½ÑĤÐ°": 6257,
      "ÐµÐ»Ð¾ÑģÑĮ": 6258,
      "ĠÐ²Ð¸Ð´Ð¾Ð²": 6259,
      "ĠÐ¿Ð¾ÑģÑĤÐ°ÑĢ": 6260,
      "Ð°Ð½ÑĤÑĭ": 6261,
      "Ð¿Ð¸": 6262,
      "end": 6263,
      "ĠÐ¸ÑĤÐ°Ð»ÑĮÑıÐ½": 6264,
      "Ð»ÑıÐ»Ð¸": 6265,
      "ĠÐ²ÑĭÐ³Ð»ÑıÐ´Ð¸ÑĤ": 6266,
      "ĠÐ¿Ð°ÑĢÐ»Ð°Ð¼": 6267,
      "ĠÑĥÐ¹ÑĤÐ¸": 6268,
      "ĠÐ²ÐºÐ»Ð°Ð´": 6269,
      "ĠÐºÐ°Ð´": 6270,
      "ĠÑĥÐµÑħ": 6271,
      "ĠÐºÑĢÐ¸Ð·": 6272,
      "Ð¾Ð²Ð¸Ñĩ": 6273,
      "ĠÐŃÐ»ÑĮ": 6274,
      "Ð¸Ð¿Ð»Ð¾Ð¼": 6275,
      "ĠÐ¿ÑĢÐ¾Ð´Ð¾Ð»Ð¶Ð°Ð»": 6276,
      "ÑĤÑĢÐ°Ðº": 6277,
      "ĠÐ³Ð½ÐµÐ²": 6278,
      "ĠÐ¤Ð¸Ð½": 6279,
      "ĠÑĥÑģÑĤÑĢÐ°Ð½": 6280,
      "ĠÐ¾Ð±Ð½Ð¸Ð¼": 6281,
      "ĠÐ½ÐµÑĩÑĤÐ¾": 6282,
      "ĠÐŁÐ¾ÑģÐ»ÐµÐ´": 6283,
      "Ĥ¬": 6284,
      "ĠÐ³Ð¾ÑģÑĤÐ¸": 6285,
      "ang": 6286,
      "Ð½ÑĥÐ»Ð¾": 6287,
      "ĠÐ¾ÑģÑĤÐ¾ÑĢÐ¾Ð¶Ð½Ð¾": 6288,
      "ĠÐĽÐµÐ²": 6289,
      "ĠÐ¼Ð°ÑģÑĪÑĤÐ°Ð±": 6290,
      "ĠÐļÐ¸ÑĤ": 6291,
      "ĠÑĤÐ°Ð±Ð»Ð¸": 6292,
      "ĠÐ²ÑĭÐ±ÑĢÐ°ÑĤÑĮ": 6293,
      "ÑģÐ»ÐµÐ´": 6294,
      "ĠÐ»ÑİÐ±Ð¾Ð³Ð¾": 6295,
      "ÑĪÐ¸Ð¼Ð¸": 6296,
      "ĠÐ¾ÑĤÐ²ÐµÑĤÐ¸ÑĤÑĮ": 6297,
      "ĠÐºÐ¾Ð½ÑĨÐµÐ¿": 6298,
      "ÐµÐ²Ð¸Ð·": 6299,
      "ĠÐ¾ÑģÑĤÐ°Ð²Ð¸ÑĤÑĮ": 6300,
      "ĠÐ¿Ð¾Ð¹Ð´": 6301,
      "ĠÐºÐ¾Ð¶Ñĥ": 6302,
      "ĠÐ¼Ð¾Ð·Ð³": 6303,
      "ÐµÐ¼Ñĭ": 6304,
      "ĠÐ£Ð¶Ðµ": 6305,
      "ĠÐ±Ð¾ÑĢÑĮÐ±Ñĭ": 6306,
      "Ð°Ð²ÑĪÐµÐ³Ð¾": 6307,
      "ÑĢÑĥÐ¿Ð¿": 6308,
      "ĠÐ¾ÑģÑĤÐ°Ð½Ð°Ð²Ð»Ð¸Ð²": 6309,
      "ĠÑĨÐµÑĢÐºÐ²Ð¸": 6310,
      "ĠÐºÑĥÐ¿Ð¸ÑĤÑĮ": 6311,
      "Ð°Ð»ÑĮÑĪÐµ": 6312,
      "ĠÐ¿Ð¾Ð»Ð½Ð¾": 6313,
      "ĠÐ³Ð»Ð°Ð²Ð½ÑĭÐ¼": 6314,
      "ĠÑģÐ¸ÑĤÑĥÐ°ÑĨÐ¸Ñİ": 6315,
      "Ġhttp": 6316,
      "ĠÑģÐ»Ð¾Ð¼": 6317,
      "80": 6318,
      "ĠÐ¿ÑĢÐ¾Ð´ÑĥÐºÑĤÑĭ": 6319,
      "ĠÐ¾Ð±Ð¾ÑĢÑĥÐ´": 6320,
      "ĠÐ¼Ð°Ð¹": 6321,
      "ĠÐ³Ð¸Ð¿ÐµÑĢ": 6322,
      "ĠÐ¸Ð½Ð¸ÑĨÐ¸": 6323,
      "ĠÐ·ÐµÐ»": 6324,
      "ĠÐ¿Ð¾Ð³Ð¾Ð²Ð¾ÑĢÐ¸ÑĤÑĮ": 6325,
      "III": 6326,
      "ĠÐķÐ²ÑĢÐ¾Ð¿Ðµ": 6327,
      "ĠÐ¿Ð¾Ð´ÑĢÐ¾ÑģÑĤ": 6328,
      "ĠÐ·Ð°Ð¼ÐµÑĢ": 6329,
      "Ð¾Ð±Ð°Ð²": 6330,
      "ĠÐ¥ÑĢÐ¸ÑģÑĤ": 6331,
      "ĠÐĿÐĲ": 6332,
      "ĠÑģÐ²ÐµÑĤÐ»": 6333,
      "ĠÑĩÐµÑĤÑĭÑĢÐµÑħ": 6334,
      "ĠÐĽÐ¸": 6335,
      "ĠÑĤÑĢÑĥÐ´Ð¾Ð¼": 6336,
      "ÑĢÐ¸Ñĩ": 6337,
      "ĠÐĹÐ½Ð°": 6338,
      "ÐķÐł": 6339,
      "ight": 6340,
      "ĠÐ¿Ð¾ÑģÐ»ÑĥÑĪ": 6341,
      "ĠÑģÐ¿Ð¾ÑģÐ¾Ð±Ð½Ð¾ÑģÑĤÐ¸": 6342,
      "ĠÐľÐ°ÑĤ": 6343,
      "ÑģÐºÐµ": 6344,
      "Ð¾Ð½Ð³": 6345,
      "ĠÑįÑĦÑĦÐµÐº": 6346,
      "ĠÐ¸ÑģÐºÑĥÑģÑģÑĤÐ²Ð°": 6347,
      "ĠÑģÐ¿Ð¾ÑĢÑĤÐ¸Ð²": 6348,
      "ÑĥÐ¶Ð½Ð¾": 6349,
      "ĠÑĤÑĢÐ°Ð½ÑģÐ¿Ð¾ÑĢÑĤ": 6350,
      "ĠÐ¿ÑĢÐ¾Ð·": 6351,
      "ĠÑĥÑĤÐ²ÐµÑĢÐ¶": 6352,
      "ĠÑģÐ¾Ð·Ð½Ð°Ð½Ð¸Ñı": 6353,
      "ÐµÐ»Ð¾Ð²ÐµÐº": 6354,
      "Ð°ÑİÑīÐ¸ÑħÑģÑı": 6355,
      "ĠÐ¾Ð½Ð»Ð°Ð¹Ð½": 6356,
      "ĠÐ¿ÑĢÐ¸ÑĢÐ¾Ð´": 6357,
      "ĠÐ±ÑĥÐ´ÑĥÑīÐµÐ¼": 6358,
      "Ð°Ð»Ð¸ÑĤ": 6359,
      "ĠÐ¿Ð¾Ð´Ð²": 6360,
      "Ð¾ÑĤÐ¾Ð²": 6361,
      "Ð»ÐµÐ½Ð½ÑĭÐ¼": 6362,
      "Ð²ÑĭÑĩÐ°Ð¹": 6363,
      "ÑĤÐ¾ÑĪ": 6364,
      "ÐµÐ²Ð¾Ð³Ð¾": 6365,
      "ĠÑĩÐ»ÐµÐ½Ð¾Ð²": 6366,
      "Ð¶Ñĥ": 6367,
      "ĠÐ¿Ð¾Ð´ÑħÐ¾Ð´Ð¸ÑĤ": 6368,
      "ÐµÐ½ÐºÐ°": 6369,
      "ĠÐ¿Ð¾ÑĢÐ°": 6370,
      "ÐĵÐ»Ð°Ð²Ð°": 6371,
      "Ġwh": 6372,
      "ĠÑĤÐ¾Ð²Ð°ÑĢÐ¸Ñī": 6373,
      "ĠÐ¿Ð¾Ð´Ð¾Ð·ÑĢ": 6374,
      "ĠÐ¡ÑĤÐ¾": 6375,
      "ĠÑģÐ¿Ð¾ÑģÐ¾Ð±Ð½Ð¾ÑģÑĤÑĮ": 6376,
      "ĠÐ¾Ð¶Ð¸Ð´Ð°": 6377,
      "ĠÐ¿Ð¾Ð´Ð¾ÑĪÐ»Ð°": 6378,
      "ÐµÑĤÐ¸": 6379,
      "ĠÑģÐ²ÑıÑī": 6380,
      "ĠÐ³Ð¾Ð´Ð°Ñħ": 6381,
      "ÐĿÐŀ": 6382,
      "Ð»Ð¾Ñħ": 6383,
      "ĠÐ¿ÑĢÐ¾Ð²Ð¸Ð½": 6384,
      "ĠÐ¾ÑĢÐ¸Ð³Ð¸Ð½": 6385,
      "ĠÐ¿Ð»Ð°Ðº": 6386,
      "ÑĳÐ²": 6387,
      "ĠÑĤÑĢÐµÐ±ÑĥÐµÑĤÑģÑı": 6388,
      "ĠÐŃÐ»": 6389,
      "ĠÐ¿Ð¾Ð·Ð¸ÑĨÐ¸Ð¸": 6390,
      "ĠÐ¿ÐµÑĢÐ²Ð°Ñı": 6391,
      "ast": 6392,
      "Ð¸Ð·Ð²Ð¾Ð´": 6393,
      "ĠÐ´Ð¾Ð±Ð°Ð²Ð¸ÑĤÑĮ": 6394,
      "ĠÐ¿Ð¾ÑģÐ¿ÐµÑĪ": 6395,
      "ĠÐ¿ÑĢÐ¾Ð¸Ð³ÑĢ": 6396,
      "Ġ(Â«": 6397,
      "ÐŁÐ°ÑĢ": 6398,
      "Ð¸Ð¼ÐµÐ½": 6399,
      "Ð¸ÑģÐºÐ¸": 6400,
      "ĠÑĢÐ°Ð´Ð¾ÑģÑĤ": 6401,
      "ĠÐ¿ÑĢÐ¾ÐµÐºÑĤÐ°": 6402,
      "ĠÐºÑĢÑĥÑĤ": 6403,
      "ĠÐ²ÐµÑīÐµÐ¹": 6404,
      "ĠÐ´Ð°ÑĤ": 6405,
      "ĠÑĥÑĩÑĢÐµÐ¶Ð´": 6406,
      "ĠÐĿÐµÐºÐ¾ÑĤÐ¾ÑĢÑĭÐµ": 6407,
      "ack": 6408,
      "ÑĢÑİ": 6409,
      "ĠÐ³Ð¾Ð»Ð¾Ð²Ð°": 6410,
      "ĠÐ¿Ð¾ÑģÐµÐ»": 6411,
      "ĠÐ½Ð°Ð¿Ð¸ÑģÐ°Ð»": 6412,
      "ĠÐ¾ÑģÐ¾Ð±Ð¾": 6413,
      "ÐµÐ¼Ð¾Ð½": 6414,
      "ĠÐĵÐµÐ½": 6415,
      "ĠÐ²Ð¾ÑģÑģÑĤ": 6416,
      "Ð¿ÐµÑĢÐ²ÑĭÑħ": 6417,
      "ĠÑĩÐ¸ÑģÐ»Ð°": 6418,
      "ĠÐ²Ð¾Ð·Ð½Ð¸ÐºÐ½Ð¾Ð²": 6419,
      "ĠÐ±Ð°ÑĪ": 6420,
      "ĠÐĳÐ»": 6421,
      "ĠÑĤÑĭÑģ": 6422,
      "ÑĢÐµÑģÑĤ": 6423,
      "ib": 6424,
      "ĠÑĢÐ°Ð¹Ð¾Ð½": 6425,
      "ĠÐ¾ÑĤÐ¿ÑĥÑģÐº": 6426,
      "Ð°ÑĤÐµÐ»ÑĮÐ½Ð¾Ðµ": 6427,
      "ĠÐ¿ÑĢÐ¾ÑĤÐ¸Ð²Ð¾ÑĢÐµÑĩ": 6428,
      "ÑĳÑĪÑĮ": 6429,
      "Ð¸Ð»Ð¸Ñı": 6430,
      "ĠÐºÐ°Ð¶Ð´Ð¾Ð¼": 6431,
      "ĠÐ´Ð¾ÑĢÐ¾Ð¶": 6432,
      "ÑĥÑģÐ¾Ð²": 6433,
      "Ð½Ð¾Ñİ": 6434,
      "ĠÑģÐºÑĥ": 6435,
      "ĠÐ³Ð¾ÑĢÐ´": 6436,
      "Ð°Ð´Ð¾Ð±": 6437,
      "ĠÐ¿ÑĢÐµÐ¾Ð´": 6438,
      "ÑģÐ¿ÐµÐºÑĤÐ¸Ð²": 6439,
      "ĠÐ½Ð°ÑĪÐ»Ð¸": 6440,
      "ĠÐ½ÐµÐ³Ð°ÑĤÐ¸Ð²": 6441,
      "ĠÐ¼Ð°ÑģÐº": 6442,
      "ĠÑģÑĥÐ±ÑĬ": 6443,
      "ĠÑĥÑģÑĤÑĢÐ¾Ð¹ÑģÑĤÐ²Ð¾": 6444,
      "Ġ'": 6445,
      "ĠÐ±Ð¾Ð»ÑĮÑĪÐ¸Ñħ": 6446,
      "ĠÑģÐ¾Ð¿ÐµÑĢ": 6447,
      "ÐµÑīÐµÐ½Ð¸Ðµ": 6448,
      "ĠÐ¸Ð½ÑĤÐµÐ»Ð»ÐµÐº": 6449,
      "ĠÐ¾ÑģÐ¾Ð±ÐµÐ½Ð½Ð¾ÑģÑĤÐ¸": 6450,
      "Ð½Ð¸ÐµÐ¼": 6451,
      "ĠÐ¼ÐµÐ¶": 6452,
      "ĠÐ·Ð¸Ð¼": 6453,
      "ĠÐ¸ÑģÐ¿Ð¾Ð»ÑĮÐ·ÑĥÑİÑĤ": 6454,
      "ĠÐ¾ÑĤÐ²ÐµÑĩÐ°ÐµÑĤ": 6455,
      "ĠÑģÐ¼ÑĥÑī": 6456,
      "ĠÑİÐ¶": 6457,
      "ÑıÑİÑī": 6458,
      "ĠÑĤÐ¾Ð»ÑģÑĤ": 6459,
      "ĠÑģÐµÐ³Ð¾Ð´Ð½ÑıÑĪ": 6460,
      "ĠÑģÑĤÐ¾Ð¹": 6461,
      "gle": 6462,
      "ĠÐ¿ÑĢÐµÐ²Ð¾ÑģÑħÐ¾Ð´": 6463,
      "ĠÑĤÐ²Ð¾Ñı": 6464,
      "ĠÑĢÐ°ÑģÑģÑĤÑĢÐ¾Ð¹": 6465,
      "ĠÐ¿Ð¸Ð»": 6466,
      "ĠÐ¿Ð¾ÑĩÑĥÐ²ÑģÑĤÐ²Ð¾Ð²Ð°Ð»": 6467,
      "ĠÑĥÐºÑĢÐ°Ð¸Ð½": 6468,
      "ÐĿÐ¸Ðº": 6469,
      "ĠÐ½ÐµÐ¿ÑĢÐ¸": 6470,
      "ĠÐ´Ð²Ð°Ð´ÑĨÐ°ÑĤÑĮ": 6471,
      "ĠÑģÐ¾ÑģÑĤÐ°Ð²Ðµ": 6472,
      "ĠÐ·Ð¾Ð²ÑĥÑĤ": 6473,
      "ĠÐ´ÑĭÐ¼": 6474,
      "ĠÑĨÐ¸ÑĤ": 6475,
      "ĠÐŁÑĥÑĪ": 6476,
      "ĠÐ¿Ð¾Ð½ÑıÑĤÐ½Ð¾": 6477,
      "ĠÑĩÐµÑģÑĤÑĮ": 6478,
      "ĠÑģÐ½Ð¸Ð·": 6479,
      "ĠÐ¿ÑĢÐµÐ´Ð»Ð¾Ð¶ÐµÐ½Ð¸Ðµ": 6480,
      "Ġ90": 6481,
      "ÑıÑīÐµÐ¹": 6482,
      "ÐłÐ°Ñģ": 6483,
      "ĠÐ¿ÑĢÐ¸Ð½ÑıÐ»": 6484,
      "ĠÐ¿Ð¾Ð½ÑıÑĤÐ¸Ñı": 6485,
      "ĠÑĢÐµÐ´ÐºÐ¾": 6486,
      "ĠÐºÐ°ÑĪ": 6487,
      "ĠÐ²Ð°ÑĪÐ°": 6488,
      "ĠÐ¸ÑģÐ¿Ð¾Ð»ÑĮÐ·ÑĥÐµÑĤ": 6489,
      "ĠÐ¿ÑĢÐµÐ¼": 6490,
      "ĠÐĹÐ°Ð¿Ð°Ð´": 6491,
      "Ð¾ÑĢÐ´Ð¶": 6492,
      "ĠÐĲÐ¹": 6493,
      "Ġk": 6494,
      "ĠÐ´Ð¾Ñģ": 6495,
      "ĠÐ·Ð°Ð¼ÐµÐ½": 6496,
      "ĠÐĺÑĢ": 6497,
      "ÐµÐ½ÑĮÑİ": 6498,
      "ĠÐ¿ÑĢÐµÐ´Ð¼": 6499,
      "ĠÐ²ÑĢÐµÐ¼ÐµÐ½Ð°": 6500,
      "ĠÐ³ÑĢÑĥÐ´ÑĮ": 6501,
      "ĠÐ¸ÑģÑģÐ»ÐµÐ´Ð¾Ð²Ð°Ð½Ð¸Ð¹": 6502,
      "ĠÐ¼Ð°ÑĢÑĪ": 6503,
      "ĠÑĥÑģÑĤÑĥÐ¿": 6504,
      "ÐµÑĢÐ¼Ð°Ð½": 6505,
      "ĠÐ¼Ð¸Ð½ÑĥÑĤÑĭ": 6506,
      "ĠÐ²Ð»Ð°ÑģÑĤ": 6507,
      "ĠÑĢÑĥÐ±Ð°ÑĪ": 6508,
      "ÑĨÐ²ÐµÑĤ": 6509,
      "ĠÐ»ÐµÐ³ÑĩÐµ": 6510,
      "ĠÐ½Ð°Ð³ÑĢÐ°Ð´": 6511,
      "ĠÑĤÑĭÑģÑıÑĩÐ¸": 6512,
      "Ð»Ð°ÑģÑģ": 6513,
      "ĠÑĢÐ°Ð±Ð¾ÑĤÐ°Ð»": 6514,
      "ĠÐ·Ð²ÐµÐ·Ð´": 6515,
      "ĠÐ¿Ð¸ÑĤÐ°Ð½Ð¸Ñı": 6516,
      "ĠÐĿÐ°ÑĤ": 6517,
      "ĠÑģÐ°Ð¼Ð¾Ð¼Ñĥ": 6518,
      "ĠÐ¾ÐºÐµ": 6519,
      "ĠÑģÐ¾Ð·Ð½Ð°Ð½Ð¸Ðµ": 6520,
      "ĠÐ¿ÑĢÐ¸ÑĩÐ¸Ð½Ð¾Ð¹": 6521,
      "ĠÐ´Ð¸Ð²Ð¸Ð·": 6522,
      "ĠÐ¿ÑĮ": 6523,
      "ĠÐ¿Ð¾ÐºÐ°Ñĩ": 6524,
      "ĠÐ·Ð°Ð¿ÑĥÑģÐº": 6525,
      "ÑĥÐ»ÑĮÑģ": 6526,
      "ĠÑģÐ½Ð°": 6527,
      "ĠÑģÐµÐ»Ð°": 6528,
      "Ð±Ð¾Ð¼": 6529,
      "so": 6530,
      "ĠÐļÐ°Ð¶Ð´ÑĭÐ¹": 6531,
      "ĠÐ´ÑĢÐ°Ð¼": 6532,
      "ĠÐľÐ¾": 6533,
      "ĠÐ¼ÑĭÑģÐ»Ñı": 6534,
      "Ð½Ð¾ÑģÐ¸ÑĤ": 6535,
      "ĠÐ·Ð°ÐºÐ¾Ð½Ð¾Ð´": 6536,
      "ĠÐŃÐº": 6537,
      "ĠÐ¼Ð°Ð»ÐµÐ½ÑĮÐºÐ¸Ð¹": 6538,
      "ĠÐĲÐ»ÐµÐºÑģÐ°Ð½Ð´ÑĢ": 6539,
      "ĠÐ·Ð°Ð³Ð¾": 6540,
      "ĠÑĢÐ°ÑģÐ¿ÑĢÐµÐ´ÐµÐ»": 6541,
      "ÑĢÐ°ÑīÐµÐ½Ð¸Ðµ": 6542,
      "ĠÐ»ÑİÐ±Ð¾Ð¿ÑĭÑĤ": 6543,
      "ĠÐ¾Ð±ÑīÐµÐ³Ð¾": 6544,
      "ÐµÐ²Ð½Ð¾Ð²": 6545,
      "ĠÐºÑĥÑĩ": 6546,
      "Ġ29": 6547,
      "ĠÐ²Ð¾ÐµÐ½Ð½ÑĭÑħ": 6548,
      "Ð¸ÑĢÑĥÐµÐ¼": 6549,
      "ÐºÐ°ÑĤ": 6550,
      "ĠÐ¾ÑĤÐ·": 6551,
      "ĠÐ·Ð°ÑģÐ»ÑĥÐ¶": 6552,
      "ĠÐºÐ¾Ð½ÑĨÐµÐ½ÑĤ": 6553,
      "ÑĥÑİÑīÐµÐ¹": 6554,
      "ĠÐ¿ÑĢÐ¾Ð³ÑĢÐµÑģÑģ": 6555,
      "ĠÐ¿Ð¾ÑģÐ»ÐµÐ´Ð½Ð¸Ñħ": 6556,
      "ĠÐ´Ð°Ð½Ð½Ð¾Ð¼": 6557,
      "ĠÑĤÑİÑĢÑĮ": 6558,
      "ĠÐ·Ð°Ð´Ð°ÑĩÐ¸": 6559,
      "ĠÑģÐ¸ÑĢ": 6560,
      "ÐŁÐ¾ÑĩÐµÐ¼Ñĥ": 6561,
      "Ð°Ð»ÐµÐµ": 6562,
      "ĠÑģÐ¸Ð»Ð°": 6563,
      "ĠÐ¾ÑĤÐ´Ð°Ð»": 6564,
      "ĠÑĩÐ°ÑģÑĭ": 6565,
      "ĠÐ±Ð¾Ð»ÑĮÑĪÐµÐ¹": 6566,
      "Ġ?": 6567,
      "ĠÑĤÐ²Ð¾Ð¸": 6568,
      "Ð½ÐµÐ»": 6569,
      "ÑĨÐµÐ½ÑĤ": 6570,
      "ĠÐ¼ÐµÑģÑĤÐ°Ñħ": 6571,
      "ĠÐ½Ð°ÑĪÐµÐ¼": 6572,
      "ĠÐ¸Ð³ÑĢÑĥ": 6573,
      "ÑıÐ»Ð¸ÑģÑĮ": 6574,
      "ĠÐ½Ð°Ð·Ð²Ð°ÑĤÑĮ": 6575,
      "ĠÐ·Ð½Ð°ÑİÑĤ": 6576,
      "ĠÐŀÐ½Ð¾": 6577,
      "ĠÐ²ÐµÑģÐµÐ»": 6578,
      "ÐµÐ»ÑĮÐ½Ð¾": 6579,
      "ĠÐ¾ÑĤÐºÐ°Ð·ÑĭÐ²": 6580,
      "out": 6581,
      "ĠÑģÐ¾Ð¾Ð±ÑīÐµÐ½Ð¸Ðµ": 6582,
      "ĠÑħÐ»ÐµÐ±": 6583,
      "ĠÐ½Ð°ÑĪÐµÐ»": 6584,
      "Ð°Ð´ÑĨÐ°ÑĤÐ¸": 6585,
      "ÐķÐĿ": 6586,
      "ĠÑħÐ¾ÑĢÐ¾ÑĪÐ¸Ð¹": 6587,
      "ĠÐ¶ÐµÐ»Ð°Ð½Ð¸Ñı": 6588,
      "ĠÐºÑĢÐµÐ¿ÐºÐ¾": 6589,
      "ĠÐ¾ÑĤÐ½Ð¾ÑĪÐµÐ½Ð¸Ñİ": 6590,
      "ĠÐ²ÑĭÑģÐ¾ÐºÐ¾Ð¹": 6591,
      "ĠÑĥÐ³Ð¾Ð´Ð½Ð¾": 6592,
      "ĠÐ¸Ð¼Ð¼Ñĥ": 6593,
      "ĠÐ¿ÑĢÐ¾ÑĩÐ¸ÑĤ": 6594,
      "Ġ70": 6595,
      "ĠÐ¸Ð·Ð±ÐµÐ¶Ð°ÑĤÑĮ": 6596,
      "ÐµÐ·Ð²": 6597,
      "ĠÐ¿Ð¾Ð»ÑĥÑĩÐ¸Ð»Ð°": 6598,
      "Ð°ÑĢÐ´Ð°": 6599,
      "ĠÐ²Ð½Ðµ": 6600,
      "ĠÑĤÐµÑĩ": 6601,
      "ĠÐ¿Ð¾ÑģÑĤÑĢÐ°Ð´": 6602,
      "ĠÑĢÐ¾Ð´ÑģÑĤÐ²ÐµÐ½": 6603,
      "Ð°Ð½Ð½ÑĭÐ¼Ð¸": 6604,
      "âĢľ": 6605,
      "ĠÐ¢Ð°": 6606,
      "ĠÐ¾ÑģÐ¼Ð¾ÑĤÑĢ": 6607,
      "ĠÐ¿Ð¾ÑıÐ²Ð»ÑıÐµÑĤÑģÑı": 6608,
      "ĠÐ¿ÑĢÐ¸Ð¿Ð¾Ð´": 6609,
      "Ð°Ð¶Ð¸ÑĤÐµ": 6610,
      "ĠÐ¿Ð»Ð°Ð½Ð¸ÑĢÐ¾Ð²": 6611,
      "ĠÐ¿ÑĢÐ¾ÑĤÑıÐ½ÑĥÐ»": 6612,
      "ĠÑģÐ¿ÐµÑĨÐ¸Ð°Ð»ÑĮÐ½Ð¾": 6613,
      "ĠÐ²ÑĭÑıÐ²": 6614,
      "Ð¢ÐµÐ¿ÐµÑĢÑĮ": 6615,
      "ĠÐ±Ð»ÐµÐ´": 6616,
      "ĠÐ¿ÑĢÐµÐ±": 6617,
      "ĠÐ¾ÑĤÐºÑĢÑĭÑĤÑĮ": 6618,
      "ĠÐ½Ð°Ð·Ð²Ð°Ð½Ð¸ÐµÐ¼": 6619,
      "Ð°Ð´Ð¶": 6620,
      "ĠÐĿÐ°Ð²ÐµÑĢ": 6621,
      "Ð»Ð¸Ð¿": 6622,
      "Ð¾ÑĢÐ°ÑĤÐ¾ÑĢ": 6623,
      "ĠÐ¾ÑĤÑģÑĥÑĤÑģÑĤÐ²Ð¸Ðµ": 6624,
      "ĠÐ¸Ð·Ð³Ð¾ÑĤÐ¾Ð²": 6625,
      "ÑĥÑİÑģÑı": 6626,
      "Ð¼ÑĥÑī": 6627,
      "ĠÐºÐ¾Ð¼Ð¸ÑģÑģ": 6628,
      "ĠÐ½ÑĥÐ¶Ð½Ñĭ": 6629,
      "ĠÐºÐ¾Ð»ÐµÐ½Ð¸": 6630,
      "ĠÐ·Ð°Ð²Ð¾Ð´": 6631,
      "ĠÐĲÑĦ": 6632,
      "ĠÐĲÐ½Ð³Ð»Ð¸Ð¸": 6633,
      "ĠÐ´Ð¸Ð¿Ð»Ð¾Ð¼": 6634,
      "ĠÐĹÐ°Ð²": 6635,
      "ĠÑĥÑģÐ»ÑĭÑĪÐ°Ð»": 6636,
      "ĠÐ²ÐµÐ±": 6637,
      "ĠÐ¿Ð¾ÑģÐ»ÐµÐ´ÑģÑĤÐ²Ð¸Ñı": 6638,
      "ÑįÐ»": 6639,
      "ĠÑĤÐ²Ð¾ÐµÐ¹": 6640,
      "ĠÑĨÐµÐ»ÐµÐ¹": 6641,
      "ĠÐ¿Ð¾ÐºÐ°Ð·ÑĭÐ²Ð°ÐµÑĤ": 6642,
      "ĠÐ½Ð°ÑĪÑĥ": 6643,
      "ĠÐ¿Ð¾Ð´ÑĤÐ²ÐµÑĢÐ´": 6644,
      "ĠÐ»ÑİÐ±Ð¸Ð»": 6645,
      "ĠÑĢÐ°Ð·ÑĢÑĭÐ²": 6646,
      "up": 6647,
      "ĠÑĢÐ°ÑģÑģÐºÐ°Ð·Ð°Ð»": 6648,
      "ĠÑĤÐµÐ°ÑĤ": 6649,
      "ĠÐ¸Ð´ÐµÐ½ÑĤ": 6650,
      "ĠÐ¿Ð°ÑĢÐ°": 6651,
      "ĠÐ¼Ð¸Ð½Ð¸Ð¼ÑĥÐ¼": 6652,
      "ĠÐ¡Ð¾Ð±": 6653,
      "ĠÑĥÐ½Ð¸Ðº": 6654,
      "Ð¸ÑĢÐ¾Ð²Ð°Ð½Ð½ÑĭÑħ": 6655,
      "ĠÑģÑĤÑĢÐ°ÑĪÐ½Ð¾": 6656,
      "ĠÐ¾ÑīÑĥÑīÐµÐ½Ð¸Ðµ": 6657,
      "ĠÐ»Ð¸ÑĩÐ½Ð¾": 6658,
      "ĠÐ»Ð¸ÑĨÑĥ": 6659,
      "ĠÐ¾Ð±ÑīÐµÐ¹": 6660,
      "Ð¼Ð¸ÑĢ": 6661,
      "ĠÐ½ÐµÐ¿Ð¾Ð½": 6662,
      "ĠÐ·Ð°Ð½Ð¸Ð¼Ð°ÑĤÑĮÑģÑı": 6663,
      "ÐµÐ»ÑĮÐµ": 6664,
      "ĠÑģÐµÐºÑģÑĥ": 6665,
      "Ð»ÑıÑİÑĤÑģÑı": 6666,
      "ÑĥÐ¶Ð´ÐµÐ½Ð¸Ñı": 6667,
      "Ġit": 6668,
      "Ð°ÑİÑīÐµ": 6669,
      "ÑĢÐ°Ð½Ð°": 6670,
      "ĠÐĺÐ·ÑĢÐ°": 6671,
      "ÑıÐµÐ¼": 6672,
      "ĠÐ¿ÑĢÐ¸ÑıÑĤÐ½Ð¾": 6673,
      "ĠÑĪÐºÐ°": 6674,
      "ÑİÑīÐµÐµ": 6675,
      "ĠÐ¿ÑĢÐ¾ÑħÐ¾Ð´Ð¸ÑĤ": 6676,
      "Ð¸Ð¼Ð¾Ðµ": 6677,
      "ĠÑĥÑģÑĤÐ°Ð½Ð°Ð²Ð»Ð¸Ð²": 6678,
      "ĠÐ¾ÑĢÐ³Ð°Ð½Ð¸Ð·Ð¼Ð°": 6679,
      "ÑĥÐ´Ð°ÑĢ": 6680,
      "ĠÐ½ÑĭÐ½ÐµÑĪ": 6681,
      "ĠÐ¿ÑĢÐ¾Ð¹ÑĤÐ¸": 6682,
      "ÑĩÐ¾Ð½": 6683,
      "ĠÐ¼Ð¸ÑĢÑĥ": 6684,
      "Ð°Ð¶Ð½Ð¾": 6685,
      "ĠÑĪÐ»Ð¸": 6686,
      "ĠÑģÑĤÐ°ÑĤÑĮÐµ": 6687,
      "ĠÑĢÐµÐºÐ¾Ð¼ÐµÐ½Ð´Ñĥ": 6688,
      "ĠÑģÐ°Ð¼Ð¾ÑģÑĤÐ¾ÑıÑĤÐµÐ»ÑĮÐ½Ð¾": 6689,
      "ĠÐłÐµÑģÐ¿ÑĥÐ±Ð»Ð¸": 6690,
      "ĠÑħÑĥÐ´Ð¾Ð¶Ðµ": 6691,
      "ĠÐ¾ÑģÐ»Ð°Ð±": 6692,
      "ĠÐ·Ð´ÑĢÐ°Ð²": 6693,
      "Ð·Ð°Ðº": 6694,
      "ĠÑģÑĤÐ¾Ð»Ð°": 6695,
      "ĠÑģÐ»ÑĥÐ¶Ð±Ñĭ": 6696,
      "Ð¸Ð½ÐµÐ¹": 6697,
      "ĠÐ´Ð¸ÑĢÐµÐºÑĤÐ¾ÑĢ": 6698,
      "Ð½Ð°Ð¼": 6699,
      "ĠÑģÐ¾Ð¾Ð±ÑīÐ¸Ð»": 6700,
      "ĠÐ³Ð»Ð°Ð´": 6701,
      "ĠÐ¾ÑĢÐ³Ð°Ð½Ð¾Ð²": 6702,
      "ĠÐ¿Ð¸ÑĤÑĮ": 6703,
      "ry": 6704,
      "ÐµÐ½ÑģÐ¸Ð²": 6705,
      "ÑģÑİ": 6706,
      "ĠÐ¿Ð¾ÐµÑħ": 6707,
      "Ð¸ÑĢÐ¾Ð²Ð°Ð»Ð°": 6708,
      "ĠÐ¿ÑĢÐµÐ´Ð»Ð¾Ð¶ÐµÐ½Ð¸Ñı": 6709,
      "ĠÐ¾ÑĤÐºÐ»ÑİÑĩ": 6710,
      "ĠÐ²Ð°Ð¼Ð¿": 6711,
      "ĠÐ¾ÑĢÑĥÐ¶Ð¸Ñı": 6712,
      "ĠÑĩÑĢÐµÐ·Ð²ÑĭÑĩÐ°Ð¹": 6713,
      "Ð¾ÑĤÑĢÐ¸": 6714,
      "ĠÐ²Ð¾Ð·Ð´ÑĥÑĪ": 6715,
      "ĠÐ½Ð°ÑĩÐ¸Ð½Ð°ÐµÑĤÑģÑı": 6716,
      "ĠÐ¿ÑĢÐµÐ´Ð»Ð¾Ð¶Ð¸Ð»": 6717,
      "Ð°ÐµÑĤÐµÑģÑĮ": 6718,
      "ĠÐ¢Ðµ": 6719,
      "oogle": 6720,
      "Ð¸ÑĤÐ¾": 6721,
      "ĠÐ¿Ð¾ÐºÑĢÑĭÑĤ": 6722,
      "ĠÐ³ÑĢÐ¾Ð·": 6723,
      "ÑĥÐ²ÐµÑĢ": 6724,
      "ĠÐ²Ð»Ð°Ð¶": 6725,
      "Ð½Ð¸ÑĨÐµÐ¹": 6726,
      "ĠÐ²ÐµÐ½": 6727,
      "ĠÐ²Ð¾Ð·Ð´ÑĥÑħÐµ": 6728,
      "ĠÐ´ÐµÐ»Ð°Ð»": 6729,
      "ÑģÑĤÐ²ÐµÐ½Ð½ÑĥÑİ": 6730,
      "ĠÐ¶ÐµÐ»ÑĥÐ´": 6731,
      "ĠÐ¶ÐµÐ½Ð°": 6732,
      "Ð¸Ð¼ÐµÑĩ": 6733,
      "ĠÑĤÑĳÐ¼": 6734,
      "Ð½Ð¸Ð»Ð¸": 6735,
      "ÑģÑĤÑĢÐµÑĩ": 6736,
      "ÐµÐ½Ð½Ð¸": 6737,
      "ĠÐ¾Ð±Ð¼Ð°Ð½": 6738,
      "Ð½Ð°ÑĤÑĮ": 6739,
      "Ð½Ð¾Ð²Ð¸Ð´": 6740,
      "ĠÑģÐºÐ¾ÑĢÐ¾ÑģÑĤÐ¸": 6741,
      "ÑĩÐµÐ¹": 6742,
      "ĠÑģÐ»ÑĥÑĩÐ°Ð¹Ð½Ð¾": 6743,
      "ĠÐ¸ÑģÐºÐ»ÑİÑĩÐ¸ÑĤÐµÐ»ÑĮÐ½Ð¾": 6744,
      "ĠÐ²Ð¾ÑģÐ¿Ð°Ð»": 6745,
      "ĠÑģÐ¿ÑĢÑıÑĤ": 6746,
      "ĠÐ°ÐºÑĤÐµÑĢ": 6747,
      "ĠÑĥÐ»ÑĭÐ±ÐºÐ°": 6748,
      "ĠÐ£ÐºÑĢÐ°Ð¸Ð½Ñĭ": 6749,
      "ĠÑģÐºÐ°Ð·Ð°Ð»Ð¸": 6750,
      "ĠÑĢÐµÐ°ÐºÑĨÐ¸Ð¸": 6751,
      "ÐµÐ´ÑĢ": 6752,
      "ÑĥÑĢÐµ": 6753,
      "ĠÐ¸Ð¼ÐµÐ»Ð¸": 6754,
      "ĠÐ¾Ð±ÑĬÑıÑģÐ½Ð¸ÑĤÑĮ": 6755,
      "ĠÐ³Ð¸Ð´": 6756,
      "ÐŃÑĤÐ¾ÑĤ": 6757,
      "ĠÐ´ÑĥÑĪÑĥ": 6758,
      "ĠÑĤÐµÑģ": 6759,
      "ĠÐºÐ½Ð¸Ð³Ðµ": 6760,
      "ÐºÐ½ÑĥÐ»Ð°": 6761,
      "ĠÐ¾Ð´ÐµÐ¶Ð´Ñĥ": 6762,
      "ĠÑģÑĤÐµÐ½Ðµ": 6763,
      "ĠÐ¿ÑĢÐ¾ÑĪÐ»Ð¾Ð³Ð¾": 6764,
      "ĠÐĳÑĭÐ»Ð¾": 6765,
      "ĠÑģÐ°Ð¹ÑĤ": 6766,
      "ĠÐŁÐ¾Ð¿": 6767,
      "Ð´ÐµÐ¼": 6768,
      "Ð¸ÑĤÐ¾Ð¼": 6769,
      "ĠÐłÐµÐ±": 6770,
      "ĠÑģÐ²ÑıÐ·Ð°Ð½Ð¾": 6771,
      "ĠÐ¿ÑĢÐµÐ¾Ð±ÑĢÐ°Ð·": 6772,
      "ĠÑģÑĥÐ¿ÑĢÑĥÐ³": 6773,
      "Ð¾ÑģÑĤÐµÐ¹": 6774,
      "ÑĢÐ¾Ð²Ð°ÑĤÑĮ": 6775,
      "ĠÐ·Ð´Ð°Ð½Ð¸Ñı": 6776,
      "ĠÐ¾ÑĤÐ»Ð¸ÑĩÐ½Ð¾": 6777,
      "Ð»Ð¸ÑĩÐ½Ð¾": 6778,
      "ĠÐ¼Ð°ÑĤÐµÑĢÐ¸Ð°Ð»Ð°": 6779,
      "ĠÐ¾ÐºÐ¾Ð½ÑĩÐ°ÑĤÐµÐ»ÑĮÐ½Ð¾": 6780,
      "Ð¸ÑĢÐ¾Ð²Ð°Ð½Ñĭ": 6781,
      "ff": 6782,
      "ÐµÐ´Ð¸Ð½Ð¸": 6783,
      "ĠÐĺÐ²Ð°Ð½": 6784,
      "ĠÐ¾Ð±ÑĬÐµÐºÑĤ": 6785,
      "ĠÐ¿Ð¾Ð½Ð¸Ð¼Ð°ÑĤÑĮ": 6786,
      "ĠÐ²Ð½ÑĥÑĤÑĢÑĮ": 6787,
      "Ð¾Ð²Ð¾Ð¼": 6788,
      "ĠÐļÑĢÐ¸Ñģ": 6789,
      "ĠÐ°ÑĤÐ¼Ð¾ÑģÑĦ": 6790,
      "ĠÐ¾ÑģÑĤÐ°Ð»ÑĮÐ½ÑĭÑħ": 6791,
      "ĠÐ¿Ð¾ÑıÐ²Ð¸Ð»Ð¸ÑģÑĮ": 6792,
      "ĠÐĲÑģ": 6793,
      "Ð°Ð½Ð°Ð¼Ð¸": 6794,
      "ĠÐ³Ð¾ÑĤÐ¾Ð²Ð°": 6795,
      "ĠÐ¿Ð¸ÑģÐ°ÑĤÑĮ": 6796,
      "Ð¾ÐºÑĥ": 6797,
      "ĠÐ¿ÑĢÐ¸Ð¾Ð±ÑĢ": 6798,
      "ĠÐ°ÐºÐ°Ð´ÐµÐ¼": 6799,
      "ĠÐ·Ð°Ð¿ÑĢÐ¾Ñģ": 6800,
      "ĠÐ¾Ð±ÑĥÑĩÐµÐ½Ð¸Ñı": 6801,
      "ÑĢÐµÐ»": 6802,
      "ĠÐ´Ð¾ÑĢÐ¾Ð³Ðµ": 6803,
      "ĠÑĦÐ°Ð·": 6804,
      "ĠÑĩÑĥÐ²ÑģÑĤÐ²ÑĥÑİ": 6805,
      "ĠÐ·Ð´Ð¾ÑĢÐ¾Ð²ÑĮÑı": 6806,
      "ĠÐ·Ð»Ð¾": 6807,
      "ĠÐ¶Ð¸Ð»Ð¸": 6808,
      "ĠÑĦÐ»": 6809,
      "ĠÑĥÑģÑĤÐ°Ð½Ð¾Ð²Ð¸ÑĤÑĮ": 6810,
      "ĠÐ¾Ð±ÐµÑģÐ¿ÐµÑĩÐµÐ½Ð¸Ñı": 6811,
      "Ð°Ð»ÑĮÐ½Ð¾Ð¼Ñĥ": 6812,
      "ĠÐ¿Ð¾Ð¼ÐµÑĪ": 6813,
      "Ð¼Ð¾ÑĢ": 6814,
      "ĠÑĢÐ°ÑģÑģÐºÐ°Ð·Ð°ÑĤÑĮ": 6815,
      "ĠÐ³ÑĢÑĥÐ¿Ð¿Ðµ": 6816,
      "ĠÑģÐ°Ð¹ÑĤÐµ": 6817,
      "ĠÐ²Ð¾Ð´Ðµ": 6818,
      "ĠÐ³Ð¾Ð»Ð¾ÑģÐ°": 6819,
      "ust": 6820,
      "ail": 6821,
      "Ð°ÑĢÑĥÑĤÐ¾": 6822,
      "ĠÐ½ÐµÐ±Ð¾": 6823,
      "ĠÐ¼ÑĥÐ¶Ð°": 6824,
      "ĠÐ¶Ð¸ÑĤÐµÐ»ÐµÐ¹": 6825,
      "Ð¾ÑĩÐµÑĤ": 6826,
      "ĠÑħÐ°ÑĢÐ°ÐºÑĤÐµÑĢÐ¸Ð·": 6827,
      "ĠÑįÐ»ÐµÐ¼ÐµÐ½ÑĤÐ¾Ð²": 6828,
      "ÑĳÐ½Ð½ÑĭÑħ": 6829,
      "ĠÐ±Ð¾Ð»ÐµÐ·Ð½": 6830,
      "ĠÐ¾ÑĤÐ¼ÐµÑĤÐ¸ÑĤÑĮ": 6831,
      "ĠÐ³Ð¾ÑĤÐ¾Ð²Ñĭ": 6832,
      "ÐµÑĪÑĮÑģÑı": 6833,
      "ĠÑĤÐµÐ»ÐµÐ²Ð¸Ð·": 6834,
      "Ð¸Ð¼ÐµÑĤ": 6835,
      "ĠÐļÑģÑĤÐ°ÑĤÐ¸": 6836,
      "ĠÐ½Ð¸ÐºÐ¾Ð¼Ñĥ": 6837,
      "ĠÐ¿ÑĢÐµÐ¸Ð¼ÑĥÑīÐµÑģÑĤÐ²": 6838,
      "ÐļÐŀ": 6839,
      "ĠÐ²ÑĭÑħÐ¾Ð´Ð°": 6840,
      "ĠÑĥÐ·Ð½Ð°Ð»": 6841,
      "ÑıÐ½ÑĥÐ»Ð°": 6842,
      "ĠÐ¸ÑģÐ¿Ð¾Ð»ÑĮÐ·ÑĥÐµÐ¼": 6843,
      "ÑģÐµÑĢ": 6844,
      "ĠÑģÑĤÑĢÐµÑģÑģ": 6845,
      "ĠÐ¾ÑĤÐºÑĢÑĭ": 6846,
      "ÐºÐ¸Ð½Ð°": 6847,
      "ĠÐ¼Ð°Ñħ": 6848,
      "ĠÐ¿Ð¾ÑģÑĢÐµÐ´ÑģÑĤÐ²Ð¾Ð¼": 6849,
      "Ð¸Ð½ÑģÑĤÐ²Ð¾": 6850,
      "ĠÐĿÐµÐ²": 6851,
      "Ð°ÑģÑĤÑĭ": 6852,
      "ĠÐ·Ð°Ð²Ð¾ÐµÐ²": 6853,
      "Ð½ÐµÑĢ": 6854,
      "ĠÐ¿Ð¾Ð´Ð½": 6855,
      "ÑĤÐ¸Ð½Ñĭ": 6856,
      "ĠÐ³Ð¸Ð³": 6857,
      "ĠÐ¼ÐµÐ½ÑĮÑĪÐµÐ¹": 6858,
      "ĠÑĢÐ°Ð½Ð¾": 6859,
      "ĠÐ²Ð¾ÑģÑĮ": 6860,
      "Ð¸ÑĩÑĮ": 6861,
      "ĠÑģÐ¾Ð¼Ð½ÐµÐ²": 6862,
      "ĠÑģÐ¼Ð¾Ð¶ÐµÑĤÐµ": 6863,
      "ĠÐ¿Ð°Ñħ": 6864,
      "Ð¾Ð¾Ð±ÑĢÐ°Ð·": 6865,
      "ĠÑģÐ¼Ð¾Ð³Ñĥ": 6866,
      "ĠÑĤÑĥÑĢÐ½Ð¸": 6867,
      "Ð¸Ð´Ñĭ": 6868,
      "ĠÐ½ÐµÐ´ÐµÐ»ÑĮ": 6869,
      "ĠÐ¿Ð¾Ð½Ð°Ð´Ð¾Ð±": 6870,
      "ĠÐ¿ÑĢÐ¾ÑģÑĤÐ¾Ð¹": 6871,
      "ĠÐ·Ð°ÑĢÐ°Ð±Ð¾ÑĤ": 6872,
      "Ð¸ÑĢÑĥÐµÑĤÑģÑı": 6873,
      "ĠÑģÐ¿ÐµÐº": 6874,
      "ÐµÐ´Ñĥ": 6875,
      "ÐµÐ´Ð½ÐµÐ²": 6876,
      "ĠÐĴÐ·": 6877,
      "ĠÑģÐ»ÐµÐ·Ñĭ": 6878,
      "ĠÐ½ÐµÐ¿Ð¾ÑģÑĢÐµÐ´ÑģÑĤÐ²ÐµÐ½Ð½Ð¾": 6879,
      "ĠÐ²Ð´Ð¾Ð»ÑĮ": 6880,
      "Ð¸Ð¼ÑĭÐµ": 6881,
      "ĠÐ±ÐµÐ·Ð´": 6882,
      "ĠÐ¿ÐµÑĢÑģÐ¿ÐµÐºÑĤÐ¸Ð²": 6883,
      "ĠÑĪÑĤÐ°Ð±": 6884,
      "ĠÐºÐ¾ÑģÐ¼": 6885,
      "Ð¸Ð¼ÑĭÐ¹": 6886,
      "ÑĳÐ½Ð½ÑĭÐ¹": 6887,
      "ĠÑĨÐ¸Ðº": 6888,
      "ĠÐ¿Ð¾Ð½Ð¸Ð¼Ð°ÐµÑĤ": 6889,
      "ĠÐ²Ð¾Ð·Ð½Ð¸ÐºÐ°": 6890,
      "ĠÐ³Ð¾Ð»Ð¾Ð´": 6891,
      "ĠÐĵÐ°Ð»": 6892,
      "Ð¸Ð¼ÑĭÐ¼": 6893,
      "ĠÐ²ÐµÑĢÑģÐ¸Ð¸": 6894,
      "ĠÐ¡Ð»ÐµÐ´": 6895,
      "ĠÑĤÑĥÐ¿": 6896,
      "ĠÑĢÐ°Ð·Ð¼ÑĭÑĪ": 6897,
      "ĠÐ²Ð¾Ð¹Ð½Ðµ": 6898,
      "ĠÐ´Ð¾ÐºÐ»Ð°Ð´": 6899,
      "Ð°Ð´Ñĥ": 6900,
      "Ð¸ÑĩÐ½ÑĭÐµ": 6901,
      "ĠÐ±Ð»Ð¸Ð·ÐºÐ¾": 6902,
      "ĠÑģÐ¶Ð¸Ð¼": 6903,
      "ĠÑģÑĤÐ¾Ð¸Ð»Ð¾": 6904,
      "ĠÐ¼Ð¾Ð±Ð¸Ð»ÑĮ": 6905,
      "Ð¸Ð¼ÑĭÑħ": 6906,
      "ÐµÐ²Ð°Ñı": 6907,
      "ÐłÐŀ": 6908,
      "ĠÐ»Ð°Ð´Ð¾Ð½": 6909,
      "ĠÑģÑĤÐ¾ÑıÐ»Ð¸": 6910,
      "Ð¾Ð±Ð½Ð¾": 6911,
      "âĤ¬": 6912,
      "ĠÐ²Ð¾Ð¹Ð½Ñĥ": 6913,
      "Ð¾ÑĩÐºÐµ": 6914,
      "ĠÑģÐ¼Ð¾Ð³Ð»Ð¸": 6915,
      "45": 6916,
      "ÑĢÐ¾ÑĪ": 6917,
      "Ð¾Ð¿ÑĢÐµÐ´": 6918,
      "ĠÐľÐ¸ÑħÐ°": 6919,
      "ĠÐ¿Ð¾ÑģÑĤÐ°Ð½Ð¾Ð²": 6920,
      "ĠÐ³Ð»Ð°Ð²Ðµ": 6921,
      "ĠÐ´Ð¾ÑĢÐ¾Ð³Ñĥ": 6922,
      "ĠÑģÐ¿ÑĥÑģÐº": 6923,
      "ĠÑĥÑģÑĤÐ¾Ð¹ÑĩÐ¸Ð²": 6924,
      "ĠÑģÐ»Ð¸Ð²": 6925,
      "ĠÐ¾ÑĤÑĢÑĭÐ²": 6926,
      "Ð¸Ð¹ÑģÐºÐ¾Ð³Ð¾": 6927,
      "ĠÐ¿Ð¾Ð»Ð¾Ð¶ÐµÐ½Ð¸Ñı": 6928,
      "ĠÑĢÐ°Ð·Ð¾Ð±ÑĢ": 6929,
      "ĠÑģÐ¾ÑĢÐµÐ²Ð½Ð¾Ð²": 6930,
      "ĠÐºÑĢÑĭÐ»ÑĮ": 6931,
      "ĠÐ¾ÑģÐ½Ð¾Ð²Ð½Ð¾Ð¹": 6932,
      "ĠÐ¾ÑģÐ½Ð¾Ð²Ð½ÑĭÐµ": 6933,
      "ÑĨÐ¸ÑıÐ¼Ð¸": 6934,
      "ĠÐ¸ÑģÐ¿Ð°Ð½": 6935,
      "ĠÐ½Ð¾Ð³Ñĥ": 6936,
      "Ð¸ÑģÑĤÐ°Ð½": 6937,
      "ĠÐ¾ÑĤÑģÑİÐ´Ð°": 6938,
      "ĠÐ¿Ð¾ÑĢÑıÐ´Ð¾Ðº": 6939,
      "Ð¾Ð¶Ð´Ðµ": 6940,
      "ĠÐ³ÑĢÑĥÑģÑĤ": 6941,
      "ĠÐ¿ÑĢÐ¾Ð²Ð¾Ð´Ð¸ÑĤÑĮ": 6942,
      "ĠÐĺÐ½Ð¾Ð³Ð´Ð°": 6943,
      "ĠÐ¿ÑĢÐ¾Ð¸Ð·Ð½ÐµÑģÐ»Ð°": 6944,
      "Ð¾Ð¼Ð½": 6945,
      "Ð°ÑĤÐ¾ÑĢÐ°": 6946,
      "ĠÐ¾Ð±ÑģÑĤÐ°Ð½Ð¾Ð²": 6947,
      "Ġ2014": 6948,
      "Ð¾ÐºÑĢ": 6949,
      "ĠÑĤÐºÐ°Ð½Ð¸": 6950,
      "ain": 6951,
      "ÐĹÐ´": 6952,
      "ĠÑĩÐµÐ»Ð¾Ð²ÐµÑĩÐµ": 6953,
      "Ð½ÐµÑĤÑģÑı": 6954,
      "Ð¾ÑģÑĤÐ¾Ñı": 6955,
      "ire": 6956,
      "ĠÐ¿Ð¾Ð»Ð¸ÑĨÐµÐ¹": 6957,
      "Ð°Ð»Ð¸Ñı": 6958,
      "ĠÐ·Ð°Ð¿Ð¸ÑģÐ¸": 6959,
      "ĠÐ½Ð°Ð»Ð¸ÑĩÐ¸Ðµ": 6960,
      "ĠÐ¿Ð¾Ð´Ð¾Ð·ÑĢÐµÐ²": 6961,
      "ĠÐ·Ð½Ð°Ð»Ð¸": 6962,
      "ĠÐ¿ÑĢÐ¸ÑģÐ¾ÐµÐ´Ð¸Ð½": 6963,
      "ĠÐ¿ÐµÑĢÐµÑĢ": 6964,
      "ĠÑĦÐ¾ÑĢÐ¼Ð°": 6965,
      "ĠÐ´Ð¾ÐºÑĤÐ¾ÑĢ": 6966,
      "ĠÐ½ÐµÐ½Ð°Ð²Ð¸ÑģÑĤ": 6967,
      "pt": 6968,
      "ĠÐ²ÑĭÑħÐ¾Ð´Ð¸ÑĤ": 6969,
      "Ð¾Ð¿ÑĢÐ¸": 6970,
      "ĠÐ³Ð»Ð¾Ð±": 6971,
      "ĠÑģÑĢÐµÐ´Ñĭ": 6972,
      "ĠÐ´Ð¾ÑģÑĤÐ¾Ð¸Ð½": 6973,
      "ĠÐ»ÑĥÑĩÑĪÐ¸Ñħ": 6974,
      "ĠÐ¾ÑģÐ²Ð¾Ð±Ð¾Ð´": 6975,
      "ĠÐ½Ð°ÑħÐ¼ÑĥÑĢ": 6976,
      "ost": 6977,
      "ÑĭÑī": 6978,
      "ĠÐ¶ÐµÑģÑĤÐ¾Ðº": 6979,
      "70": 6980,
      "Ð¾ÑĤÐ¾Ð¹": 6981,
      "ĠÐ½Ð°ÑħÐ¾Ð´Ð¸Ð»ÑģÑı": 6982,
      "ĠÐ¾ÑĢÐ³Ð°Ð½Ð¸Ð·Ð°ÑĨÐ¸Ñı": 6983,
      "ĠÐ¿Ð»Ð°Ð¼": 6984,
      "ĠÐ¾ÑħÐ²Ð°ÑĤ": 6985,
      "ĠÑģÐ¾Ð»Ð½ÑĨÐµ": 6986,
      "ĠÑĢÐ°ÑģÑĤÐµÑĢ": 6987,
      "ĠÐ°Ð²ÑĤÐ¾": 6988,
      "ÑįÑĦÑĦ": 6989,
      "Ġ2010": 6990,
      "ĠÑģÐµÑĢÐµÐ´Ð¸Ð½Ðµ": 6991,
      "Ð¾Ð»ÐµÐ¿": 6992,
      "ĠÐ´ÐµÑĢÐµÐ²ÑıÐ½": 6993,
      "ÑĤÐ¾Ð³Ð¾": 6994,
      "Ð¾Ð½Ð¸Ñı": 6995,
      "ÑĩÐ¸ÑĪ": 6996,
      "ÐµÐ½Ñī": 6997,
      "ĠÑĨÐµÐ»Ñı": 6998,
      "ĠÐ·Ð½Ð°Ñı": 6999,
      "ĠÐ¿ÑĢÐ¾Ð²ÐµÑĢÐ¸ÑĤÑĮ": 7000,
      "%.": 7001,
      "ĠÐ¿Ð¾ÑģÐ°Ð´": 7002,
      "Ð°ÑİÑīÐ¸ÐµÑģÑı": 7003,
      "ĠÑĢÐ°Ð·Ð³Ð»ÑıÐ´": 7004,
      "Ð¿Ð°ÑĢ": 7005,
      "ĠÐ´ÐµÐ²ÑĥÑĪÐºÐµ": 7006,
      "ĠÐ²ÐµÑīÐµÑģÑĤÐ²Ð°": 7007,
      "ĠÐ½Ð°ÑħÐ¾Ð´ÑıÑī": 7008,
      "ĠÐ²ÑĭÑĪÐ»Ð¸": 7009,
      "ĠÐ³Ð¾Ð²Ð¾ÑĢÐ¸ÑĤÑģÑı": 7010,
      "ĠÐ²Ð¾ÑģÐºÐ»Ð¸Ðº": 7011,
      "ĠÐľÐµÑĢ": 7012,
      "ĠÐ·Ð½Ð°ÐµÐ¼": 7013,
      "Ð±ÐµÑĢÐ³": 7014,
      "ĠÐŁÑĢÐ¾Ð²": 7015,
      "Ð´Ð¸Ð²": 7016,
      "ame": 7017,
      "ĠÑģÐ¾Ð»Ð½ÐµÑĩ": 7018,
      "ĠÐ¼ÐµÑĢÑĭ": 7019,
      "ĠÐ¿Ð¾Ð»Ð¾Ð¶ÐµÐ½Ð¸Ð¸": 7020,
      "ĠÐ¾Ð²Ð¾Ñī": 7021,
      "ĠÑģÐ¿Ð°ÑģÐ¸Ð±Ð¾": 7022,
      "ĠÐ°Ð·": 7023,
      "ĠÐ¼Ð¾Ñĳ": 7024,
      "ÑģÐºÐ¾ÑĢÐ±": 7025,
      "Ð¸ÑĨÐ¸Ð¹": 7026,
      "Ġ2000": 7027,
      "ĠÐ¿Ð¾ÑĤÑĢÑıÑģ": 7028,
      "35": 7029,
      "ĠÐ¿Ð¾Ð¿ÑĭÑĤÐ°Ð»ÑģÑı": 7030,
      "Ð¾Ð¿ÑĢ": 7031,
      "ĠÐ·Ð°Ð²ÐµÐ´": 7032,
      "Ð¸Ð½ÑĥÐ»Ð°": 7033,
      "ĠÐ¾ÑģÑĤÐ°ÑĤÑĮÑģÑı": 7034,
      "ĠÐŁÐ¾Ðº": 7035,
      "ĠÑĢÑĭÐ±": 7036,
      "ĠÐ´ÐµÑĢÐ¶Ð°ÑĤÑĮ": 7037,
      "ĠÑģÐ¾Ð±Ð»ÑİÐ´": 7038,
      "ĠÐ±ÐµÑģÐ¿Ð¾ÐºÐ¾": 7039,
      "ĠÐºÐ¸Ð²Ð½ÑĥÐ»Ð°": 7040,
      "ĠÐ¿Ð¾Ð»ÑĥÑĩÐ°ÐµÑĤÑģÑı": 7041,
      "ĠÐłÐ¸Ð¼": 7042,
      "ĠÐ»Ð°Ð²": 7043,
      "ÐĲÐĲ": 7044,
      "ĠÐ¿ÑĢÐµÐ¿ÑıÑĤ": 7045,
      "ĠÐ´Ð¾Ð²Ð¾Ð»ÑĮ": 7046,
      "ĠÐ¿ÑĢÐ¸Ð²ÑıÐ·": 7047,
      "ĠÐ¡ÑĥÐ´": 7048,
      "ĠÑĥÑģÑĤÑĢÐ°": 7049,
      "Ð½Ð¾ÑģÑĤÑıÑħ": 7050,
      "Ð¸ÑīÐµ": 7051,
      "ĠÑģÐ¾Ð´ÐµÑĢÐ¶Ð°Ð½Ð¸Ðµ": 7052,
      "ĠÐ¿Ð°ÐºÐµÑĤ": 7053,
      "ĠÐ´Ð°Ð¼": 7054,
      "ĠÐĶÐ¶Ð¾ÑĢÐ´Ð¶": 7055,
      "ĠÐ»ÐµÐ¶Ð¸ÑĤ": 7056,
      "ĠÐ·ÑĥÐ±Ñĭ": 7057,
      "ĠÐ¿ÑĢÐ¸Ð¼ÐµÐ½ÐµÐ½Ð¸Ñı": 7058,
      "Ð°Ð»Ðº": 7059,
      "Ð¾Ð²ÑĭÐ¼Ð¸": 7060,
      "ĠÐºÐ°Ð±Ð¸Ð½ÐµÑĤ": 7061,
      "ÑģÑıÑī": 7062,
      "Ġthat": 7063,
      "ÑģÑĤÐ²Ð¸Ð¹": 7064,
      "ĠÐĵÑĢÐ¸": 7065,
      "Ð¸Ð²Ð¸Ð»Ð¸Ð·": 7066,
      "ĠÐ±Ð¾Ð»ÑĮÑĪÐ¾Ð³Ð¾": 7067,
      "ĠÐ¾ÐºÐ°Ð·ÑĭÐ²Ð°ÐµÑĤÑģÑı": 7068,
      "ĠÐ·Ð°ÐºÐ°Ð½ÑĩÐ¸Ð²": 7069,
      "Ð±ÑĭÑĩÐ½Ð¾": 7070,
      "ÑĢÐµÑĪ": 7071,
      "ĠÐŁÐ¾Ð½": 7072,
      "ĠÑģÑĤÐ°ÑĢÐ°ÑıÑģÑĮ": 7073,
      "ÐµÑĢÐ½Ð°": 7074,
      "ĠÑģÐ¾Ð²ÐµÑĢÑĪÐµÐ½": 7075,
      "ĠÐ´ÐµÑĦ": 7076,
      "ĠÐ¾ÑĤÐ½Ð¾ÑģÑıÑĤÑģÑı": 7077,
      "ĠÐĴÑĭÑģ": 7078,
      "Ġ2012": 7079,
      "ĠÐ²ÑĭÐ¿Ð¾Ð»Ð½ÐµÐ½Ð¸Ñı": 7080,
      "ĠÐºÐ°Ð¶Ð´ÑĭÐ¼": 7081,
      "ĠÐ´ÑĢÐ°Ðº": 7082,
      "ĠÑĦÐ¾ÑĤÐ¾Ð³ÑĢÐ°ÑĦÐ¸Ð¸": 7083,
      "ÑĩÐ°Ð½": 7084,
      "ĠÑĩÐµÑģÑĤÐ½Ð¾": 7085,
      "ĠÐĶÐ¼": 7086,
      "ĠÑĢÐµÐ°Ð³": 7087,
      "ĠÐºÐ°Ð¼Ð¿": 7088,
      "ĠÐĳÐ¾Ð³Ð°": 7089,
      "ĠÐ°ÐºÐºÑĥÑĢÐ°ÑĤÐ½Ð¾": 7090,
      "ĠÐ¿ÑĢÐµÑĢÐ²": 7091,
      "ĠÐ²ÐµÑĢÐ½Ð¾": 7092,
      "ĠÐĿÐµÑĥÐ¶ÐµÐ»Ð¸": 7093,
      "ĠÐ¾ÑĤÑĩÐµÑĤ": 7094,
      "ĠÐ¾Ð±Ð¾Ð¸Ñħ": 7095,
      "ĠÐ²Ð¾Ð·ÑĢÐ°ÑģÑĤÐ°": 7096,
      "ĠÐľÐ½Ð¾Ð³Ð¸Ðµ": 7097,
      "ĠÐ´Ð°Ð½Ð½Ð¾Ð³Ð¾": 7098,
      "Ð¸ÑĤÐµÐ»ÑĮÐ½ÑĭÐ¼Ð¸": 7099,
      "ÐµÐ½Ð¾Ðº": 7100,
      "ĠÐ½Ð°ÑĢÑĥÐ¶": 7101,
      "ĠÐ¼Ð¾ÐµÐ¼Ñĥ": 7102,
      "))": 7103,
      "Ð·Ð²": 7104,
      "ÑĢÑĭÐ»Ð°": 7105,
      "Ð¾Ð³Ñĥ": 7106,
      "ĠÐ²ÑĭÑĢÐ¾Ñģ": 7107,
      "ĠÐºÐ°ÑĢÑĤÑĭ": 7108,
      "ĠÐĶÐ¾Ðº": 7109,
      "ÑĨÐ¸Ð½": 7110,
      "ÑıÑīÐµÐµ": 7111,
      "ÑĭÐ·": 7112,
      "Ð¾Ð´ÐµÑĢÐ¶": 7113,
      "ĠÑģÐ¾Ð±ÐµÑģ": 7114,
      "ĠÑĢÑĥÑģÑģÐºÐ¸Ñħ": 7115,
      "ĠÑģÐ¾Ð¾Ð±ÑīÐµ": 7116,
      "ĠÐ½ÐµÐ´Ð¾Ð²Ð¾Ð»ÑĮ": 7117,
      "ĠÐĹÐ½Ð°ÑĩÐ¸ÑĤ": 7118,
      "ĠÐ¾Ð´Ð½Ð°Ð¶Ð´Ñĭ": 7119,
      "ĠÑĢÐ°Ð·Ð¾Ñĩ": 7120,
      "ĠÑģÐ°ÑħÐ°ÑĢ": 7121,
      "Ð¾ÑĤÐµÑĢ": 7122,
      "ÑĢÐ³": 7123,
      "ĠÐ¿Ð¾ÑĤÐ¾Ðº": 7124,
      "âĢĿ,": 7125,
      "ĠÐ¼Ð°ÑģÐ»Ð¾": 7126,
      "ĠÐ²Ð¸Ð´ÐµÐ»Ð¸": 7127,
      "ĠÐ¿ÑĢÐ¸ÑĩÐ¸Ð½Ðµ": 7128,
      "Ð²ÑĪÐ¸ÑģÑĮ": 7129,
      "ĠÐ±ÐµÑģÐ¿Ð¾ÐºÐ¾Ð¹": 7130,
      "ĠÐ³ÑĢÑĥÐ±": 7131,
      "ĠÑĢÐ°Ð·ÑĬ": 7132,
      "Ð¼Ð¸ÑĢÑĥ": 7133,
      "ĠÐ¼ÐµÑĤÐ¾Ð´Ñĭ": 7134,
      "ĠÑĥÑĩÐ°ÑģÑĤÐ½Ð¸ÐºÐ¾Ð²": 7135,
      "rom": 7136,
      "ĠÐ³ÑĢÐ°Ð´": 7137,
      "ĠÐ¿ÑĢÐµÐ´Ð¿Ð¾ÑĩÐ¸ÑĤ": 7138,
      "ÑĤÐµÑĢÐ½Ð°ÑĤÐ¸Ð²": 7139,
      "ĠÐ¸Ð½ÑĤÐµÑĢÐ²ÑĮÑİ": 7140,
      "ĠÑĥÐ½Ð¸Ð²ÐµÑĢÑģÐ¸ÑĤÐµÑĤÐ°": 7141,
      "ĠÐ»ÐµÑĩÐµÐ½Ð¸Ðµ": 7142,
      "ĠÐ¾ÑīÑĥÑĤ": 7143,
      "ĠÐ¿Ð¸ÑģÑĮÐ¼Ð°": 7144,
      "ĠÐ»Ð°Ð¿": 7145,
      "ĠÐ¿Ð¾Ð´Ð´": 7146,
      "ĠÐ¿ÑĢÐ¾ÑģÑĤÑĢÐ°Ð½ÑģÑĤÐ²Ð¾": 7147,
      "ĠÐ²ÑĢÑıÐ´": 7148,
      "Ð¸ÑģÐ¿": 7149,
      "ĠÐļÐ°Ð¿": 7150,
      "ĠÑĥÐ¿Ð¾Ð¼": 7151,
      "ĠÑģÐ¾ÑĤÑĢÑĥÐ´Ð½Ð¸ÑĩÐµ": 7152,
      "ĠÐ¡Ð°ÑģÐºÐµ": 7153,
      "ĠÑģÐ¿ÑĥÑĤ": 7154,
      "ĠÐ¼Ð°Ð³Ð°Ð·Ð¸Ð½": 7155,
      "ĠÐ·Ð°Ð³Ð°Ð´": 7156,
      "ĠÐ¼ÑıÑĩ": 7157,
      "Ð¸Ð´ÑĨ": 7158,
      "ĠÐĳÐ¾Ð»ÐµÐµ": 7159,
      "ÑĥÑīÐµÑģÑĤÐ²Ð°": 7160,
      "ĠÑĥÐ³ÑĢÐ¾Ð·": 7161,
      "ĠÐ¿Ð¾Ð¸Ð½ÑĤÐµÑĢÐµÑģ": 7162,
      "ÑģÐ¾Ð½Ð°": 7163,
      "ĠÐ¿ÑĢÐ¾Ð²ÐµÐ´ÐµÐ½Ð¸Ñı": 7164,
      "ÐµÐ»Ð»": 7165,
      "ÐŀÑģÐ½Ð¾Ð²": 7166,
      "Ð¸Ð½ÐºÐ°": 7167,
      "ĠÐ¸Ð¼ÐµÑİÑī": 7168,
      "ĠÑģÐ²ÐµÑĢÑħÑĥ": 7169,
      "ĠÐ¾ÑĤÐ´ÐµÐ»ÑĮÐ½ÑĭÑħ": 7170,
      "ĠÐ·Ð°Ð±ÑĭÐ»": 7171,
      "ĠÐ½Ð°Ð²ÐµÑĢÐ½ÑıÐºÐ°": 7172,
      "ĠÐ¿ÑĢÐ¾Ð´Ð¾Ð»Ð¶Ð°ÐµÑĤ": 7173,
      "ĠÐ³ÐµÐ½ÐµÑĢÐ°Ð»": 7174,
      "ĠÑħÑĢÐ¾": 7175,
      "ĠÑģÐ²Ð¾ÑĳÐ¼": 7176,
      "ĠÐ´Ð²Ð¾Ðµ": 7177,
      "ĠÐ²Ð¸Ð´Ð¾Ð¼": 7178,
      "ĠÐ¸Ð·Ð²Ð¸Ð½": 7179,
      "Ð°ÐµÐ¼ÑĭÐµ": 7180,
      "ĠÑĢÐ°Ðº": 7181,
      "ore": 7182,
      "ĠÐ¸Ð½ÑĤÐµÐ½ÑģÐ¸Ð²": 7183,
      "iz": 7184,
      "ĠÑģÐµÑĢÐ¸": 7185,
      "ĠÐ´Ð¾ÑĢÐ¾Ð³Ð¸": 7186,
      "ĠÑģÐµÑĢÑĮÐµÐ·Ð½Ð¾": 7187,
      "ĠÐ¿ÑĢÐ¾ÑĪÐ»Ð°": 7188,
      "ĠÑĢÐµÐ¶Ð¸ÑģÑģ": 7189,
      "ĠÐºÑĥÑħÐ½Ñİ": 7190,
      "ĠÐ°ÑĤÐ¾Ð¼": 7191,
      "ĠÑģÐ¾Ð·Ð´Ð°Ð½Ð¸Ðµ": 7192,
      "ass": 7193,
      "ĠÑħÐ²Ð°ÑĤÐ°ÐµÑĤ": 7194,
      "ĠÐ´Ð²Ð¾Ð¹": 7195,
      "ÐºÐ¾Ð²Ð¾Ð¹": 7196,
      "ĠÐ½Ð¸ÐºÐ°ÐºÐ¾Ð¹": 7197,
      "ĠÐ¸Ð½ÑģÑĤÑĢÑĥÐº": 7198,
      "ĠÐ¸Ð½Ð¶": 7199,
      "Ð¸ÑĩÐ½Ð¾Ð¹": 7200,
      "ĠÑĤÐµÐºÑĥÑī": 7201,
      "Ð¿Ð¾Ð¼": 7202,
      "Ð°ÐºÑĤÐ¸Ð²": 7203,
      "ĠÑģÑĤÑĢÐ°ÑħÐ°": 7204,
      "ÑĩÑĥ": 7205,
      "ĠÑĢÐµÑģÑĤÐ¾ÑĢ": 7206,
      "ĠÐ¡ÐµÐ¼": 7207,
      "ÑģÑĤÑĢÐ°ÑĤÐ¸Ð²": 7208,
      "ÑĮÐµÑĤ": 7209,
      "Ð¸ÑĢÐ¾Ð²Ð°Ð½Ð½ÑĭÐµ": 7210,
      "ĠÐľÐ°Ð³": 7211,
      "ĠÐºÐ½Ð¸Ð¶": 7212,
      "ĠÑıÐº": 7213,
      "ĠÑĤÐµÑĤ": 7214,
      "ĠÐ±Ð»ÐµÑģÑĤ": 7215,
      "ĠÑĥÑĪÐµÐ»": 7216,
      "ĠÐºÐ¾Ð»Ð»ÐµÐºÑĤÐ¸Ð²": 7217,
      "ĠÑģÐ°Ð¼Ð¾Ð»ÐµÑĤ": 7218,
      "ĠÐ¾ÑĩÐµÐ²Ð¸Ð´Ð½Ð¾": 7219,
      "ĠÐ°Ð´Ð¼Ð¸Ð½Ð¸ÑģÑĤÑĢÐ°": 7220,
      "ĠÐºÐ½Ð¸Ð³Ð°": 7221,
      "ĠÐ³Ð»Ð¾ÑĤ": 7222,
      "ĠÑĢÑıÐ´Ð°": 7223,
      "ĠÐ¿Ð¾Ð´ÑĥÐ¼Ð°ÑĤÑĮ": 7224,
      "ĠÐ²ÐµÑīÐµÑģÑĤÐ²": 7225,
      "ĠÐ¿Ð¾Ð´ÑĤÐ²ÐµÑĢÐ¶Ð´": 7226,
      "ĠÑıÐ·ÑĭÐºÐ¾Ð¼": 7227,
      "ÑĨÐ¸Ðº": 7228,
      "ĠÐ¿Ð¾Ð»Ñİ": 7229,
      "ĠÐºÐ°ÑĢÐ¼": 7230,
      "ĠÐ³Ð¾ÑģÑĥÐ´Ð°ÑĢÑģÑĤÐ²Ð¾": 7231,
      "Ð¾Ð»Ð¸ÑĤ": 7232,
      "ĠÑıÐ´ÐµÑĢ": 7233,
      "Ð»ÐµÐ´ÑģÑĤÐ²Ð¸Ð¸": 7234,
      "ĠÐ½Ð°Ð½ÐµÑģ": 7235,
      "Ð¾ÑĢÐ¾Ð´": 7236,
      "ĠÑĢÐµÑĦÐ¾ÑĢÐ¼": 7237,
      "ĠÐŁÐ¾ÑĤÑĤÐµÑĢ": 7238,
      "ĠÑģÐµÑģÑĤÑĢÐ°": 7239,
      "ĠÑĥÑĤÐ¾Ñĩ": 7240,
      "Ð¾ÐºÐ¾Ð½": 7241,
      "Ð¢ÐµÐ¼": 7242,
      "ĠÐ¿ÑĢÐ¸Ð·Ð½Ð°": 7243,
      "ĠÑģÑĤÑĢÑĥ": 7244,
      "ĠÐĽÑĥÐ¸": 7245,
      "ĠÐ½Ð¾Ð³Ð°Ð¼Ð¸": 7246,
      "ĠÑĢÐ¸Ð¼": 7247,
      "Ð°Ð±Ñĭ": 7248,
      "ĠÐ¿ÑĥÐ±Ð»Ð¸ÐºÐ°": 7249,
      "ĠÐ´Ð¾ÑģÑĤÐ¸Ð¶ÐµÐ½Ð¸Ñı": 7250,
      "ĠÐĴÑĤÐ¾ÑĢÐ¾Ð¹": 7251,
      "Ð»Ð¾Ð´": 7252,
      "ĠÐ½ÐµÐ¾Ð´": 7253,
      "ĠÐºÐ¾Ð¼Ð¿Ð»ÐµÐº": 7254,
      "Ð¸ÑĢÑĥÑİÑĤ": 7255,
      "ĠÐ¿ÑĭÑĤÐ°Ð»Ð°ÑģÑĮ": 7256,
      "ĠÑģÑİÐ¶": 7257,
      "ĠÑĢÐ°ÑģÑĩ": 7258,
      "Ð½Ð°Ð²": 7259,
      "ÐµÐ´Ñĭ": 7260,
      "ĠÐ¿Ð¾ÑģÐ»ÑĭÑĪ": 7261,
      "ĠÑĥÐ¿Ð°Ð»": 7262,
      "ÐµÐ½ÑĨÐ¸Ñı": 7263,
      "ĠÐĵÑĢÐµÐ¹": 7264,
      "ĠÐ¿ÑĢÐ¸ÑĢÐ¾Ð´Ñĭ": 7265,
      "ĠÐºÐ°Ð¶Ð´ÑĥÑİ": 7266,
      "ĠÐºÐ¸Ð»Ð¾Ð¼ÐµÑĤ": 7267,
      "ĠÑģÑĥÐ´Ð°": 7268,
      "ĠÐ¿ÑĢÐ¾Ð½": 7269,
      "ĠÐ¶Ð¸Ð·Ð½ÑĮÑİ": 7270,
      "ĠÑģÐ¾ÑħÑĢÐ°Ð½Ð¸ÑĤÑĮ": 7271,
      "ĠÐ¿ÑĢÐµÐ¿Ð¾Ð´Ð°Ð²": 7272,
      "ĠÐ³ÑĥÐ»Ñı": 7273,
      "ĠÑıÐ´": 7274,
      "ĠÐ¿Ð°ÑĢÐ°Ð»Ð»": 7275,
      "Ġ2011": 7276,
      "Ð¸ÑĤÐµÐ»ÑĮÑģÑĤÐ²Ð°": 7277,
      "ĠÑĤÑĢÐ°Ð³": 7278,
      "ĠÐ¿Ð¾Ð½Ð¸Ð¼Ð°Ñı": 7279,
      "ĠÐ¿Ð¾Ð´Ð¶": 7280,
      "ĠÐ¾ÑĤÐºÑĢÐ¾Ð²": 7281,
      "ĠÐ°Ð²ÑĤÐ¾Ð¼Ð¾Ð±Ð¸Ð»ÑĮ": 7282,
      "ÑıÐ»Ð¾": 7283,
      "ĠÐ´Ð°Ð²Ð»ÐµÐ½Ð¸Ñı": 7284,
      "ĠÐºÑĥÐ±": 7285,
      "Ð¾ÑĩÐµ": 7286,
      "ĠÐ¿ÑĢÐ¾Ð³Ð¾Ð²Ð¾ÑĢÐ¸Ð»": 7287,
      "ÑĢÑĭÐ»": 7288,
      "ĠÐºÐ¸Ð¿": 7289,
      "Ð¸Ð½ÑģÐºÐ¾Ð¹": 7290,
      "ĠÐ¡Ð°": 7291,
      "ÑģÐ¿Ð¾ÑģÐ¾Ð±": 7292,
      "Ð½ÑĥÑĤÑĢÐ¸": 7293,
      "ĠÐĴÐµÐ»Ð¸ÐºÐ¾Ð±ÑĢÐ¸ÑĤÐ°Ð½Ð¸Ð¸": 7294,
      "ĠÐ¿ÑĢÐ¸Ð¼ÐµÑĢÑĥ": 7295,
      "ĠÑģÐ°Ð¹ÑĤÐ°": 7296,
      "Ð¾ÑĢÐ¼Ð¾ÑĤ": 7297,
      "Ð°Ð»Ð¸Ð·Ð¼Ð°": 7298,
      "Ð¸Ð»Ð»ÐµÑĢ": 7299,
      "ĠÑįÐºÑģÐ¿ÐµÑĢÐ¸Ð¼ÐµÐ½ÑĤ": 7300,
      "ĠÐ´ÐµÐ¿ÑĢÐµÑģÑģ": 7301,
      "ĠÐºÑģÑĤÐ°ÑĤÐ¸": 7302,
      "ĠÑĤÑĢÐ¸Ð´ÑĨ": 7303,
      "ĠÐ²ÑĭÐ±Ð¸ÑĢ": 7304,
      "ĠÐ²Ð»Ð°Ð´ÐµÐ»ÑĮ": 7305,
      "??": 7306,
      "Ð°Ð·Ð²": 7307,
      "ĠÐķÐ¹": 7308,
      "ĠÐ¾ÑģÑĤÐ°Ð»Ð¸ÑģÑĮ": 7309,
      "ĠÐ±ÑĥÐ¼Ð°Ð³Ð¸": 7310,
      "ĠÐ¾Ð±ÑģÐ»ÑĥÐ¶": 7311,
      "ĠÑģÐ¿Ð¸Ð½Ðµ": 7312,
      "ĠÐ¿ÑĢÐµÐ´ÑģÑĤ": 7313,
      "ĠÑĪÐ»Ð°": 7314,
      "Ð½Ð°Ð´": 7315,
      "ĠÐ¾Ð±Ð»Ð°ÑģÑĤÑĮ": 7316,
      "ĠÑģÐ½ÐµÐ³": 7317,
      "ĠÐ»Ð¾Ð¼": 7318,
      "ĠÐ²Ð°Ð½": 7319,
      "ĠÐĴÐ°ÑĢ": 7320,
      "ĠÑĥÑģÐ¿ÐµÐ»Ð°": 7321,
      "Ð·Ð°Ð¿": 7322,
      "ĠÐľÐ¾Ð¹": 7323,
      "ÑĳÐ½Ð½ÑĭÐµ": 7324,
      "ĠÑĥÐ¿Ð¾ÑĢ": 7325,
      "ure": 7326,
      "ĠÐ¾ÑĤÑģÑĤÐ°Ð²": 7327,
      "ÐµÑģÐºÐ¾Ð»ÑĮÐºÐ¾": 7328,
      "ĠÐĿÐµÑģÐ¼Ð¾ÑĤÑĢÑı": 7329,
      "--------": 7330,
      "Ġan": 7331,
      "ĠÑĢÐµÐ±ÑıÑĤ": 7332,
      "ĠÐ¿Ð¾Ð¿ÑĭÑĤÐºÐ¸": 7333,
      "ĠÑıÐ¹": 7334,
      "ĠÑĦÐ°Ð¼Ð¸": 7335,
      "ĠÑģÐ¸Ð´ÐµÐ»Ð°": 7336,
      "ĠÑħÐ°ÑĢÐ°ÐºÑĤÐµÑĢÐ°": 7337,
      "ĠÐ¿Ð¾ÐºÐ°Ð·Ð°Ð»": 7338,
      "ĠÐ¿Ð¾Ð»ÑĥÑĩÐ¸Ð»Ð¾ÑģÑĮ": 7339,
      "ĠÐ½Ð°ÑĩÐ¸Ð½Ð°ÑİÑĤ": 7340,
      "ĠÐ±Ð¾ÑĢÑĮÐ±Ðµ": 7341,
      "ĠÐ½Ð°ÑģÑĤÑĢÐ¾Ð¹": 7342,
      "ĠÐ¿Ð¾Ð»Ð¾ÑĤ": 7343,
      "ĠÐ²Ð¾ÑģÐ¿Ð¾Ð¼Ð¸Ð½Ð°Ð½Ð¸Ñı": 7344,
      "Ð»Ð¸Ð½Ð°": 7345,
      "ĠÐ¿Ð¾Ð»Ð¾Ñģ": 7346,
      "ĠÐ¾ÑĤÐ¾ÑĢ": 7347,
      "ĠÐ¿Ð¾ÐºÐ°Ð·Ð°Ð»Ð¾ÑģÑĮ": 7348,
      "ĠÐ¾ÑĪÐ¸Ð±ÐºÐ¸": 7349,
      "ĠÑĦÐ¾Ð½Ðµ": 7350,
      "ÐµÑĤÑĮÑģÑı": 7351,
      "ĠÑģÐ²Ð¾Ð±Ð¾Ð´Ñĭ": 7352,
      "ĠÐļÑĥÐ±": 7353,
      "ĠÐĶÑĥÐ¼Ð°Ñİ": 7354,
      "Ð°Ð°": 7355,
      "ÐµÐ½Ð¾Ð¼": 7356,
      "ĠÐ»Ð¾Ð±": 7357,
      "Ð»ÐµÐ½Ð½Ð°Ñı": 7358,
      "ĠÐ´Ð¾Ð±Ð°Ð²Ð¸Ð»": 7359,
      "ĠÐ¡Ð¾Ð»Ð½": 7360,
      "Ð·ÐµÐ¼": 7361,
      "ĠÐ¼Ð°Ð½Ð¸": 7362,
      "ĠÐľÐ¸Ð»": 7363,
      "Ð¸Ð½ÑĥÐ»ÑģÑı": 7364,
      "ĠÑĢÐ¾Ð´Ð¸Ð»ÑģÑı": 7365,
      "ĠÑĩÑĥÐ²ÑģÑĤÐ²Ð¾Ð²Ð°ÑĤÑĮ": 7366,
      "ĠÐ´ÑĢÑĥÐ³Ð°Ñı": 7367,
      "Ð¾Ð³Ð¾Ð²": 7368,
      "ĠÐ°ÐºÑĤÐ¸Ð²Ð½Ð¾": 7369,
      "ĠÑĦÑĢÑĥÐº": 7370,
      "ĠÐ²Ð¸Ð´Ñĭ": 7371,
      "ĠÐ¾ÑģÑĤÐ°Ð½Ð¾Ð²Ð¸Ð»ÑģÑı": 7372,
      "ĠÑģÐ¿Ð°Ð»ÑĮ": 7373,
      "ĠÐłÐµÐ¹": 7374,
      "ĠÐ¡Ð²ÑıÑĤ": 7375,
      "ĠÐłÐ°Ð¹": 7376,
      "ĠÑģÑĥÐ´ÐµÐ±": 7377,
      "ĠÐ²ÑĭÑĢÐ°Ð¶ÐµÐ½Ð¸Ðµ": 7378,
      "Ð¸ÑĢÑĥÑİÑī": 7379,
      "ÑĥÐ»Ð¸ÑĢÑĥ": 7380,
      "ĠÐŁÑĥÑĤ": 7381,
      "ĠÑģÐ¿Ð¸ÑĢ": 7382,
      "ĠÐ²ÑĭÐ½ÑĥÐ¶Ð´": 7383,
      "ĠÐ¸Ð³ÑĢÐ°ÐµÑĤ": 7384,
      "ĠÐ¡ÐºÐ¾ÑĢ": 7385,
      "ĠÐ´Ð¾ÑģÑĤÐ°ÑĤÐ¾Ñĩ": 7386,
      "ĠÐ½Ð°Ð²ÑģÐµÐ³Ð´Ð°": 7387,
      "ÑĮÐµÐ¼": 7388,
      "Ð±ÐµÐ¶": 7389,
      "ĠÑĤÐ¾Ð²Ð°ÑĢ": 7390,
      "ĠÐ´Ð¸Ð½Ð°Ð¼": 7391,
      "ĠÐ¿ÑĢÐ¾Ð·Ð²": 7392,
      "ĠÐ±Ð°ÐºÑĤÐµÑĢ": 7393,
      "ÑĥÑĢÑģ": 7394,
      "ĠÐ¸Ð³ÑĢÑĥÑĪ": 7395,
      "ĠÐ¼ÐµÐ»ÑĮ": 7396,
      "ĠÐ²ÑĭÐ¹Ð´": 7397,
      "ĠGoogle": 7398,
      "ĠÑīÐµÐ»": 7399,
      "ĠÐ¿Ð¾Ñį": 7400,
      "ĠÐ¾Ð±ÑĥÑģÐ»Ð¾Ð²": 7401,
      "ĠÐ¡Ð¾ÐµÐ´Ð¸Ð½": 7402,
      "ĠÑĢÐµÑĪÐ¸ÑĤÑĮ": 7403,
      "ĠÐ½Ð°Ð¿ÑĢÐ°Ð²Ð»ÐµÐ½Ð¸Ñı": 7404,
      "ĠÐ¿ÑĢÐ¾Ð¼ÐµÐ¶": 7405,
      "ll": 7406,
      "ĠÐ·ÐµÐ¼Ð»Ñı": 7407,
      "ĠÐºÐ¾Ð¼Ð°Ð½Ð´Ñĥ": 7408,
      "Ġ2016": 7409,
      "ĠÑģÑĤÐ°Ð½Ð¾Ð²ÑıÑĤÑģÑı": 7410,
      "ĠÐĺÑģÐ¿Ð¾Ð»ÑĮÐ·": 7411,
      "ĠÐ¿Ð¾ÑģÐ»ÐµÐ´Ð½ÐµÐ¹": 7412,
      "ĠÐ½ÐµÐ½Ð°Ð²Ð¸Ð´": 7413,
      "ÐµÑĤÐ¾": 7414,
      "ĠÐ¶ÑĥÑĤ": 7415,
      "ĠÑĤÐ°ÐºÑĤ": 7416,
      "ĠÑģÐºÑĢÐ¸Ð¿": 7417,
      "Ð°ÐºÑĥÑĢÐ°": 7418,
      "Ġ2013": 7419,
      "Ġhe": 7420,
      "ĠÐ»Ð°Ð±Ð¾ÑĢÐ°ÑĤÐ¾ÑĢ": 7421,
      "Ð¸Ð½ÑĥÑĤÑĮ": 7422,
      "ĠÐ¦ÐµÐ½ÑĤÑĢ": 7423,
      "ork": 7424,
      "ÐµÑģÑĤÐµÑĢ": 7425,
      "ĠÐºÐ¾Ð»ÐµÐ±": 7426,
      "ĠÐ¿Ð¾ÑģÐµÑī": 7427,
      "ÐļÑĢÐ¾Ð¼Ðµ": 7428,
      "ÑĥÐ¶ÑĩÐ¸Ð½Ð°": 7429,
      "ĠÐ³ÑĢÐµÑħ": 7430,
      "ĠÑģÐ¿Ð¾ÑģÐ¾Ð±Ð¾Ð¼": 7431,
      "ĠÑĤÐµÑħÐ½Ð¾Ð»Ð¾Ð³Ð¸Ð¸": 7432,
      "ĠÐ¿ÐµÑĢÐµÐ½Ð¾Ñģ": 7433,
      "ÐŁÐ¾Ð¼": 7434,
      "ÑħÐ¸": 7435,
      "ÐļÐ°ÑĢ": 7436,
      "ĠÐ°Ð»Ð»": 7437,
      "ĠÐ¼Ð°ÑģÐ»Ð°": 7438,
      "ĠÐ¿Ð¾ÐºÑĢÐ°Ñģ": 7439,
      "ĠÐ²ÑĭÑģÐºÐ°Ð·ÑĭÐ²": 7440,
      "ĠÐ²Ð¾Ð·Ð¼ÑĥÑī": 7441,
      "ĠÑĥÑģÐ¿ÐµÐ²": 7442,
      "ÑīÐ¸ÐºÐ¾Ð²": 7443,
      "ĠÐ¾ÑĤÑģÑĤÑĢÐ°Ð½": 7444,
      "ĠÐ¾ÑĩÐ¸ÑģÑĤ": 7445,
      "ĠÐ¾Ð±Ð»Ð°Ð´Ð°ÐµÑĤ": 7446,
      "Ġ2015": 7447,
      "act": 7448,
      "Ð¾Ð³ÑĢÐ°ÑĦÐ¸Ð¸": 7449,
      "ĠÐ¿Ð¾Ð´Ð½ÑıÐ»ÑģÑı": 7450,
      "Ð¾Ð´Ð¸": 7451,
      "ĠÐ½Ð°Ð¿Ð¾Ð»Ð½": 7452,
      "ÐłÐĺ": 7453,
      "ĠÐ·Ð°Ð±ÑĭÑĤÑĮ": 7454,
      "ĠÐĺÑĤÐ°Ð»Ð¸Ð¸": 7455,
      "ĠÐºÐ½Ð¾Ð¿ÐºÑĥ": 7456,
      "ĠÐ½Ð°ÑĥÐºÐ¸": 7457,
      "ĠÑģÐ¿Ð¾ÑģÐ¾Ð±ÐµÐ½": 7458,
      "Ð¸ÑĤÐ¼": 7459,
      "ĠÐ¿ÑĢÐ¾Ð±Ð»": 7460,
      "Ġ2008": 7461,
      "ĠÐĲÐ½Ð´ÑĢÐµ": 7462,
      "ĠÑģÐºÐ¾Ð»ÑĮÐ·": 7463,
      "ĠÑħÐ¼Ñĭ": 7464,
      "Ð°Ð¼Ð¸Ð½": 7465,
      "Ð°Ð³Ð¸": 7466,
      "ĠÑģÐ¼ÑĭÑģ": 7467,
      "ĠÐ¨ÐµÐ¿": 7468,
      "ĠÐºÑĢÐµÑģÑĤÑĮÑıÐ½": 7469,
      "ĠÑĥÐ»Ð¸ÑĨÑĥ": 7470,
      "ĠÐĿÐ°ÐºÐ¾Ð½ÐµÑĨ": 7471,
      "ĠÑĤÐ²Ð¾ÑĢÑĩÐµÑģÐº": 7472,
      "ĠÑĤÑĢÐµÑĤÐ¸Ð¹": 7473,
      "Ð½Ð¸Ð»Ð¾ÑģÑĮ": 7474,
      "ÐĺÑģÑĤÐ¾ÑĩÐ½Ð¸Ðº": 7475,
      "ĠÐ²Ð¾Ð»Ð½Ñĥ": 7476,
      "ÐµÐ½Ð¾Ð²": 7477,
      "ĠÑĢÐ°Ð·Ð¼ÐµÑī": 7478,
      "ĠÑģÐ¾Ð¾ÑĤÐ²ÐµÑĤÑģÑĤÐ²ÐµÐ½Ð½Ð¾": 7479,
      "ĠÐ¾Ð±Ð¸ÑĤ": 7480,
      "ĠÐľÐ°ÐºÑģ": 7481,
      "ĠÐ·Ð°Ð³ÑĢÑĥÐ·": 7482,
      "ĠÐ´Ð¾ÑģÑĤÐ¾Ð¹": 7483,
      "ĠÐºÐ»Ð°Ð²": 7484,
      "Ð°Ð½Ñı": 7485,
      "ÑıÑīÐ¸Ð¼": 7486,
      "ĠÐ´Ð¾Ð·": 7487,
      "ĠÑįÐ»ÐµÐ¼ÐµÐ½ÑĤÑĭ": 7488,
      "ĠÐĿÐµÐ¼": 7489,
      "ĠÐľÑį": 7490,
      "ĠÐºÐ¸ÑĪ": 7491,
      "Ð§ÐµÑĢÐµÐ·": 7492,
      "ĠÐ½Ð°ÑĩÐ¸Ð½Ð°Ñı": 7493,
      "ĠÐ¢Ð¾Ð¼Ð°Ñģ": 7494,
      "ĠÐ¿ÑĢÐµÐ¼ÑĮ": 7495,
      "ĠÐ¸Ð½Ð´Ñĥ": 7496,
      "Ð°Ð±ÑĢ": 7497,
      "ĠÐłÐ¾ÑģÑģÐ¸Ð¹ÑģÐºÐ¾Ð¹": 7498,
      "ĠÐ¿Ð»Ð°Ð½Ð¸": 7499,
      "ĠÐ¡ÑįÐ¼": 7500,
      "ĠÐ±ÑĥÐ´ÑĮ": 7501,
      "ĠÑĨÐ¸Ð²Ð¸Ð»Ð¸Ð·": 7502,
      "ĠÐ¿ÐµÑĢÐµÐ´Ð°ÑĩÐ¸": 7503,
      "ĠÑģÐ¿ÑĢÐ°Ð²ÐµÐ´Ð»Ð¸Ð²": 7504,
      "ĠÐ¿ÐµÐ´": 7505,
      "Ð¸Ð»ÐµÐ¹": 7506,
      "Ð¸ÑģÑĤÐ°": 7507,
      "Ġ(\"": 7508,
      "ĠÐ¾Ð±ÑĢÐ°Ð·Ð¾Ð²Ð°Ð½Ð¸Ðµ": 7509,
      "ĠÐ¾Ð±Ð»Ð°ÑģÑĤ": 7510,
      "ĠÐĽÐ¸Ð·": 7511,
      "Ġ35": 7512,
      "ĠÐ´Ð°Ð²Ð»ÐµÐ½Ð¸Ðµ": 7513,
      "ĠÐ¿ÑĢÐ¾Ð´Ð¾Ð»Ð¶Ð¸Ð»": 7514,
      "Ð³ÑĥÐ¼": 7515,
      "ĠÐ¾Ð´Ð¸Ð½Ð°ÐºÐ¾Ð²": 7516,
      "ĠÑĥÑħÐ¼Ñĭ": 7517,
      "ĠÐ´Ð¾Ð½": 7518,
      "ĠÑģÑĭÑĢ": 7519,
      "ĠÐ¸ÑģÑģÐ»ÐµÐ´Ð¾Ð²Ð°Ð½Ð¸Ðµ": 7520,
      "ĠÐ¼ÑĥÐ´ÑĢ": 7521,
      "ĠÐ¿Ð¾Ð´ÑĢÐ°Ð·Ð´ÐµÐ»": 7522,
      "ĠÑĪÐ°ÑĤ": 7523,
      "ĠÑĥÐ½Ð¸Ð²ÐµÑĢÑģÐ¸ÑĤÐµÑĤ": 7524,
      "ĠÐ¿Ð»Ð°ÑĤÑĦÐ¾ÑĢÐ¼": 7525,
      "ÐµÐºÑĤÐ¾ÑĢÐ°": 7526,
      "ĠÐ²Ð°ÑĪÑĥ": 7527,
      "ĠÐ¼Ð½Ð¾Ð³Ð¾Ðµ": 7528,
      "ÑģÑĤÑĢÑĥ": 7529,
      "ÐµÐ²Ð¾": 7530,
      "ĠÐ´ÑĥÐ¼Ð°ÐµÑĪÑĮ": 7531,
      "ÑİÐº": 7532,
      "Ð¸Ð¼Ð¸Ð½": 7533,
      "ĠÑıÑĢÐºÐ¾": 7534,
      "ĠÑģÑĥÑģÑĤÐ°Ð²": 7535,
      "ÐĴÑģ": 7536,
      "ĠÐ¿Ð¾ÑĤÐ¾Ð»": 7537,
      "ĠÐ¸ÑģÐ¿Ð¾Ð»ÑĮÐ·ÑĥÑİÑĤÑģÑı": 7538,
      "ÐĶÐµÐ²ÑĥÑĪÐºÐ°": 7539,
      "ĠÑĩÐ°ÑģÑĤÐµÐ¹": 7540,
      "ĠÐ²ÑĭÑĤÐ°Ñī": 7541,
      "Ð°ÑĤÐµÐ»ÑĮÐ½Ð°Ñı": 7542,
      "Ð°ÐµÐ¼ÑĭÐ¹": 7543,
      "Ð¾ÑģÐ»Ð°Ð²": 7544,
      "ĠÐ¾Ð±ÐµÑģÐ¿ÐµÑĩÐ¸ÑĤÑĮ": 7545,
      "ĠÐ¼ÑĭÑģÐ»ÐµÐ¹": 7546,
      "ĠÐ²ÐµÑĢÑĪ": 7547,
      "ĠÐ¶Ð¸ÑĢ": 7548,
      "ĠÐ·Ð°ÐºÐ»Ð¸Ð½": 7549,
      "ĠÐ»Ð°Ð´Ð¾Ð½ÑĮ": 7550,
      "Ð»Ð°Ð³Ð¾Ð´Ð°ÑĢÑı": 7551,
      "ĠÐ¼Ð¾Ð»Ð¸ÑĤ": 7552,
      "ĠÐ¾Ð±ÑīÐµÑģÑĤÐ²Ð¾": 7553,
      "ĠÐ½Ð°ÑĢÐºÐ¾ÑĤ": 7554,
      "ĠÐ²ÑĭÑĢÐ²": 7555,
      "ÑĥÑģÑģ": 7556,
      "ĠÑĢÐµÐºÐ¸": 7557,
      "ĠÐ»Ð¾Ð´": 7558,
      "ĠÐŁÑĥÑģÑĤÑĮ": 7559,
      "ĠÐ¸Ð·Ð±ÐµÐ³": 7560,
      "ÑģÑĤÑĢÐµÐ±": 7561,
      "ĠÐ¿Ð¾Ð´Ð´ÐµÑĢÐ¶ÐºÐ¸": 7562,
      "ĠÑĢÐ°Ð±Ð¾ÑĩÐ¸Ñħ": 7563,
      "ĠÐºÐ°ÑĢÑĤÐ¸Ð½Ñĭ": 7564,
      "ÑĮÐµÑĢ": 7565,
      "ĠÑĤÐµÐ»Ðµ": 7566,
      "ĠÑĥÑī": 7567,
      "ian": 7568,
      "ĠÑĤÐ¸ÑĤ": 7569,
      "ĠÑĤÐ°Ð»Ð°Ð½ÑĤ": 7570,
      "ĠÐ¿ÑĢÐ¸ÑĩÐ¸Ð½Ð°": 7571,
      "ÑĳÐº": 7572,
      "Ð¾ÑħÐ¾ÑĤ": 7573,
      "ĠÐ¿Ð¾ÑģÐ»ÐµÐ´Ð½ÐµÐ³Ð¾": 7574,
      "ĠÐ¿Ð¾Ð´Ð±Ð¾ÑĢ": 7575,
      "ĠÐ»ÑĥÑĩÑĪÐ¸Ð¹": 7576,
      "ĠÐ¿ÑĢÐµÑģÑĤÑĥÐ¿Ð»ÐµÐ½Ð¸Ñı": 7577,
      "ĠÑĨÐµÐ»ÑĭÐ¹": 7578,
      "ĠÐ¿ÑĢÐ¾Ð²ÐµÐ»": 7579,
      "ĠÐ¿ÑĢÐµÐ´Ð¿ÑĢÐ¸Ð½Ð¸Ð¼": 7580,
      "ĠÐ²ÑĭÐ·Ð²Ð°ÑĤÑĮ": 7581,
      "Ð¸ÑĢÐ¾Ð²Ð°Ð½Ð½ÑĭÐ¹": 7582,
      "ĠÐĳÐ¾Ð¶": 7583,
      "ĠÐ½Ð°ÑģÐ¼": 7584,
      "ĠÐ¿ÑĢÐµÐ´Ð»Ð°Ð³Ð°ÐµÑĤ": 7585,
      "Ð³Ð¾ÑĢÐ¾Ð´": 7586,
      "Ð°ÑĤÐµÐ»ÑıÐ¼Ð¸": 7587,
      "ĠÑģÐ¾ÑĨÐ¸Ð°Ð»ÑĮÐ½ÑĭÑħ": 7588,
      "ÑĢÐ¸ÑĤ": 7589,
      "ĠÐ±ÑĥÐ´ÑĥÑīÐµÐµ": 7590,
      "ĠÐ»Ð¸Ðº": 7591,
      "ĠÑĢÑĥÑģÑģÐºÐ¾Ð³Ð¾": 7592,
      "ĠÐ¼Ð¼": 7593,
      "ĠÐŁÑĢÐ¸Ð½": 7594,
      "ĠÐ²Ð¾Ð·Ð³Ð»Ð°Ð²": 7595,
      "ĠÐ·Ð°Ð¿ÑĢÐµÑĤ": 7596,
      "ĠÐ½Ð¾Ð²Ð°Ñı": 7597,
      "ĠÐ¼Ð¾ÐµÐ¼": 7598,
      "ĠÐ»Ð¸Ð´ÐµÑĢ": 7599,
      "ĠÐ¾Ð±Ð¾ÑĢÐ¾ÑĤ": 7600,
      "Ð°Ð½Ð¸ÐµÐ¹": 7601,
      "Ð¾Ð°Ð½": 7602,
      "ĠÐ·Ð°Ð½ÑıÑĤÐ¸Ñı": 7603,
      "ÑĥÐ¶Ð´ÐµÐ½Ð¸Ðµ": 7604,
      "ĠÐ¼Ð¸ÑģÑĤÐµÑĢ": 7605,
      "ĠÐ¿Ð¾ÐºÐ»Ð¾Ð½": 7606,
      "...\"": 7607,
      "ÐĶÑĢÑĥÐ³": 7608,
      "Ġwith": 7609,
      "ĠÐ¸ÑģÐ¿Ð¾Ð»ÑĮÐ·ÑĥÑı": 7610,
      "ĠÑĤÐµÐ»Ñĥ": 7611,
      "Ð¸Ð¹ÑģÐºÐ¸Ñħ": 7612,
      "ĠÐ»Ð°Ð´Ð¾Ð½Ð¸": 7613,
      "ĠÐ³Ð¾ÑģÑĥÐ´Ð°ÑĢÑģÑĤÐ²": 7614,
      "ÐĿÐĲ": 7615,
      "ĠÐ²Ð·Ð³Ð»ÑıÐ´Ð°": 7616,
      "ĠÐ²Ð¾Ð»Ð½Ð¾Ð²": 7617,
      "ĠÑĦÐ°Ð½": 7618,
      "ĠÐ¾ÑĤÑĢÐµÐ·": 7619,
      "ĠÐ¿ÑĢÐµÐ´ÑģÑĤÐ°Ð²Ð»ÐµÐ½Ð¸Ñı": 7620,
      "ĠÐ¾Ð±ÑīÐµÑģÑĤÐ²Ðµ": 7621,
      "ĠÐ·Ð°ÐºÑĢÐµÐ¿": 7622,
      "ĠÐŁÑĢÐ¸Ð²ÐµÑĤ": 7623,
      "ÐŁÐµÑĢ": 7624,
      "ÑĨÐµÑĢ": 7625,
      "ÑĦÑĦÐµÑĢ": 7626,
      "ĠÐ³Ð¾ÑĢÐ¸Ð·": 7627,
      "ĠÐ¼Ð°ÑĪÐ¸Ð½Ð°": 7628,
      "ĠÑĢÐµÐ²Ð¾Ð»ÑİÑĨÐ¸Ð¸": 7629,
      "ĠÐ°Ð²ÑĤÐ¾Ð±": 7630,
      "ÑĭÐ²Ð°Ð»ÑģÑı": 7631,
      "ĠÐ¸ÑģÐ¿Ð¾Ð»ÑĮÐ·Ð¾Ð²Ð°Ð½Ð¸ÐµÐ¼": 7632,
      "ÑĢÐ¾Ð´Ð¾Ð»Ð¶": 7633,
      "Ð»ÐµÐ½Ð½Ð¾Ðµ": 7634,
      "ĠÑģÑĤÐ¾Ð»Ðº": 7635,
      "ĠÐĴÐµÑĢÑħ": 7636,
      "Ð¿ÑĢÐµÑģÑģ": 7637,
      "Ð°Ð¼Ðµ": 7638,
      "ĠÐ½Ð¾Ð²ÑĭÐ¼": 7639,
      "ĠÐµÐ¶ÐµÐ´Ð½ÐµÐ²": 7640,
      "ĠÑĦÐ°ÑĢ": 7641,
      "ĠIII": 7642,
      "ĠÐ»Ð¸ÑģÑĤÑĮ": 7643,
      "ĠÐ¿Ð»Ð¾ÑīÐ°Ð´Ð¸": 7644,
      "ĠÑĥÑģÐ¿ÐµÑĪÐ½Ð¾": 7645,
      "Ð¾Ð²Ð°Ð»Ð°ÑģÑĮ": 7646,
      "ĠÑģÑĥÑĤÐ¸": 7647,
      "ĠÐºÐ»ÐµÑĤÐºÐ¸": 7648,
      "],": 7649,
      "Ð¾ÐµÐ¼": 7650,
      "ÐµÐ·Ð´Ñĭ": 7651,
      "Ġun": 7652,
      "Ð½ÐµÐ¹ÑĪÐ¸Ñħ": 7653,
      "ĠÐ¨ÐµÑĢ": 7654,
      "ĠÐ£Ð·": 7655,
      "ĠÐ³Ð»Ð°Ð²Ð½ÑĭÐ¹": 7656,
      "ĠÑģÐ¾Ð¿ÑĢÐ¾Ð²Ð¾Ð¶": 7657,
      "ĠÐ¾Ð¿ÑĥÑģÐº": 7658,
      "ÐºÐ¾Ð»": 7659,
      "ĠÐ¡Ð½Ð°ÑĩÐ°Ð»Ð°": 7660,
      "ĠÑĢÐµÐ·ÑĥÐ»ÑĮÑĤÐ°ÑĤÐ¾Ð²": 7661,
      "ĠÐ¿ÐµÑĢÐ¸Ð¾Ð´Ð°": 7662,
      "ĠÐµÐ»Ðµ": 7663,
      "ĠÐ½ÐµÐ¼ÐµÐ´Ð»ÐµÐ½Ð½Ð¾": 7664,
      "ave": 7665,
      "ĠÑģÑĩÐ¸ÑĤÐ°Ð»": 7666,
      "ĠÐŀÐ»Ð¸Ð¼Ð¿": 7667,
      "ĠÐ´Ð°Ð²Ð°Ð¹": 7668,
      "ĠÐ½ÐµÐ´Ð¾ÑĥÐ¼": 7669,
      "ĠÑĢÐµÐºÐ¾Ð¼": 7670,
      "ĠÐłÐ°Ð·Ð²Ðµ": 7671,
      "ĠÑĪÐºÐ°ÑĦ": 7672,
      "ÐĹÐ°Ð¿": 7673,
      "ĠÐ¼Ð°Ð»ÑĮÑĩÐ¸ÑĪ": 7674,
      "ĠÐ¾Ð´Ð½Ð¸": 7675,
      "ĠÑĢÐµÐ»Ð¸Ð³": 7676,
      "ear": 7677,
      "ĠÑģÐ²ÑıÐ·Ð°Ð½Ñĭ": 7678,
      "ĠÑģÐ¸Ð½ÑĤ": 7679,
      "ies": 7680,
      "ĠÐºÐ³": 7681,
      "ÑģÑĤÐ²ÐµÐ½Ð½Ð¾Ð¼": 7682,
      "?Â»": 7683,
      "ĠÐ±Ð¾Ð¶Ðµ": 7684,
      "ĠÐ¾Ð´ÐµÐ¶Ð´Ñĭ": 7685,
      "ĠÐķÑĳ": 7686,
      "ĠÐ½ÐµÐ´Ð¾ÑģÑĤÐ°ÑĤ": 7687,
      "ĠÑĢÐµÐºÐ¾Ð¼ÐµÐ½Ð´Ð°": 7688,
      "ĠÑĢÐµÐºÐ¾Ð¼ÐµÐ½Ð´": 7689,
      "Ð»ÑĭÐ¹": 7690,
      "Ð´Ð°ÐµÐ¼": 7691,
      "ĠÐĿÑĥÐ¶Ð½Ð¾": 7692,
      "ÑĤÑı": 7693,
      "ĠÑģÐ¸Ð½Ð´": 7694,
      "ÑĦÐ¾ÑĢÑĤ": 7695,
      "ĠÐłÑĥ": 7696,
      "Ð»Ð¸ÑĤÑĮ": 7697,
      "ÑĥÐ³Ð°": 7698,
      "Ġ188": 7699,
      "32": 7700,
      "Ð¸Ð½ÑģÐºÐ¾Ð³Ð¾": 7701,
      "ĠÐ¿ÑĢÐ¾Ð¸Ð·Ð½": 7702,
      "ĠÐłÐµÐ·": 7703,
      "ÐķÑīÐµ": 7704,
      "ĠXX": 7705,
      "ĠÐ¿Ð¾Ð»ÐµÑĤ": 7706,
      "ĠÐ¿Ð¾Ð»Ð¸ÑĤÐ¸ÑĩÐµÑģÐºÐ¾Ð¹": 7707,
      "ĠÐ¿Ð¾Ð»ÑĥÑĩÐ°ÐµÑĤ": 7708,
      "ĠÐ¾ÑģÐº": 7709,
      "ĠÐ¾ÑģÐºÐ¾ÑĢÐ±": 7710,
      "ĠÐºÑĢÐ°Ñı": 7711,
      "ĠÑĢÐµÐ·ÐµÑĢÐ²": 7712,
      "ĠÐ¸Ð½ÑĤÐµÑĢÐ½ÐµÑĤ": 7713,
      "ĠÐĵÐ¾Ð²Ð¾ÑĢ": 7714,
      "ĠÐ¿Ð¾Ð²ÐµÑĢÑħÐ½Ð¾ÑģÑĤÑĮ": 7715,
      "ĠÑģÑĤÑĢÑĥÐºÑĤÑĥÑĢÑĭ": 7716,
      "Ð»Ð¾Ð±": 7717,
      "ĠÐ³ÑĥÑģÑĤ": 7718,
      "ÐµÐ½ÑĮÐºÐ¾": 7719,
      "ĠÐ¼Ð°ÑĤÐµÑĢÐ¸Ð°Ð»Ð¾Ð²": 7720,
      "Ð°ÑĤÐµÐ»Ñİ": 7721,
      "ĠÐ±ÑĢÐ¾ÑģÐ¸Ð»": 7722,
      "ĠÑĤÐµÐ½Ð´": 7723,
      "ĠÐ¿Ð¾Ð¼ÐµÑģÑĤ": 7724,
      "ĠÑģÐ¾ÑĩÐ¸Ð½": 7725,
      "ĠÐ´Ð¾Ð±Ð¸ÑĤÑĮÑģÑı": 7726,
      "ĠÐ¾ÑĨÐµÐ½ÐºÐ¸": 7727,
      "ĠÐĿÐ°ÑĢÑĥÑĤÐ¾": 7728,
      "ĠÐ¾ÑĢÐ³Ð°Ð½Ð¸Ð·Ð¼": 7729,
      "ĠÐ´ÑĥÑĪÐ°": 7730,
      "Ð¾Ð»Ð¾Ð³Ð¸ÑĩÐµÑģÐºÐ¸Ñħ": 7731,
      "ĠÐ¼ÐµÑĤÐ°Ð»Ð»Ð¸ÑĩÐµÑģÐº": 7732,
      "ĠÐŁÐŀ": 7733,
      "ÐļÐ¾ÑĢ": 7734,
      "Ð½Ð¸ÐºÐ°Ñħ": 7735,
      "ĠÐ¿ÑĢÐ¾ÑĪÐµÐ»": 7736,
      "ĠÐ²ÐµÑģÐµÐ»Ð¾": 7737,
      "ĠÐĶÐ°Ð²Ð°Ð¹": 7738,
      "ÐµÐºÐµ": 7739,
      "ĠÐ²ÑĭÑģÐ¾ÐºÐ¸Ð¹": 7740,
      "ĠÑĤÐµÐ¼Ð¿ÐµÑĢÐ°ÑĤÑĥÑĢ": 7741,
      "ress": 7742,
      "ĠÐ²Ð°ÑĪÐµÐ¼": 7743,
      "ĠÐ¿ÑĢÐ¸ÑħÐ¾Ð´Ð¸ÑĤ": 7744,
      "ĠÑģÐ¿Ð¾ÑĢÑĤÑģÐ¼": 7745,
      "ĠÂ": 7746,
      "ĠÑĥÑģÐ»Ð¾Ð²Ð¸Ð¹": 7747,
      "ĠÐºÐ¾Ð½ÑĤÑĢÐ¾Ð»Ñı": 7748,
      "ÑĭÑĪÐµ": 7749,
      "ĠÐļÐ°Ð¼": 7750,
      "OV": 7751,
      "Ð¾Ð²ÐµÑĢÑĪ": 7752,
      "ĠÑĤÑĮ": 7753,
      "ĠÑģÐ¿ÐµÑĨÐ¸ÑĦ": 7754,
      "ĠÑĦÐ¸Ð»ÑĮÐ¼Ðµ": 7755,
      "Ð±Ð¾Ð²": 7756,
      "ĠÐ¿Ð¾ÑįÑĤ": 7757,
      "ĠÐ¿Ð¾Ð´Ð´ÐµÑĢÐ¶ÐºÑĥ": 7758,
      "ĠÐ²Ð¿ÐµÑĩÐ°ÑĤÐ»ÐµÐ½Ð¸Ðµ": 7759,
      "ĠÐ´ÐµÐ²ÑĩÐ¾Ð½": 7760,
      "ĠÐ´ÑĢÑĥÐ·ÑĮÑıÐ¼Ð¸": 7761,
      "Ð½ÑıÐ¼Ð¸": 7762,
      "ĠÑĢÐ°ÑģÑģÐ»ÐµÐ´Ð¾Ð²": 7763,
      "ĠÐ²Ð¾Ð·ÑĮ": 7764,
      "ĠÐ½Ð°ÑģÑĤÐ¾ÑıÑīÐµÐ³Ð¾": 7765,
      "ĠÐ°Ð½Ð°Ð»Ð¸Ð·Ð°": 7766,
      "ĠÑĢÑĭÐ½ÐºÐµ": 7767,
      "ĠÐ¾ÑĦÐ¾ÑĢÐ¼": 7768,
      "Ð¾ÑĩÐºÐ¾Ð¹": 7769,
      "ĠÑĤÐ²Ð¾ÑĢÑĩÐµ": 7770,
      "ĠÐ¢Ð¾Ð»ÑģÑĤ": 7771,
      "ĠÐĴÐ°ÑģÐ¸Ð»Ð¸": 7772,
      "Ð°Ð¿ÑĤ": 7773,
      "ĠÐºÐ¾ÑĢÐ¿ÑĥÑģ": 7774,
      "ĠÐ¡ÐµÑĢ": 7775,
      "ĠÐ¡Ð²ÐµÑĤ": 7776,
      "Ð¢ÐĲ": 7777,
      "ÑĥÑīÐµÑģÑĤÐ²Ð¾": 7778,
      "Ð²Ð¾Ð»Ñİ": 7779,
      "ĠÐŀÐ±ÑĬ": 7780,
      "Ð±Ð¸ÑĤ": 7781,
      "ĠÐ²ÐµÑĢÐ½ÑĥÑĤÑĮ": 7782,
      "ĠÑįÐºÐ¾Ð½Ð¾Ð¼Ð¸ÐºÐ¸": 7783,
      "ĠÐ´Ð¾Ð¿ÑĥÑģÐº": 7784,
      "ĠÐ·Ð°Ð¼ÐµÑĤÐ½Ð¾": 7785,
      "ĠÐºÐ¾ÑĢÐ¿Ð¾ÑĢ": 7786,
      "ĠÐ½Ð°ÑĤÑĥÑĢ": 7787,
      "ĠÐ³Ð¸Ð¼": 7788,
      "ĠÑģÐµÑĢÐ¸Ð¸": 7789,
      "ĠÑģÑĤÐ°ÑĤÑĥÑģ": 7790,
      "ĠÐ¿Ð°Ð»ÑĮÑĨÐµÐ²": 7791,
      "ĠÐ¿ÑĢÐµÐ²ÑĭÑĪ": 7792,
      "ĠÐ¿ÑĢÐ¾Ð±Ð»ÐµÐ¼Ñĥ": 7793,
      "ĠÑĤÐµÐºÑģÑĤÐ°": 7794,
      "ment": 7795,
      "Ð½Ð¾ÑĤ": 7796,
      "ĠÐ¿Ð¾Ð»Ð½ÑĭÐ¹": 7797,
      "ĠÐľÐ°Ð¹Ðº": 7798,
      "ĠÐ¿ÑĢÐ¾ÑĦÐµÑģÑģÐ¾ÑĢ": 7799,
      "Ð°Ð²Ð¸Ð»": 7800,
      "Ð¾ÑĢÐ´Ð¸Ð½": 7801,
      "Ð¿ÑĢÐµÐ¶Ð´": 7802,
      "ĠÐ¸Ð³ÑĢÐµ": 7803,
      "ĠÐ¿Ð¾Ð»Ð¾Ð¶Ð¸Ð»": 7804,
      "ĠÐ²ÑģÑĤÐ°Ð»Ð°": 7805,
      "Ð¾Ð³Ð¾Ð²Ð¾ÑĢ": 7806,
      "ĠÐ¸Ð·Ð±Ð¸ÑĢ": 7807,
      "ĠÑģÐ¸Ð³Ð°ÑĢ": 7808,
      "ĠÐŁÐ¾Ð¶Ð°Ð»": 7809,
      "ĠÑģÐ¿Ð¾ÑģÐ¾Ð±ÑģÑĤÐ²": 7810,
      "ĠÐºÑĢÐµÐ¼": 7811,
      "Ð¸Ð½ÑĮ": 7812,
      "ÐºÐ¾ÑĤÐ¾ÑĢ": 7813,
      "Ð°ÑĤÑĮÑı": 7814,
      "age": 7815,
      "ÑĥÑģÑĤÑı": 7816,
      "ĠÐºÐ°Ð¶Ð´Ð¾Ðµ": 7817,
      "ĠÐ½Ð°Ð¿ÑĢÐ°Ð²Ð¸Ð»ÑģÑı": 7818,
      "ĠÐ°ÑģÑģÐ¾ÑĨÐ¸": 7819,
      "ÐµÐµÑĤ": 7820,
      "ÐĽÐ¬": 7821,
      "ĠÑģÑĤÐµÐ½Ñĥ": 7822,
      "Ġ//": 7823,
      "ox": 7824,
      "ne": 7825,
      "Ð¡ÐµÐ³Ð¾Ð´Ð½Ñı": 7826,
      "ĠÑģÑĢÐµÐ´ÑģÑĤÐ²Ð¾": 7827,
      "ĠÐ²ÐµÐºÐµ": 7828,
      "ĠÐ¾Ð±ÐµÐ´": 7829,
      "ĠÑĥÐ´ÐµÐ»": 7830,
      "ÑĥÑĤÐ¾Ñĩ": 7831,
      "ĠÐ¾Ð±ÐµÐ·": 7832,
      "Ð°ÑİÑīÐ¸Ð¹ÑģÑı": 7833,
      "ĠÐ¤ÑĢÑįÐ½": 7834,
      "ĠÐµÐ´Ð¸Ð½ÑģÑĤÐ²ÐµÐ½Ð½ÑĭÐ¹": 7835,
      "Ð°ÑĤÐµÐ»ÑıÐ¼": 7836,
      "ĠÐ¿ÐµÑģÐ½Ð¸": 7837,
      "'s": 7838,
      "Ð¸Ð±Ð¸ÑĢ": 7839,
      "ĠÐ¼Ð°ÑĪÐ¸Ð½Ðµ": 7840,
      "ĠÐ´Ð¶Ð¸Ð½": 7841,
      "ĠÐ¾ÑĤÐ²ÐµÑĤÑģÑĤÐ²ÐµÐ½Ð½Ð¾ÑģÑĤÑĮ": 7842,
      "ĠÐ´ÐµÐ¹ÑģÑĤÐ²Ð¾Ð²Ð°ÑĤÑĮ": 7843,
      "ĠÐ¾ÑĤÐ²Ð»ÐµÐº": 7844,
      "ĠÑĥÐ¼Ð¸ÑĢ": 7845,
      "Ð°ÑĤÑĭÐ¹": 7846,
      "ĠÑģÑĤÑĢÐ¾Ð³Ð¾": 7847,
      "ĠÐºÐ¾Ð½ÑĦÐµÑĢ": 7848,
      "ĠÐ°Ð²ÑĤÐ¾ÑĢÐ°": 7849,
      "ÐºÐ¸Ð´": 7850,
      "Ġal": 7851,
      "Ð¸Ð½ÑĤ": 7852,
      "ÐµÐ²ÑĭÐ¼": 7853,
      "ĠÑĤÐµÐ¼Ñĭ": 7854,
      "ĠÐ¾ÑģÑĤÐ°Ð»Ð°ÑģÑĮ": 7855,
      "ĠÑĥÑĩÐ¸ÑĤÐµÐ»ÑĮ": 7856,
      "90": 7857,
      "Ð¾Ð¶Ð´ÐµÐ½Ð¸Ð¸": 7858,
      "ĠÑĢÐ°Ð±Ð¾ÑĤÐ°ÑİÑĤ": 7859,
      "ĠÑģÐ¼ÑĭÑģÐ»Ð°": 7860,
      "ĠÐ´ÑĥÐ¼Ð°ÐµÑĤ": 7861,
      "Ð²ÑĤÐ¾ÑĢÑĭÑħ": 7862,
      "ÐŀÑĩ": 7863,
      "ĠÑĤÐµÑħÐ½Ð¸ÐºÐ¸": 7864,
      "ĠÑĤÐµÐ¾ÑĢÐµÑĤ": 7865,
      "Ð°ÑĤÑģÑı": 7866,
      "ÑĭÐ²Ð°Ð½Ð¸Ðµ": 7867,
      "ĠÐ¿ÑĢÐ¾ÑĨÐµÐ½ÑĤÐ¾Ð²": 7868,
      "ĠÐ¾ÑĤÐ½Ð¾ÑĪÐµÐ½Ð¸ÑıÑħ": 7869,
      "Ġpro": 7870,
      "ĠÐ´Ð°Ð»Ð¸": 7871,
      "Ð°Ð¶ÐµÐ¹": 7872,
      "ĠÐµÐ²ÑĢÐµ": 7873,
      "ÐµÐ½Ð´Ð°": 7874,
      "Ð°Ð¿Ð°Ð·": 7875,
      "Ð¾ÑĪÑĥ": 7876,
      "ĠÑģÑĤÐ°Ð½ÑĨÐ¸Ð¸": 7877,
      "ĠÑģÐ»Ð¸Ð·": 7878,
      "ĠÑģÐ²ÑıÐ·Ð°Ð½Ð½ÑĭÐµ": 7879,
      "ĠÐ¿Ð°ÑĢÐ½Ð¸": 7880,
      "ĠÐ¿ÑĢÐµÐ´ÑģÑĤÐ°Ð²Ð¸ÑĤÐµÐ»ÐµÐ¹": 7881,
      "ĠÐ½Ð°ÑģÑĤÐ¾ÑıÑīÐ¸Ð¹": 7882,
      "Ð¸ÑĨÑĥ": 7883,
      "ĠÐĶÐ¶ÐµÐ¹Ð¼Ñģ": 7884,
      "ÐĺÐ¼": 7885,
      "ĠÐ¼Ð¸Ð½Ð¸ÑģÑĤÑĢ": 7886,
      "ĠÑıÐ±Ð»": 7887,
      "ĠÐ¶Ð¸Ð²ÐµÑĤ": 7888,
      "ĠÐ²ÐµÑĩÐµÑĢÐ°": 7889,
      "Ð°ÑĤÑĥÑĢÑĥ": 7890,
      "ĠÐ¾ÑĤÐ»Ð¸ÑĩÐ°ÐµÑĤÑģÑı": 7891,
      "ĠÑįÐ¼Ð¾ÑĨÐ¸Ð¸": 7892,
      "ĠÐ¾Ð±Ð¼ÐµÐ½": 7893,
      "âĪĴ": 7894,
      "ĠÐ·Ð°ÑĢÐ°Ð½ÐµÐµ": 7895,
      "ĠÐ²Ð¾ÑģÐºÑĢÐµÑģ": 7896,
      "ĠÐ½ÐµÐ¹ÑĤÑĢ": 7897,
      "ĠÑģÐµÐ¹": 7898,
      "Ð¸Ð²ÑĪÐ¸Ñħ": 7899,
      "ĠRe": 7900,
      "ĠÐ¿ÑĢÐ¸Ð³Ð»Ð°Ñģ": 7901,
[...]
