{
  "version": "1.0",
  "truncation": null,
  "padding": null,
  "added_tokens": [
    {
      "id": 0,
      "content": "<|pad|>",
      "single_word": false,
      "lstrip": false,
      "rstrip": false,
      "normalized": false,
      "special": true
    },
    {
      "id": 1,
      "content": "<|bos|>",
      "single_word": false,
      "lstrip": false,
      "rstrip": false,
      "normalized": false,
      "special": true
    },
    {
      "id": 2,
      "content": "<|eos|>",
      "single_word": false,
      "lstrip": false,
      "rstrip": false,
      "normalized": false,
      "special": true
    },
    {
      "id": 3,
      "content": "<|doc|>",
      "single_word": false,
      "lstrip": false,
      "rstrip": false,
      "normalized": false,
      "special": true
    },
    {
      "id": 4,
      "content": "<|system|>",
      "single_word": false,
      "lstrip": false,
      "rstrip": false,
      "normalized": false,
      "special": true
    },
    {
      "id": 5,
      "content": "<|user|>",
      "single_word": false,
      "lstrip": false,
      "rstrip": false,
      "normalized": false,
      "special": true
    },
    {
      "id": 6,
      "content": "<|assistant|>",
      "single_word": false,
      "lstrip": false,
      "rstrip": false,
      "normalized": false,
      "special": true
    },
    {
      "id": 7,
      "content": "<|eot|>",
      "single_word": false,
      "lstrip": false,
      "rstrip": false,
      "normalized": false,
      "special": true
    }
  ],
  "normalizer": null,
  "pre_tokenizer": {
    "type": "ByteLevel",
    "add_prefix_space": false,
    "trim_offsets": false,
    "use_regex": true
  },
  "post_processor": null,
  "decoder": {
    "type": "ByteLevel",
    "add_prefix_space": false,
    "trim_offsets": false,
    "use_regex": true
  },
  "model": {
    "type": "BPE",
    "dropout": null,
    "unk_token": null,
    "continuing_subword_prefix": null,
    "end_of_word_suffix": null,
    "fuse_unk": false,
    "byte_fallback": false,
    "ignore_merges": false,
    "vocab": {
      "<|pad|>": 0,
      "<|bos|>": 1,
      "<|eos|>": 2,
      "<|doc|>": 3,
      "<|system|>": 4,
      "<|user|>": 5,
      "<|assistant|>": 6,
      "<|eot|>": 7,
      "!": 8,
      "\"": 9,
      "#": 10,
      "$": 11,
      "%": 12,
      "&": 13,
      "'": 14,
      "(": 15,
      ")": 16,
      "*": 17,
      "+": 18,
      ",": 19,
      "-": 20,
      ".": 21,
      "/": 22,
      "0": 23,
      "1": 24,
      "2": 25,
      "3": 26,
      "4": 27,
      "5": 28,
      "6": 29,
      "7": 30,
      "8": 31,
      "9": 32,
      ":": 33,
      ";": 34,
      "<": 35,
      "=": 36,
      ">": 37,
      "?": 38,
      "@": 39,
      "A": 40,
      "B": 41,
      "C": 42,
      "D": 43,
      "E": 44,
      "F": 45,
      "G": 46,
      "H": 47,
      "I": 48,
      "J": 49,
      "K": 50,
      "L": 51,
      "M": 52,
      "N": 53,
      "O": 54,
      "P": 55,
      "Q": 56,
      "R": 57,
      "S": 58,
      "T": 59,
      "U": 60,
      "V": 61,
      "W": 62,
      "X": 63,
      "Y": 64,
      "Z": 65,
      "[": 66,
      "\\": 67,
      "]": 68,
      "^": 69,
      "_": 70,
      "`": 71,
      "a": 72,
      "b": 73,
      "c": 74,
      "d": 75,
      "e": 76,
      "f": 77,
      "g": 78,
      "h": 79,
      "i": 80,
      "j": 81,
      "k": 82,
      "l": 83,
      "m": 84,
      "n": 85,
      "o": 86,
      "p": 87,
      "q": 88,
      "r": 89,
      "s": 90,
      "t": 91,
      "u": 92,
      "v": 93,
      "w": 94,
      "x": 95,
      "y": 96,
      "z": 97,
      "{": 98,
      "|": 99,
      "}": 100,
      "~": 101,
      "¡": 102,
      "¢": 103,
      "£": 104,
      "¤": 105,
      "¥": 106,
      "¦": 107,
      "§": 108,
      "¨": 109,
      "©": 110,
      "ª": 111,
      "«": 112,
      "¬": 113,
      "®": 114,
      "¯": 115,
      "°": 116,
      "±": 117,
      "²": 118,
      "³": 119,
      "´": 120,
      "µ": 121,
      "¶": 122,
      "·": 123,
      "¸": 124,
      "¹": 125,
      "º": 126,
      "»": 127,
      "¼": 128,
      "½": 129,
      "¾": 130,
      "¿": 131,
      "À": 132,
      "Á": 133,
      "Â": 134,
      "Ã": 135,
      "Ä": 136,
      "Å": 137,
      "Æ": 138,
      "Ç": 139,
      "È": 140,
      "É": 141,
      "Ê": 142,
      "Ë": 143,
      "Ì": 144,
      "Í": 145,
      "Î": 146,
      "Ï": 147,
      "Ð": 148,
      "Ñ": 149,
      "Ò": 150,
      "Ó": 151,
      "Ô": 152,
      "Õ": 153,
      "Ö": 154,
      "×": 155,
      "Ø": 156,
      "Ù": 157,
      "Ú": 158,
      "Û": 159,
      "Ü": 160,
      "Ý": 161,
      "Þ": 162,
      "ß": 163,
      "à": 164,
      "á": 165,
      "â": 166,
      "ã": 167,
      "ä": 168,
      "å": 169,
      "æ": 170,
      "ç": 171,
      "è": 172,
      "é": 173,
      "ê": 174,
      "ë": 175,
      "ì": 176,
      "í": 177,
      "î": 178,
      "ï": 179,
      "ð": 180,
      "ñ": 181,
      "ò": 182,
      "ó": 183,
      "ô": 184,
      "õ": 185,
      "ö": 186,
      "÷": 187,
      "ø": 188,
      "ù": 189,
      "ú": 190,
      "û": 191,
      "ü": 192,
      "ý": 193,
      "þ": 194,
      "ÿ": 195,
      "Ā": 196,
      "ā": 197,
      "Ă": 198,
      "ă": 199,
      "Ą": 200,
      "ą": 201,
      "Ć": 202,
      "ć": 203,
      "Ĉ": 204,
      "ĉ": 205,
      "Ċ": 206,
      "ċ": 207,
      "Č": 208,
      "č": 209,
      "Ď": 210,
      "ď": 211,
      "Đ": 212,
      "đ": 213,
      "Ē": 214,
      "ē": 215,
      "Ĕ": 216,
      "ĕ": 217,
      "Ė": 218,
      "ė": 219,
      "Ę": 220,
      "ę": 221,
      "Ě": 222,
      "ě": 223,
      "Ĝ": 224,
      "ĝ": 225,
      "Ğ": 226,
      "ğ": 227,
      "Ġ": 228,
      "ġ": 229,
      "Ģ": 230,
      "ģ": 231,
      "Ĥ": 232,
      "ĥ": 233,
      "Ħ": 234,
      "ħ": 235,
      "Ĩ": 236,
      "ĩ": 237,
      "Ī": 238,
      "ī": 239,
      "Ĭ": 240,
      "ĭ": 241,
      "Į": 242,
      "į": 243,
      "İ": 244,
      "ı": 245,
      "Ĳ": 246,
      "ĳ": 247,
      "Ĵ": 248,
      "ĵ": 249,
      "Ķ": 250,
      "ķ": 251,
      "ĸ": 252,
      "Ĺ": 253,
      "ĺ": 254,
      "Ļ": 255,
      "ļ": 256,
      "Ľ": 257,
      "ľ": 258,
      "Ŀ": 259,
      "ŀ": 260,
      "Ł": 261,
      "ł": 262,
      "Ń": 263,
      "ĠÐ": 264,
      "Ð¾": 265,
      "Ðµ": 266,
      "Ð°": 267,
      "ÑĤ": 268,
      "Ð¸": 269,
      "Ñģ": 270,
      "Ð½": 271,
      "ÑĢ": 272,
      "Ð¾Ð": 273,
      "Ð»": 274,
      "Ñĥ": 275,
      "Ð°Ð": 276,
      "Ñı": 277,
      "ÐµÐ": 278,
      "Ñĭ": 279,
      "ÑĮ": 280,
      "ĠÐ¿": 281,
      "ĠÑģ": 282,
      "Ðº": 283,
      "ĠÐ²": 284,
      "Ñĩ": 285,
      "Ð²": 286,
      "ĠÐ½": 287,
      "ÑģÑĤ": 288,
      "Ð¼": 289,
      "Ð´": 290,
      "ÐµÐ½": 291,
      "ĠÐ¸": 292,
      "ĠÐ¾": 293,
      "Ñħ": 294,
      "Ð¾Ð²": 295,
      "ĠÐº": 296,
      "ÑĤÐ¾": 297,
      "ÐµÑĢ": 298,
      "Ð°Ð»": 299,
      "ÑĪ": 300,
      "Ð¾Ð»": 301,
      "ÐµÑĤ": 302,
      "ĠÐ´": 303,
      "Ñİ": 304,
      "Ð°Ð½": 305,
      "ĠÐ¼": 306,
      "ĠÐ¿ÑĢ": 307,
      "Ð¿": 308,
      "Ð¾Ð¼": 309,
      "ĠÑĤ": 310,
      "ÐµÐ»": 311,
      "Ð½Ð¾": 312,
      "³Ð¾": 313,
      "Ð°ÑĤ": 314,
      "Ð·": 315,
      "Ð¸ÑĤ": 316,
      "ĠÐ±": 317,
      "Ð¾Ð´": 318,
      "Ð±": 319,
      "ĠÑĢ": 320,
      "Ð½Ñĭ": 321,
      "Ð°Ðº": 322,
      "ÑĨ": 323,
      "Ð¾Ð¹": 324,
      "ĠÑĩ": 325,
      "ÐµÐ¼": 326,
      "ĠÐ·": 327,
      "ĠÐ½Ð°": 328,
      "ÑģÑı": 329,
      "ĠÑĥ": 330,
      "Ð»Ð¸": 331,
      "Ð¹": 332,
      "Ð¾ÑĢ": 333,
      "Ð¶": 334,
      "Ñī": 335,
      "ÐµÐ½Ð¸": 336,
      "ÑģÐº": 337,
      "Ð³": 338,
      "ÐµÐ´": 339,
      "Ð½Ð¸": 340,
      "ĠÑ": 341,
      "ĠÐ½Ðµ": 342,
      "Ð°Ð·": 343,
      "Ð°Ð²": 344,
      "Ð°Ð¼": 345,
      "ĠÐ¿Ð¾": 346,
      "Ð¸Ð»": 347,
      "Ð°ÑĢ": 348,
      "Ð¸Ð½": 349,
      "Ð¾Ð±": 350,
      "Ð¾Ð½": 351,
      "ĠÐ³": 352,
      "Ð¾ÑĤ": 353,
      "Ð¾Ð³Ð¾": 354,
      "ĠÐµ": 355,
      "Ð°Ñģ": 356,
      "ÐµÐ¹": 357,
      "ÑģÑĤÐ²": 358,
      "Ð¾Ð³": 359,
      "ĠÑį": 360,
      "Ð¸Ð¼": 361,
      "Ð°ÑĤÑĮ": 362,
      "Ð¾Ñģ": 363,
      "ĠÐ»": 364,
      "Ð¸Ð²": 365,
      "ĠÐ¾ÑĤ": 366,
      "Ð¾Ð¶": 367,
      "Ð°Ñı": 368,
      "ÑĢÑĥ": 369,
      "ĠÑĩÑĤÐ¾": 370,
      "Ð¾Ðº": 371,
      "ĠÐ±Ñĭ": 372,
      "Ð¾Ð»ÑĮ": 373,
      "ĠÐ°": 374,
      "Ð°Ð½Ð¸": 375,
      "Ð»Ñı": 376,
      "ÑĤÐ¾ÑĢ": 377,
      "Ð°Ð´": 378,
      "Ġ-": 379,
      "ÐµÐº": 380,
      "ÐµÐ²": 381,
      "ÑĨÐ¸": 382,
      "ĠÐ¾Ð±": 383,
      "ĠÐ²Ñĭ": 384,
      "ĠÑģÑĤ": 385,
      "Ð¾ÑģÑĤ": 386,
      "Ð¸Ñħ": 387,
      "Ð¾Ð·": 388,
      "Ð½Ð°": 389,
      "ÐµÑģ": 390,
      "Ð¸Ðº": 391,
      "ÐµÐ»ÑĮ": 392,
      "ĠÐ¶": 393,
      "ĠÑı": 394,
      "ĠÐĴ": 395,
      "Ð½Ñĥ": 396,
      "Ð¸ÑĤÑĮ": 397,
      "ÑĦ": 398,
      "Ð¸Ñĩ": 399,
      "Ð¸Ñģ": 400,
      "ĠÐŁ": 401,
      "Ð´Ð°": 402,
      "ĠÐ¡": 403,
      "âĢ": 404,
      "ĠÐ¸Ð·": 405,
      "Ð°ÐµÑĤ": 406,
      "ÐµÐ·": 407,
      "ĠÐĿ": 408,
      "ĠÑģÐ²": 409,
      "ĠÐ²Ñģ": 410,
      "ÐµÐ½Ð¸Ñı": 411,
      "ÐºÐ¸": 412,
      "Ñĳ": 413,
      "Ð¸ÑĢ": 414,
      "Ð°Ð¶": 415,
      "ĠÐºÐ°Ðº": 416,
      "Ð½Ð¾Ð¹": 417,
      "ÐµÐ±": 418,
      "Ð¾Ð¿": 419,
      "Ð³Ð¾": 420,
      "ĠÐļ": 421,
      "ÑıÑĤ": 422,
      "Ð¸Ð´": 423,
      "Ð°Ð»ÑĮ": 424,
      "Ð»Ð°": 425,
      "Ð°Ð±": 426,
      "Ð¸Ð·": 427,
      "ÐµÑģÑĤ": 428,
      "ÐºÐ°": 429,
      "ĠÐ¿Ð¾Ð´": 430,
      "ĠÑħ": 431,
      "ĠÑĤÐ°Ðº": 432,
      "ÑĥÐ´": 433,
      "..": 434,
      "Ð°Ñİ": 435,
      "ĠÐºÐ¾": 436,
      "Ð¸Ðµ": 437,
      "Ð½ÑĭÑħ": 438,
      "ĠÑĢÐ°Ð·": 439,
      "Ð½Ð¾ÑģÑĤ": 440,
      "ÐµÑĩ": 441,
      "Ð½Ð¾Ð³Ð¾": 442,
      "ÑĥÑĤ": 443,
      "ÑĢÐ°": 444,
      "ÐµÐ³Ð¾": 445,
      "ĠÐŀ": 446,
      "Ð°Ð¿": 447,
      "Ð½ÑĭÐµ": 448,
      "Ð¸Ð¹": 449,
      "ĠÑģÐ»": 450,
      "ĠÐľ": 451,
      "ÐµÐ½Ð¸Ðµ": 452,
      "ĠÐ¿ÐµÑĢ": 453,
      "Ð¾Ñĩ": 454,
      "ĠÐĶ": 455,
      "ĠâĢ": 456,
      "ĠÑįÑĤ": 457,
      "ÐºÐ¾": 458,
      "ĠÑĦ": 459,
      "ÑĥÑĩ": 460,
      "Ð½ÑĭÐ¹": 461,
      "ÑĭÐ²": 462,
      "Ð½ÑĭÐ¼": 463,
      "ĠÐ·Ð°": 464,
      "Ð°Ð¹": 465,
      "ĠÑįÑĤÐ¾": 466,
      "ÐµÑģÐº": 467,
      "ĠÐºÐ¾ÑĤÐ¾ÑĢ": 468,
      "ĠÐĲ": 469,
      "ÑģÐ»": 470,
      "ĠÐ¢": 471,
      "Ð¿ÑĢ": 472,
      "ÐµÐ¿": 473,
      "Ð°Ð¼Ð¸": 474,
      "Ð»Ð¾": 475,
      "ĠÐ¿Ð¾Ð»": 476,
      "Ġ1": 477,
      "Ð°Ð»Ð°": 478,
      "ÐºÑĥ": 479,
      "ĠÐ¿ÑĢÐ¾": 480,
      "Ð½Ðµ": 481,
      "ĠÐ¾Ð½": 482,
      "Ġ(": 483,
      "ÑīÐµ": 484,
      "ÑĥÑİ": 485,
      "ÐµÐ¶": 486,
      "ĠÐµÐ³Ð¾": 487,
      "ÑĢÐ¸": 488,
      "ÐµÐ½ÑĤ": 489,
      "ĠÐĺ": 490,
      "Ð°Ð»Ð¸": 491,
      "ÐµÐ³": 492,
      "ÐµÑĪ": 493,
      "ĠÐ¿ÑĢÐ¸": 494,
      "ÑħÐ¾Ð´": 495,
      "ÑĭÐµ": 496,
      "ĠÑĤÐ¾": 497,
      "Ð°Ð³": 498,
      "Ð¸Ñı": 499,
      "ÑĭÐ¹": 500,
      "Ð°ÑģÑĤ": 501,
      "ÐµÐ½ÑĮ": 502,
      "ĠÑģÐ²Ð¾": 503,
      "ÑĥÐ¶": 504,
      "ÑģÐ¿": 505,
      "ĠÐ´Ð»Ñı": 506,
      "Ð¸ÑĩÐµÑģÐº": 507,
      "ĠÐ½Ð¾": 508,
      "ĠÑģÐº": 509,
      "Ð¸Ð¸": 510,
      "ĠÐ¾Ð´": 511,
      "ÑĥÐ¼": 512,
      "ĠÑĪ": 513,
      "Ð¶Ðµ": 514,
      "ÐĴ": 515,
      "Ð¾Ð¼Ñĥ": 516,
      "čĊ": 517,
      "ÑģÑĤÑĢ": 518,
      "ĠÑģÐ¿": 519,
      "ÑĢÑĥÐ³": 520,
      "ĠâĢĶ": 521,
      "ÐŁ": 522,
      "ĠÐĳ": 523,
      "ĠÐ²ÑģÐµ": 524,
      "Ð¾Ð»ÑĮÐºÐ¾": 525,
      "Ð¾Ð³Ð´Ð°": 526,
      "Ð¸ÑĤÐµÐ»ÑĮ": 527,
      "Ð°Ñħ": 528,
      "ÑĥÑĢ": 529,
      "Ð¸Ð»Ð¸": 530,
      "Ð½Ð¾Ðµ": 531,
      "ĠÐ¿ÑĢÐµÐ´": 532,
      "Ð¡": 533,
      "ÑĭÑħ": 534,
      "ÑĢÐ°Ð½": 535,
      "Â»": 536,
      "Â«": 537,
      "Ð¾Ðµ": 538,
      "Ġ\"": 539,
      "Ð°Ð½Ð¸Ñı": 540,
      "ĠÐł": 541,
      "ÑĢÐµÐ¼": 542,
      "Ð°ÑĨÐ¸": 543,
      "ĠÐºÑĢ": 544,
      "ĠÐ»Ð¸": 545,
      "ĠÑģÐ¾": 546,
      "ÑĤÑĮ": 547,
      "ĠÐ¼Ð¾Ð¶": 548,
      "Ð°ÑģÑĮ": 549,
      "ÑģÑĮ": 550,
      "Ð½Ñı": 551,
      "Ð¼Ð¸": 552,
      "Ñį": 553,
      "Ð½Ð¾Ð²": 554,
      "Ð½Ð°Ñı": 555,
      "Âł": 556,
      "ÑĪÐµ": 557,
      "ĠÐĵ": 558,
      "ĠÐ³Ð¾": 559,
      "ĠÂ«": 560,
      "ÐĿ": 561,
      "ĠÐ¸Ð¼": 562,
      "ĠÐºÐ¾Ð½": 563,
      "Ðŀ": 564,
      "ĠÑģÐ¼": 565,
      "Ð°ÑİÑĤ": 566,
      "ÐµÑĤÑģÑı": 567,
      "ĠÑģÐ°Ð¼": 568,
      "Ð»Ñİ": 569,
      "ĠÐ¸Ð»Ð¸": 570,
      "ĠÐ¶Ðµ": 571,
      "ĠÑĢÐ°Ñģ": 572,
      "ĠÐŃ": 573,
      "Ð¾Ð±Ñĭ": 574,
      "Ð½Ð¾ÑģÑĤÑĮ": 575,
      "...": 576,
      "ĠÐ´Ð²": 577,
      "ĠÐ¸Ð½": 578,
      "ĠÐ±ÑĥÐ´": 579,
      "ĠÑĨ": 580,
      "ÑĥÑĪ": 581,
      "ÑģÐ»Ð¸": 582,
      "ĠÐ²Ð¾Ð·": 583,
      "ĠÐ¯": 584,
      "ĠÐ»Ñİ": 585,
      "Ġ2": 586,
      "Ð½Ð¸Ðº": 587,
      "ÐµÐ½Ð½Ð¾": 588,
      "Ð½Ð¸Ð¼": 589,
      "Ð°Ð½Ð¸Ðµ": 590,
      "ÑģÑĤÐ°Ð²": 591,
      "Ð½Ð¾ÑģÑĤÐ¸": 592,
      "ÐµÐ½Ñı": 593,
      "ÑĤÐµÑĢ": 594,
      "ĠÐĽ": 595,
      "ÑĥÐ¿": 596,
      "Ð¸ÑģÑĤ": 597,
      "Ð»ÑĮ": 598,
      "ĠÐ¾Ñģ": 599,
      "Ðļ": 600,
      "ÐµÐµ": 601,
      "Ð¾ÑģÑĮ": 602,
      "ÐĲ": 603,
      "ĠÑĢÑĥ": 604,
      "ÑĤÐ¸": 605,
      "Ð¸Ð»Ð°": 606,
      "ĠÐ³Ð»": 607,
      "ĠÐºÐ¾Ð¼": 608,
      "ÑĢÐ°Ð·": 609,
      "ÑĢÐ¾Ð²": 610,
      "Ð°ÐµÑĤÑģÑı": 611,
      "Ð¾Ð²Ð¾ÑĢ": 612,
      "ĠÐ´ÑĢÑĥÐ³": 613,
      "ÑĤÑĢ": 614,
      "ĠÐ±ÑĭÐ»Ð¾": 615,
      "ĠÐ±Ð¾Ð»ÑĮ": 616,
      "ĠÐ³Ð¾Ð´": 617,
      "ĠÐ¼Ñĭ": 618,
      "Ð¸ÑģÑĮ": 619,
      "ĠÐ²Ð¾": 620,
      "Ð¸ÑĢÐ¾Ð²": 621,
      "ĠÐ²ÑĢÐµÐ¼": 622,
      "ĠÑĤÑĢ": 623,
      "Ð°ÑĪ": 624,
      "ÑĥÐ±": 625,
      "Ð¾Ñı": 626,
      "ĠÐ¿Ð¾ÑģÐ»": 627,
      "Ð´Ñĥ": 628,
      "ĠÐ¿Ð¾Ðº": 629,
      "ÑĤÐ¾Ð±Ñĭ": 630,
      "Ð½ÑĥÑİ": 631,
      "ĠÐ¼ÐµÐ½Ñı": 632,
      "ĠÐķ": 633,
      "Ð¸Ð»ÑĮ": 634,
      "Ð½Ð¾Ð¼": 635,
      "ÑģÑĤÐ²ÐµÐ½": 636,
      "ÐµÑħ": 637,
      "ĠÑĤÑĭ": 638,
      "ĠÐ¾Ð½Ð°": 639,
      "Ð´Ðµ": 640,
      "Ð»ÐµÐ½": 641,
      "Ð½ÑĥÐ»": 642,
      "ÑģÑĤÐ²Ð¾": 643,
      "ĠÐ´Ð¾": 644,
      "Ð²ÐµÑĤ": 645,
      "ÐµÑĢÐ¶": 646,
      "Ð°ÑĤÑĮÑģÑı": 647,
      "ÑģÑĤÐ²Ð°": 648,
      "Ð°Ð±Ð¾ÑĤ": 649,
      "Ð³ÑĢ": 650,
      "ĠÐ²Ð·": 651,
      "Ð´ÐµÐ»": 652,
      "ĠÐ¾Ðº": 653,
      "Ðĺ": 654,
      "Ð¾ÑĪ": 655,
      "ÑİÑĤ": 656,
      "ÐµÐ±Ñı": 657,
      "Ð°ÑĤÐµÐ»ÑĮ": 658,
      "Ð¾ÑĢÐ¼": 659,
      "ÑĭÑĤ": 660,
      "ĠÐ½Ð°Ð¿": 661,
      "ĠÐ¾Ð¿": 662,
      "ÑĢÐ°Ð²": 663,
      "Ð¾Ð»Ð¶": 664,
      "ĠÑĩÑĤÐ¾Ð±Ñĭ": 665,
      "ÐµÐ»Ð¸": 666,
      "ÐµÐ¼Ñĥ": 667,
      "ĠÐ±ÑĭÐ»": 668,
      "ÑĢÐµÐ´": 669,
      "ÑĭÐ¼": 670,
      "ĠÐ£": 671,
      "ĠÐ§": 672,
      "Ð¢": 673,
      "ĠÐ¿Ð¾Ð¼": 674,
      "ĠÐ¸Ñħ": 675,
      "ĠÑĤÐ¾Ð»ÑĮÐºÐ¾": 676,
      "ÐĶ": 677,
      "ĠÐ½Ð°Ñĩ": 678,
      "ĠÐĹ": 679,
      "ÑıÑĤÑĮ": 680,
      "ĠÐ´ÐµÐ»": 681,
      "ĠÐ¾Ñĩ": 682,
      "ĠÐ¼Ð¾Ð³": 683,
      "ÐºÐµ": 684,
      "ĠÐ¼Ð¾Ð¶ÐµÑĤ": 685,
      "Ð½Ð°Ñĩ": 686,
      "ÑĢÑı": 687,
      "ÑĤÐµ": 688,
      "Ð°Ñĩ": 689,
      "ĠÐ¿ÑĢÐ°Ð²": 690,
      "Ðľ": 691,
      "ĠÐ¿Ð»": 692,
      "ĠÑģÐ¾Ð±": 693,
      "ĠÐ¥": 694,
      "ÑģÑĤÑĮ": 695,
      "Ð°Ð»ÑģÑı": 696,
      "ÑĤÐ¾Ð²": 697,
      "ĠÐ¿Ð°ÑĢ": 698,
      "ÐºÐ¾Ð²": 699,
      "ÐµÐ»Ð¾Ð²": 700,
      "Ð¸ÑĤÐµ": 701,
      "ÑĢÐ¾Ñģ": 702,
      "Ð²ÐµÑĢ": 703,
      "ĠÐ¸ÑģÐ¿": 704,
      "Ð¸Ð¼Ð¸": 705,
      "Ð¼Ñĥ": 706,
      "Ð¾Ð»ÑĮÐ·": 707,
      "ÑĮÑİ": 708,
      "ĠÐ³Ð¾Ð»": 709,
      "ĠÐ²Ð¸Ð´": 710,
      "ĠÐ¾Ð½Ð¸": 711,
      "ĠÐ¿Ð¾Ð²": 712,
      "Ðł": 713,
      "ÑĥÑģ": 714,
      "ĠÐ¼Ð½Ðµ": 715,
      "Ð°Ð½Ð¾Ð²": 716,
      "ĠÐ·Ð°Ðº": 717,
      "ĠÑĥÐ¶Ðµ": 718,
      "ĠÐºÐ¾Ð³Ð´Ð°": 719,
      "Ð¸Ð½Ð°": 720,
      "ÑĨÐ¸Ð¸": 721,
      "ÑĤÐ°": 722,
      "Ð½ÑĭÐ¼Ð¸": 723,
      "00": 724,
      "ÑĢÐ°ÑĤ": 725,
      "ÑĬ": 726,
      "Ð°ÑİÑī": 727,
      "ÑĭÑĪ": 728,
      "ĠÑģÐ¾Ð²": 729,
      "Ð¸ÑĤÑģÑı": 730,
      "ÑĢÐ¾Ð´": 731,
      "ÐµÑģÑĮ": 732,
      "ÐµÑģÑģ": 733,
      "ÑĨÐ°": 734,
      "ĠÐ±Ð¾Ð»": 735,
      "ĠÐ¿ÑĢÐ¾ÑģÑĤ": 736,
      "ĠÑĥÐ´": 737,
      "ÐµÐ½Ð¸Ð¸": 738,
      "Ð¾ÑĤÑĢ": 739,
      "ÐµÑĤÑĮ": 740,
      "ĠÑĥÑĩ": 741,
      "ĠÐµÐµ": 742,
      "ÐµÐ±Ðµ": 743,
      "Ð¸Ð³": 744,
      "ÑıÐ·": 745,
      "ĠÑģÐºÐ°Ð·": 746,
      "ĠÐ½Ð°Ð´": 747,
      "ĠÐ²ÑĢÐµÐ¼Ñı": 748,
      "ĠÐ¤": 749,
      "Ð°Ð¶Ð´": 750,
      "ĠÐ»ÑİÐ±": 751,
      "ĠÐ²ÐµÑĢ": 752,
      "ĠÐ¿Ð¾ÑĤ": 753,
      "Ð¸Ð»ÑģÑı": 754,
      "ĠÐ±ÐµÐ·": 755,
      "ĠÑĩÐ°ÑģÑĤ": 756,
      "ĠâĢĵ": 757,
      "Ġ19": 758,
      "ĠÑĩÐµÐ»Ð¾Ð²": 759,
      "ĠÑħÐ¾ÑĤ": 760,
      "Ð¸Ð±": 761,
      "ĠÐ·Ð°Ð¿": 762,
      "ĠÐ¿Ð¾ÑĢ": 763,
      "ÐµÑĨ": 764,
      "er": 765,
      "ĠÐµÑģÐ»Ð¸": 766,
      "Ð°Ð»Ð¾": 767,
      "ÑĢÐ¾": 768,
      "Ð¸ÑĤÑĮÑģÑı": 769,
      "ÐµÐ»Ð°": 770,
      "ÐºÐ¾Ð¹": 771,
      "ĠÑĢÐ°Ð±Ð¾ÑĤ": 772,
      "ĠÐĿÐ¾": 773,
      "ĠÐ¿ÑĢÐ¾Ð´": 774,
      "Ð»ÑİÑĩ": 775,
      "Ð°Ð¶Ðµ": 776,
      "ÑĥÑħ": 777,
      "ÐµÑĢÑĮ": 778,
      "ÑģÐºÐ¾Ð¹": 779,
      "ĠÐ¿Ð¾Ð·": 780,
      "ĠÐ¼Ð¾": 781,
      "Ð»Ð°Ð´": 782,
      "ÐµÑĪÑĮ": 783,
      "Ð°ÑĨÐ¸Ð¸": 784,
      "ÑĥÐ½": 785,
      "čĊčĊ": 786,
      "Ð¿Ð¾Ð»": 787,
      ").": 788,
      "ÂłÂł": 789,
      "ÑģÐ¼": 790,
      "Ðķ": 791,
      "Ð¿ÑĢÐ°Ð²": 792,
      "Ð½Ð°Ðº": 793,
      "ÐµÐ»Ñı": 794,
      "in": 795,
      "ĠÐ´Ð¾Ð»Ð¶": 796,
      "ĠÐŀÐ½": 797,
      "ĠÐ±ÑĥÐ´ÐµÑĤ": 798,
      "ĠÐ½Ð°Ð·": 799,
      "ĠÐ±ÑĭÑĤÑĮ": 800,
      "ĠÑĤÐµÐ¼": 801,
      "Ð°Ð½Ð´": 802,
      "Ð²Ð»Ñı": 803,
      "ĠÑĩÐµÐ¼": 804,
      "ÑĥÑģÑĤ": 805,
      "ĠÐºÐ¾ÑĤÐ¾ÑĢÑĭÐµ": 806,
      "Ð»ÐµÐº": 807,
      "ÐºÑĢ": 808,
      "ÑĥÐ²": 809,
      "ÐµÑī": 810,
      "ĠÑĤÐ¾Ð³Ð¾": 811,
      "ĠÐ¾ÑģÑĤ": 812,
      "ĠÐ³Ð¾Ð²Ð¾ÑĢ": 813,
      "ÑĥÐ»ÑĮ": 814,
      "ÑĪÑĮ": 815,
      "ĠÐ·Ð°Ð¼": 816,
      "čĊčĊÂłÂł": 817,
      "ĠÐºÐ¾ÑĢ": 818,
      "ĠÐŃÑĤÐ¾": 819,
      "Ð½ÐµÐ¹": 820,
      "ĠÐ¿Ð¾Ð¿": 821,
      "Ð»Ðµ": 822,
      "ĠÑĩÐµÑĢ": 823,
      "ĠÑģÐ»Ð¾Ð²": 824,
      "ÐµÐ¹ÑģÑĤÐ²": 825,
      "ĠÐ¼ÐµÑģÑĤ": 826,
      "ĠÐ¿ÐµÑĢÐ²": 827,
      "ĠÐ±ÑĭÐ»Ð°": 828,
      "ĠÐ¿ÑĢÐ¾ÑĤ": 829,
      "ĠÐµÑīÐµ": 830,
      "Ð»Ð¸Ñĩ": 831,
      "ĠÑĩÐµÐ»Ð¾Ð²ÐµÐº": 832,
      "ÐµÐ½Ð¸Ð¹": 833,
      "ÑģÐºÐ¾Ð³Ð¾": 834,
      "ĠÐ¿Ð¾Ñĩ": 835,
      "ĠÐ¿Ð¾Ð»ÑĥÑĩ": 836,
      "Ð»ÐµÐ½Ð¸Ñı": 837,
      "ĠÐ´Ð¾ÑģÑĤ": 838,
      "Ð´Ð¸": 839,
      "ĠÐ±ÑĭÐ»Ð¸": 840,
      "ĠÑģÐµÐ±Ñı": 841,
      "ĠÑģÐ¾ÑģÑĤ": 842,
      "Ð¼ÐµÑĢ": 843,
      "ĠÐ¾ÑĩÐµÐ½ÑĮ": 844,
      "ĠÐ¶Ð¸Ð·": 845,
      "ÑĥÐº": 846,
      "ÐµÐ½Ð°": 847,
      "ÑĥÑīÐµ": 848,
      "ĠÐ¿ÑĢÐ¾Ð²": 849,
      "ĠÑįÑĤÐ¾Ð³Ð¾": 850,
      "ĠÐºÐ¾Ð»": 851,
      "ÐµÐ´Ð¾Ð²": 852,
      "Ð³Ð»Ñı": 853,
      "ĠÐ´Ð°Ð¶Ðµ": 854,
      "Ð¿ÐµÑĢ": 855,
      "ĠÐ½Ð¾Ð²": 856,
      "Ð¾Ð±ÑĢ": 857,
      "ĠÐ½Ð¸Ðº": 858,
      "ĠÐ³Ð»Ð°Ð·": 859,
      "Ð»Ð¸Ð²": 860,
      "Ð¼Ð¾Ð¶": 861,
      "Ð»Ñĭ": 862,
      "Ð°Ð»Ð°ÑģÑĮ": 863,
      "ĠÐ½Ð¸": 864,
      "ĠÐ½Ð°ÑĪ": 865,
      "ĠÐµÑģÑĤÑĮ": 866,
      "ÑĨÐµ": 867,
      "ÑĨÑĭ": 868,
      "ĠÐ¸ÑģÐ¿Ð¾Ð»ÑĮÐ·": 869,
      "ĠÐ¿ÑĢÐ¾Ð¸Ð·": 870,
      "Ð°Ð»Ð¾ÑģÑĮ": 871,
      "ĠÐ´ÐµÐ²": 872,
      "Ð°Ð»Ð¸ÑģÑĮ": 873,
      "Ð¾ÑģÑĤÐ¸": 874,
      "ĠÑĢÐµÑĪ": 875,
      "Ð¾Ð¶Ðµ": 876,
      "ÑĥÐµÑĤ": 877,
      "Ð¼Ð°": 878,
      "Ð°Ð½Ð°": 879,
      "ĠÐ¼Ð¾Ð¶Ð½Ð¾": 880,
      "ĠÑĤÐ°ÐºÐ¶Ðµ": 881,
      "ĠÑįÑĤÐ¾Ð¼": 882,
      "ĠÑĥÐ²": 883,
      "ÑĤÐ¸Ð²": 884,
      "ÑģÐºÐ¸Ð¹": 885,
      "an": 886,
      "ĠÐºÐ¾ÑĤÐ¾ÑĢÑĭÐ¹": 887,
      "ĠÐµÐ¼Ñĥ": 888,
      "ÐµÐ½Ð¸Ñİ": 889,
      "ĠÐ¿ÑĢÐ¸Ð²": 890,
      "ĠÐ·Ð°Ð²": 891,
      "ÐµÐ½Ð¸ÐµÐ¼": 892,
      "ĠÐ½Ð°Ñģ": 893,
      "ĠÐ³ÑĢ": 894,
      "ÑĥÑİÑī": 895,
      "Ġ3": 896,
      "on": 897,
      "ĠÐŁÑĢ": 898,
      "ÑĮÑı": 899,
      "Ð¯": 900,
      "ĠÑĤÐ¾Ð¼": 901,
      "ĠÐ±Ð¾Ð»ÑĮÑĪ": 902,
      "ĠÑģÐ´ÐµÐ»": 903,
      "ĠÐ¿ÑĢÐ¸Ð½": 904,
      "ÐºÐ¾Ð¼": 905,
      "Ðĵ": 906,
      "ĠÐ¿Ð¾ÑģÐ»Ðµ": 907,
      "Ð°Ð½Ð¸Ð¸": 908,
      "ĠÑģÐ»ÑĥÑĩ": 909,
      "Ð°ÐµÐ¼": 910,
      "Ðĳ": 911,
      "ĠÐ±Ð¾Ð»ÐµÐµ": 912,
      "ÐµÐ½Ñĭ": 913,
      "ĠÑģÑĩ": 914,
      "ÑĥÑī": 915,
      "Ð¸Ð½Ñĥ": 916,
      "ĠÐ´Ð¾Ð¼": 917,
      "Ð°ÑģÑģ": 918,
      "ĠÐ¿Ð¾ÑģÑĤ": 919,
      "ĠÐ³ÑĢÑĥ": 920,
      "Ð°Ð½ÑĤ": 921,
      "),": 922,
      "ÑıÐ´": 923,
      "ĠÐ½ÑĥÐ¶": 924,
      "ĠÑģÑĤÐ¾": 925,
      "Ð¸Ð¶": 926,
      "ĠÐ¾ÑĢ": 927,
      "ĠÐ·Ð°Ð´": 928,
      "ĠÐ·Ð´": 929,
      "ÑİÑī": 930,
      "ĠÐ¸ÑģÑĤ": 931,
      "ĠÑįÐº": 932,
      "Ð¸ÑĤÐµÐ»ÑĮÐ½Ð¾": 933,
      "Ð¾ÑĢÐ¾ÑĪ": 934,
      "ĠÑģÐ¾Ð·": 935,
      "ĠÐ¿ÐµÑĢÐµÐ´": 936,
      "Ð¸Ð»Ð°ÑģÑĮ": 937,
      "Ð°ÐºÑĤ": 938,
      "ĠÐ°Ð²": 939,
      "ĠÐ³Ð¾Ð´Ð°": 940,
      "ĠÑıÐ²Ð»Ñı": 941,
      "ĠÐĶÐ¶": 942,
      "ÑģÑĤÐ²Ð¾Ð²": 943,
      "ĠÐ±Ð»": 944,
      "Ð¸Ð¿": 945,
      "ĠÐ½ÐµÐ¼": 946,
      "Ð¾Ð»Ð¾Ð³": 947,
      "Ð¸Ð½Ñĭ": 948,
      "ĠÐ³Ð¾Ð»Ð¾Ð²": 949,
      "Ð¾Ñħ": 950,
      "ĠÐ¾Ð±ÑĢÐ°Ð·": 951,
      "ĠÐ¾ÑĤÐ²ÐµÑĤ": 952,
      "ÐµÐ¶Ð´Ñĥ": 953,
      "ÐµÑĢÐ°": 954,
      "ĠÑģÑĤÐ¾ÑĢ": 955,
      "ĠÑģÐµÑĢ": 956,
      "ĠÐ¿ÑĢÐ¾ÑģÑĤÐ¾": 957,
      "ÑģÑĤÑĢÐ¾": 958,
      "ĠÐ»ÐµÑĤ": 959,
      "ÑıÐ²": 960,
      "ĠÐ½ÐµÐ¿": 961,
      "Ð¸ÐºÐ¸": 962,
      "ĠÑĢÐ°Ð·Ð²": 963,
      "Ð·Ñĭ": 964,
      "ÐĽ": 965,
      "ĠÐ¾Ð±ÑĬ": 966,
      "Ð»ÐµÐ¼": 967,
      "ĠÐ½ÐµÐ³Ð¾": 968,
      "ĠÐĿÐµ": 969,
      "Ð¾Ð½Ð°": 970,
      "ĠÑĢÐµÐ·": 971,
      "ĠÑģÐ»ÐµÐ´": 972,
      "ĠÑĥÐ±": 973,
      "ÑģÐµ": 974,
      "ÑĩÐ½Ð¾": 975,
      "ĠÐ·Ð°Ð±": 976,
      "ĠÐ°ÑĢ": 977,
      "ĠÐºÐ¾Ð¼Ð¿": 978,
      "Ð»ÐµÐ½Ð¸Ðµ": 979,
      "Ð¸ÑģÐº": 980,
      "ĠÐ¾ÑģÐ½Ð¾Ð²": 981,
      "ÑĥÐ»ÑĮÑĤ": 982,
      "Ð¸Ð¼ÐµÑĢ": 983,
      "ĠÐ´ÐµÐ¹ÑģÑĤÐ²": 984,
      "\".": 985,
      "en": 986,
      "Ġt": 987,
      "ĠÐ³Ð´Ðµ": 988,
      "ĠÑģÑĢÐµÐ´": 989,
      "Ð¸Ñİ": 990,
      "Ð§": 991,
      "ÑĩÐ°Ñģ": 992,
      "ĠÐ¼Ð½": 993,
      "ÑĢÐ°Ñī": 994,
      "ÑıÑī": 995,
      "Ð£": 996,
      "Ð¸ÐºÐ°": 997,
      "ĠÐ°Ð½": 998,
      "Ð°ÑĢÑĤ": 999,
      "ÑıÐ¼": 1000,
      "ĠÐ±Ð¾Ð»ÑĮÑĪÐµ": 1001,
      "ĠÐ¢Ð°Ðº": 1002,
      "ĠÐ¾ÑĤÐ½Ð¾": 1003,
      "Ð¿ÑĢÐµÐ´": 1004,
      "ĠÐ²Ð¾Ñģ": 1005,
      "ĠÐ²Ð¾Ð»": 1006,
      "ÐµÑģÐ¿": 1007,
      "ĠÐ½ÐµÑĤ": 1008,
      "Ð¾ÑģÐ¾Ð±": 1009,
      "ĠÐ½ÐµÑģÐº": 1010,
      "ĠÑģÑĤÑĢÐ°Ð½": 1011,
      "Ð¾ÑģÑĤÑĮ": 1012,
      "ÑģÐºÐ¸Ñħ": 1013,
      "ĠÐ°Ðº": 1014,
      "ĠÐ·Ð½Ð°": 1015,
      "Â».": 1016,
      "Ð°Ð·ÑĭÐ²": 1017,
      "ĠÐļÐ°Ðº": 1018,
      "ĠÐ¸Ñģ": 1019,
      "ÑĭÐ»": 1020,
      "ĠÐ½ÐµÐ´": 1021,
      "ĠÐ¨": 1022,
      "ÑĢÐ°Ð¼": 1023,
      "Ð½ÐµÐµ": 1024,
      "Ð¾Ð¿ÑĢÐ¾Ñģ": 1025,
      "ÑįÑĤ": 1026,
      "ĠÐ²ÑģÑĳ": 1027,
      "Ð°ÑİÑĤÑģÑı": 1028,
      "âĢ¦": 1029,
      "ĠÐ¼Ð¾Ð»": 1030,
      "čĊč": 1031,
      "Ð²Ð¾Ð´": 1032,
      "Ð°Ð²ÑĪ": 1033,
      "ĠÑģÑĤÑĢ": 1034,
      "ĠÐµÑĳ": 1035,
      "or": 1036,
      "ÐĹ": 1037,
      "ĠÐ¿ÑĢÐµÐ´ÑģÑĤÐ°Ð²": 1038,
      "ÑĢÑĥÐ¶": 1039,
      "ĠÑĤÐµÐ±Ñı": 1040,
      "ĠÐ¼Ð¸ÑĢ": 1041,
      "Ð½Ð¸ÐºÐ°": 1042,
      "ĠÐ¿ÑĢÐ¾Ð±": 1043,
      "ÐµÑĤÐµ": 1044,
      "Ð²Ð°ÑĤ": 1045,
      "ĠÑģÑĤÐ°ÑĢ": 1046,
      "ĠÐºÐ»": 1047,
      "ÐµÐ¹ÑĩÐ°Ñģ": 1048,
      "\",": 1049,
      "ĠÐ¿ÑĢÐ¾ÑĤÐ¸Ð²": 1050,
      "ÐµÑĢÐ¸": 1051,
      "ÑĨÑĥ": 1052,
      "ÑıÐ»": 1053,
      "ĠÐºÐ°Ð¶Ð´": 1054,
      "ÐµÐºÐ¾": 1055,
      "Ð¾Ñī": 1056,
      "ĠÐ¿Ð¾Ñģ": 1057,
      "ĠÐ·Ð½": 1058,
      "ĠÐ¾Ð´Ð¸Ð½": 1059,
      "âĢĶ": 1060,
      "ÑĦÐ¾ÑĢÐ¼": 1061,
      "ĠÑĤÐµÐ»": 1062,
      "Ġ20": 1063,
      "ĠÐ½Ð°ÑģÑĤ": 1064,
      "ÑĢÐµ": 1065,
      "Ð¼ÐµÑģÑĤ": 1066,
      "es": 1067,
      "Ð¾ÑģÑģ": 1068,
      "ĠÑįÑĤÐ¾ÑĤ": 1069,
      "Ð³Ð»ÑıÐ´": 1070,
      "ĠÑģÐµÐ±Ðµ": 1071,
      "ÑĥÐ³": 1072,
      "ĠÐ¸Ð¼Ðµ": 1073,
      "ÐµÑĤÐ°": 1074,
      "Ð²Ð¾Ð»": 1075,
      "Ð²ÐµÑģÑĤ": 1076,
      "Ð¸ÑĨÐ¸": 1077,
      "ĠÐĿÐ°": 1078,
      "ĠÐºÑĤÐ¾": 1079,
      "ĠÐ²Ð¾Ð·Ð¼Ð¾Ð¶": 1080,
      "ÐµÐ»ÐµÐ¹": 1081,
      "ĠÑĢÐµ": 1082,
      "Ð·Ð°": 1083,
      "ar": 1084,
      "ĠÐ²Ð¾Ð´": 1085,
      "ĠÐ²ÑĭÑģ": 1086,
      "ĠÐ¾ÑĢÐ³": 1087,
      "ĠÐ¼ÐµÐ¶Ð´Ñĥ": 1088,
      "Ð°ÑıÑģÑĮ": 1089,
      "Ð¾Ð½Ð¸": 1090,
      "ĠÐ»ÑİÐ´": 1091,
      "ÐµÐ´ÑĮ": 1092,
      "ÐŃ": 1093,
      "Ð°Ð»ÑĮÐ½Ð¾": 1094,
      "Ð¿Ð¿": 1095,
      "ĠÑĥÑģÑĤ": 1096,
      "ĠÑģÐ²ÑıÐ·": 1097,
      "ĠÑĩÑĥÐ²": 1098,
      "ĠÐ»ÑĥÑĩ": 1099,
      "Ð¾Ð¶Ð´": 1100,
      "Ð¾Ð»Ð½": 1101,
      "ĠÑĤÐµÑĢ": 1102,
      "ĠÑħÐ¾ÑĢÐ¾ÑĪ": 1103,
      "ĠÐĴÑĭ": 1104,
      "ĠÐ¸ÑģÐº": 1105,
      "ĠÐ¸Ð½ÑĤÐµÑĢ": 1106,
      "Ð°Ð½Ñĭ": 1107,
      "ÐµÑģÑı": 1108,
      "ĠÐ²Ð¾Ð¿ÑĢÐ¾Ñģ": 1109,
      "ĠÐ¿Ð¾ÑģÐ»ÐµÐ´": 1110,
      "ĠÐ³Ð¾Ð´Ñĥ": 1111,
      "Ð»ÑĭÐ±": 1112,
      "ÑĥÐ´Ð°": 1113,
      "Ð¸Ð²ÑĪ": 1114,
      "ĠÐ½Ð¸Ñħ": 1115,
      "at": 1116,
      "ÐµÑĢÑĪ": 1117,
      "ĠÑĤÐµÐ¿": 1118,
      "ĠÐ¼Ð°ÑĤ": 1119,
      "ĠÑĢÐ¾Ð´": 1120,
      "ĠÐ²Ð°ÑĪ": 1121,
      "ĠÐ·Ð½Ð°Ñĩ": 1122,
      "ĠÐ´Ð°Ð½": 1123,
      "ÑĤÐ¾Ð¼": 1124,
      "ĠÐ´ÐµÐ²ÑĥÑĪ": 1125,
      "Ð½Ð¸Ñĩ": 1126,
      "ÑıÑģ": 1127,
      "ÑĢÑĥÐ´": 1128,
      "ĠÑĥÐ¼": 1129,
      "Ð¾Ð²Ð°ÑĤÑĮ": 1130,
      "ĠÐ¶Ð¸Ð²": 1131,
      "ĠÐ´ÐµÑĤ": 1132,
      "ĠS": 1133,
      "Ð°Ð½Ð¸Ð·": 1134,
      "Ð¸ÑĢÑĥ": 1135,
      "ÑĥÐ»": 1136,
      "Ð¸Ð»Ð¾": 1137,
      "ĠÑĤÐ²": 1138,
      "Ð¸Ð»Ð¸ÑģÑĮ": 1139,
      "Ð°ÑĢÐ¸": 1140,
      "Â»,": 1141,
      "ĠÐ²ÑĭÐ±": 1142,
      "Ð½ÑĥÑĤÑĮ": 1143,
      "ĠÐ²ÑģÐµÐ³Ð¾": 1144,
      "ÑģÑĤÐ²Ðµ": 1145,
      "ÑĭÐ¼Ð¸": 1146,
      "ĠÐ½Ð°Ð¼": 1147,
      "Ġ4": 1148,
      "Ð½Ð¾Ð¼Ñĥ": 1149,
      "ĠÐ´ÑĥÐ¼": 1150,
      "ĠÑĥÐ»ÑĭÐ±": 1151,
      "Ð¼ÐµÐ½": 1152,
      "he": 1153,
      "ÐµÑĢÑĤ": 1154,
      "Ð¸Ð¼Ð¾": 1155,
      "ÑĢÐ°Ð¶": 1156,
      "ĠÑģÐ¿Ð¾ÑģÐ¾Ð±": 1157,
      "Ð¸Ð½Ðµ": 1158,
      "Ð½ÑĮ": 1159,
      "ĠÑģÐ¸Ð»": 1160,
      "ÑĢÐ°Ñģ": 1161,
      "ÑĳÑĤ": 1162,
      "ĠÐķÑģÐ»Ð¸": 1163,
      "ĠÐ·Ð²": 1164,
      "ÐµÐ½Ð½ÑĭÑħ": 1165,
      "ĠÑĤÐµÑħ": 1166,
      "ÑģÑĤÐ¸": 1167,
      "ÑĳÐ½": 1168,
      "Ð½Ð¸Ðµ": 1169,
      "ĠÐ·Ð°ÑĤ": 1170,
      "ĠÐ´Ð¾Ð»": 1171,
      "ĠÐ½Ð¸Ñĩ": 1172,
      "ĠÐ²Ð¾Ð¹": 1173,
      "Ð°Ð»Ð¸Ð·": 1174,
      "ĠÐ´ÐµÐ½ÑĮ": 1175,
      "ĠÐ¶ÐµÐ»": 1176,
      "ĠÑĦÐ¾ÑĢÐ¼": 1177,
      "ĠÑģÐ¸ÑģÑĤ": 1178,
      "Ġ5": 1179,
      "ĠÐ²ÑģÐµÑħ": 1180,
      "ĠÐ·Ð°Ð½": 1181,
      "ĠÑĥÑģÐ»": 1182,
      "ĠÐŁÐ¾": 1183,
      "ĠÐ³Ð¾ÑĢÐ¾Ð´": 1184,
      "Ð¾Ð½Ñĭ": 1185,
      "ĠÐ¿ÑĢÐ¾ÑĨ": 1186,
      "Ð´Ð¸Ð½": 1187,
      "Ð½Ð¸ÐºÐ¾Ð²": 1188,
      "ĠÐ¿ÑĢÐ¾Ð³": 1189,
      "Ð½Ð¾ÑģÑĤÑĮÑİ": 1190,
      "Ð½ÑĥÐ»ÑģÑı": 1191,
      "ĠÑĩÐµÑĢÐµÐ·": 1192,
      "ĠÐ¼Ð½Ð¾Ð³Ð¾": 1193,
      "ĠÐ½ÐµÑģÐºÐ¾Ð»ÑĮÐºÐ¾": 1194,
      "Ð¼Ñĭ": 1195,
      "ĠÐ¢Ñĭ": 1196,
      "ÑĢÑĭÐ²": 1197,
      "ÑīÑĳ": 1198,
      "ĠÑģÐºÐ°Ð·Ð°Ð»": 1199,
      "al": 1200,
      "ÐµÑĢÐ²": 1201,
      "ÑĥÑģÐº": 1202,
      "Ð¸ÑĪ": 1203,
      "Ð°ÑĨÐ¸Ñı": 1204,
      "ĠÐ¾Ð¿ÑĢÐµÐ´": 1205,
      "ĠÐ¾ÑĤÐºÑĢ": 1206,
      "ĠÐ¼ÑĥÐ¶": 1207,
      "ĠÐ¡ÑĤ": 1208,
      "ĠÐ±ÑĢ": 1209,
      "ĠÑģÐµÐ¹ÑĩÐ°Ñģ": 1210,
      "ÑİÑĤÑģÑı": 1211,
      "ĠÐ½ÐµÐ²": 1212,
      "ĠÐĶÐ°": 1213,
      "ÑĨÐ¸Ñı": 1214,
      "ĠÐ¿Ð¾Ð½": 1215,
      "ÑĥÑīÐµÑģÑĤÐ²": 1216,
      "ĠI": 1217,
      "ĠÐ¿Ð¾Ð±": 1218,
      "ĠÐ²Ð°Ð¼": 1219,
      "ĠÐ¸Ð³ÑĢ": 1220,
      "ĠÐ¶ÐµÐ½": 1221,
      "ÐµÑĤÑĭ": 1222,
      "ĠÐ½Ð°ÑħÐ¾Ð´": 1223,
      "Ð´ÐµÑĢÐ¶": 1224,
      "ĠÑģÑĤÐ¾Ð»": 1225,
      "ĠÑįÑĤÐ¾Ð¹": 1226,
      "ĠÑģÐ²Ð¾ÐµÐ¹": 1227,
      "ÑģÐ°": 1228,
      "ÑıÐ¶": 1229,
      "ÐºÐ°Ð¼Ð¸": 1230,
      "ĠÐ¶Ð¸Ð·Ð½Ð¸": 1231,
      "ĠA": 1232,
      "ĠÑĥÑģÐ¿": 1233,
      "ĠÐ¿ÑĢÐ¾ÑĪ": 1234,
      "ĠÑıÐ²Ð»ÑıÐµÑĤÑģÑı": 1235,
      "ĠÐ¼ÐµÑĤ": 1236,
      "ÑĨÐ¸Ð¾Ð½": 1237,
      "Ð»Ð¾Ð¶": 1238,
      "Ð¸Ð»Ð¾ÑģÑĮ": 1239,
      "ÐµÐ½Ð½ÑĭÐµ": 1240,
      "ĠÑģÐ²Ð¾Ñİ": 1241,
      "ĠÐ´Ð°Ð²": 1242,
      "ÑĤÑĥ": 1243,
      "ĠÑģÐµÐ¼": 1244,
      "ÐµÐ³Ð´Ð°": 1245,
      "ĠÐ»Ð¸ÑĪÑĮ": 1246,
      "ĠÐ³Ð»Ð°Ð·Ð°": 1247,
      "ĠÐŀÐ½Ð°": 1248,
      "ĠÑħÐ¾Ñĩ": 1249,
      "ÑĢÑĭ": 1250,
      "ÑģÐºÐ¸Ðµ": 1251,
      "ĠÐ¿ÑĢÐ¸Ð·": 1252,
      "Ð±Ð¾": 1253,
      "ĠÑĥÐ¿": 1254,
      "ĠÐ½Ð°Ðº": 1255,
      "ÑĥÑĤÑĮ": 1256,
      "ĠÐ¾ÑģÐ¾Ð±": 1257,
      "ĠÐ¼Ð¾Ð³ÑĥÑĤ": 1258,
      "ÑĢÐ°ÑĦ": 1259,
      "ĠÑģÐ¾Ð·Ð´": 1260,
      "Ð°Ð½Ð¾": 1261,
      "ÑĨÐµÐ²": 1262,
      "Ð½ÑĥÐ»Ð°": 1263,
      "ĠÑĥÐº": 1264,
      "ĠÑĤÐµÐ±Ðµ": 1265,
      "ÐµÐºÐ¾ÑĤÐ¾ÑĢ": 1266,
      "Ð¨": 1267,
      "ĠÐ²Ð°Ñģ": 1268,
      "ÐºÐ»ÑİÑĩ": 1269,
      "Ð¿ÑĢÐ¾Ñģ": 1270,
      "ĠÐ¿Ð¾Ð½Ð¸Ð¼": 1271,
      "ÑĦÑĦ": 1272,
      "ĠÐ¼Ð¸Ð½": 1273,
      "ĠÐ½ÐµÐ¾Ð±": 1274,
      "ĠÐ¾Ð±Ñī": 1275,
      "Ð½Ð°ÐºÐ¾": 1276,
      "Ð»Ð¸Ð½": 1277,
      "ĠÑĤÐ°Ð¼": 1278,
      "ĠÑĢÐ°Ð´": 1279,
      "ÐºÐ°Ñħ": 1280,
      "ĠÐ§ÑĤÐ¾": 1281,
      "ÑįÑĤÐ¾Ð¼Ñĥ": 1282,
      "ĠÐ¿Ð¾Ð³": 1283,
      "ĠÐ²Ð¾ÑĤ": 1284,
      "ĠC": 1285,
      "ÐµÑģÑĤÐ¸": 1286,
      "Ð°Ð¹ÑĤÐµ": 1287,
      "ĠÐ½ÐµÐ¹": 1288,
      "ĠÐ½ÑĥÐ¶Ð½Ð¾": 1289,
      "ĠÐºÐ¾ÑĤÐ¾ÑĢÐ°Ñı": 1290,
      "ÑĢÐ¾Ð¼": 1291,
      "ĠÐ´Ð¾Ð±": 1292,
      "Ð»Ð°Ð²": 1293,
      "Ð½Ð¸Ð¹": 1294,
      "ÑĳÐ¼": 1295,
      "Ð°ÑģÐº": 1296,
      "ÑģÑĤÑĥÐ¿": 1297,
      "ĠÑģÐ¸Ð»ÑĮ": 1298,
      "ĠÑģÐ¸ÑģÑĤÐµÐ¼": 1299,
      "ĠÐĲÐ½": 1300,
      "ĠÐ³Ð»Ð°Ð²": 1301,
      "Ð»Ð°Ñģ": 1302,
      "ĠÐ¿ÑĢÐ¾Ð´Ð¾Ð»Ð¶": 1303,
      "ÐµÐ½Ð½ÑĭÐ¹": 1304,
      "ĠÐ²ÑģÑĤÑĢ": 1305,
      "ÑĤÑĭ": 1306,
      "ĠÐ½Ð¸ÑĩÐµÐ³Ð¾": 1307,
      "Ð¸Ð½Ð³": 1308,
      "it": 1309,
      "ÑħÐ¾Ð´Ð¸ÑĤ": 1310,
      "Ð°ÑĤÐ¾": 1311,
      "ĠÐµÑīÑĳ": 1312,
      "ĠÐ¿Ð¾Ð¼Ð¾Ñī": 1313,
      "Ð»ÐµÑĤ": 1314,
      "Ð°ÑĤÑĭ": 1315,
      "ĠÐ¾ÑģÑĤÐ°Ð²": 1316,
      "ÐµÑĢÐ³": 1317,
      "ÐµÐ½Ð½Ð¾Ð¹": 1318,
      "Ð¾Ð±Ñī": 1319,
      "Ð»Ð¾Ð²": 1320,
      "ĠÐºÑĢÐ¾Ð²": 1321,
      "Ð°Ð»ÑĮÐ½Ð¾Ð¹": 1322,
      "ĠÐ¿ÑĢÐ¸Ñĩ": 1323,
      "ĠÐºÑĢÐ°Ñģ": 1324,
      "ĠÐ´ÑĢ": 1325,
      "Ð¾Ð½Ð¾Ð¼": 1326,
      "ÑıÐ½": 1327,
      "is": 1328,
      "ÐµÐ½Ð¾": 1329,
      "ĠÐ¼ÐµÐ´": 1330,
      "ÑĥÐ´ÑĮ": 1331,
      "Ð¸Ð²Ð°ÐµÑĤ": 1332,
      "ĠÐ»ÐµÐ³": 1333,
      "ĠÐºÐ°ÑĢ": 1334,
      "ĠÑĤÐ¾ÑĤ": 1335,
      "ĠÐ½ÐµÐ¾Ð±ÑħÐ¾Ð´": 1336,
      "ĠÑĤÐµ": 1337,
      "ĠÐ¼Ð°Ð»": 1338,
      "Ð¸Ð½Ð¸": 1339,
      "Ð½Ð°ÑĢ": 1340,
      "ÑģÐ»ÐµÐ´Ð¾Ð²": 1341,
      "Ð²ÑĪ": 1342,
      "ÑģÑĥÐ´": 1343,
      "Ð¸Ñī": 1344,
      "Ð»Ð¸ÑģÑĮ": 1345,
      "ĠÐ¸ÑģÑĤÐ¾ÑĢ": 1346,
      "ĠÑģÑĤÐ¾ÑĢÐ¾Ð½": 1347,
      "ĠÐ½Ð°Ð²": 1348,
      "ĠÐ²ÑģÐµÐ³Ð´Ð°": 1349,
      "Ð°Ð½Ð¸Ð¹": 1350,
      "ÑĤÐ°Ðº": 1351,
      "ĠÑģÑĩÐ¸ÑĤ": 1352,
      "ÑģÐ¼Ð¾ÑĤÑĢ": 1353,
      "ĠÑĤÑĥÑĤ": 1354,
      "ĠÐµÐ¹": 1355,
      "ĠÐ¿ÑĢÐ¸Ñģ": 1356,
      "ÑĥÑİÑĤ": 1357,
      "ÐºÐ¸Ð¹": 1358,
      "Ð½Ñİ": 1359,
      "Ð¾ÑıÑĤ": 1360,
      "ĠM": 1361,
      "ĠÐ³Ð¾ÑĢ": 1362,
      "ĠÐ´Ð¾Ðº": 1363,
      "ÑĥÐ»Ñı": 1364,
      "ĠÐ»ÑİÐ´ÐµÐ¹": 1365,
      "ĠP": 1366,
      "ĠÐ½Ð°Ð±": 1367,
      "Ð¸ÑĨ": 1368,
      "ĠÑįÑĤÐ¸": 1369,
      "ĠÑģÐµÐº": 1370,
      "Ð¾Ð½Ñĩ": 1371,
      "ĠÐ¿Ð¾ÑĤÐ¾Ð¼Ñĥ": 1372,
      "Ð¸Ð¾Ð½": 1373,
      "ĠÐ·Ð´ÐµÑģÑĮ": 1374,
      "ĠÐŀÑĤ": 1375,
      "Ð¾ÐºÐ°": 1376,
      "ĠÑģÐ²Ð¾Ð¹": 1377,
      "Ð¾Ð´Ð°": 1378,
      "ĠÐ¾Ð¿ÑĢÐµÐ´ÐµÐ»": 1379,
      "Ð¤": 1380,
      "Ð¾ÑĢÐ°": 1381,
      "ĠÐ½Ð¸Ð¼": 1382,
      "ĠÐ²ÑĤÐ¾ÑĢ": 1383,
      "ĠÐ¾ÑĢÐ³Ð°Ð½Ð¸Ð·": 1384,
      "Ð°ÑĤÐµÐ»ÑĮÐ½Ð¾": 1385,
      "Ð¸ÑĩÐµÑģÐºÐ¾Ð¹": 1386,
      "ĠÐ¾ÑĤÐ½Ð¾ÑĪ": 1387,
      "ÑĥÐ¹": 1388,
      "ĠÐ³Ð¾Ð»Ð¾Ñģ": 1389,
      "ÑĢÐ°ÑĪ": 1390,
      "ÐµÑĢÐµ": 1391,
      "ĠÑģÐ¾ÑģÑĤÐ°Ð²": 1392,
      "Ð¾Ð¼ÐµÐ½ÑĤ": 1393,
      "ĠÑģÐ¼Ð¾ÑĤÑĢ": 1394,
      "Ð¸ÑĩÐµÑģÐºÐ¸Ñħ": 1395,
      "ĠÑĤÐ¾Ð¶Ðµ": 1396,
      "ÑģÐºÐ°Ñı": 1397,
      "Ð¸ÑĤÑĥ": 1398,
      "Ð°ÑĤÐ°": 1399,
      "ĠÑģÐºÐ¾ÑĢ": 1400,
      "ÐµÐ³Ð¾Ð´": 1401,
      "Ð³Ð¸": 1402,
      "Ð½Ð¸ÐºÐ¸": 1403,
      "Ð¾ÑĢÐ¾Ð²": 1404,
      "ĠÐ²Ð·Ð³Ð»ÑıÐ´": 1405,
      "Ð¾Ð»ÑĮÑĪ": 1406,
      "ĠÑĥÐ¶": 1407,
      "ĠÐ²Ð¼ÐµÑģÑĤ": 1408,
      "ĠÐ²Ð½Ñĥ": 1409,
      "ĠÐ½Ð°Ð¿ÑĢÐ°Ð²": 1410,
      "ÐµÑĩÐ½Ð¾": 1411,
      "ĠÐ¼Ð¾Ð¼ÐµÐ½ÑĤ": 1412,
      "le": 1413,
      "Ð½ÐµÐ²": 1414,
      "Ð±Ñĭ": 1415,
      "ĠÐ¾ÑĤÐ´": 1416,
      "Ð»Ð¸Ð·": 1417,
      "ĠÐ´Ð°": 1418,
      "Ġ18": 1419,
      "Ð¸Ð²Ð°ÑĤÑĮ": 1420,
      "ĠÑĥÐ·": 1421,
      "ĠÑģÐ²Ð¾Ð¸": 1422,
      "ĠÐ³ÑĢÑĥÐ¿Ð¿": 1423,
      "ic": 1424,
      "ĠÐ¸Ð´": 1425,
      "Ð¾ÑĢÑĤ": 1426,
      "ĠÐ½ÐµÐºÐ¾ÑĤÐ¾ÑĢ": 1427,
      "ĠÑĥÐ²Ð¸Ð´": 1428,
      "ĠÐ½ÐµÐ±": 1429,
      "ĠÑģÐ»ÑĥÑĩÐ°": 1430,
      "ĠÑĥÐ³": 1431,
      "Ð¥": 1432,
      "ĠÑĤÐµÐ¿ÐµÑĢÑĮ": 1433,
      "ĠÐ²ÑĢÐµÐ¼ÐµÐ½Ð¸": 1434,
      "ÑĢÐ¸Ð¼ÐµÑĢ": 1435,
      "ĠÐ¿ÑĢÐ¾Ñģ": 1436,
      "ĠÑĢÐ°Ð½": 1437,
      "ĠÐ´Ð¾Ð²": 1438,
      "ĠÐłÐ¾ÑģÑģ": 1439,
      "ĠÐ¿Ð¾ÐºÐ°Ð·": 1440,
      "ĠÐŀÐ´": 1441,
      "ÑĢÑĥÐ·": 1442,
      "Ġs": 1443,
      "ÑĭÑĩ": 1444,
      "ĠÐ¿ÑĭÑĤ": 1445,
      "Ð°ÑĩÐµ": 1446,
      "ĠÐ¼Ð½Ð¾Ð³": 1447,
      "ou": 1448,
      "ÑĢÑĥÑĪ": 1449,
      "ĠÑģÐ¾ÑģÑĤÐ¾Ñı": 1450,
      "ĠÐ¸Ð½ÑĤÐµÑĢÐµÑģ": 1451,
      "ĠÐ»Ð¸ÑĨ": 1452,
      "ĠÐ¿Ð¾ÐºÐ°": 1453,
      "Ð°ÐºÑĤÐµÑĢ": 1454,
      "Ð°Ð»ÑĮÐ½ÑĭÑħ": 1455,
      "ĠÑıÐ·Ñĭ": 1456,
      "ĠÑĢÐµÐ·ÑĥÐ»ÑĮÑĤ": 1457,
      "ĠÐ¿Ð¾Ð»Ð¾Ð¶": 1458,
      "ĠÑģÐ¾Ð²ÐµÑĢÑĪ": 1459,
      "ĠÐ¾Ð³ÑĢ": 1460,
      "ĠÑĩÐµÐ³Ð¾": 1461,
      "ĠÑĩÐ°Ñģ": 1462,
      "ÑĢÑĥÐº": 1463,
      "Ð°Ð½Ð¸ÐµÐ¼": 1464,
      "ĠÑģÐ¾Ð³": 1465,
      "Ð¾ÐºÐ¾": 1466,
      "ĠÐ¿ÑĢÐ¾Ð±Ð»ÐµÐ¼": 1467,
      "ĠÑģÐ¿ÑĢÐ¾Ñģ": 1468,
      "ÐµÐ»Ð¾": 1469,
      "ĠÐ¾ÑĤÐ²": 1470,
      "ÑīÐµÐµ": 1471,
      "ÐµÐ´Ð¸Ð½": 1472,
      "Ð²Ð°": 1473,
      "Ð»ÐµÐ´": 1474,
      "ÑģÑĤÐ²Ð¾Ð¼": 1475,
      "Ġ201": 1476,
      "ĠÐ½Ð¾Ð³": 1477,
      "Ġ6": 1478,
      "Ð¸ÑĩÐµÑģÐºÐ¸": 1479,
      "ÑģÑĥÐ´Ð°ÑĢ": 1480,
      "ĠÑĢÐ°ÑģÑģÐº": 1481,
      "Ð½ÑıÐ»": 1482,
      "Ð¾Ð²Ð¾Ð¹": 1483,
      "re": 1484,
      "ÐŁÑĢ": 1485,
      "ĠÐ²Ð½Ð¸Ð¼": 1486,
      "Ð°ÑĤÑĥ": 1487,
      "ĠÐ²Ð´": 1488,
      "ĠÐ¿ÑĢÐ¸Ð¼": 1489,
      "Ð½ÐµÑģ": 1490,
      "ĠÐ¼Ð¸Ð½ÑĥÑĤ": 1491,
      "ĠÐ¿Ð¾ÑĤÐ¾Ð¼": 1492,
      "ÐµÑĨÐ¸": 1493,
      "ĠÐ¿ÑĢÐ¸Ðº": 1494,
      "ĠT": 1495,
      "ĠÐ¼Ð¾ÑĢ": 1496,
      "Ð°Ð»Ðµ": 1497,
      "ĠÑĩÐµÐ»Ð¾Ð²ÐµÐºÐ°": 1498,
      "ĠÐ¿Ð¾Ð·Ð²Ð¾Ð»": 1499,
      "ĠÑģÐ¾Ð´": 1500,
      "ĠÐ²Ð°Ð¶": 1501,
      "ÐºÐ¸Ñħ": 1502,
      "ĠÑİ": 1503,
      "Ð°Ð»ÑĮÐ½ÑĭÐµ": 1504,
      "ĠÐ¿ÑĢÐ¸ÑĪ": 1505,
      "ĠÑĢÑıÐ´": 1506,
      "ĠÐľÑĭ": 1507,
      "Ð³Ð°": 1508,
      "ĠÐ·ÐµÐ¼": 1509,
      "ĠÐºÐ¾ÑĤÐ¾ÑĢÑĭÑħ": 1510,
      "ĠÐ¸ÑģÐ¿Ð¾Ð»ÑĮÐ·Ð¾Ð²": 1511,
      "ÑĩÐ¸Ð²": 1512,
      "Ð°Ñī": 1513,
      "Ð½Ð¾Ð²Ð°": 1514,
      "ĠÑĤÐ°ÐºÐ¾Ð¹": 1515,
      "ĠÐ¿ÑĢÐ¾Ð¸Ñģ": 1516,
      "ĠÐ¿ÑĢÐ¸Ð´": 1517,
      "Ð¼ÐµÑĤ": 1518,
      "ĠÑģÐ²Ð¾ÐµÐ³Ð¾": 1519,
      "Ð¾Ð¼Ð¸Ð½": 1520,
      "Ð»Ð°Ð³": 1521,
      "ĠÐ¾ÑĤÐº": 1522,
      "Ð°ÑĤÐµ": 1523,
      "ĠÐ³Ð¾ÑĤÐ¾Ð²": 1524,
      "ÑĥÐ½Ðº": 1525,
      "ĠÐ¿ÑĢÐ¾ÑĨÐµÑģÑģ": 1526,
      "ĠÐ²ÑĭÐ¿": 1527,
      "Ġ200": 1528,
      "ĠÐ³Ð¾ÑģÑĥÐ´Ð°ÑĢ": 1529,
      "ĠÐĿÑĥ": 1530,
      "ĠÑģÐ¾Ð¾Ð±Ñī": 1531,
      "ÑĢÐ°Ñħ": 1532,
      "Ð¾ÐºÐ¾Ð¹": 1533,
      "ĠÑģÐ²Ð¾Ð¸Ñħ": 1534,
      "ĠÐ®": 1535,
      "ĠÑģÑĭ": 1536,
      "ĠÐ²ÑĭÐ·": 1537,
      "ĠÐ´Ð¾ÑĢ": 1538,
      "Ð¸ÑĩÐµ": 1539,
      "Ð¼Ðµ": 1540,
      "Ð²ÐµÐ´": 1541,
      "Ð¸ÑĩÐµÑģÐºÐ¸Ðµ": 1542,
      "ÐµÐ³Ð¾Ð´Ð½Ñı": 1543,
      "ĠÐ²ÑģÐµÐ¼": 1544,
      "ÐµÐ½Ð½Ð¾Ð³Ð¾": 1545,
      "ÑĳÐ»": 1546,
      "Ð½Ð°ÐºÐ¾Ð¼": 1547,
      "ÐµÐºÑĤ": 1548,
      "ĠÐ¿Ð¾Ð¶": 1549,
      "ÑģÐµÐ¼": 1550,
      "ĠÐŀÐ½Ð¸": 1551,
      "ĠÐºÐ½Ð¸": 1552,
      "ĠÐºÐ¾Ð¼Ð½": 1553,
      "ĠÑĨÐµÐ»": 1554,
      "ĠÐ¦": 1555,
      "om": 1556,
      "as": 1557,
      "ĠÑĢÑĥÐºÐ¸": 1558,
      "ĠÑĢÐµÐº": 1559,
      "ĠÑģÑĤÐ°Ð»": 1560,
      "ĠÑĢÑĭ": 1561,
      "ĠÑĥÑģ": 1562,
      "ÑĢÐ¾Ð¿": 1563,
      "ÑĭÐ²Ð°ÐµÑĤ": 1564,
      "Ð°Ð½Ñģ": 1565,
      "ÐµÐ½ÑĤÐ¾Ð²": 1566,
      "ĠÐ¿ÑĥÑĤ": 1567,
      "Ð´Ñĭ": 1568,
      "Ð¾ÑĩÑĮ": 1569,
      "Ð¸ÑĢÐ¾Ð²Ð°ÑĤÑĮ": 1570,
      "ĠÐ½Ð°ÑĩÐ¸Ð½": 1571,
      "ĠÐºÐ¾ÑĤÐ¾ÑĢÐ¾Ð¹": 1572,
      "ĠÐ´Ð²Ð°": 1573,
      "ĠÑģÐ¾Ð±Ð¾Ð¹": 1574,
      "ĠÐ¾ÑĤÐ»Ð¸Ñĩ": 1575,
      "ĠÐŁÐ¾Ñģ": 1576,
      "Ð¾ÑģÐº": 1577,
      "ĠÐ½Ð°Ð´Ð¾": 1578,
      "ĠÑĪÐº": 1579,
      "ĠÑĢÐµÐ±": 1580,
      "Ð½ÑĥÐ»Ð°ÑģÑĮ": 1581,
      "ĠÐ¾ÐºÐ°Ð·": 1582,
      "ĠÐ¸Ð½ÑĦÐ¾ÑĢÐ¼": 1583,
      "Ð¾ÑĤÐ²ÐµÑĤ": 1584,
      "ĠÐĸ": 1585,
      "ĠÐ²ÐµÐ´ÑĮ": 1586,
      "ĠÑĢÐ°Ð²": 1587,
      "Ð°Ð³Ð¾": 1588,
      "ĠÐ¶ÐµÐ½Ñī": 1589,
      "ÑħÐ²Ð°ÑĤ": 1590,
      "ĠÐ´Ðµ": 1591,
      "ĠÑĥÑĩÐ°ÑģÑĤ": 1592,
      "ĠÐ¸Ð·Ð²ÐµÑģÑĤ": 1593,
      "ĠÐ²ÐµÐ»": 1594,
      "Ð°Ð½Ð¸Ñİ": 1595,
      "Ð°ÑĤÑĢ": 1596,
      "ÑĤÐ¾Ñĩ": 1597,
      "Ð°ÑĤÐ¸": 1598,
      "ÐµÐ½ÑĤÐ°": 1599,
      "ÐļÐ°Ðº": 1600,
      "ĠÐŀÐ±": 1601,
      "ÑģÐºÐ¾Ð¼": 1602,
      "Ð°ÑĢÐ°ÐºÑĤÐµÑĢ": 1603,
      "ĠÐ·Ð°ÑĢ": 1604,
      "Ð¸ÑĤÐµÐ»Ñı": 1605,
      "ĠÐ¿Ð»Ð¾": 1606,
      "Ð¾Ð±ÑīÐµ": 1607,
      "ĠÐºÐ°ÑĩÐµ": 1608,
      "Ð²Ð¾ÑĢ": 1609,
      "ĠÑĥÑĤ": 1610,
      "ÑĩÐ¸Ðº": 1611,
      "ĠÑĢÐ°Ð·ÑĢ": 1612,
      "ĠÑħÐ¾ÑĢÐ¾ÑĪÐ¾": 1613,
      "Ð°ÑĢÐ°": 1614,
      "ÑĢÐ°ÑģÑĤ": 1615,
      "Ð°Ð»ÑĮÐ½Ð¾Ð³Ð¾": 1616,
      "ĠÐ¿Ð¾ÑĤÑĢ": 1617,
      "Ð»Ð¸ÑĪ": 1618,
      "ĠÐ¿Ð¾Ñħ": 1619,
      "Ð°ÑĤÐ¸Ð²": 1620,
      "ÑĨÐµÐ½": 1621,
      "Ð»ÑıÐµÑĤ": 1622,
      "ĠB": 1623,
      "ĠÑħÐ¾ÑĤÐµÐ»": 1624,
      "ĠÑĥÑĢÐ¾Ð²": 1625,
      "ĠÐ´ÑĢÑĥÐ³Ð¸Ñħ": 1626,
      "ĠÑģÐ±": 1627,
      "ĠÑĤÐ¾Ð³Ð´Ð°": 1628,
      "Ġ10": 1629,
      "ĠÑģÐ´ÐµÐ»Ð°ÑĤÑĮ": 1630,
      "ĠÑĢÐ°Ð·Ð»Ð¸Ñĩ": 1631,
      "Ð¾Ñİ": 1632,
      "Ð¸ÑĪÑĮ": 1633,
      "ĠÐ¿Ð¾Ð»Ð¸ÑĤ": 1634,
      "Ð³Ð¾ÑĤÐ¾Ð²": 1635,
      "ÑĤÐ¾ÑĢÐ°": 1636,
      "Ð°ÑĨÐ¸Ñİ": 1637,
      "Ð¾Ð»ÐµÐ²": 1638,
      "Ð¸ÑĢÐ¾Ð²Ð°Ð½": 1639,
      "ĠÐ¼ÐµÐ½": 1640,
      "ÑĭÐ²Ð°ÑĤÑĮ": 1641,
      "Ð²Ð°ÑĢ": 1642,
      "ĠÑĤÐ¾Ñĩ": 1643,
      "ÑĳÑĢ": 1644,
      "ĠÐ·Ð°Ð¼ÐµÑĤ": 1645,
      "ÑģÑĤÑĢÐ¾Ð¹": 1646,
      "ĠÑģÐ¾Ð´ÐµÑĢÐ¶": 1647,
      "ÑıÑħ": 1648,
      "Ð¾Ð±Ð¾Ð´": 1649,
      "ĠÐĺÐ·": 1650,
      "ĠÑįÑĤÐ¸Ñħ": 1651,
      "ÐµÑĢÐµÐ²": 1652,
      "ĠÐ¿Ð¾ÑıÐ²": 1653,
      "Ð°Ð»ÑĮÐ½ÑĭÐ¹": 1654,
      "ÑıÐ³": 1655,
      "ĠÐ´Ð¸": 1656,
      "ĠÑģÐ»ÑĥÑĩÐ°Ðµ": 1657,
      "ĠÐ½ÐµÐ·": 1658,
      "ÐµÑĩÐµÐ½Ð¸Ðµ": 1659,
      "Ð½Ð¸Ñħ": 1660,
      "ĠÑģÐ¾Ð±ÑģÑĤÐ²ÐµÐ½": 1661,
      "Ġ7": 1662,
      "Ġc": 1663,
      "ĠÐŁÑĢÐ¸": 1664,
      "ĠÐ¸ÑģÑģÐ»ÐµÐ´Ð¾Ð²": 1665,
      "ĠÐ¿ÑĢÐ¾Ð¸Ð·Ð²Ð¾Ð´": 1666,
      "ĠÑĢÐ°Ð·Ð²Ð¸ÑĤ": 1667,
      "ĠÐ¿Ð¾Ð²ÐµÑĢ": 1668,
      "ĠÐĲÑĢ": 1669,
      "ĠÑģÐ½Ð¾Ð²Ð°": 1670,
      "Ð½ÐµÐ¼": 1671,
      "ĠÐ¸Ð¼ÐµÐ½Ð½Ð¾": 1672,
      "ĠÐ»ÑĥÑĩÑĪÐµ": 1673,
      "ĠÐ¾Ð±ÑīÐµ": 1674,
      "ĠÐ¿Ð¾ÑĩÑĤÐ¸": 1675,
      "Ð¾Ð²Ð°": 1676,
      "19": 1677,
      "Ð¸ÑĩÐµÑģÐºÐ¾Ð³Ð¾": 1678,
      "ĠÑģÐ¸Ð´": 1679,
      "ĠÐ¿Ð¾ÑģÐ¼Ð¾ÑĤÑĢ": 1680,
      "ĠÑĤÑĢÐµÐ±": 1681,
      "ÑıÐ±": 1682,
      "ÐµÐ½Ð´": 1683,
      "ĠÐ½Ð°Ð¹": 1684,
      "ĠÐ¾Ð±ÑĢÐ°Ð·Ð¾Ð¼": 1685,
      "ĠÐ¶Ð¸Ð·Ð½ÑĮ": 1686,
      "ĠÐ³ÑĥÐ±": 1687,
      "ĠÐ´Ð¾Ð»Ð¶Ð½Ñĭ": 1688,
      "ĠÑĨÐ²ÐµÑĤ": 1689,
      "Ð¾Ð»Ð¾Ð´": 1690,
      "ĠÐ¿ÑĢÑıÐ¼": 1691,
      "ĠÐ¼ÑĥÐ¶Ñĩ": 1692,
      "ĠÑģÐ¿ÐµÑĨÐ¸": 1693,
      "ĠÐ²ÐºÐ»ÑİÑĩ": 1694,
      "Ð¾ÑĦ": 1695,
      "Ð°ÐµÑĪÑĮ": 1696,
      "ÑĢÐ°Ð·Ñĥ": 1697,
      "ĠÑĩÐ¸Ñģ": 1698,
      "ĠÐ¸Ð·Ð¼ÐµÐ½": 1699,
      "ĠÐľÐ°ÑĢ": 1700,
      "ĠÑģÑĤÐ°ÑĤÑĮ": 1701,
      "ĠÐ¿ÐµÑĢÐµÐ²": 1702,
      "ÑģÐ¾Ð½": 1703,
      "ĠÑģÐ»Ð¾Ð¶": 1704,
      "ĠÐ´Ð¾Ð»Ð¶ÐµÐ½": 1705,
      "ĠÐ·Ð°Ð³": 1706,
      "Ð¸ÑĤÐµÐ»ÐµÐ¹": 1707,
      "ĠÑģÐ²ÐµÑĤ": 1708,
      "ÑĪÐ¸Ð¹": 1709,
      "Ð»ÑİÐ´": 1710,
      "Ð¸Ð½Ð¾Ð¹": 1711,
      "ĠÑģÐµÑĢÐ´": 1712,
      "Ð¾ÑĤÐ°": 1713,
      "ĠÐ¼Ñĥ": 1714,
      "ĠÐ½Ð°Ð·Ð²": 1715,
      "ĠÑħÐ°ÑĢÐ°ÐºÑĤÐµÑĢ": 1716,
      "ÐĿÐ°": 1717,
      "ĠÑħÐ¾ÑĤÑı": 1718,
      "ÐºÐ¸Ðµ": 1719,
      "ĠÐ²Ð¼ÐµÑģÑĤÐµ": 1720,
      "ÑģÐ¸Ñħ": 1721,
      "ĠÐ»ÑİÐ´Ð¸": 1722,
      "Ð½Ð¾Ñģ": 1723,
      "ĠÐ¼Ð°ÑĤÐµÑĢÐ¸": 1724,
      "ĠÐ¼Ð°Ð³": 1725,
      "20": 1726,
      "ÑĥÑĢÑĭ": 1727,
      "ĠÐ²ÑĭÐ¿Ð¾Ð»": 1728,
      "Ð½ÐµÐ³Ð¾": 1729,
      "ĠÑĢÐ°ÑģÑĤ": 1730,
      "ĠÐ°Ð´": 1731,
      "ĠÐ¼ÐµÑģÑĤÐ¾": 1732,
      "ĠÐ·Ð°Ñī": 1733,
      "ÐµÐºÑĤÐ¸Ð²": 1734,
      "Ð»Ð¸ÑĪÐºÐ¾Ð¼": 1735,
      "Ð¸ÑģÑģ": 1736,
      "ĠÐ´Ð²Ð¸Ð¶": 1737,
      "ĠÐ¿Ð¾Ð´Ð´ÐµÑĢÐ¶": 1738,
      "ÑıÐ¼Ð¸": 1739,
      "ĠÐºÐ°ÐºÐ¾Ð¹": 1740,
      "ĠÐ½ÐµÐ¼Ð½Ð¾Ð³Ð¾": 1741,
      "Ð¼Ð¾": 1742,
      "ĠÐ½Ð¸ÐºÐ¾Ð³Ð´Ð°": 1743,
      "ĠÑī": 1744,
      "ĠR": 1745,
      "ĠÐ´Ð¾Ð¿": 1746,
      "ĠÐºÐ°Ð¼": 1747,
      "ĠÐ¿Ð¾ÑįÑĤÐ¾Ð¼Ñĥ": 1748,
      "ĠÑģÐ»ÐµÐ´ÑĥÑİÑī": 1749,
      "Ð»Ð¾Ð½": 1750,
      "Ð¸ÐºÐ°Ð½": 1751,
      "ĠÐºÐ°Ð¿": 1752,
      "ĠÑĤÐ¾ÑĢ": 1753,
      "ĠÑģÐ¾Ð¾ÑĤÐ²ÐµÑĤ": 1754,
      "Ð¾Ð»Ð¾": 1755,
      "ĠÑĤÑĢÑĥÐ´": 1756,
      "ÑĢÐ°Ñĩ": 1757,
      "Ð»Ð°ÑģÑĤÐ¸": 1758,
      "Ġd": 1759,
      "Ð¸Ð½Ð¾Ð²": 1760,
      "ÑĩÐµÑģÐº": 1761,
      "ÐµÑĢÐµÐ´": 1762,
      "ĠÐ±ÑĭÑģÑĤÑĢÐ¾": 1763,
      "ĠÐ²ÑģÑĤÑĢÐµÑĩ": 1764,
      "ĠÐĴÑģÐµ": 1765,
      "ĠÐ¸Ð´Ðµ": 1766,
      "ÑĤÐ¾ÑĢÑĥ": 1767,
      "Ð°ÑĨÐ¸Ð¾Ð½": 1768,
      "Ġ8": 1769,
      "ÑĥÐ±Ð»Ð¸": 1770,
      "ĠÑĤÑĢÐ¸": 1771,
      "ĠÐ±ÐµÐ»": 1772,
      "ĠÐ¿ÑĢÐµÐº": 1773,
      "ĠD": 1774,
      "ĠÐĺÐ½": 1775,
      "ĠÐ¼Ð¸Ð»": 1776,
      "ÐµÑĢÐ¼": 1777,
      "ÑĮÐµ": 1778,
      "ÑĥÐ¶Ð´": 1779,
      "ĠÐ»Ð¸Ñĩ": 1780,
      "ĠG": 1781,
      "ÑħÑĢÐ°Ð½": 1782,
      "ÐµÑĦ": 1783,
      "Ð¾Ð»ÑĮÐ½Ð¾": 1784,
      "Ġthe": 1785,
      "Ð¾Ð²Ð°Ð½": 1786,
      "ĠÐ·Ð°Ñģ": 1787,
      "ĠÐ¿Ð¾ÑĪ": 1788,
      "ed": 1789,
      "Ð¨ÐĲ": 1790,
      "ĠÐ¾Ð±ÑĢÐ°ÑĤ": 1791,
      "ĠÑģÑĥÐ´": 1792,
      "Ð½ÐµÑĤ": 1793,
      "ĠÐºÐ¾Ð»Ð¸ÑĩÐµ": 1794,
      "Ð¾Ð³ÑĢÐ°ÑĦ": 1795,
      "ÐµÐ½ÑĤÑĭ": 1796,
      "el": 1797,
      "Ð½Ð¸Ð»": 1798,
      "Ð¾Ð¶ÐµÑĤ": 1799,
      "ĠÑĢÐµÐ³": 1800,
      "Ġp": 1801,
      "ĠÐ¼Ð°ÑĪ": 1802,
      "Ð¾Ð±ÑĢÐ°Ð·": 1803,
      "ĠÐļÐ¾Ð½": 1804,
      "Ð¾Ð¹Ð´": 1805,
      "ĠÐ·Ð°Ñı": 1806,
      "ĠÐ¿Ð¾Ð»ÑĮÐ·": 1807,
      "ĠÐ¸Ð·Ð±": 1808,
      "ĠÐ¿Ð¾ÑĩÐµÐ¼Ñĥ": 1809,
      "ĠÐ¾Ð´Ð½Ð¾Ð¹": 1810,
      "ĠW": 1811,
      "Ð½Ð¸Ð±": 1812,
      "ac": 1813,
      "ĠÑĥÐ´Ð¸Ð²": 1814,
      "ĠÐ¾Ð·": 1815,
      "ĠÐ²ÑģÐ¿": 1816,
      "Ð½Ð¸Ð·": 1817,
      "ĠÐ²ÑĭÑħÐ¾Ð´": 1818,
      "ĠÐĿÐ¸Ðº": 1819,
      "ing": 1820,
      "ĠÑģÑĤÐ¾ÑĢÐ¾Ð½Ñĭ": 1821,
      "ÑģÑĤÐ²ÐµÐ½Ð½Ð¾": 1822,
      "et": 1823,
      "Ġw": 1824,
      "Ġ,": 1825,
      "ĠÑģÐ¾Ð¿": 1826,
      "Ð»ÐµÐºÑĤÑĢ": 1827,
      "Ð³Ð¾Ð²": 1828,
      "ĠÑĢÑĥÑģ": 1829,
      "ĠÐ½Ð°Ð·ÑĭÐ²": 1830,
      "ĠÐ½Ð¸ÐºÐ°Ðº": 1831,
      "ÑıÑĤÑģÑı": 1832,
      "ĠÑħÐ¾Ð´": 1833,
      "ÐµÑĢÑĭ": 1834,
      "Ð»Ð¾Ð¼": 1835,
      "ÐµÐ¶Ð´": 1836,
      "ĠÑĥÑģÐ»Ð¾Ð²": 1837,
      "ĠÑģÐºÐ°Ð·Ð°ÑĤÑĮ": 1838,
      "Ð¾Ð½Ðµ": 1839,
      "ĠÐ¿ÑĢÐ¸Ð±": 1840,
      "Ð»ÑıÑĤÑĮ": 1841,
      "ro": 1842,
      "ÑģÑĤÐ²Ñĥ": 1843,
      "ÐµÐ½Ð½ÑĭÐ¼": 1844,
      "Ð¸Ð²Ð°Ñı": 1845,
      "ĠÐ¿ÑĢÐ¾Ð¿": 1846,
      "ĠÑģÐ»Ð¸ÑĪÐºÐ¾Ð¼": 1847,
      "ĠÐ¿ÑĢÐ¾Ð³ÑĢÐ°Ð¼": 1848,
      "ÑĢÑĥÐ¿": 1849,
      "Ð°Ð»Ð¸ÑģÑĤ": 1850,
      "ĠÐ²ÑĭÑĪ": 1851,
      "ĠÑģÐ»ÑĥÐ¶": 1852,
      "ĠÑģÐ»Ð¾Ð²Ð°": 1853,
      "Ð´Ð¶": 1854,
      "ĠÐ·Ð½Ð°Ñİ": 1855,
      "Ð½Ð¸Ð¸": 1856,
      "ĠÐ¼Ð°ÑĢ": 1857,
      "Ð¸ÑĦ": 1858,
      "ĠÐ½Ð°ÑģÑĤÐ¾Ñı": 1859,
      "ĠÐ¡Ð¨ÐĲ": 1860,
      "ĠÑĥÑģÑĤÐ°Ð½Ð¾Ð²": 1861,
      "ĠÑĢÑĥÐºÑĥ": 1862,
      "ĠÐ´Ð°Ð»ÑĮ": 1863,
      "ĠÐ¾Ð¶": 1864,
      "ĠÐ¼Ð¾Ð´": 1865,
      "ÐµÑĢÐº": 1866,
      "Ð»ÐµÐºÑģ": 1867,
      "ĠÑģÐ¼Ð¾Ð³": 1868,
      "ĠÑĤÑıÐ¶": 1869,
      "Ð½Ð¸Ð±ÑĥÐ´ÑĮ": 1870,
      "ion": 1871,
      "ĠÐ´ÐµÐ²ÑĥÑĪÐºÐ°": 1872,
      "Ð¸ÐºÐµ": 1873,
      "ĠÑįÑĤÑĥ": 1874,
      "ĠÑģÐ¾Ð³Ð»Ð°Ñģ": 1875,
      "Ð°ÑĢÐ¾Ð²": 1876,
      "ĠÐ±Ð»Ð°Ð³": 1877,
      "ÑĩÐµ": 1878,
      "ĠÑģÑĢÐ°Ð·Ñĥ": 1879,
      "ÑĪÐ¸Ñħ": 1880,
      "ĠF": 1881,
      "ĠÐ±ÑĥÐ´ÑĥÑĤ": 1882,
      "ĠÐ±Ð¾ÑĢ": 1883,
      "ĠÐºÐ¾Ð½ÑĤÑĢ": 1884,
      "ĠÐ¿Ð¾Ð¼Ð¾Ð³": 1885,
      "ĠÐºÐ¾ÑĤÐ¾ÑĢÐ¾Ð³Ð¾": 1886,
      "ĠÐ²ÐµÑģ": 1887,
      "ĠÐ¿Ð»ÐµÑĩ": 1888,
      "ÑıÐµÑĤ": 1889,
      "ĠÐ¿ÑĢÐ°ÐºÑĤ": 1890,
      "am": 1891,
      "ĠÐ¿ÑĢÐµÐ´Ð»Ð¾Ð¶": 1892,
      "ĠÐ¸Ð¼ÐµÐµÑĤ": 1893,
      "Ð¿Ð¾Ð»Ð¾Ð¶": 1894,
      "ĠÐ²ÑĭÑģÐ¾Ðº": 1895,
      "ĠÐ¿ÑĢÐ¸Ñħ": 1896,
      "ÑĢÐ¾Ð±": 1897,
      "ĠÑįÐ½": 1898,
      "Ð¾ÑĤÐ¸Ð²": 1899,
      "ĠÐ½ÐµÑģ": 1900,
      "ĠÐ²ÐµÑģÑĮ": 1901,
      "ĠÐ¿Ð¾ÑĤÐµÑĢ": 1902,
      "Ð²Ñĭ": 1903,
      "ĠÑģÐµÐ³Ð¾Ð´Ð½Ñı": 1904,
      "ÑģÐºÐ¸Ð¼": 1905,
      "Ð°ÑĤÐµÐ»Ñı": 1906,
      "ĠÐ¿ÑĢÐ¸Ð¼ÐµÑĢ": 1907,
      "ĠÐºÐ¾Ð¼Ð°Ð½Ð´": 1908,
      "ĠÐ´ÑĢÑĥÐ³Ð¾Ð¹": 1909,
      "ÑĨÐ¸Ñİ": 1910,
      "ĠÐ´Ð²ÑĥÑħ": 1911,
      "ĠÐºÐ»Ð°ÑģÑģ": 1912,
      "ĠÐ²ÑģÑı": 1913,
      "ÑĥÐ»Ð¸": 1914,
      "ĠÑĩÐ°ÑģÑĤÑĮ": 1915,
      "Ġm": 1916,
      "Ð¸ÑĩÐµÑģÐºÐ¸Ð¹": 1917,
      "Ð¾ÐµÐ²": 1918,
      "ĠÑĪÐºÐ¾Ð»": 1919,
      "ĠÑĨÐµÐ½ÑĤ": 1920,
      "ĠÐ·Ð°ÑĤÐµÐ¼": 1921,
      "Ð°Ð¶ÐµÑĤÑģÑı": 1922,
      "||": 1923,
      "Ð¸ÑĤÐ°": 1924,
      "ĠÐ¾Ð±ÐµÑģÐ¿": 1925,
      "ĠÑĢÑıÐ´Ð¾Ð¼": 1926,
      "ĠÑĦÐ¸Ð»ÑĮ": 1927,
      "ĠÐ²ÐµÑĩ": 1928,
      "ĠÐ¿Ð°Ð»ÑĮ": 1929,
      "ĠÐ¿ÑĢÐµÐ²": 1930,
      "ĠÐ¼Ð¾Ð¹": 1931,
      "ĠÐ¾ÑĤÐ¿ÑĢÐ°Ð²": 1932,
      "ĠÐ¿ÑĢÐ¾Ð´ÑĥÐº": 1933,
      "Ġo": 1934,
      "ĠÑģÐ¾Ñģ": 1935,
      "ĠÐ²Ð¸Ð´Ðµ": 1936,
      "ĠÑĪÑĤ": 1937,
      "ĠÐ²Ð¾Ð»Ð¾Ñģ": 1938,
      "ĠÐ·Ð°Ð½Ð¸Ð¼": 1939,
      "Ð¸ÑĤÐµÐ»Ð¸": 1940,
      "ĠÑıÐ²": 1941,
      "ĠÐºÐ¾ÑĤÐ¾ÑĢÐ¾Ðµ": 1942,
      "ĠÑģÐ¾Ð²ÑģÐµÐ¼": 1943,
      "ĠÑįÑĤÐ¸Ð¼": 1944,
      "ĠÐºÐ°Ð·": 1945,
      "ĠÐ½ÐµÐ¾Ð±ÑħÐ¾Ð´Ð¸Ð¼": 1946,
      "ĠÑĤÐ¾Ð»": 1947,
      "ĠÐ²Ð¿": 1948,
      "Ð¸Ð½Ð¾": 1949,
      "ÑĥÑĤÑģÑĤÐ²": 1950,
      "ĠÐ´Ð°Ð»": 1951,
      "ĠÑģÑĤÐ°Ð½Ð¾Ð²": 1952,
      "ĠÐ´Ð¾ÑĢÐ¾Ð³": 1953,
      "ĠÐ²Ð¿ÐµÑĢ": 1954,
      "ÑĢÐµÐ·": 1955,
      "ĠÑĥÐ¿ÑĢÐ°Ð²": 1956,
      "il": 1957,
      "ĠÑģÐ¾ÑĨÐ¸": 1958,
      "ĠÐ½Ð¾Ñģ": 1959,
      "ĠÐļÐ¾Ð³Ð´Ð°": 1960,
      "ĠÐ´ÐµÐ»Ð°ÑĤÑĮ": 1961,
      "Ð¾Ð´Ð°ÑĢ": 1962,
      "ÑĢÐ¸ÑģÑĤ": 1963,
      ".,": 1964,
      "Ð³Ð¾Ð²Ð¾ÑĢ": 1965,
      "ÑĤÐ¾ÑĢÑĥÑİ": 1966,
      "ĠÐºÐ°ÑĤ": 1967,
      "Ð½ÑĥÑĤ": 1968,
      "ĠÐ½Ð°ÑĢÐ¾Ð´": 1969,
      "ĠÐ¼Ð¾Ð³Ñĥ": 1970,
      "ĠÐ³Ð¾Ð»Ð¾Ð²Ñĥ": 1971,
      "ĠÑģÑĥÑīÐµÑģÑĤÐ²": 1972,
      "ĠÐ½Ð°Ð»": 1973,
      "ĠÐ¡Ðº": 1974,
      "Ð¾Ð±ÑĢÐ°Ð¶": 1975,
      "ĠÐ¾Ð±ÑıÐ·": 1976,
      "Ð¸ÐºÐ¾Ð²": 1977,
      "ĠN": 1978,
      "Ġ9": 1979,
      "ĠÐĵÐ°ÑĢ": 1980,
      "ĠÐĿÐµÑĤ": 1981,
      "ĠÐ²Ð¾Ð¾Ð±ÑīÐµ": 1982,
      "ĠÐ·Ð°ÑıÐ²": 1983,
      "Ð¿ÑĢÐ¸": 1984,
      "us": 1985,
      "ĠÐ´Ð¾Ð±Ð°Ð²": 1986,
      "ĠÐ²Ð¾ÑģÐ¿": 1987,
      "ĠÑģÐ²Ð¾Ð¸Ð¼": 1988,
      "and": 1989,
      "ĠÑĤÐ°ÐºÐ¾Ðµ": 1990,
      "Ð¾Ð·Ð¼Ð¾Ð¶": 1991,
      "ĠÐ¿ÑģÐ¸Ñħ": 1992,
      "ĠÐ¼Ð¾Ð¶ÐµÑĤÐµ": 1993,
      "ÐµÐ½Ñģ": 1994,
      "ĠÐ¿ÑıÑĤ": 1995,
      "ĠÐ²ÐµÐº": 1996,
      "ĠÐ±ÐµÑĢ": 1997,
      "Ð¾ÑıÐ½": 1998,
      "ĠÐºÑĥÑĢ": 1999,
      "ĠÑĥÐ²ÐµÑĢ": 2000,
      "ĠÐ¿ÑĢÐµ": 2001,
      "ĠÑģÐ¾ÑĤ": 2002,
      "ĠÐ´ÑĥÑĪ": 2003,
      "ĠÑģÐ¸ÑĤÑĥ": 2004,
      "ĠÐ´ÑĢÑĥÐ³Ð¸Ðµ": 2005,
      "ĠÐ°ÐºÑĤÐ¸Ð²": 2006,
      "ĠÑĢÐ°ÑģÐ¿": 2007,
      "ĠÑįÑĦÑĦ": 2008,
      "Ð²Ð¾": 2009,
      "Ð¾Ð½ÐµÑĨ": 2010,
      "ÑĪÐµÐ¹": 2011,
      "ĠÐ´ÐµÑĢÐµÐ²": 2012,
      "Ð¸ÐµÐ¼": 2013,
      "Ð¾ÑĢÐµ": 2014,
      "ÐŃÑĤÐ¾": 2015,
      "Ð½ÐµÑĪ": 2016,
      "ĠÐ½ÐµÐµ": 2017,
      "ĠÐ½Ð°ÑĩÐ°Ð»": 2018,
      "ĠÐ¿ÐµÑĢÐµ": 2019,
      "ÐµÐºÑģÑĤ": 2020,
      "ÑıÑĤÐµÐ»ÑĮ": 2021,
      "ĠÐĽÑİ": 2022,
      "Ġb": 2023,
      "ĠÑĩÐ°ÑģÑĤÐ¸": 2024,
      "ÑĢÐµÑĤ": 2025,
      "ÑĢÐ¾Ðº": 2026,
      "ĠÐ¼Ð¾Ð»Ð¾Ð´": 2027,
      "ĠÐ´Ð¾Ð¼Ð°": 2028,
      "ĠÐŀÐ´Ð½Ð°ÐºÐ¾": 2029,
      "ĠÑĤÐ°ÐºÐ¸Ðµ": 2030,
      "ĠÐ¡Ð¿": 2031,
      "ĠÐķÐ³Ð¾": 2032,
      "ÐµÑģÑĤÑĮ": 2033,
      "ĠÐĴÐ¾ÑĤ": 2034,
      "ĠÐ²ÐµÑī": 2035,
      "Ġf": 2036,
      "ĠÐ¸Ð½ÑģÑĤ": 2037,
      "Ġa": 2038,
      "ĠL": 2039,
      "ĠÐ¾ÑĤÑģ": 2040,
      "ĠE": 2041,
      "ĠÑįÐ»ÐµÐºÑĤÑĢ": 2042,
      "ĠÑģÐ»ÑĭÑĪ": 2043,
      "ĠÐ¿Ð¾Ð´Ð¾Ð±": 2044,
      "ĠÐ¿ÑĢÐ¾ÑĦ": 2045,
      "Ð²ÐµÑĢÐ¶": 2046,
      "ĠÐ½Ð°Ð·Ð°Ð´": 2047,
      "ĠÐ³Ð»ÑĥÐ±": 2048,
      "Ð°ÑĤÐ¾ÑĩÐ½Ð¾": 2049,
      "ĠÐ¸Ð³": 2050,
      "ĠÑĢÐ°Ð±Ð¾ÑĤÑĭ": 2051,
      "Ð°Ð½Ð½ÑĭÐµ": 2052,
      "ÑįÐ½": 2053,
      "ÐµÐ½Ð½Ð¾Ðµ": 2054,
      "ĠH": 2055,
      "ĠÑģÐ²Ð¾Ð±Ð¾Ð´": 2056,
      "Ð¸Ð´Ð°": 2057,
      "Ð°Ð½Ðµ": 2058,
      "ĠÑĤÐ¸Ð¿": 2059,
      "Ð¾Ð½Ð¾Ð²": 2060,
      "ĠÐºÐ¾Ð½ÑĨ": 2061,
      "ĠÑģÐ¾Ð±Ð¸ÑĢ": 2062,
      "ĠÐµÐ´Ð¸Ð½": 2063,
      "ĠÑĢÐ°Ð·Ð´": 2064,
      "Ð¾ÑĤÑĢÑı": 2065,
      "ĠÐ¿ÑĢÐ¾Ð²Ð¾Ð´": 2066,
      "ÑĥÐ·": 2067,
      "ĠÐ¼ÐµÑģÑı": 2068,
      "ÐµÐ½ÐµÑĢ": 2069,
      "ÐµÐ½Ð½Ð°Ñı": 2070,
      "Ð²Ð¸Ð½": 2071,
      "Ð°ÑĢÐ´": 2072,
      "Ð¿Ð¾Ð´": 2073,
      "ĠÐŁÐ¾Ð´": 2074,
      "Ð³Ð»Ð¸": 2075,
      "Ð°ÑİÑīÐ¸Ñħ": 2076,
      "ĠÑģÐ²Ð¾Ðµ": 2077,
      "ĠÐĶÐ»Ñı": 2078,
      "Ð»ÐµÐ½Ð½Ð¾": 2079,
      "ÑĭÐ²Ð°Ñı": 2080,
      "ÐķÑģÐ»Ð¸": 2081,
      "Ð¾Ð´Ñĭ": 2082,
      "ĠÐ¿Ð¸Ñģ": 2083,
      "Ð»Ð¾ÑĤ": 2084,
      "ĠÐ·Ð°ÑģÑĤÐ°Ð²": 2085,
      "ĠÐķÐ²": 2086,
      "ĠÑģÐ¾Ð¾ÑĤÐ²ÐµÑĤÑģÑĤÐ²": 2087,
      "ĠÐ¿Ð¾ÑĤÑĢÐµÐ±": 2088,
      "ÐĿÐ¾": 2089,
      "ĠÑĩÐ°ÑģÑĤÐ¾": 2090,
      "ĠÐ±ÐµÑģ": 2091,
      "ÐµÐ·Ð´": 2092,
      "ÑıÑĤÐ¸Ñı": 2093,
      "ĠÑģÑĤÐ¾ÑĢÐ¾Ð½Ñĥ": 2094,
      "Ð°Ð´ÑĨ": 2095,
      "Ð½Ð¸ÑĤÑĮ": 2096,
      "ĠÐ´ÐµÑĢÐ¶": 2097,
      "Ð»ÑģÑı": 2098,
      "ÑģÐºÐ¾Ðµ": 2099,
      "ĠÐ¾Ð´Ð½Ð¾Ð³Ð¾": 2100,
      "Ð½ÐµÐ½Ð¸Ñı": 2101,
      "ĠÐ½Ð°ÑĩÐ°Ð»Ð°": 2102,
      "ĠÐ´ÐµÐ»Ð¾": 2103,
      "ĠÑģÑĥÑīÐµ": 2104,
      "ĠÐ¿Ð¾Ð¿ÑĭÑĤ": 2105,
      "ĠÑĪÐ¸ÑĢ": 2106,
      "Ð¾Ð²Ð°Ð½Ð¸Ñı": 2107,
      "ĠÐ±Ð¾Ð³": 2108,
      "ĠÑģÑĤÐ¾Ð¸ÑĤ": 2109,
      "ĠÐ²Ð½ÑĥÑĤÑĢ": 2110,
      "ĠÐ½Ð¾ÑĢÐ¼": 2111,
      "ÑģÑĥ": 2112,
      "ĠÐłÐ¾ÑģÑģÐ¸Ð¸": 2113,
      "ĠÐ¿ÐµÑĢÐ¸": 2114,
      "ĠÑĤÐ¾Ð¼Ñĥ": 2115,
      "Ð²Ðµ": 2116,
      "ĠÐ³Ð¾Ð²Ð¾ÑĢÐ¸ÑĤ": 2117,
      "ĠÑģÑĥÐ¼": 2118,
      "Ð»Ð°ÑģÑĤ": 2119,
      "ĠÐ±ÐµÑģÐ¿": 2120,
      "Ð»Ð°Ð¼": 2121,
      "ÑıÐ²Ð»Ñı": 2122,
      "ĠÑģÐ¼ÐµÑĢ": 2123,
      "ÐŀÐ½": 2124,
      "ĠÐ¿Ð°ÑĢÑĤ": 2125,
      "ĠÐ²ÐµÐ´": 2126,
      "ĠÑįÐºÑģÐ¿": 2127,
      "ĠÐ½Ð°Ð³": 2128,
      "Ð¼ÐµÑĢÐ¸ÐºÐ°Ð½": 2129,
      "ÑĥÐµÑĤÑģÑı": 2130,
      "ĠÑįÑĤÐ°": 2131,
      "ĠÐ¼Ð°Ð»ÐµÐ½ÑĮ": 2132,
      "--": 2133,
      "ĠÐ±ÑĥÐ´ÑĤÐ¾": 2134,
      "ĠÐºÐ°ÑĢÑĤ": 2135,
      "Ð»Ð¸Ðº": 2136,
      "ÐµÐ»Ñİ": 2137,
      "ĠÑģÐºÐ°Ð·Ð°Ð»Ð°": 2138,
      "ĠÐ¾Ð±Ñĭ": 2139,
      "ÑĨÐ¸Ð¹": 2140,
      "ĠÑĢÐ°Ð·Ð±": 2141,
      "ÑĪÐ¸Ðµ": 2142,
      "ĠÑģÐ¸Ð¼": 2143,
      "ĠX": 2144,
      "ĠÐ¿ÑĢÐ¾Ñĩ": 2145,
      "ĠÑĦÑĥÐ½Ðº": 2146,
      "ĠÑģÑĤÐ°Ð½": 2147,
      "ÑĢÐ°Ðº": 2148,
      "Ġh": 2149,
      "Ġ15": 2150,
      "ĠÐ¿ÑĢÐ¸ÑħÐ¾Ð´": 2151,
      "Ð¾Ð»ÐµÐµ": 2152,
      "Ð½Ð¸Ñı": 2153,
      "ÐµÐ»Ð¸Ñĩ": 2154,
      "ĠÐ²Ð·Ð´": 2155,
      "ÑĩÐ¸ÑĤ": 2156,
      "Ð»Ð¾ÑģÑĮ": 2157,
      "ol": 2158,
      "ĠÐ¿Ð¾ÑģÑĤÐ¾ÑıÐ½": 2159,
      "ĠÐ¾ÑĪ": 2160,
      "âĢĿ": 2161,
      "10": 2162,
      "Ð°ÐµÑĤÐµ": 2163,
      "ĠÑįÐºÐ¾Ð½Ð¾Ð¼": 2164,
      "ĠÑĪÐ°Ð³": 2165,
      "ĠÐ¿ÑĢÐ¾Ð¼": 2166,
      "Ð¾ÑģÑĤÐ°Ð²": 2167,
      "ÐĿÐµ": 2168,
      "ĠÑĢÐ°Ð±": 2169,
      "ÑıÑĤÑĮÑģÑı": 2170,
      "Ð°Ð´Ð¸": 2171,
      "Ð¾Ð²ÑĭÑħ": 2172,
      "ÑĪÐµÐ³Ð¾": 2173,
      "Ð±Ð°": 2174,
      "ĠÐ¾Ñī": 2175,
      "ĠÐ½ÐµÐ±Ð¾Ð»ÑĮÑĪ": 2176,
      "ĠÐºÐ²": 2177,
      "ĠÐ¶Ð´": 2178,
      "ĠÐľÐ½Ðµ": 2179,
      "Ð¸ÑĤÐµÑĢ": 2180,
      "ĠÐºÐ°Ð¶Ð´ÑĭÐ¹": 2181,
      "ÑıÐ»Ð°": 2182,
      "ĠÐ¾ÑĦ": 2183,
      "Ð°ÑİÑīÐ¸Ðµ": 2184,
      "ÑĨÐ¸Ð¿": 2185,
      "Ð°ÐºÑģ": 2186,
      "ÑĢÐµÐ½": 2187,
      "ÑĢÐ°Ð³": 2188,
      "Ð¼Ð°Ð½": 2189,
      "ĠÐ´ÐµÑģÑı": 2190,
      "ĠÐ²ÑĭÐ´": 2191,
      "Ð½Ð°Ð»": 2192,
      "ÐµÑĩÑĮ": 2193,
      "ĠÑħÐ¾Ð»Ð¾Ð´": 2194,
      "ÑıÑģÑĮ": 2195,
      "Ð¸Ð²Ð°ÐµÑĤÑģÑı": 2196,
      "ĠÐ²Ð¾Ð·Ð½Ð¸Ðº": 2197,
      "Ð½Ð¸ÑĩÐµÑģÐº": 2198,
      "Ð½ÑĥÐ²": 2199,
      "ĠÐ¾Ð´Ð½Ð¾": 2200,
      "ÑĢÐµÐ²": 2201,
      "Ð·Ñı": 2202,
      "ĠÐ¼ÐµÐ½ÑĮ": 2203,
      "Ð¾ÑĢÐ¾ÑĤ": 2204,
      "ĠÐ±ÑĢÐ°ÑĤ": 2205,
      "ĠÐºÐ¾ÑĤÐ¾ÑĢÑĥÑİ": 2206,
      "ĠÑĤÐ²Ð¾": 2207,
      "ĠÐ¾Ð±ÐµÑģÐ¿ÐµÑĩ": 2208,
      "Ð°ÑİÑīÐ¸Ð¹": 2209,
      "Ð°Ð»ÑĮÐ½Ð¾Ðµ": 2210,
      "âĢĵ": 2211,
      "ĠÑģÐ¾Ð²ÐµÑĤ": 2212,
      "Ð»Ð¸Ñı": 2213,
      "Ð½Ð¾ÑģÑĤÐµÐ¹": 2214,
      "Ð±Ñĥ": 2215,
      "ÐµÑĢÐ¾Ð²": 2216,
      "Ġ.": 2217,
      "Ġ[": 2218,
      "ĠÐ¶Ð¸Ð²Ð¾ÑĤ": 2219,
      "ĠÑĥÐ´Ð°ÑĢ": 2220,
      "ĠÐ·Ð°ÐºÐ»ÑİÑĩ": 2221,
      "ĠÐ¼Ð°ÑģÑģ": 2222,
      "ĠÑģÐ°Ð¼Ð¾Ð¼": 2223,
      "ĠÑħÐ¾ÑĩÑĥ": 2224,
      "ĠÐ°Ð»": 2225,
      "ĠÑģÑĩÐ°ÑģÑĤ": 2226,
      "ĠÐ¾ÑģÑĤÐ°Ð½Ð¾Ð²": 2227,
      "ĠÐ¾ÐºÐ¾Ð»Ð¾": 2228,
      "ent": 2229,
      "ĠÑĩÐ¸ÑĤ": 2230,
      "ÐºÐ¸Ð¼": 2231,
      "ÐµÐ²ÐµÑĢ": 2232,
      "ĠÑĤÑĢÑĥ": 2233,
      "ĠÐ¼ÐµÐ½ÐµÐµ": 2234,
      "ĠÑĦÐ¸Ð·": 2235,
      "ĠÑĤÐ°ÐºÐ¸Ñħ": 2236,
      "ĠÐºÑĥÐ´Ð°": 2237,
      "ĠÐ´ÐµÐ¼": 2238,
      "ĠÐ¼Ð¾Ð½": 2239,
      "ÐºÐ¾Ð²Ð¾Ð´": 2240,
      "ĠÐ¾ÑĤÐ½Ð¾Ñģ": 2241,
      "ĠÐ¿Ð¾ÑģÑĤÐ°Ð²": 2242,
      "18": 2243,
      "Ð¾Ð²ÑĭÐµ": 2244,
      "ĠÑĤÐ°ÐºÐ¸Ð¼": 2245,
      "ÐºÐ°Ñı": 2246,
      "ĠÐ°Ð²ÑĤÐ¾Ð¼": 2247,
      "ĠÐ¾ÑĤÑĩ": 2248,
      "ĠÐłÐ°Ð·": 2249,
      "ĠÐ²Ð¾Ð·Ð²": 2250,
      "ĠÐ¾Ð±ÑĬÑıÑģ": 2251,
      "Ð°ÑİÑģÑĮ": 2252,
      "ĠÐŁÐ¾ÑĤ": 2253,
      "ĠÑĢÐ°ÑģÑģÐºÐ°Ð·": 2254,
      "Ð°Ð¼Ð°": 2255,
      "ÐµÐ¶Ð´Ðµ": 2256,
      "ĠÐ´Ð¾Ð³": 2257,
      "ĠÐ¿Ð¾Ð±ÐµÐ´": 2258,
      "ĠÐ·Ð°Ð»": 2259,
      "ĠÐ»Ð¸ÑĨÐ¾": 2260,
      "Ð´Ð¾": 2261,
      "Ð½Ð°ÑĢÑĥÐ¶": 2262,
      "Ð°ÑĦ": 2263,
      "ĠÐ½Ð°Ð¿ÑĢÐ¸Ð¼ÐµÑĢ": 2264,
      "ĠÐ·Ð°Ð²Ð¸Ñģ": 2265,
      "ĠÐ½Ð°Ð¿Ð¸Ñģ": 2266,
      "ÐµÑĢÐ¾Ð¼": 2267,
      "ÑĥÐ»ÑıÑĢ": 2268,
      "ĠÐ½ÑĢÐ°Ð²": 2269,
      "ĠÐ·ÑĢ": 2270,
      "ĠÑĥÑĪ": 2271,
      "Ð»ÐµÐ½Ð¸Ð¸": 2272,
      "ĠÑıÑĢ": 2273,
      "Ð¾Ð»ÑĮÐºÑĥ": 2274,
      "ÑĢÑĭÑĤ": 2275,
      "ĠÐ¾Ð¿ÐµÑĢ": 2276,
      "Ð¸ÑıÑħ": 2277,
      "Ð¸ÐºÑĥ": 2278,
      "Ð¾Ð»Ñı": 2279,
      "ĠÑĩÑĥÑĤÑĮ": 2280,
      "Ð¾Ð·Ñı": 2281,
      "Ð´ÑĥÑħ": 2282,
      "ÑģÑıÑĩ": 2283,
      "ĠÐļÐ°ÑĢ": 2284,
      "ĠÐ¿Ð»Ð°Ð½": 2285,
      "ĠÑģÐµÑĢÑĮ": 2286,
      "Ð°Ð¹ÑĤ": 2287,
      "Ð¼Ð¾ÑĤÑĢ": 2288,
      "Ð²Ð¸": 2289,
      "ĠÐ¿ÑĢÐµÐ·": 2290,
      "ÑıÐ±ÑĢÑı": 2291,
      "ĠÑĩÑĥÐ²ÑģÑĤÐ²": 2292,
      "?!": 2293,
      "ĠÐºÐ¾Ð½ÐµÑĩÐ½Ð¾": 2294,
      "ĠÐ¼Ð¸ÑĢÐ°": 2295,
      "Ð»Ð°ÑģÑĮ": 2296,
      "Ð°Ð½Ð¸Ñĩ": 2297,
      "ĠÐ¸ÑģÐ¿Ð¾Ð»ÑĮÐ·Ð¾Ð²Ð°ÑĤÑĮ": 2298,
      "Ð¾ÑĢÐ¾Ð¶": 2299,
      "Ð°Ð»ÑĮÐ½Ð°Ñı": 2300,
      "ĠÑĨÐ¸": 2301,
      "ÐŁÐ¾": 2302,
      "ĠÐ½Ð¾Ñĩ": 2303,
      "ĠÑĥÐºÐ°Ð·": 2304,
      "ÑģÐ¸": 2305,
      "ÑģÑĤÐ°Ð½Ð¾Ð²": 2306,
      "Ð¾Ð»Ñİ": 2307,
      "ÐºÐ¾Ð³Ð¾": 2308,
      "ĠÐŁÐ¾ÑģÐ»Ðµ": 2309,
      "Ð¼ÐµÐ½ÑĤ": 2310,
      "ĠÐ²ÑĭÑģÑĤÑĥÐ¿": 2311,
      "Ð¿ÑĢÐ¾ÑģÑĤ": 2312,
      "ÐµÐ½Ð½Ð¾ÑģÑĤÐ¸": 2313,
      "ĠÐ¿Ð¾Ð¼Ð¾ÑīÑĮÑİ": 2314,
      "Ð°Ð½Ð½ÑĭÐ¹": 2315,
      "ÑĤÑĢÐ¸": 2316,
      "ĠÐ»Ð°Ð´": 2317,
      "ÑĢÐ°Ð´": 2318,
      "Ġof": 2319,
      "Ð¢Ð°Ðº": 2320,
      "Ð°ÑĤÐ¾Ð²": 2321,
      "ĠÐ¼Ð½Ð¾Ð¹": 2322,
      "ÐµÑĩÐ°ÑĤ": 2323,
      "ĠÐºÐ»Ð¸": 2324,
      "ĠÑĢÐ°ÑģÐº": 2325,
      "ĠÐ¾Ð¿Ð¸Ñģ": 2326,
      "ĠÐ´ÑĥÑħ": 2327,
      "ĠÑģÐ¼Ñĭ": 2328,
      "ĠÐºÐ¾Ð¶": 2329,
      "ÐµÐ¹ÑĤ": 2330,
      "ÑħÐ¾": 2331,
      "ĠÐ¿Ð°ÑĢÐµÐ½ÑĮ": 2332,
      "Ð¾Ð¿Ð°Ñģ": 2333,
      "ĠÑģÑĤÐµÐ½": 2334,
      "ÑĥÑĢÐ°": 2335,
      "ÐµÐ»ÐµÐ¼": 2336,
      "ÑĢÐ¾Ð½": 2337,
      "ĠÐ¾Ð¿Ð°Ñģ": 2338,
      "Ð½ÑĥÐ²ÑĪ": 2339,
      "ĠÐ¿Ð¾ÑĢÑıÐ´": 2340,
      "Ġ199": 2341,
      "Ð¾Ð»ÐµÑĤ": 2342,
      "ÐµÐ»ÐµÐ½": 2343,
      "ĠÑģÐ¾ÑħÑĢÐ°Ð½": 2344,
      "Ð¸Ð²Ð°Ð»": 2345,
      "ÐŁÐ¾Ñģ": 2346,
      "Ð¾ÑĤÑı": 2347,
      "ĠÐ´ÐµÑıÑĤÐµÐ»ÑĮ": 2348,
      "ĠÐºÐ¾ÑĤÐ¾ÑĢÐ¾Ð¼": 2349,
      "ĠÐ¾Ð³ÑĢÐ¾Ð¼": 2350,
      "ĠÐ¿ÑĢÐ¸Ð½Ð¸Ð¼": 2351,
      "Ð»ÑĥÑĩ": 2352,
      "ĠÐ´Ð¾Ð»Ð³Ð¾": 2353,
      "Ð¾ÑĩÐµÐ¼Ñĥ": 2354,
      "ÐŀÑĤ": 2355,
      "ĠÑĤÐ¸Ñħ": 2356,
      "ĠÐ²Ð°ÑĢÐ¸": 2357,
      "ĠÑĢÐµÐ±ÐµÐ½": 2358,
      "ÑģÐºÑĥÑİ": 2359,
      ".-": 2360,
      "Ð»Ñĥ": 2361,
      "ow": 2362,
      "ĠÐ¾Ð½Ð¾": 2363,
      "Ð¾Ð·Ð½": 2364,
      "Ð°ÑĢÑĮ": 2365,
      "ĠâĢľ": 2366,
      "ĠÐºÐ¾Ð½ÑĦ": 2367,
      "ĠÐ¾Ð´Ð½Ð°": 2368,
      "Ð¸Ð³ÑĢ": 2369,
      "ĠÐ°Ð±": 2370,
      "Ġ12": 2371,
      "ĠÐ¾ÑģÑĤÑĢ": 2372,
      "Ð¸ÑĤÐ°Ð½": 2373,
      "ÑĢÐµÐ¹": 2374,
      "II": 2375,
      "ĠÐ´Ð½Ñı": 2376,
      "ÐµÑĢÐ±": 2377,
      "Ð²Ð°Ð»": 2378,
      "ĠÐ´Ð¾ÑģÑĤÐ°ÑĤÐ¾ÑĩÐ½Ð¾": 2379,
      "ot": 2380,
      "ĠÐ¿ÑĢÑıÐ¼Ð¾": 2381,
      "ĠÐºÐ¾Ð½ÑĤ": 2382,
      "ĠÐ½Ð°ÑĥÑĩ": 2383,
      "ĠÐ¾ÑĪÐ¸Ð±": 2384,
      "Ð°ÑĤÐµÐ»ÐµÐ¹": 2385,
      "Ð°ÑĤÑĥÑĢ": 2386,
      "ĠÐ°Ð¼ÐµÑĢÐ¸ÐºÐ°Ð½": 2387,
      "ĠÐ²ÑĭÑĢÐ°Ð¶": 2388,
      "Ð¾Ð±ÑĭÑĤ": 2389,
      "ĠÐ¾Ð±ÑĢÐ°Ñī": 2390,
      "ĠÐ±Ð»Ð¸Ð·": 2391,
      "ĠÑĥÐ»Ð¸": 2392,
      "ĠÑĢÐµÐ´": 2393,
      "ĠÑģÐ¿ÑĢÐ¾ÑģÐ¸Ð»": 2394,
      "ĠÐ´ÐµÐ¹ÑģÑĤÐ²Ð¸ÑĤÐµÐ»ÑĮÐ½Ð¾": 2395,
      "ĠÐ´Ð²ÐµÑĢÑĮ": 2396,
      "ĠÐ²Ð¾Ð·Ð´ÑĥÑħ": 2397,
      "ĠÐ¿ÑĢÐµÐ¿": 2398,
      "ĠÑĩÐ»ÐµÐ½": 2399,
      "Ð°Ð»ÑĮÐ½ÑĭÐ¼": 2400,
      "ĠÐĴÐ¾": 2401,
      "ch": 2402,
      "ĠÐ¿ÐµÑĢÐ²ÑĭÐ¹": 2403,
      "Ð¾ÐºÑĢÐ°ÑĤ": 2404,
      "Ð¸ÑĩÐµÑģÐºÐ°Ñı": 2405,
      "ĠÑĤÐµÑĩÐµÐ½Ð¸Ðµ": 2406,
      "ĠÐ²ÑģÑİ": 2407,
      "ĠÐ²Ð¾Ðº": 2408,
      "ĠÑĤÐ¾ÑĩÐ½Ð¾": 2409,
      "ĠÑģÐ¸ÑģÑĤÐµÐ¼Ñĭ": 2410,
      "ĠÐ»ÐµÐ¶": 2411,
      "ĠÑĥÐ²ÐµÐ»Ð¸Ñĩ": 2412,
      "ĠÐ·Ð´Ð¾ÑĢÐ¾Ð²": 2413,
      "ÐµÑĢÑĥ": 2414,
      "ĠÑģÐ»ÐµÐ´ÑĥÐµÑĤ": 2415,
      "ĠÐ¿ÑĢÐµÐºÑĢÐ°Ñģ": 2416,
      "Ð²Ð°Ð½": 2417,
      "Ð¸ÐµÐ¹": 2418,
      "ĠÑįÐ½ÐµÑĢÐ³": 2419,
      "Ð¾ÑģÑĤÑĮÑİ": 2420,
      "ĠÑĤÑĭÑģÑıÑĩ": 2421,
      "ĠÑģÐ¿Ð¾ÐºÐ¾Ð¹": 2422,
      "ĠÐ²Ð½Ð¸Ð¼Ð°Ð½Ð¸Ðµ": 2423,
      "ĠÑĤÑĥ": 2424,
      "ÑĥÑĪÐºÐ°": 2425,
      "ĠÐ´Ð¾Ð»Ð¶Ð½Ð°": 2426,
      "ĠÑĤÑĢÐ°Ð½": 2427,
      "ĠÐ¼ÑĥÐ·Ñĭ": 2428,
      "ĠÐ½ÐµÐ¾Ð±ÑħÐ¾Ð´Ð¸Ð¼Ð¾": 2429,
      "ĠÑĩÐµÑĤÑĭ": 2430,
      "ĠÐºÐ°Ð¶ÐµÑĤÑģÑı": 2431,
      "ĠÑģÑĤÐ°Ð»Ð°": 2432,
      "ĠÑģÐ½": 2433,
      "ĠÐ·Ð½Ð°ÐºÐ¾Ð¼": 2434,
      "ĠÑģÑĤÐ°Ð»Ð¸": 2435,
      "ĠÐ¿Ð¾Ð´ÑĥÐ¼": 2436,
      "ĠÐ±ÑĢÐ¾Ñģ": 2437,
      "ĠÐ¿ÑĥÑģÑĤ": 2438,
      "st": 2439,
      "ĠÐ³Ð°Ð·": 2440,
      "ĠÐ¿ÑĢÐ°Ð²Ð¸Ð»ÑĮ": 2441,
      "ÐµÑİ": 2442,
      "ĠÐ²ÐµÑĤ": 2443,
      "ĠÐ²Ð¾Ð¹Ð½Ñĭ": 2444,
      "ĠÐºÐ°ÑĩÐµÑģÑĤÐ²Ðµ": 2445,
      "ĠÐ½Ð°ÑĢÑĥÑĪ": 2446,
      "ĠÐºÐ¾Ð½ÑĨÐµ": 2447,
      "ĠÐ¿ÑĢÐ¸Ð»": 2448,
      "ĠÐĴÑģ": 2449,
      "ĠÐ´ÑĢÑĥÐ³Ð°": 2450,
      "Ð»ÐµÐ¶": 2451,
      "ĠÐ±Ð»Ð¸": 2452,
      "Ð§ÑĤÐ¾": 2453,
      "ĠÑģÑĤÐ°Ð»Ð¾": 2454,
      "ĠÐºÑĢÑĥÐ¿": 2455,
      "ĠÑģÐ»Ð¾Ð²Ð½Ð¾": 2456,
      "ĠÐºÐ¾Ñģ": 2457,
      "ĠÐºÑĢÐ°Ð¹": 2458,
      "Ð½ÑıÑı": 2459,
      "ĠÐ´ÐµÑĤÐµÐ¹": 2460,
      "ĠÐ½Ð°ÑģÑĤÐ¾ÑıÑī": 2461,
      "ÑģÐºÐ¾Ð»ÑĮÐºÑĥ": 2462,
      "ÑıÐ»Ð¸": 2463,
      "ĠÐ½Ð°Ð¹ÑĤÐ¸": 2464,
      "ĠÑĩÐ¸ÑģÑĤ": 2465,
      "ĠÐ¼Ð°Ñģ": 2466,
      "id": 2467,
      "ĠÐĵÐ°ÑĢÑĢÐ¸": 2468,
      "ÑģÑĭ": 2469,
      "ĠÐŁÐ¾Ð»": 2470,
      "Ð½Ð¸ÐºÐ¾Ð¼": 2471,
      "ĠÐ¿Ð°Ð»": 2472,
      "ĠÐºÑĥÐ¿": 2473,
      "ĠÐļÑĢ": 2474,
      "!!": 2475,
      "Ð»ÐµÐ³": 2476,
      "ad": 2477,
      "ĠÐ¾Ð±Ð½Ð°ÑĢÑĥÐ¶": 2478,
      "ÑĢÑĮ": 2479,
      "ĠÐ¼ÐµÑģÑĤÐµ": 2480,
      "ÑģÑĤÐ²Ð¾Ð²Ð°ÑĤÑĮ": 2481,
      "Ð½Ð¸ÑĨÐ°": 2482,
      "ĠÐºÐ¾Ð³Ð¾": 2483,
      "ĠÐľÐ¾ÑģÐº": 2484,
      "ĠÐ³ÐµÑĢ": 2485,
      "ĠÑĢÑĥÐºÐ¾Ð²Ð¾Ð´": 2486,
      "ĠÑģÐ¸Ð½": 2487,
      "Ð°Ð½Ð½ÑĭÑħ": 2488,
      "Ð¾ÑıÑĤÐµÐ»ÑĮ": 2489,
      "ÐµÐ»ÑĮÐ·Ñı": 2490,
      "ĠÐ¼ÑĭÑģÐ»": 2491,
      "ÐµÑĩÐµÑģÐº": 2492,
      "Ġ0": 2493,
      "ÐĴÑĭ": 2494,
      "ÑĤÐ¾Ð½": 2495,
      "ÑģÑĤÐ²ÐµÐ½Ð½Ð¾Ð¹": 2496,
      "ĠÐ¾ÐºÑĢÑĥÐ¶": 2497,
      "ĠÑĢÐ°Ð·Ð´ÐµÐ»": 2498,
      "ĠÐ¿ÐµÑĢÐ¸Ð¾Ð´": 2499,
      "ÑĢÐ¸ÑĤÐ¾ÑĢ": 2500,
      "ĠÑģÐµÐºÑĥÐ½": 2501,
      "Ð»ÐµÐ¹": 2502,
      "ĠÐ¼ÐµÑĩ": 2503,
      "Ðĸ": 2504,
      "ĠÐ´ÐµÐ»Ðµ": 2505,
      "ĠÑģÐ¾Ð²ÐµÑĢÑĪÐµÐ½Ð½Ð¾": 2506,
      "ĠÐ½Ð°Ð±Ð»ÑİÐ´": 2507,
      "ĠÐ´Ð¾Ð²Ð¾Ð»ÑĮÐ½Ð¾": 2508,
      "un": 2509,
      "ÑĢÑıÐ´": 2510,
      "ĠÑģÐ¿ÑĢÐ°Ð²": 2511,
      "ĠÐ¿Ð¾Ð¹": 2512,
      "ĠÐ¾ÑĤÐºÑĢÑĭÑĤ": 2513,
      "ĠÐ¸Ð·ÑĥÑĩ": 2514,
      "ÐµÐ´Ð¸": 2515,
      "ĠÑĢÐ°Ð·Ð¼": 2516,
      "Ð¾Ð·Ð¼Ð¾Ð¶Ð½Ð¾": 2517,
      "Ġin": 2518,
      "Ð°Ð½ÑĮ": 2519,
      "ĠÑģÐ¿Ð°Ñģ": 2520,
      "Ð¸Ð¼Ð¾ÑģÑĤÐ¸": 2521,
      "ÐµÐ¿ÐµÑĢÑĮ": 2522,
      "Ð¾ÑĩÐºÐ°": 2523,
      "ĠÐ¾Ð´Ð½Ð°ÐºÐ¾": 2524,
      "ĠÑįÐ»ÐµÐ¼": 2525,
      "Ð°Ð»Ð¾Ð²": 2526,
      "ĠÐ¿Ð¾Ð»Ð½Ð¾ÑģÑĤÑĮÑİ": 2527,
      "Ð²ÐµÑĢÑģ": 2528,
      "ÑĢÐ°Ð±Ð¾ÑĤ": 2529,
      "Ð»Ð°ÑĤ": 2530,
      "ĠÐ¿ÑĢÐ¸Ð·Ð½": 2531,
      "ĠÐºÐ½Ð¸Ð³": 2532,
      "ĠÑħÐ¾ÑĤÑĮ": 2533,
      "ÑĢÐµÑģ": 2534,
      "ĠÐ²Ð¾Ð·ÑĢÐ°ÑģÑĤ": 2535,
      "ĠÐ¡Ð¾Ð²": 2536,
      "ĠÐµÐ²": 2537,
      "ĠÐ´ÑĢÑĥÐ·": 2538,
      "ĠÑģÐ¾Ð»": 2539,
      "ĠÐ¼Ð¾ÐµÐ¹": 2540,
      "ĠÐ¿Ð¸ÑģÑĮ": 2541,
      "ĠÐ¼ÑĭÑĪ": 2542,
      "Ð°ÐºÐ°": 2543,
      "ĠÐ²Ð½ÐµÑĪ": 2544,
      "ĠÐ¾ÑģÐ²": 2545,
      "Ð¿Ð¸Ñģ": 2546,
      "ĠV": 2547,
      "Ð¾Ð½Ð´": 2548,
      "ĠÐ´Ð²Ðµ": 2549,
      "Ð¿ÑĢÐ¾ÑģÑĤÑĢÐ°Ð½": 2550,
      "ĠÐ¼Ð¸ÑĢÐµ": 2551,
      "ĠÑĤÐ¾Ð½": 2552,
      "ĠÐ¿Ð¾ÑģÑĤÑĥÐ¿": 2553,
      "ĠÐ¾Ð±Ð¾ÑĢ": 2554,
      "ĠÐ°ÑĢÐ¼": 2555,
      "ĠÑįÑĤÐ¾Ð¼Ñĥ": 2556,
      "ĠÐ¸Ð·Ð´": 2557,
      "ĠÐ¿Ð¾Ð´ÑħÐ¾Ð´": 2558,
      "Ð¾ÑĩÐºÐ¸": 2559,
      "ĠÑĦÐ¸Ð½": 2560,
      "ĠÐ¿ÑĢÐ¾Ð¸ÑģÑħÐ¾Ð´Ð¸ÑĤ": 2561,
      "ĠÐĿÐ°Ð¿": 2562,
      "Ð°ÐºÐ¸": 2563,
      "ĠÑĢÐ°Ð´Ð¸": 2564,
      "ĠÐ¿Ð¾Ð»ÑĮÐ·Ð¾Ð²": 2565,
      "ÑİÐ´Ð°": 2566,
      "ĠÑĩÐµÑĤ": 2567,
      "ĠÑģÐ¸Ð»ÑĮÐ½Ð¾": 2568,
      "ĠÑĢÐ°Ð¹": 2569,
      "ĠÑĤÐµÑĢÑĢÐ¸ÑĤÐ¾ÑĢ": 2570,
      "Ð½Ð°ÑĢÐ¾Ð´": 2571,
      "ĠÐ½Ð°Ð¿ÑĢÑı": 2572,
      "ĠÑĤÐ°ÐºÐ¾Ð³Ð¾": 2573,
      "ĠÑĤÐµÐºÑģÑĤ": 2574,
      "Ð¾Ð¼Ðµ": 2575,
      "ĠÐ¿ÑĢÐ¾Ðº": 2576,
      "ĠÐµÐ´": 2577,
      "ĠÐ¸ÑģÐºÑĥÑģ": 2578,
      "12": 2579,
      "ĠÐ¾Ð±ÑĭÑĩ": 2580,
      "ĠÐ»Ð¸Ð±Ð¾": 2581,
      "ÑĪÐµÐµ": 2582,
      "ĠÐ²Ð½ÑĥÑĤÑĢÐµÐ½": 2583,
      "ĠÐ¾ÑĤÐ²ÐµÑĤÐ¸Ð»": 2584,
      "ĠÐ²Ð¾Ð·Ð¼Ð¾Ð¶Ð½Ð¾": 2585,
      "ĠÐ½Ð¸ÐºÑĤÐ¾": 2586,
      "ĠÐºÐ°Ð½": 2587,
      "ĠÐ¿ÑĢÐ¾ÑĦÐµÑģÑģ": 2588,
      "Ð»Ð¸Ð±Ð¾": 2589,
      "ĠÐ¾Ð±ÑĭÑĩÐ½Ð¾": 2590,
      "ÐºÐ°Ð¼": 2591,
      "ĠÑĨÐµÐ½": 2592,
      "ĠÐ½ÐµÐ½": 2593,
      "ĠÑĢÐµÐ¶": 2594,
      "ÑģÑĤÐ°": 2595,
      "ÑģÑĤÐ²Ð¾Ð²Ð°Ð»": 2596,
      "ĠÐ·Ð°Ð´Ð°Ñĩ": 2597,
      "Ð»Ð°ÑĪ": 2598,
      "Ġ17": 2599,
      "ĠÐ¾ÑģÐ¾Ð±ÐµÐ½Ð½Ð¾": 2600,
      "ĠÐ¸ÑģÐºÐ»ÑİÑĩ": 2601,
      "ÑĨÐ°Ð¼Ð¸": 2602,
      "ĠÐ±ÑĭÑģÑĤÑĢ": 2603,
      "Ð½Ð¾Ð²ÑĮ": 2604,
      "ĠÐĲÐ»ÐµÐºÑģ": 2605,
      "ter": 2606,
      "ĠÐ¸Ñİ": 2607,
      "ĠÐ²ÑĤÐ¾ÑĢÐ¾Ð¹": 2608,
      "ĠÑħÐ²Ð°ÑĤ": 2609,
      "Ð¸ÑĩÐµÑģÐºÐ¾Ðµ": 2610,
      "ÑģÑĤÐ²Ð¸Ðµ": 2611,
      "ÑĤÐµÑĢÐµÑģ": 2612,
      "ĠÑģÐ¾Ð±ÑĭÑĤ": 2613,
      "ĠÐ²ÑħÐ¾Ð´": 2614,
      "ĠÐ¿Ð°Ð¼": 2615,
      "ÐµÑı": 2616,
      "ĠÐ¸ÑĤ": 2617,
      "ĠÐ¿ÐµÑĢÐµÐ¼": 2618,
      "ĠÑĥÐ¶Ð°Ñģ": 2619,
      "ĠÐ±ÐµÐ·Ð¾Ð¿Ð°Ñģ": 2620,
      "Ġ/": 2621,
      "ĠÐºÑĥÐ»ÑĮÑĤ": 2622,
      "ĠÐ¾Ð¿ÑĭÑĤ": 2623,
      "ÐľÑĭ": 2624,
      "Ð½ÑĥÑĤÑĮÑģÑı": 2625,
      "ĠÑĤÐ¾Ð²": 2626,
      "Ð°ÑģÑĤÑĮ": 2627,
      "ĠÐ¾ÑīÑĥÑī": 2628,
      "ÑįÐ¹": 2629,
      "ĠÐºÑĢÐµÐ¿": 2630,
      "ĠÐ²Ð´ÑĢÑĥÐ³": 2631,
      "ĠÐ¿Ð¾Ð²ÑĤÐ¾ÑĢ": 2632,
      "Ð¸Ð²ÑĪÐ¸ÑģÑĮ": 2633,
      "ĠÐ¿ÑĢÐ¾Ð¸Ð·Ð¾ÑĪ": 2634,
      "ÑĤÐ°ÐºÐ¸": 2635,
      "Ð¾Ð²Ð¾Ð³Ð¾": 2636,
      "ĠÑģÑĤÑĢÐ°Ð½Ñĭ": 2637,
      "ÑħÐ¾ÑĤ": 2638,
      "ĠÑĦÐ°Ðº": 2639,
      "ĠÑģÐ²ÑıÐ·Ð¸": 2640,
      "Ð½Ð¾ÑĪ": 2641,
      "ĠÐ¾Ð³": 2642,
      "ĠÑĥÐ·Ð½": 2643,
      "ĠÐ½ÐµÐ¼Ñĥ": 2644,
      "ĠÑģÐ¶": 2645,
      "ĠÑģÐ°Ð¼Ð¾Ð³Ð¾": 2646,
      "ÐµÑĢÑħ": 2647,
      "ĠÐ¼Ð¾Ð·": 2648,
      "ĠÑĥÑĤÑĢ": 2649,
      "ÑĢÐ°ÑĤÑĮ": 2650,
      "ĠÐ¿ÑĢÐ¸ÑĢ": 2651,
      "ĠÑĤÐµÐ»ÐµÑĦ": 2652,
      "ĠÐ¶ÐµÑģÑĤ": 2653,
      "ĠÐºÐ°ÐºÐ¸Ðµ": 2654,
      "ĠÐ¾ÑĤÐ²ÐµÑĩ": 2655,
      "ÑĤÐ¾ÑĢÐ¾Ð²": 2656,
      "ĠÑĢÐ°ÑģÐ¿Ð¾Ð»Ð¾Ð¶": 2657,
      "ĠÐ¾ÑĤÐ½Ð¾ÑĪÐµÐ½Ð¸Ñı": 2658,
      "Ð¸ÑĤÑĭ": 2659,
      "ÐµÐ»Ð¸Ðº": 2660,
      "ĠÑıÐ²Ð»ÑıÑİÑĤÑģÑı": 2661,
      "ĠÐĺÐ¼": 2662,
      "ĠÑĦÐ°ÐºÑĤ": 2663,
      "ÐºÐ¾Ðµ": 2664,
      "ĠÑģÐ¾ÑĢ": 2665,
      "ĠÐ¿ÑĢÐ°Ð²Ð¸ÑĤÐµÐ»ÑĮ": 2666,
      "ĠÐ¼Ð¸Ð»Ð»Ð¸": 2667,
      "ÑģÑıÑĤ": 2668,
      "ĠÐ¼ÐµÑĢÐµ": 2669,
      "ĠÐ½Ð¸Ð¼Ð¸": 2670,
      "ĠÑĢÐ°ÑģÑģ": 2671,
      "ĠÐ²Ð¾Ð·Ð¼Ð¾Ð¶Ð½Ð¾ÑģÑĤÑĮ": 2672,
      "oo": 2673,
      "ĠÐ¾ÑĤÐ¿": 2674,
      "ĠÑģÐ»Ð°Ð±": 2675,
      "ĠÑĥÐ½Ð¸": 2676,
      "ĠÐ¸ÑģÐ¿ÑĭÑĤ": 2677,
      "ĠÐ¾ÑĤÐ¼": 2678,
      "ĠÑĥÑģÑĤÑĢÐ¾Ð¹": 2679,
      "Ð¦": 2680,
      "ĠÐ´Ð²Ð¸Ð³": 2681,
      "ĠÐ²ÑĭÑĪÐµ": 2682,
      "Ð¾Ð¶Ð´ÐµÐ½Ð¸Ñı": 2683,
      "ÑĢÐ°Ð»": 2684,
      "ÑĩÑĤÐ¾": 2685,
      "ĠÐļÐ¾ÑĢ": 2686,
      "ĠÐ»Ð¸ÑĨÐ°": 2687,
      "ĠÑģÐ¾Ð²ÑĢÐµÐ¼": 2688,
      "ĠÑģÑĤÐµÐ¿": 2689,
      "ĠÐ¿ÑĢÐ¾Ð²ÐµÑĢ": 2690,
      "ĠÐ±Ð»Ð°Ð³Ð¾Ð´Ð°ÑĢ": 2691,
      "Ð¡ÑĤ": 2692,
      "ĠÐ¼ÐµÑģÑĤÐ°": 2693,
      "ÑıÑĤÐ½Ð¾": 2694,
      "ĠÑģÑĢÐµÐ´Ð¸": 2695,
      "Ð¾ÑĢÑĭ": 2696,
      "ĠÐ¸Ð½Ð´": 2697,
      "ĠÑģÑĤÑĢÐ°Ñħ": 2698,
      "ÐµÐ½Ð½ÑĥÑİ": 2699,
      "Ð°Ð²Ð»Ð¸Ð²": 2700,
      "ÑģÑĤÐ²Ð¸Ñı": 2701,
      "ĠÑĢÐ°ÑģÑģÐ¼": 2702,
      "ĠÑĢÐ°Ð·Ð³Ð¾Ð²Ð¾ÑĢ": 2703,
      "ĠÐ¸Ð½ÑĤ": 2704,
      "ÑģÑģ": 2705,
      "ĠÑĤÐ°Ð½": 2706,
      "ĠÐ²ÑģÐº": 2707,
      "ĠÐ´Ð¾Ð¿Ð¾Ð»Ð½": 2708,
      "ĠÐ¿ÑĢÐµÑģÑĤ": 2709,
      "ÐµÐ²Ð°": 2710,
      "ĠÐ²Ð¾Ð´Ñĭ": 2711,
      "ĠÐ²Ð¾ÐºÑĢÑĥÐ³": 2712,
      "ĠÐ²Ð½Ð¾Ð²ÑĮ": 2713,
      "Ð¾Ð¿Ð¾Ð»": 2714,
      "Ð¾Ð²Ð°Ð½Ð¸Ðµ": 2715,
      "ĠÐºÐ°Ð±": 2716,
      "ÐµÐ´ÐµÐ½Ð¸Ñı": 2717,
      "ĠÐ·Ð°ÐºÐ¾Ð½Ñĩ": 2718,
      "ĠÑĨÐµÐ»ÑĮ": 2719,
      "Ġl": 2720,
      "ĠÐ·Ð°ÐºÐ¾Ð½": 2721,
      "Ð°ÑĢÑĥ": 2722,
      "Ð¾Ð»Ð¾Ð²": 2723,
      "ĠÐ³Ð¾Ð²Ð¾ÑĢÐ¸ÑĤÑĮ": 2724,
      "ĠÐ¼Ð°Ð»ÑĮ": 2725,
      "ĠÐºÐ¾Ð»Ð¸ÑĩÐµÑģÑĤÐ²Ð¾": 2726,
      "ĠÐ²ÑģÑĤ": 2727,
      "Ð¾ÑģÑĤÐ¾": 2728,
      "ÑĢÐ¾Ð¼Ðµ": 2729,
      "ĠÐ¤ÑĢÐ°Ð½": 2730,
      "Ð¸Ð²Ð°ÑİÑĤ": 2731,
      "ĠÐ¼Ð¾Ð³Ð»Ð°": 2732,
      "ĠÐ¾Ð±Ð»Ð°ÑģÑĤÐ¸": 2733,
      "Ġ194": 2734,
      "Ð¸Ð±Ð¾Ð»ÐµÐµ": 2735,
      "ĠÐ½Ð°ÐºÐ¾Ð½ÐµÑĨ": 2736,
      "ÑģÐºÐ¸": 2737,
      "ĠÑħÐ¾Ð·Ñı": 2738,
      "ĠÐ³Ð¾ÑĢÐ¾Ð´Ð°": 2739,
      "Ð¾ÑĤÐ¾": 2740,
      "ÐµÐ¿ÑĤ": 2741,
      "ĠÐ¾Ð¶Ð¸Ð´": 2742,
      "ĠÐ½ÐµÐºÐ¾ÑĤÐ¾ÑĢÑĭÐµ": 2743,
      "ĠÑģÑĤÑĢÐ¾": 2744,
      "ĠÐ¿ÑĢÐ¸Ð¼ÐµÐ½": 2745,
      "ĠÑģÑĢÐ°Ð²": 2746,
      "ĠÐ±Ð¾Ð»ÐµÐ·": 2747,
      "ĠÑĢÐ°Ð·ÑĢÐ°Ð±Ð¾ÑĤ": 2748,
      "ĠÐ°Ð»ÑĮ": 2749,
      "Ð¸ÑĤÐµÐ»ÑĮÐ½ÑĭÐµ": 2750,
      "ĠÐ¼ÐµÐ»": 2751,
      "ĠÐ´Ð¾ÑģÑĤÑĥÐ¿": 2752,
      "ĠÑģÐ¾Ñĩ": 2753,
      "ĠÐºÑĢÑĥÐ³": 2754,
      "Ġ16": 2755,
      "ĠÐ²ÐµÐ»Ð¸Ðº": 2756,
      "Ð¾ÑĤÑĭ": 2757,
      "ĠÑħÑĥÐ´": 2758,
      "ur": 2759,
      "ĠÑĥÐ´Ð¾Ð²": 2760,
      "ĠÑĤÐµÐ»Ð¾": 2761,
      "Ð°ÑĤÐµÐ»Ð¸": 2762,
      "ÑģÑĤÑĢÐ°": 2763,
      "ĠÐ¾ÐºÐ¾Ð½Ñĩ": 2764,
      "im": 2765,
      "ĠÑĢÐ°ÑģÐ¿ÑĢÐ¾ÑģÑĤÑĢÐ°Ð½": 2766,
      "Ġand": 2767,
      "ĠÑĢÐµÐ²": 2768,
      "Ð¸Ð»Ð»": 2769,
      "15": 2770,
      "Ð°ÐºÐ¾Ð²": 2771,
      "ĠÑĥÑģÐ»ÑĭÑĪ": 2772,
      "ĠÐ´Ð°Ð²Ð½Ð¾": 2773,
      "ĠÐ¾ÑģÑĥÑīÐµÑģÑĤÐ²": 2774,
      "ĠÐŀÑģ": 2775,
      "ĠÐķÐ²ÑĢÐ¾Ð¿": 2776,
      "ĠÐĹÐ°": 2777,
      "ĠÑĢÐµÐ·ÑĥÐ»ÑĮÑĤÐ°ÑĤÐµ": 2778,
      "Ð¿Ð¾Ð»Ð°Ð³": 2779,
      "ĠÐ±ÐµÐ´": 2780,
      "ĠÐĳÐ¾Ð³": 2781,
      "ĠÐ´ÐµÐ¹ÑģÑĤÐ²Ð¸Ñı": 2782,
      "ĠÐ³ÑĢÐ¾Ð¼": 2783,
      "Ð¾Ð»Ð¾Ð³Ð¸Ð¸": 2784,
      "ĠÑĢÐ°Ð±Ð¾ÑĤÑĥ": 2785,
      "ĠÐ¸Ð·Ð¼": 2786,
      "ĠÐ¿Ð¾Ð´Ð¾ÑĪ": 2787,
      "Ġâ": 2788,
      "ĠÑĢÐ°Ð·Ð¼ÐµÑĢ": 2789,
      "Ð¾ÑĢÐ´": 2790,
      "ĠÐ´Ð¾Ð±ÑĢ": 2791,
      "ÐºÑĥÑģ": 2792,
      "ĠÐ¼Ð¾Ð»Ñĩ": 2793,
      "ĠÐŁÐ¾ÑįÑĤÐ¾Ð¼Ñĥ": 2794,
      "ĠÐ¼ÑĭÑģÐ»Ð¸": 2795,
      "Ð¾Ð·Ð´": 2796,
      "ĠÐ½ÐµÐ¶": 2797,
      "ĠÐ´ÐµÐº": 2798,
      "Ð¾Ð±ÑĢÐµÑĤ": 2799,
      "ĠÐ¼Ð¾Ð³Ð»Ð¸": 2800,
      "ĠÐ¿Ð¾Ð¶Ð°Ð»": 2801,
      "ĠÐ·Ð½Ð°ÑĩÐ¸ÑĤ": 2802,
      "ĠÐ¿Ð¾Ð´ÑĤ": 2803,
      "ĠÐ¸ÑģÑĤÐ¾ÑĢÐ¸Ð¸": 2804,
      "ĠÑĢÐ°Ð²Ð½Ð¾": 2805,
      "ĠÐ·Ð»": 2806,
      "ĠÐ¾ÑĤÐ´ÐµÐ»ÑĮ": 2807,
      "Ð½Ð¸ÑĤ": 2808,
      "Ð»ÐµÐ½Ð¸ÐµÐ¼": 2809,
      "ĠÐ·Ð½Ð°Ð»": 2810,
      "ÐĻ": 2811,
      "Ġ30": 2812,
      "ÑĢÐ¾ÑĤÐ¸Ð²": 2813,
      "ĠÐ¿Ð¸ÑĤ": 2814,
      "ĠÐ·Ð°Ð±Ð¾Ð»ÐµÐ²": 2815,
      "ĠÐ»ÑİÐ±Ð¾Ð²": 2816,
      "ĠÐŁÐµÑĤ": 2817,
      "ĠÐ·Ð°Ð¼ÐµÑĩ": 2818,
      "ĠÐ¸ÑģÑĤÐ¾Ñĩ": 2819,
      "ÑģÑĤÐ¾Ñı": 2820,
      "ĠÑĥÑħ": 2821,
      "ĠÐ¿Ð¾ÑĨ": 2822,
      "ÐŀÐ±": 2823,
      "ĠÐ±Ð°Ð·": 2824,
      "Ð¸Ð±Ð¾": 2825,
      "ÑĥÐµÐ¼": 2826,
      "ĠÐ²ÑģÐµÐ¹": 2827,
      "ĠÑĤÐµÐ¾ÑĢ": 2828,
      "ĠÑģÐ¾Ð·Ð½": 2829,
      "Ð°Ð¶Ð´Ð°Ð½": 2830,
      "ÑģÑĤÐ²ÐµÐ½Ð½ÑĭÑħ": 2831,
      "000": 2832,
      "Ð°Ð¹Ð½": 2833,
      "ĠÐ¿ÐµÑĢÐµÑģÑĤ": 2834,
      "ĠÐ»Ð¸ÑĪ": 2835,
      "ĠÐ¼ÐµÑĤÐ¾Ð´": 2836,
      "ĠÑģÐ¿Ð¾ÑĢ": 2837,
      "Ð¸Ð¼ÑģÑı": 2838,
      "ĠÐ½ÐµÐ»ÑĮÐ·Ñı": 2839,
      "ĠÐ½Ð°ÑħÐ¾Ð´Ð¸ÑĤÑģÑı": 2840,
      "ĠÐ´Ð¾Ð»Ð¶Ð½Ð¾": 2841,
      "Ð¸ÑħÑģÑı": 2842,
      "ĠÑģÐµÐ¼ÑĮ": 2843,
      "ÐļÐ¾Ð³Ð´Ð°": 2844,
      "ĠÐ´Ð¾ÐºÑĥÐ¼": 2845,
      "Ð²Ð¸Ð´": 2846,
      "ĠÐ¿ÑĢÐ¸Ð½ÑĨÐ¸Ð¿": 2847,
      "ÑģÐ»Ð¾Ð²": 2848,
      "ÑİÑīÐ¸Ðµ": 2849,
      "Ð¾Ð»Ð¾ÑĤ": 2850,
      "ÐµÑĢÑĤÐ²": 2851,
      "ĠÑĢÑĥÐ±": 2852,
      "ĠÐ½Ð°ÑģÐ»": 2853,
      "ĠÐ¿Ð¾ÑģÐºÐ¾Ð»ÑĮÐºÑĥ": 2854,
      "Ð¸ÑĢÐ°": 2855,
      "ig": 2856,
      "ÑģÐ¾Ð²": 2857,
      "ĠÐ´Ð½ÐµÐ¹": 2858,
      "ĠÑĢÐ°Ð±Ð¾Ñĩ": 2859,
      "Ð¸ÑĢÐ¾Ð²Ð°Ð½Ð¸Ñı": 2860,
      "ĠÐºÐ¸Ð²": 2861,
      "ĠÑģÐµÑĢÑĮÐµÐ·": 2862,
      "ĠÑĤÐ°": 2863,
      "ĠÐ±Ð°Ð½": 2864,
      "Ð½ÑıÐ»Ð°": 2865,
      "ĠÐ¿Ð¾Ð²ÐµÑĢÑħ": 2866,
      "Ð°Ð½Ð½Ð¾Ð¹": 2867,
      "ĠÐ¾Ð´Ð½Ð¸Ð¼": 2868,
      "ĠÐ¿ÑĢÐ¾ÑħÐ¾Ð´": 2869,
      "ĠÐ½Ð¸Ð·": 2870,
      "ĠÐ±Ð¾Ð»ÑĮÑĪÐ¸Ð½": 2871,
      "ĠÐ²Ð»Ð¸Ñı": 2872,
      "Ġto": 2873,
      "ÑĮÑĤÐµ": 2874,
      "Ð»ÑıÐ´": 2875,
      "ĠÐ¾Ð´Ð½Ñĥ": 2876,
      "ĠÐ»ÑİÐ±Ð¸Ð¼": 2877,
      "ĠÐŁÐ°ÑĢ": 2878,
      "ĠO": 2879,
      "ÑĤÐ¾ÑĢÑĭ": 2880,
      "ĠÐ¿ÐµÑģ": 2881,
      "Ð½Ð°ÑĩÐ°Ð»Ð°": 2882,
      "ĠÐ±Ð°ÑĢ": 2883,
      "ĠÐ²Ð·Ð°": 2884,
      "Ð¾Ð±Ð¾Ð¹": 2885,
      "ĠÐ²Ð¾Ð·Ð²ÑĢÐ°Ñī": 2886,
      "ĠÐ¼Ð¾Ð¸": 2887,
      "ĠÐ·Ð°Ñĩ": 2888,
      "ĠÐ´Ð°Ð»ÑĮÑĪÐµ": 2889,
      "ĠÐ¿ÑĢÐµÐ´ÑģÑĤÐ°Ð²Ð»Ñı": 2890,
      "17": 2891,
      "Ð¾Ð²Ð°Ð»": 2892,
      "ĠÐ¼Ð¾Ñı": 2893,
      "Ð¸ÑĤÐµÐ»ÑĮÐ½Ð¾Ð¹": 2894,
      "ĠÐ±ÑĥÐ´Ñĥ": 2895,
      "Ð°ÑİÑīÐµÐ¹": 2896,
      "Ð±Ð»": 2897,
      "ĠÑģÐ¸Ð»Ñĭ": 2898,
      "ĠÐ½ÐµÐº": 2899,
      "ÑģÑĤÐ²ÐµÐ½Ð½ÑĭÐ¹": 2900,
      "ĠÑģÐµÑĤ": 2901,
      "ĠÐ¡Ð°Ð¼": 2902,
      "ĠÐ¿Ð¾Ð½ÑıÑĤÑĮ": 2903,
      "ĠÑĢÐ°Ð·Ð²Ð¸ÑĤÐ¸Ñı": 2904,
      "ĠÐ²Ð¾Ð·Ð´": 2905,
      "13": 2906,
      "Ġn": 2907,
      "ÑĪÐ¸ÑĢ": 2908,
      "ĠÐ½ÐµÑģÐºÐ¾Ð»ÑĮ": 2909,
      "Ð°Ð²Ð°ÑĤÑĮ": 2910,
      "Ð¡Ð¡": 2911,
      "Ð°Ð·ÑĭÐ²Ð°ÐµÑĤ": 2912,
      "Ð»Ð°Ð²Ð°": 2913,
      "ĠÑģÐ²Ð¾Ð¸Ð¼Ð¸": 2914,
      "ĠÑįÐ¿": 2915,
      "ĠÑģÐºÐ°Ð¶": 2916,
      "Ð°Ð´Ð°": 2917,
      "ĠÑģÐ¼ÑĭÑģÐ»": 2918,
      "ĠÐ¾ÑĤÑĤ": 2919,
      "ĠÐ¸Ð·Ð¾Ð±ÑĢÐ°Ð¶": 2920,
      "ÑĥÐºÐ¸": 2921,
      "ĠÑĤÐ¾Ð¹": 2922,
      "ĠÐ¼Ð¸ÑĢÐ¾Ð²": 2923,
      "ĠÐ¿ÑĢÐµÐ·Ð¸Ð´": 2924,
      "ÑģÐºÐ°Ð·": 2925,
      "ĠÐĲÐ²": 2926,
      "ÐŁÑĢÐ¸": 2927,
      "ĠÐ¿Ð°ÑĢÑĥ": 2928,
      "ĠÑĢÐµÐ°Ðº": 2929,
      "ĠÐ³Ð¾Ð»Ð¾Ð²Ð¾Ð¹": 2930,
      "ÑģÑĤÐµ": 2931,
      "ĠÑģÐ°Ð¼Ð°": 2932,
      "Ð»ÑĥÑĪ": 2933,
      "ĠÐ¿ÐµÑĩ": 2934,
      "Ð¸ÑģÐ°": 2935,
      "ĠÐ¸Ð¼Ñı": 2936,
      "Ð½Ð¸Ð¶": 2937,
      "Ð¾Ð»Ð¸": 2938,
      "ĠÐ¿Ð¾Ð²ÑĭÑĪ": 2939,
      "ĠÐ½ÐµÑĳ": 2940,
      "ĠÐ²Ð¾Ð¹ÑģÐº": 2941,
      "ÑĭÐ²Ð°Ð»": 2942,
      "ĠÐ¢Ð¾Ð»ÑĮÐºÐ¾": 2943,
      "ĠÐ½ÐµÐ¸Ð·": 2944,
      "ĠÑģÐ»ÑĥÑĪ": 2945,
      "ĠÐ¿Ð¾Ð»Ð¾Ð²": 2946,
      "ĠÑģÐ¾Ð»Ð½": 2947,
      "Ð»ÐµÐ½Ñĭ": 2948,
      "ĠÐ±ÑĥÐº": 2949,
      "ÐµÑĩÐµÐ½Ð¸Ñı": 2950,
      "ĠÑįÑĦÑĦÐµÐºÑĤÐ¸Ð²": 2951,
      "ĠÐ²ÑģÑĤÑĢÐµÑĤ": 2952,
      "ĠÑģÐ´ÐµÐ»Ð°Ð»": 2953,
      "ĠÐ½ÐµÐ´Ð¾ÑģÑĤ": 2954,
      "ÑıÐ»ÑģÑı": 2955,
      "Ġ14": 2956,
      "ĠÑģÐ¾ÑĤÑĢÑĥÐ´": 2957,
      "ÑĭÑĤÑĮ": 2958,
      "Ð°Ð¼ÐµÐ½": 2959,
      "ĠÐºÐ¾Ð¼Ð¿Ð°Ð½Ð¸Ð¸": 2960,
      "Ð¼Ð¸Ð½": 2961,
      "ĠÐĵÐµÑĢ": 2962,
      "ĠÐºÐ°Ñģ": 2963,
      "ĠÑģÐ»ÑĥÑĩÐ°Ð¹": 2964,
      "ĠÐ¿ÑĢÐµÐ¶Ð´Ðµ": 2965,
      "ĠÐ¿ÑĢÐ¾Ð±Ð»ÐµÐ¼Ñĭ": 2966,
      "Ð°Ð»Ñĭ": 2967,
      "ĠÐ¡Ð²": 2968,
      "Ð¸ÑĤÐµÐ»ÑĮÐ½ÑĭÐ¹": 2969,
      "ÐµÐ²Ð¾Ð¹": 2970,
      "ĠÑģÐ°Ð¼ÑĭÑħ": 2971,
      "ĠÐ¿Ð¾Ð¸ÑģÐº": 2972,
      "ÑĢÐµÐ¼ÐµÐ½Ð½Ð¾": 2973,
      "Ð¸ÑĤÐµÑģÑĮ": 2974,
      "ĠÑģÐ°Ð¼Ð¾Ðµ": 2975,
      "ĠÑģÑĤÑĢÐµÐ¼": 2976,
      "ÑĥÑģÐ°": 2977,
      "Ð¾Ð½ÑĤ": 2978,
      "ÑĮÑİÑĤÐµÑĢ": 2979,
      "Ð¾Ð¶Ð°Ð»": 2980,
      "ÑĢÐ¸Ð¿": 2981,
      "ÑģÑĤÐ²ÐµÐ½Ð½Ð¾Ð³Ð¾": 2982,
      "Ð½Ð¾Ðº": 2983,
      "ÐµÑĢÐµÐ·": 2984,
      "Ð¸ÑĨÐ¸Ð¸": 2985,
      "Ð¿Ð¾Ñĩ": 2986,
      "ÐµÐ½ÑĨÐ¸": 2987,
      "Ð´Ð°ÐµÑĤÑģÑı": 2988,
      "ĠÐ½Ð¾Ð³Ð¸": 2989,
      "Ð´Ð°ÐµÑĤ": 2990,
      "ĠÐ·Ð½Ð°ÐµÑĤ": 2991,
      "ĠÐ²Ð¾Ð²": 2992,
      "ĠÐ»ÐµÐ³ÐºÐ¾": 2993,
      "ĠÑģÐ¼ÐµÑĢÑĤÐ¸": 2994,
      "ĠÑĥÐ¼ÐµÑĢ": 2995,
      "ĠÑĢÑĥÐº": 2996,
      "ĠÐ¾ÑĤÐºÐ°Ð·": 2997,
      "ĠÑģÑĤÑĢÑĥÐº": 2998,
      "ÑĪÐ¸Ð¼": 2999,
      "ÐµÐºÑģ": 3000,
      "ĠÑĤÐ²Ð¾ÑĢ": 3001,
      "ĠÐŁÐ¾ÑĩÐµÐ¼Ñĥ": 3002,
      "Ð½Ð¸ÑĨÑĭ": 3003,
      "ĠÐ¿Ð¾Ð·Ð´": 3004,
      "ÑĢÐ¸Ðº": 3005,
      "ĠÐ²ÐµÑĢÑħ": 3006,
      "Ð¾Ð´Ñĥ": 3007,
      "Ð°Ð¹Ð»": 3008,
      "ĠÐ±Ð¾Ð»ÑĮÑĪÐ¾Ð¹": 3009,
      "ĠÐ½Ð°Ð·Ð½Ð°Ñĩ": 3010,
      "ĠÐ¿Ð¾Ð»ÑĥÑĩÐ¸ÑĤÑĮ": 3011,
      "Ð°Ð½Ð½Ð¾": 3012,
      "ĠU": 3013,
      "ĠÐ²ÑĭÐ´ÐµÐ»": 3014,
      "Ð°Ð»Ð¾Ð³": 3015,
      "ĠÐ´Ð¾ÑģÑĤÐ¸Ð³": 3016,
      "ĠÐ¶ÑĥÑĢ": 3017,
      "ĠÑĩÐ°ÑģÐ¾Ð²": 3018,
      "ec": 3019,
      "ĠÑģÐµÑģÑĤ": 3020,
      "ĠÐ»ÐµÑģ": 3021,
      "Ð°Ð»ÑĮÐ½ÑĥÑİ": 3022,
      "Ð°Ð¼ÐµÑĤ": 3023,
      "Ð½Ð¾Ð³": 3024,
      "ay": 3025,
      "ĠÐ´Ð¸Ð²": 3026,
      "Ð³Ð»Ð¸Ð¹": 3027,
      "ĠÐ³Ð¾Ð²Ð¾ÑĢÐ¸Ð»": 3028,
      "Ð»Ð¾Ð¿": 3029,
      "iv": 3030,
      "ut": 3031,
      "Ð¾ÐºÐ¸": 3032,
      "ĠÐ´Ð¸ÑģÐº": 3033,
      "Ð°ÑĨÐ¸Ð¹": 3034,
      "ÐĺÐ·": 3035,
      "ĠÐ±Ð¾ÑĢÑĮ": 3036,
      "ĠÐ²Ð¾Ð»Ð¾ÑģÑĭ": 3037,
      "Ð¾Ð¶Ð¸Ð´": 3038,
      ",-": 3039,
      "ÐµÐ½Ð½ÑĭÐ¼Ð¸": 3040,
      "ĠÐ±ÑĥÐ´ÑĥÑī": 3041,
      "ĠÐ¿ÑĢÐ¸Ð²Ð¾Ð´": 3042,
      "ÑĭÐ²Ð°ÑİÑĤ": 3043,
      "ĠÐ¼Ð½Ð¾Ð³Ð¸Ðµ": 3044,
      "ĠÐ¾ÑĨÐµÐ½": 3045,
      "Ð»ÐµÐ½Ð°": 3046,
      "ĠÐĲÐ»": 3047,
      "Ð¾ÑĢÑĥÐ¶": 3048,
      "ĠÑģÑĤÐ°Ð²": 3049,
      "ÐµÐ½Ð¸ÑıÐ¼Ð¸": 3050,
      "ĠÑĨÐ°ÑĢ": 3051,
      "ĠÐ½ÐµÑĢÐ²": 3052,
      "ĠÑĢÐ¾ÑģÑĤ": 3053,
      "ĠÐ¼Ð½Ð¾Ð¶Ðµ": 3054,
      "ĠÐĴÐ°Ñģ": 3055,
      "ÐµÐ¹Ð½": 3056,
      "ĠÑĤÐµÐ»Ð°": 3057,
      "Ð¸ÑĩÐµÑģÐºÐ¸Ð¼": 3058,
      "Ð°ÐºÑģÐ¸Ð¼": 3059,
      "Ð½ÑĥÐ²ÑĪÐ¸ÑģÑĮ": 3060,
      "ĠÐ¢Ð¾Ð¼": 3061,
      "ĠÐ´Ð°Ð½Ð½ÑĭÑħ": 3062,
      "ĠÐ²ÑĢÐ°Ñĩ": 3063,
      "ĠÐ¿Ð¾Ð´Ð³Ð¾ÑĤÐ¾Ð²": 3064,
      "Ð²Ð¾Ð·": 3065,
      "ĠÑĤÑĢÐ°Ð²": 3066,
      "ĠÐºÐ¾ÑĤÐ¾ÑĢÑĭÐ¼": 3067,
      "ĠÑĢÐµÑĪÐ¸Ð»": 3068,
      "ĠÐ½Ð¾Ð¼": 3069,
      "ĠÐ´ÑĥÐ¼Ð°Ñİ": 3070,
      "ĠÑĢÐ¾Ð»ÑĮ": 3071,
      "ĠÐ¾Ð±Ð»Ð°Ð´": 3072,
      "ĠÐ²Ð½ÑĥÑĤÑĢÐ¸": 3073,
      "ÑĢÐ¸ÑıÑĤ": 3074,
      "ÑĥÑı": 3075,
      "ĠÐ¿ÑĢÐ¸Ð³": 3076,
      "ĠÐ¸ÑģÑĩ": 3077,
      ".)": 3078,
      "ĠÐ¿Ð°Ð´": 3079,
      "ĠÑģÐ¾Ð¼": 3080,
      "ĠÑĤÐ¾Ð±Ð¾Ð¹": 3081,
      "ĠÐ²Ð¸Ð´ÐµÐ»": 3082,
      "ĠÐ¾ÑĢÑĥÐ¶": 3083,
      "ĠÐºÑĢÐ¾Ð¼Ðµ": 3084,
      "ÐµÐ³Ð¸": 3085,
      "ĠÐ³ÑĢÑĥÐ¿Ð¿Ñĭ": 3086,
      "ĠÐ¾ÑĤÐ´ÐµÐ»": 3087,
      "ĠÐ¾Ð³ÑĢÐ°Ð½Ð¸Ñĩ": 3088,
      "ĠÐ±Ð¾Ñı": 3089,
      "__": 3090,
      "16": 3091,
      "ĠÐ¿ÑıÑĤÑĮ": 3092,
      "Ġ13": 3093,
      "ag": 3094,
      "Ð°Ð·Ð´": 3095,
      "Ð±Ð¾Ð»": 3096,
      "ĠÐ¿Ð°Ð¿": 3097,
      "ÑĥÑģÑĤÑĮ": 3098,
      "ĠÐ¿Ð¾Ð´Ñĩ": 3099,
      "ĠÐŁÐµÑĢÐ²": 3100,
      "ĠÐ¸Ð¼Ð¿ÐµÑĢ": 3101,
      "ÑĭÐ²Ð°ÐµÑĤÑģÑı": 3102,
      "ĠÑģÐ¸Ð³": 3103,
      "Ð¸ÑĤÐµÑĤ": 3104,
      "ĠÑĢÐ¸ÑģÐº": 3105,
      "Ð»Ð¸Ð²Ð¾": 3106,
      "ĠÑĢÐ°Ð½ÑĮ": 3107,
      "ĠÑįÐ¼Ð¾": 3108,
      "ÐµÐ²Ð¸Ð´": 3109,
      "ĠÐ²Ð»Ð°Ð´": 3110,
      "ÑĨÐµÐ¼": 3111,
      "ĠÐ½Ð°ÑĪÐµÐ¹": 3112,
      "ĠÑĥÐ´Ð°Ð»": 3113,
      "ĠÐ¼ÐµÐ´Ð»ÐµÐ½Ð½Ð¾": 3114,
      "ĠÐ¼Ð³": 3115,
      "Ð²ÐµÑĢÐ¶Ð´": 3116,
      "ĠÐ²Ð·Ð³Ð»Ñı": 3117,
      "ĠÐ¿ÑĢÐµÐ´Ð¾ÑģÑĤÐ°Ð²": 3118,
      "ĠÐ¼ÐµÑĢ": 3119,
      "ĠÐĵÐ¾Ñģ": 3120,
      "ĠÐ¿Ð¾ÑħÐ¾Ð¶": 3121,
      "ĠÐ¼ÑıÐ³": 3122,
      "ĠÑģÐ²Ð¸Ð´": 3123,
      "ÐĶÐ°": 3124,
      "Ð²ÐµÑĢÐ´": 3125,
      "ÐĶÐ»Ñı": 3126,
      "em": 3127,
      "ĠÐ¸Ð¼ÐµÑİÑĤ": 3128,
      "Ð»Ð°Ð¶": 3129,
      "ĠÐ²ÑĭÐ¿Ð¾Ð»Ð½": 3130,
      "Î¿": 3131,
      "ĠÑĢÐ°Ð½ÑĮÑĪÐµ": 3132,
      "Ð¸ÑĤÐµÐ»ÑĮÐ½ÑĭÑħ": 3133,
      "ÐµÐ»Ðµ": 3134,
      "ÑģÐ¾Ð»": 3135,
      "ĠÐ³ÑĢÐ°Ð¶Ð´Ð°Ð½": 3136,
      "ĠÑģÐµÑĢÐ´ÑĨÐµ": 3137,
      "ĠÐ²Ð·Ð´Ð¾Ñħ": 3138,
      "ĠÐ½Ð°ÑĨÐ¸Ð¾Ð½": 3139,
      "ÐµÐ¼Ð°": 3140,
      "ĠÑģÐ²Ð¾ÐµÐ¼": 3141,
      "ĠÐ³Ð¾Ð»Ð¾Ð²Ðµ": 3142,
      "ir": 3143,
      "ĠÐºÐ¾ÑĢÐ¾ÑĤ": 3144,
      "Ð²Ð¸Ð³": 3145,
      "Ð²Ð¸Ð¶": 3146,
      "ĠÐ½Ð°ÑģÐµÐ»": 3147,
      "ĠÐ¿ÑĢÐµÐ´Ð»Ð°Ð³": 3148,
      "ĠÐºÑĢÐ¾Ð²Ð¸": 3149,
      "ĠÑĢÑĥÐºÐ¾Ð¹": 3150,
      "ÑĤÐ¾Ð¶": 3151,
      "ĠÑĦÑĢÐ°Ð½": 3152,
      "ĠÐ½Ð°Ð²ÐµÑĢ": 3153,
      "ĠÐĳÑĢ": 3154,
      "Ð¾ÑĢÐ¾Ð½": 3155,
      "ĠÐļÐ¾Ð¼": 3156,
      "ÐºÐ¸Ð¼Ð¸": 3157,
      "ĠÑĥÐ¿ÑĢ": 3158,
      "ĠÐ¿Ð¾Ð¼Ð¾ÑĩÑĮ": 3159,
      "ĠÑĦÐ¸Ð³": 3160,
      "ĠÐºÐ¾Ð¼Ð¿ÑĮÑİÑĤÐµÑĢ": 3161,
      "ĠÐ£Ðº": 3162,
      "ĠÑģÐ°Ð¼Ð¾": 3163,
      "ĠÐ²Ðµ": 3164,
      "ĠÐ¸Ð½Ð¾Ð³Ð´Ð°": 3165,
      "ĠÐ¿ÐµÑĢÐµÐ¿": 3166,
      "Ð°ÑİÑīÐµÐ³Ð¾": 3167,
      "ĠÑģÐ°Ð¼Ð¾Ð¹": 3168,
      "ĠÑĦÐ¾ÑĤ": 3169,
      "ĠÑĥÐ½Ð¸Ð²ÐµÑĢÑģ": 3170,
      "ĠÐºÐ¾ÑģÑĤ": 3171,
      "ĠÐºÑĢÐ°ÑģÐ¸Ð²": 3172,
      "ĠÑĥÐºÑĢ": 3173,
      "ĠÑģÑģ": 3174,
      "ĠÐ²Ð½": 3175,
      "ĠÐ¾Ð¿ÑıÑĤÑĮ": 3176,
      "ĠÐ°Ð²ÑĤÐ¾ÑĢ": 3177,
      "ÑĩÐ¸": 3178,
      "ĠÐ°ÑĢÑħ": 3179,
      "ĠÐ¥Ð¾ÑĤÑı": 3180,
      "ĠÐ´Ð»Ð¸Ð½": 3181,
      "ĠÐ±Ð°Ð»": 3182,
      "ĠÐ¿Ð¾Ð½ÑıÐ»": 3183,
      "Ð½ÑİÑİ": 3184,
      "ĠÐ¿Ð°ÑĤ": 3185,
      "ĠÐ¿ÑĢÐ°Ð²Ð°": 3186,
      "ĠÑģÐ¾Ðº": 3187,
      "ĠÐ¼Ð°Ð»Ð¾": 3188,
      "ĠÐ¿ÑĥÑĤÐ¸": 3189,
      "ĠÐ¿Ð¾Ð»ÐµÐ·": 3190,
      "ĠÑģÐ°Ð¼ÑĭÐ¹": 3191,
      "ĠÐ½Ð°ÑĢ": 3192,
      "ĠÐ¿Ð¾Ð»Ñĥ": 3193,
      "Ð°Ð´ÑĨÐ°ÑĤÑĮ": 3194,
      "ĠÐ´Ð¾Ð¼Ð¾Ð¹": 3195,
      "14": 3196,
      "ĠÐ³Ð¾ÑģÐ¿": 3197,
      "ĠÐŁÑĢÐ°Ð²": 3198,
      "Ð»ÐµÐ½Ð½ÑĭÐµ": 3199,
      "ĠÐ¼Ð½Ð¾Ð³Ð¸Ñħ": 3200,
      "ÑģÐºÐ¾ÑĢ": 3201,
      "Ð»Ð°ÑģÑĤÑĮ": 3202,
      "ĠÑĢÐ°Ð·ÑĥÐ¼": 3203,
      "ĠÐ¿Ð°ÑĢÐ½Ñı": 3204,
      "ĠÐĽÑĥ": 3205,
      "ĠÑģÐºÐ¾Ð»ÑĮÐºÐ¾": 3206,
      "Ð°Ð½Ñĥ": 3207,
      "ĠÑĤÑĥÑĢ": 3208,
      "ÑĪÐ°Ñı": 3209,
      "ĠÐ½Ð°Ð¸Ð±Ð¾Ð»ÐµÐµ": 3210,
      "ĠÑģÐ»Ð¾Ð²Ð¾": 3211,
      "ĠÐ¼ÐµÐ½ÑĮÑĪÐµ": 3212,
      "Ð°ÑĪÐ°": 3213,
      "ĠÑħÐ¾ÑĩÐµÑĤ": 3214,
      "ĠÐ¼ÐµÑħ": 3215,
      "Ð±Ð¾ÑĢ": 3216,
      "ĠÑģÐ°Ð¼ÑĭÐ¼": 3217,
      "ĠÐ²Ð»Ð°ÑģÑĤÐ¸": 3218,
      "ĠÐ³Ð»Ð°Ð·Ð°Ð¼Ð¸": 3219,
      "Ð²ÑĭÐµ": 3220,
      "ĠÐ´Ð¾Ð³Ð¾Ð²Ð¾ÑĢ": 3221,
      "ĠÑģÐ¾ÐµÐ´Ð¸Ð½": 3222,
      "Ð¸Ð¹ÑģÑı": 3223,
      "ÑĭÐ¿": 3224,
      "ĠÐ¾ÑĤÑģÑĥÑĤÑģÑĤÐ²": 3225,
      "ÑĥÑĢÐ³": 3226,
      "ĠÐ¿ÐµÑĢÑģÐ¾Ð½": 3227,
      "ÐŁÐ¾ÑģÐ»Ðµ": 3228,
      "ĠÐ³ÑĢÐ°Ð½Ð¸": 3229,
      "ĠÐºÐ¾Ð¼Ð½Ð°ÑĤÑĥ": 3230,
      "ĠÐ²ÑģÐ¿Ð¾Ð¼": 3231,
      "ĠÐ¿ÐµÑĢÐµÑģ": 3232,
      "ĠÐ²Ð·Ð°Ð¸Ð¼": 3233,
      "ĠÐ¢ÐµÐ¿ÐµÑĢÑĮ": 3234,
      "Ð¾ÑĤÑĢÐµÐ±": 3235,
      "Ð°Ð´Ð»ÐµÐ¶": 3236,
      "ĠÐ·Ð°Ð¿Ð¸Ñģ": 3237,
      "ĠÐ¿Ð¸Ñī": 3238,
      "ÑĢÐµÑģÑģ": 3239,
      "ĠÐ²Ð½Ð¸Ð·": 3240,
      "ĠÑĤÐ°ÐºÐ°Ñı": 3241,
      "ĠÐ¿ÑĢÐ¾ÐµÐº": 3242,
      "Ð°Ð²Ð¸Ñģ": 3243,
      "Ð¸Ð½Ð°Ð¼": 3244,
      "Ð¾Ð²ÑĭÐ¹": 3245,
      "ĠÑĤÐ°Ð±": 3246,
      "ĠÑģÑĤÑĢÐ°ÑĪ": 3247,
      "Ð°Ð²Ð½Ð¾": 3248,
      "ĠÐ¼Ð¸": 3249,
      "ĠÑģÑĬ": 3250,
      "ĠÐ·Ð°Ð´ÑĥÐ¼": 3251,
      "ĠÐ³Ð¾Ð´Ñĭ": 3252,
      "Ð¾ÐºÑģ": 3253,
      "ÐŀÐ´": 3254,
      "Ð¸Ð¼Ð¾ÑģÑĤÑĮ": 3255,
      "ĠÐĵÐµÑĢÐ¼": 3256,
      "ĠÐ¾Ð±ÑĥÑĩ": 3257,
      "ĠÐ²Ð¾Ð¿ÑĢÐ¾ÑģÑĭ": 3258,
      "Ð°Ð»ÑĮÐ½Ð¾Ð¼": 3259,
      "Ð¼Ð°ÑĤ": 3260,
      "ÐºÐ°Ð½": 3261,
      "ĠÐ¡Ð¾": 3262,
      "ĠÐ¾ÑĩÐµÑĢÐµÐ´": 3263,
      "ĠÑĢÐµÐ·ÐºÐ¾": 3264,
      "Ð¼Ð¸Ð½Ð¸": 3265,
      "ĠÐ»Ð¾Ð¶": 3266,
      "Ð¸ÑĤÐµÐ»ÑĮÐ½Ð¾Ð³Ð¾": 3267,
      "Ð´ÐµÐ½": 3268,
      "ĠÐ¸Ð½ÑĦ": 3269,
      "ĠÐ±Ð¾ÐµÐ²": 3270,
      "Ð¸Ð²Ð°ÑĤÑĮÑģÑı": 3271,
      "ĠÑģÑĤÐ°Ð½Ð¾Ð²Ð¸ÑĤÑģÑı": 3272,
      "ĠÐ½Ñĥ": 3273,
      "ÑĤÑĥÑĢ": 3274,
      "Ð¾Ð·Ð²": 3275,
      "ĠÐºÐ¾Ð¼Ð°Ð½": 3276,
      "Ð½Ð¸ÑĨ": 3277,
      "ÑĥÐ¹ÑĤÐµ": 3278,
      "ĠÐ±ÑĥÐ¼": 3279,
      "ÐŁÐ¾Ð´": 3280,
      "ĠÑĢÐ°Ð·ÑĢÐµÑĪ": 3281,
      "ĠÐ¸Ð¼ÐµÑĤÑĮ": 3282,
      "ĠÐ¸Ð½ÑĦÐ¾ÑĢÐ¼Ð°ÑĨÐ¸Ð¸": 3283,
      "ĠÐ¼Ð¾Ñī": 3284,
      "ĠÐ²ÐµÑĢÐ¾ÑıÑĤ": 3285,
      "ÐµÐ½Ð½Ð¾ÑģÑĤÑĮ": 3286,
      "ĠÐºÐ¾Ð¿": 3287,
      "Ð¸Ð¶Ñĥ": 3288,
      "ĠÐ¾Ð·Ð½Ð°Ñĩ": 3289,
      "Ð¾Ð¼ÐµÐ½": 3290,
      "Ð¿Ð¾Ð»Ð½Ðµ": 3291,
      "ĠÑĢÐ°ÑģÑģÐ¼Ð°ÑĤÑĢ": 3292,
      "ĠÐ¿Ð¾ÑģÑĤÑĢÐ¾": 3293,
      "ĠÐ±ÑĭÐ²": 3294,
      "ĠÐ·Ð½Ð°ÑĤÑĮ": 3295,
      "ĠÐºÐ»ÑİÑĩ": 3296,
      "Ð»ÐµÐ½Ð¸Ð¹": 3297,
      "ĠÐĴÐµÐ»Ð¸Ðº": 3298,
      "Ð±Ðµ": 3299,
      "ĠÐ¼ÑĥÐ¶ÑĩÐ¸Ð½Ð°": 3300,
      "Ð°Ð½Ð°Ð²Ð»Ð¸Ð²": 3301,
      "ation": 3302,
      "ĠÑĤÐ¸ÑħÐ¾": 3303,
      "Ð»ÑıÐµÑĤÑģÑı": 3304,
      "ĠÐĹÐ°Ð¿": 3305,
      "ÐŀÐ½Ð°": 3306,
      "ÑĨÑĥÐ·": 3307,
      "ĠÐ¸ÑģÑģÐ»ÐµÐ´Ð¾Ð²Ð°Ð½Ð¸Ñı": 3308,
      "ĠÑĤÐµÑħÐ½": 3309,
      "Ð°ÑĢÐº": 3310,
      "ĠÑĤÐµÐ¼Ð¿ÐµÑĢ": 3311,
      "ĠÑģÐ´": 3312,
      "ÑĢÐ¸Ð¸": 3313,
      "ĠÐĿÐ°Ð´": 3314,
      "ĠÐ¿Ð¾ÑĩÑĥÐ²": 3315,
      "ĠÐ±Ð»Ð°Ð³Ð¾": 3316,
      "Ð°ÑĤÐµÐ¼": 3317,
      "ĠÑģÐ¼ÐµÑĪ": 3318,
      "ĠÐ¿Ð¾ÐºÑĥÐ¿": 3319,
      "ĠÐºÐ»ÐµÑĤ": 3320,
      "Ð»ÑıÑı": 3321,
      "11": 3322,
      "ÑĩÐµÑĤ": 3323,
      "ÑĪÑĤ": 3324,
      "ĠÐ¿ÑĢÐ¾ÑģÑĤÑĢÐ°Ð½": 3325,
      "ÑģÑĤÐ²ÐµÐ½Ð½ÑĭÐµ": 3326,
      "ÑĳÑĤÑģÑı": 3327,
      "ĠÐ½Ð°Ð¿ÑĢÑıÐ¶": 3328,
      "ĠÑģÑĤÐ°ÑĤ": 3329,
      "ĠÐ¿Ð¾ÑģÑĤÐ¾ÑıÐ½Ð½Ð¾": 3330,
      "ĠÐľÐ¾Ð¶ÐµÑĤ": 3331,
      "ĠÐ¿Ð¾Ð¼Ð¾ÑīÐ¸": 3332,
      "Ð°ÑĤÐ¾ÑĢ": 3333,
      "ÐĺÐ½": 3334,
      "ĠÐºÐ¾ÑĢÐ°Ð±": 3335,
      "ĠÑĥÐ»ÑĭÐ±Ð½ÑĥÐ»ÑģÑı": 3336,
      "ĠÐ²ÑĢÐµÐ¼ÐµÐ½": 3337,
      "ĠÐ¿Ð»Ð°ÑĤ": 3338,
      "ht": 3339,
      "ĠÐ¿ÑĢÐ¸Ð½Ð°Ð´Ð»ÐµÐ¶": 3340,
      "ĠÑĤÐµÑģÑĤ": 3341,
      "ĠÑĢÑĥÐºÐ°Ñħ": 3342,
      "ĠÐ²ÑĭÐ²Ð¾Ð´": 3343,
      "ĠÐ·ÑĥÐ±": 3344,
      "ĠÐĲÐ»ÐµÐºÑģÐ°Ð½Ð´": 3345,
      "Ð°Ð½Ð³": 3346,
      "ĠÐ¿ÑĢÐµÑģÑĤÑĥÐ¿": 3347,
      "ÐµÐ½Ð¸ÑĢÐ¾Ð²": 3348,
      "ĠÐ¿ÑĢÐ°Ð²Ð´Ð°": 3349,
      "ĠÐ¿ÑĢÐ¾Ð¸ÑģÑħÐ¾Ð´": 3350,
      "ĠÐ²Ð¾ÑģÑĤ": 3351,
      "ÑĭÐ»Ð°": 3352,
      "ĠÑģÑĤÑĢÐ°Ð½Ð¸": 3353,
      "Ð¾Ð¹ÑĤÐ¸": 3354,
      "Ð¸Ð²Ð°Ð½Ð¸Ñı": 3355,
      "ĠÐºÐ¸Ñģ": 3356,
      "ĠÐ¿ÐµÑĢÐµÐº": 3357,
      "ĠÐ¿ÑĢÐ¸Ð»Ð¾Ð¶": 3358,
      "ĠÐ¿Ð¸ÑĪ": 3359,
      "ÑĢÑĥÑĤ": 3360,
      "ĠÐ´ÐµÐ½": 3361,
      "os": 3362,
      "ĠÐ¿ÐµÑĢÐ²Ð¾Ð¹": 3363,
      "ĠÐ´ÑĢÐµÐ²": 3364,
      "ĠÐ¿ÐµÑĢÐµÐ¶": 3365,
      "ÐºÑĥÑİ": 3366,
      "Ð³Ð¾ÑĢ": 3367,
      "ĠÑĩÐ¸ÑģÐ»Ðµ": 3368,
      "Ġ25": 3369,
      "ĠÐ¿Ð¾Ð´Ð½ÑıÐ»": 3370,
      "ÑĢÐµÐ¶Ð´": 3371,
      "Ð¾Ð»Ð°": 3372,
      "Ġ198": 3373,
      "Ð»ÐµÐ½Ð¸Ñİ": 3374,
      "ÐµÐ¶Ð°ÑĤÑĮ": 3375,
      "ĠÐ¿Ð¾Ð´Ð½Ð¸Ð¼": 3376,
      "Ð¿Ð¸Ð¾Ð½": 3377,
      "ĠÑģÑĥÐ±": 3378,
      "ĠÐ³Ð¾ÑģÑĤ": 3379,
      "ĠÐ¾Ð´Ð½Ð¾Ð¼": 3380,
      "ĠÑĤÐ¾ÑĢÐ³Ð¾Ð²": 3381,
      "ĠÐ¢Ð¾Ð³Ð´Ð°": 3382,
      "ĠÑĥÐ³ÑĢ": 3383,
      "ĠÐ°Ð½Ð°Ð»Ð¸Ð·": 3384,
      "ĠÐ¾ÑĤÐ¼ÐµÑĤ": 3385,
      "ĠÐ¿ÑĢÐ°ÐºÑĤÐ¸ÑĩÐµÑģÐºÐ¸": 3386,
      "ĠÑĦÑĥÑĤ": 3387,
      "ĠÐ¾ÑĩÐµÑĢ": 3388,
      "ĠÐ¼ÐµÐ¶Ð´ÑĥÐ½Ð°ÑĢÐ¾Ð´": 3389,
      "ĠÐĹÐ´": 3390,
      "ĠÐ°Ð½Ð³Ð»Ð¸Ð¹": 3391,
      "Ð¸ÑĩÐµÑģÐºÑĥÑİ": 3392,
      "ÑģÐºÐ¾Ð¼Ñĥ": 3393,
      "ĠÐ³Ð¾ÑĢÑı": 3394,
      "ĠÐ²ÑĭÐ±Ð¾ÑĢ": 3395,
      "ÐµÐ½Ð¸ÑıÑħ": 3396,
      "ÑĨÐ¾Ð²": 3397,
      "ĠÑĩÐµÐ»Ð¾Ð²ÐµÑĩÐµÑģÐº": 3398,
      "Ð´ÐµÑĢ": 3399,
      "Ġth": 3400,
      "ĠÐ¿Ð¾ÑģÐ»ÐµÐ´Ð¾Ð²": 3401,
      "Ð¾ÑģÑģÐ¸Ð¹": 3402,
      "ĠÐ²Ð°ÑĢÐ¸Ð°Ð½ÑĤ": 3403,
      "ĠÑģÑĩÐµÑĤ": 3404,
      "Ð½Ð¸ÑĩÑĤÐ¾Ð¶": 3405,
      "ĠÐºÐ¾ÑĪ": 3406,
      "ĠJ": 3407,
      "Ð¸ÑĩÐ½Ð¾": 3408,
      "ĠÐ´ÐµÑģÑıÑĤ": 3409,
      "ĠÑĥÑħÐ¾Ð´": 3410,
      "ĠÑĢÐµÑĪÐµÐ½Ð¸Ðµ": 3411,
      "Ð±Ð¸": 3412,
      "Ð¾ÑĢÐ¾ÑĪÐ¾": 3413,
      "Ð¸Ð»Ñı": 3414,
      "ĠÑĥÑģÐ¸Ð»Ð¸": 3415,
      "ĠÑĨÐµÐ½ÑĤÑĢ": 3416,
      "ĠÐ²ÐµÑīÐ¸": 3417,
      "Ð°ÑĢÑĭ": 3418,
      "Ð¸ÐºÐ¾Ð¼": 3419,
      "ĠÐ²ÐµÐºÐ°": 3420,
      "ĠÐ¸ÑģÑĩÐµÐ·": 3421,
      "um": 3422,
      "ĠÐ³ÑĥÐ±Ñĭ": 3423,
      "ĠÑģÑĤÑĥÐ´": 3424,
      "ĠÐŃÑĤÐ¾ÑĤ": 3425,
      "ÑĩÐ°ÑģÑĤ": 3426,
      "Ð°ÑģÑĤÐ²": 3427,
      "ÑĢÐ°Ð±": 3428,
      "ĠÐ¾Ð²": 3429,
      "ĠÑĤÑıÐ¶ÐµÐ»": 3430,
      "ĠÐ²Ð·Ð³Ð»ÑıÐ´Ð¾Ð¼": 3431,
      "].": 3432,
      "ĠÑħÐ¾ÑĤÐµÐ»Ð¾ÑģÑĮ": 3433,
      "ĠÑĢÐ°Ð·Ð»Ð¸ÑĩÐ½ÑĭÑħ": 3434,
      "ĠÐ½ÐµÑģÐºÐ¾Ð»ÑĮÐºÐ¸Ñħ": 3435,
      "Ð¾ÑĩÐºÑĥ": 3436,
      "ĠÐ°Ð²ÑĤÐ¾Ð¼Ð¾Ð±": 3437,
      "ĠÐ¿ÑĢÐ°Ð²Ð¾": 3438,
      "ĠÑģÐ¿ÑĥÑģÑĤ": 3439,
      "ĠÑģÐ¸Ð¼Ð¿": 3440,
      "ĠÐ³Ð°ÑĢ": 3441,
      "ÑģÐ¾Ð»ÑİÑĤ": 3442,
      "ÑĩÐ¸Ñģ": 3443,
      "ul": 3444,
      "ĠÑĢÐ¸Ñģ": 3445,
      "ÑĦÐµÑĢ": 3446,
      "Ð¸Ð·Ð½ÐµÑģ": 3447,
      "Ð»ÐµÐ½Ð½ÑĭÑħ": 3448,
      "ĠÑĤÑĢÐµÑħ": 3449,
      "ÐµÐ½Ð½Ð¾Ð¼": 3450,
      "Ð¸ÑĤÐµÐ»ÑĮÐ½Ð¾Ðµ": 3451,
      "ĠÐ½ÐµÐºÐ¾ÑĤÐ¾ÑĢÑĭÑħ": 3452,
      "ĠÐ²ÐµÑīÐµ": 3453,
      "ĠÐ¿Ð¾Ð¼ÐµÑī": 3454,
      "ĠÐ±ÐµÐ³": 3455,
      "ĠÐ¶Ð¸ÑĤÑĮ": 3456,
      "ĠÐ´ÐµÐ²ÑĥÑĪÐºÐ¸": 3457,
      "Ġg": 3458,
      "ĠÐĲÐ»Ð¸": 3459,
      "Ð¾Ð»Ð¾Ñģ": 3460,
      "ĠÑıÑģ": 3461,
      "ĠÑģÐºÐ¾ÑĢÐµÐµ": 3462,
      "Ð¸Ð·Ð¼": 3463,
      "ĠÐ´ÐµÐ»Ð°": 3464,
      "ĠÐ¸ÑģÐ¿Ð¾Ð»Ð½": 3465,
      "ĠÐ¿Ð»Ð¾Ñī": 3466,
      "ĠÐ¶Ð°Ð»": 3467,
      "ĠÐļÑĢÐ¾Ð¼Ðµ": 3468,
      "ĠÑĢÐ¾Ð¼": 3469,
      "ÐºÑĢÐµÑĤ": 3470,
      "Ð¸Ð½ÑĤÐµÑĢÐµÑģ": 3471,
      "ĠÐ¿ÑĢÐ¾Ð²ÐµÐ´": 3472,
      "ÑģÐ»Ð°Ð±": 3473,
      "Ð²Ð°ÑĤÑĮ": 3474,
      "ÑĥÑİÑīÐ¸Ñħ": 3475,
      "ĠÐ¢ÐµÐ¼": 3476,
      "ĠÐ½ÐµÐ¿ÑĢ": 3477,
      "ĠÑĥÐ´Ð°Ð»Ð¾ÑģÑĮ": 3478,
      "Ð¸Ð»Ð¾Ñģ": 3479,
      "ĠÐĲÐ»ÑĮ": 3480,
      "ĠÐ½Ð°Ð½": 3481,
      "ĠÑĢÑĥÐºÐ°Ð¼Ð¸": 3482,
      "ĠÑĤÐµÐ»ÐµÑĦÐ¾Ð½": 3483,
      "ĠÑģÐ¾Ð±ÑĢ": 3484,
      "ÑĤÐ¾Ð±": 3485,
      "ĠÐ¿Ð°Ð¼ÑıÑĤ": 3486,
      "ÑģÐºÐ¸Ð¼Ð¸": 3487,
      "ĠÐ¿Ð¾ÑıÐ²Ð»Ñı": 3488,
      "ĠÐ´Ð²ÐµÑĢÐ¸": 3489,
      "Ð¸Ð¼Ð°": 3490,
      "ĠÑģÐ°Ð¼Ð¸": 3491,
      "ĠÐ·Ð°ÐºÑĢ": 3492,
      "Ð³ÑĥÑģÑĤ": 3493,
      "ĠÐ½Ð°ÑģÑĤÑĢÐ¾": 3494,
      "Ð±ÐµÑĢ": 3495,
      "ĠÑĦÐ¾ÑĤÐ¾Ð³ÑĢÐ°ÑĦ": 3496,
      "ĠÑĤÑĥÐ´Ð°": 3497,
      "ĠÐŁÑĢÐ¾": 3498,
      "ĠÐ¿Ð¾ÑģÐ¼Ð¾ÑĤÑĢÐµÐ»": 3499,
      "Ð¸Ð±Ð»Ð¸": 3500,
      "Ð»ÑĥÑĩÑĪ": 3501,
      "ÑıÑĩ": 3502,
      "Ð°ÑĤÐ¾Ð¼": 3503,
      "ĠÐ´ÐµÐ»Ð°ÐµÑĤ": 3504,
      "ÑĢÐ¸Ð´": 3505,
      "ĠÐ¾ÑĦÐ¸ÑĨÐ¸": 3506,
      "ĠÐ¼Ð³Ð½Ð¾Ð²": 3507,
      "ĠÑĦÐ¸Ð½Ð°Ð½Ñģ": 3508,
      "Ð¾ÑĤÑĥ": 3509,
      "Ð½Ð¸ÐºÐ°Ð¼Ð¸": 3510,
      "ĠÐŀÑĢ": 3511,
      "Ð»ÐµÐ²": 3512,
      "Ð°ÑĨÐ¸ÐµÐ¹": 3513,
      "ĠÐ¿Ð¾ÑĢÐ°Ð¶": 3514,
      "ÑİÑīÐ¸Ñħ": 3515,
      "Ð¸Ð²Ð°Ð»Ð¸": 3516,
      "ĠÐ´Ð²Ð¾ÑĢ": 3517,
      "ĠÐºÐ¾Ð½ÑģÑĤ": 3518,
      "ĠÐ´ÑĢÑĥÐ³Ð¾Ð¼": 3519,
      "ĠÐĶÐµÐ²": 3520,
      "ĠÐ»Ð¸ÑĤÐµÑĢ": 3521,
      "ĠÐ²Ð¿Ð¾Ð»Ð½Ðµ": 3522,
      "ÑĦÐµ": 3523,
      "ĠÑĥÑģÐ¼": 3524,
      "ĠÑĤÑĢÐµÑĤÑĮ": 3525,
      "ĠÐ²Ð¾Ð·Ð¼Ð¾Ð¶Ð½Ð¾ÑģÑĤÐ¸": 3526,
      "Ð½Ð°ÑĩÐµ": 3527,
      "ĠÐ¶ÐµÐ»ÐµÐ·": 3528,
      "ÑĭÐº": 3529,
      "ĠÐ²Ð¾ÑĪ": 3530,
      "Ð¡Ð¿": 3531,
      "Ð¾Ð²Ð°Ñı": 3532,
      "Ð»ÐµÑĩ": 3533,
      "ĠÑĢÐ°Ð±Ð¾ÑĤÐ°ÑĤÑĮ": 3534,
      "ĠÑĢÐµÐ¿": 3535,
      "Ġ11": 3536,
      "ÑģÑĤÐ²ÐµÐ½Ð½Ð¾Ðµ": 3537,
      "ĠÐ´ÐµÑıÑĤÐµÐ»ÑĮÐ½Ð¾ÑģÑĤÐ¸": 3538,
      "30": 3539,
      "Ð½Ð¸ÑĨÑĥ": 3540,
      "ĠÐ¼Ð¾ÐµÐ³Ð¾": 3541,
      "ĠÐ»ÑİÐ±Ð¾Ð¹": 3542,
      "ĠÐ´ÐµÐ½ÑĮÐ³Ð¸": 3543,
      "Ð¼ÑĥÑĢ": 3544,
      "Ð»Ð°Ð·": 3545,
      "ĠÑģÑĥÐ¿": 3546,
      "ÑİÐ·": 3547,
      "Ð½ÐµÐ½Ð¸Ðµ": 3548,
      "ĠÐ±ÑĭÐ²ÑĪ": 3549,
      "ĠÐ¿Ð¾Ð»ÑĥÑĩÐ¸Ð»": 3550,
      "ĠÑĥÑģÐ¿ÐµÑħ": 3551,
      "ĠÐ½Ð°ÑģÑĤÑĥÐ¿": 3552,
      "Ġy": 3553,
      "ÑĤÑĢÐ°": 3554,
      "ĠÐ½Ð¾Ð²ÑĭÐ¹": 3555,
      "Ð½Ð¸ÑĤÐµ": 3556,
      "ĠÐ½Ð°ÑģÑĤÐ¾Ð»ÑĮÐºÐ¾": 3557,
      "ĠÐµÐ´Ð²Ð°": 3558,
      "ÐºÐ¸Ð½": 3559,
      "ĠÑĥÐ½Ð¸ÑĩÑĤÐ¾Ð¶": 3560,
      "Ð¾Ð³Ðµ": 3561,
      "ĠÐ½Ð¾Ð²ÑĭÐµ": 3562,
      "ÑĢÐ¸Ð³": 3563,
      "ÑĥÐºÐ°": 3564,
      "ĠÐ¢Ð¾": 3565,
      "ĠÐ¾ÑĢÐ³Ð°Ð½Ð¸Ð·Ð°ÑĨÐ¸Ð¸": 3566,
      "ĠÐºÑĥÑħ": 3567,
      "ĠÐ¿ÑĢÐ¾Ð¸Ð·Ð²ÐµÐ´": 3568,
      "ÑĳÐ·": 3569,
      "ĠÑĢÐ°Ð·Ð½ÑĭÑħ": 3570,
      "ÑĢÐ¾Ð´Ðµ": 3571,
      "Ð¸Ð»Ð¾ÑģÐ¾ÑĦ": 3572,
      "ĠÐ´ÑĢÑĥÐ·ÑĮÑı": 3573,
      "ĠK": 3574,
      "....": 3575,
      "Ð²ÐµÑĢÐ³": 3576,
      "Ð¼Ð¿": 3577,
      "ĠÐĶÐ°Ð¶Ðµ": 3578,
      "ĠÑģÐ¸Ð»Ñĥ": 3579,
      "ÐĶÐ¶": 3580,
      "ĠÑģÑĥÑīÐµÑģÑĤÐ²Ð¾Ð²": 3581,
      "ĠÐŁÐµÑĢ": 3582,
      "ÐĴÑģÐµ": 3583,
      "Ð°ÑīÐµ": 3584,
      "ĠÐ¿ÑĢÐ¾Ð¸Ð·Ð½ÐµÑģ": 3585,
      "ĠÐ£ÐºÑĢÐ°": 3586,
      "ĠÐ±Ð¸": 3587,
      "ĠÐ´Ð¾Ð»Ð»": 3588,
      "ĠÐ¿ÐµÑĢÐ²Ð¾Ð³Ð¾": 3589,
      "Ð¸ÑĢÐ¾Ð²Ð°Ð»": 3590,
      "Ð¾ÑĨÐ¸": 3591,
      "ĠÐĳÐµÐ»": 3592,
      "ÐµÐ½Ð·": 3593,
      "ĠÐ¿ÑĢÐµÐ´Ð¿Ð¾Ñĩ": 3594,
      "ĠÐ³ÐµÐ½ÐµÑĢ": 3595,
      "ÑĮÐ¼Ð¸": 3596,
      "ĠÐ¿ÑĢÐ¸ÑĤ": 3597,
      "ĠÐ¾ÑĤÐµÑĨ": 3598,
      "Ð¸ÑĤÐ°Ð¹": 3599,
      "Ð°Ð²ÑĪÐ¸ÑģÑĮ": 3600,
      "Ð¾Ð¶Ð½Ð¾": 3601,
      "ĠÐµÑģÑĤÐµ": 3602,
      "ĠÑħÐ¾ÑĤÐµÐ»Ð°": 3603,
      "ĠÐ·Ð°ÑģÑĤ": 3604,
      "ĠÐ¿ÑĢÐ¸Ð³Ð¾ÑĤÐ¾Ð²": 3605,
      "ĠÐĵÑĢ": 3606,
      "ÑıÐµÑĤÑģÑı": 3607,
      "ĠÑģÐ»ÐµÐ´Ð¾Ð²": 3608,
      "ru": 3609,
      "Ð½Ð¾Ð¿": 3610,
      "ĠÐ½Ð°Ð¹Ð´": 3611,
      "ĠÑĦÐ¸Ð»ÑĮÐ¼": 3612,
      "ÑįÐº": 3613,
      "ĠÐºÐ¾Ð½ÐºÑĢÐµÑĤ": 3614,
      "Ð»ÑİÐ±": 3615,
      "ĠÑģÐ½Ð¸Ð¶": 3616,
      "av": 3617,
      "ÑħÐ°": 3618,
      "Ð¸ÐµÑģÑı": 3619,
      "ĠÑģÑĢÐµÐ´ÑģÑĤÐ²": 3620,
      "ĠÐ²Ð¾ÑģÑģÑĤÐ°Ð½Ð¾Ð²": 3621,
      "ÑĭÑģ": 3622,
      "ÐµÐ·Ð¶": 3623,
      "ĠÐ¾ÑĩÐµÑĢÐµÐ´ÑĮ": 3624,
      "ĠÐ·Ð½Ð°ÑĩÐµÐ½Ð¸Ðµ": 3625,
      "ĠÐ¿Ð¾Ð·Ð²Ð¾Ð»ÑıÐµÑĤ": 3626,
      "ĠÑģÐ»ÐµÐ·": 3627,
      "ĠÐ²Ð¸Ð´ÐµÑĤÑĮ": 3628,
      "ĠÐ¿ÑĢÐ¾Ð³ÑĢÐ°Ð¼Ð¼": 3629,
      "ÐºÑĥÐ´Ð°": 3630,
      "ĠÐ¿ÑĢÐ¸Ð¶": 3631,
      "ÑĥÐ»Ð¸ÑĢÐ¾Ð²": 3632,
      "ĠÑĥÐ»ÑĥÑĩÑĪ": 3633,
      "Ð¾Ð¸ÑĤ": 3634,
      "Ð¾Ð·Ð½Ð°Ñĩ": 3635,
      "ĠÐ¼Ð»": 3636,
      "ĠÐºÑĢÐµÑģÑĤ": 3637,
      "ĠÐ»Ð¸Ð´": 3638,
      "ĠÐļÑĤÐ¾": 3639,
      "ĠÐ²ÐºÑĥÑģ": 3640,
      "ĠÐŁÑĢÐµÐ´": 3641,
      "ĠÐ¿ÑĢÐ¸ÑĪÐ»Ð¾ÑģÑĮ": 3642,
      "ĠÑģÐ°Ð´": 3643,
      "Ð¾Ð·Ð°": 3644,
      "ĠÐ½Ð°ÑĩÐ°Ð»Ðµ": 3645,
      "ĠÐºÐ°Ð·Ð°Ð»Ð¾ÑģÑĮ": 3646,
      "ĠÑģÐ¸Ñħ": 3647,
      "ĠÐ³Ð»ÑĥÐ¿": 3648,
      "ĠÑģÐ¿ÑĢÐ¾ÑģÐ¸Ð»Ð°": 3649,
      "ÑģÐºÐ¾Ð»ÑĮÐºÐ¾": 3650,
      "ĠÐ´Ð¾Ð»Ð³": 3651,
      "Ð°Ð½Ð½Ð°Ñı": 3652,
      "ÐµÐ·Ð°Ð¿": 3653,
      "Ð°Ð´Ð½Ð¾": 3654,
      "ĠÐ´Ð²Ð¸Ð¶ÐµÐ½Ð¸Ñı": 3655,
      "ĠÐ¾Ð±Ð¾": 3656,
      "ĠÑģÑħ": 3657,
      "ĠÑģÑĤÑĢÐ°Ð´": 3658,
      "ÐµÑĩÐµ": 3659,
      "ĠÑįÑĤÐ°Ð¿": 3660,
      "ĠÐ½ÐµÐ¾Ð¶Ð¸Ð´": 3661,
      "ĠÐ½Ð°ÑĪÐ¸": 3662,
      "ĠÐ¾ÑĤÐ¼ÐµÑĩ": 3663,
      "Ð°Ð¶Ð´Ñĭ": 3664,
      "Ð¾ÑĢÐ³": 3665,
      "ÑĥÑİÑĤÑģÑı": 3666,
      "ap": 3667,
      "ĠÑĥÐ²Ð¸Ð´ÐµÑĤÑĮ": 3668,
      "Ð»Ð°Ð½": 3669,
      "ĠÑĥÑĢÐ¾Ð²ÐµÐ½ÑĮ": 3670,
      "ÑĢÑĥÐµÑĤ": 3671,
      "Ð¸ÑĨÐ¸Ð¾Ð½": 3672,
      "Ð¾ÑĩÐ½Ð¾": 3673,
      "ÐµÐ½ÑĮÑĪ": 3674,
      "Ð»ÐµÑĢ": 3675,
      "ĠÑģÐµÐ½ÑĤ": 3676,
      "Ð¬": 3677,
      "ĠÐ¿ÐµÑĢÐµÑħÐ¾Ð´": 3678,
      "ĠÐ¾ÐºÐ°Ð·ÑĭÐ²": 3679,
      "ĠÐ¿ÑĥÑĤÑĮ": 3680,
      "ÑįÑĢ": 3681,
      "ĠÑĩÑĥÐ´": 3682,
      "ÐĵÐ»Ð°Ð²Ð°": 3683,
      "ĠÐ¼Ð¸Ðº": 3684,
      "Ð«": 3685,
      "ÐµÑģÐ¿ÑĥÐ±Ð»Ð¸": 3686,
      "ĠÐĺÐ»Ð¸": 3687,
      "ĠÐ¶Ð¸Ð·Ð½": 3688,
      "ĠÐ¿ÑĢÐ¾ÑĪÐ»": 3689,
      "ĠÐ²ÐµÑĩÐµÑĢ": 3690,
      "ÐºÐ½ÑĥÐ»": 3691,
      "ĠÐ³Ð»Ð°Ð·Ð°Ñħ": 3692,
      "ĠÐ²Ð°Ð¶Ð½Ð¾": 3693,
      "ĠÐºÐ²Ð°ÑĢÑĤ": 3694,
      "ÑĥÐ¹ÑģÑĤÐ°": 3695,
      "ĠÑģÑĤÐµÐ¿ÐµÐ½Ð¸": 3696,
      "ĠÑĤÑĢÐµÐ½Ð¸ÑĢÐ¾Ð²": 3697,
      "ĠÐ¼Ð¸Ð½Ð¸": 3698,
      "ĠÑģÐ¿ÑĢÐ°ÑĪ": 3699,
      "ĠÐ½ÐµÐ¼ÐµÑĨ": 3700,
      "Ð½Ð¸ÐºÑĥ": 3701,
      "ĠÐ¸Ð³ÑĢÑĭ": 3702,
      "ĠÐľÐ°Ðº": 3703,
      "Ð»Ð¾ÑĢ": 3704,
      "ie": 3705,
      "ĠÐºÐ¾ÑĢÐ¿": 3706,
      "ĠÑģÐ»ÑĥÑĩÐ°Ñı": 3707,
      "Ġe": 3708,
      "Ð¢Ñĭ": 3709,
      "ĠÐºÐ»ÑĥÐ±": 3710,
      "ĠÐ²ÐµÑģÑĮÐ¼Ð°": 3711,
      "ĠÐ¾Ð¿ÑĥÑģÑĤ": 3712,
      "ÐµÑĢÐ¾": 3713,
      "ĠÑħÑĢÐ°Ð½": 3714,
      "ĠÐĶÐ¶ÐµÐ¹": 3715,
      "ÑĨÐ¸ÐµÐ¹": 3716,
      "ĠÐ¸Ð½ÑģÑĤÑĢÑĥ": 3717,
      "ÑģÑĤÐ²ÐµÐ½Ð½ÑĭÐ¼": 3718,
      "ÑĢÑıÐ·": 3719,
      "ind": 3720,
      "ĠÐ²ÐµÑĢÑģ": 3721,
      "ĠÐºÐ°Ð¶Ð´Ð¾Ð³Ð¾": 3722,
      "ĠÐ´ÑĭÑħ": 3723,
      "ĠÐ´ÑĢÑĥÐ³Ð¸Ð¼": 3724,
      "ĠÐºÐ¾Ð½Ñģ": 3725,
      "oc": 3726,
      "ĠÑıÐ²Ð½Ð¾": 3727,
      "Ð½Ð¾Ð²ÑĢÐµÐ¼ÐµÐ½Ð½Ð¾": 3728,
      "ÐµÐºÐ¸": 3729,
      ");": 3730,
      "ĠÑģÐ¾ÑģÑĤÐ¾ÑıÐ½Ð¸Ð¸": 3731,
      "ĠÑģÑĥ": 3732,
      "ĠÐ½Ð¸Ð¶Ðµ": 3733,
      "ĠÐ²Ð¼ÐµÑģÑĤÐ¾": 3734,
      "ĠÐ¿Ð¾Ð¿ÑĥÐ»ÑıÑĢ": 3735,
      "ÑĥÑİÑīÐ¸Ðµ": 3736,
      "Ð¹ÑĤÐ¸": 3737,
      "ĠÐ¿Ð¾Ð²ÐµÐ´": 3738,
      "ĠÐĴÐ°ÑĪ": 3739,
      "ĠÑģÐ²Ð¾ÐµÐ¼Ñĥ": 3740,
      "Ġ100": 3741,
      "ÐµÐ²Ð¸Ñĩ": 3742,
      "ÐµÐ¹ÑĤÐ¸Ð½Ð³": 3743,
      "ĠÑĪÐ¸ÑĢÐ¾Ðº": 3744,
      "Ð¡Ð¡Ðł": 3745,
      "ĠÐ¿ÑĢÐ¸ÑģÑĥÑĤÑģÑĤÐ²": 3746,
      "ĠÐ¿ÑĢÐ¾ÑĢ": 3747,
      "ĠÑģÐ¸ÑĤÑĥÐ°ÑĨÐ¸Ð¸": 3748,
      "ĠÐ¾ÑģÐ½Ð¾Ð²Ðµ": 3749,
      "ÑģÑĤÐ°ÑĤÐ¸": 3750,
      "ĠÐ¾Ð¿ÑĢÐµÐ´ÐµÐ»Ñı": 3751,
      "ĠÐ·ÑĢÐµÐ½Ð¸Ñı": 3752,
      "ĠÐļÐ¾Ð½ÐµÑĩÐ½Ð¾": 3753,
      "Ġ197": 3754,
      "ĠÐ¼ÐµÑĪ": 3755,
      "ĠÑĥÐ±Ð¸Ð¹": 3756,
      "Ð¾Ð¼ÐµÑĤ": 3757,
      "ĠÑģÑħÐ²Ð°ÑĤ": 3758,
      "Ð¸ÑĢÐ¾Ð²Ð°Ð½Ð¸Ðµ": 3759,
      "ÐµÐºÑĤÐ¾ÑĢ": 3760,
      "ĠÐ½Ð¾ÑĩÑĮ": 3761,
      "50": 3762,
      "ĠÐ¿ÐµÑĢÐµÐ½": 3763,
      "ĠÐ¾Ð±ÑĬÑıÐ²": 3764,
      "ĠÐ¼Ð¾Ñİ": 3765,
      "ÐµÐ´ÐµÑĢ": 3766,
      "ĠÐ¡Ð¼": 3767,
      "ĠÑĢÐ°Ð±Ð¾ÑĤÐµ": 3768,
      "ĠÐºÐ°ÐºÐ¸Ð¼": 3769,
      "ĠÐ¿Ð°ÑĨÐ¸": 3770,
      "ĠÐ½Ð°ÑĤ": 3771,
      "ÑĢÐµÐ¼Ñı": 3772,
      "ĠÐ°Ð±ÑģÐ¾Ð»ÑİÑĤ": 3773,
      "ĠÑģÑĩÐ°ÑģÑĤÐ»Ð¸Ð²": 3774,
      "ĠÐ¢Ð°Ð¼": 3775,
      "ĠÐ±Ð¾Ðº": 3776,
      "ĠÐ¿Ð¾Ð´ÑĢÑĥÐ³": 3777,
      "ĠÐ±ÑĥÑĢ": 3778,
      "Ð½ÑĥÐ»Ð¸": 3779,
      "ĠÐ¿ÑĢÐ¾Ð¸Ð·Ð¾ÑĪÐ»Ð¾": 3780,
      "ÑĩÐ°ÑĤ": 3781,
      "ĠÐ¿ÐµÑĢÐµÐ³": 3782,
      "ĠÐ¿Ð¾Ð¼Ð¾ÑīÑĮ": 3783,
      "ÑģÑĤÑĢÐ°Ð½": 3784,
      "ĠÐ²Ð·ÑıÐ»": 3785,
      "ĠÐ¸Ð´ÐµÑĤ": 3786,
      "ĠÑĤÐ¾ÑĩÐºÐ¸": 3787,
      "ÑıÑİÑĤ": 3788,
      "ĠÐºÐ°ÐºÐ¾Ðµ": 3789,
      "ĠÐ²Ð¾ÑģÐº": 3790,
      "ĠÐ¿Ð»Ð¾ÑĤ": 3791,
      "Ð»ÐµÐ½Ð¾": 3792,
      "ÐµÐ¸": 3793,
      "ÐµÑĤÐµÐ»ÑĮ": 3794,
      "Ð¾ÑĩÐ½Ð¾Ð¹": 3795,
      "ĠÑĤÐµÑĢÑĢÐ¸ÑĤÐ¾ÑĢÐ¸Ð¸": 3796,
      "ĠÑĥÐ²Ð¸Ð´ÐµÐ»": 3797,
      "ĠÐ´ÑĥÐ¼Ð°Ð»": 3798,
      "ĠÑģÑĨÐµÐ½": 3799,
      "ĠÑĢÐ°ÑģÑĪÐ¸ÑĢ": 3800,
      "ĠÐ³ÑĢÑĥÐ´Ð¸": 3801,
      "ĠÐ·Ð½Ð°ÐµÑĪÑĮ": 3802,
      "ĠÐ²ÑĭÐ³Ð»ÑıÐ´": 3803,
      "ÐĿÑĥ": 3804,
      "ĠÐ±ÑĥÐºÐ²": 3805,
      "ĠÐŁÐ¾Ð¼": 3806,
      "ĠÑĢÐµÑĩ": 3807,
      "ĠÑıÐ½": 3808,
      "ĠÐ·Ð°Ñħ": 3809,
      "ĠÑĥÑĢÐ¾Ð²Ð½Ñı": 3810,
      "ĠÐ·Ð°Ð²ÐµÑĢÑĪ": 3811,
      "Ð¸Ð»ÐµÑĤ": 3812,
      "ĠÑĦÑĢÐ°Ð½ÑĨÑĥÐ·": 3813,
      "ÐºÐ¾Ð½": 3814,
      "ĠÐ±Ð¾Ð»Ð¸": 3815,
      "ĠÐ¿ÑĢÐµÐ´Ð¿ÑĢÐ¸": 3816,
      "ĠÐ·Ð°Ð¼ÐµÑĤÐ¸Ð»": 3817,
      "ĠÐĶÐ¶Ð¾Ð½": 3818,
      "Ð°Ð½Ð½Ð¾Ð³Ð¾": 3819,
      "ĠÐ½Ð°Ð¶": 3820,
      "ĠÐ½Ð°Ð»Ð¸Ñĩ": 3821,
      "ĠÐľÐ°Ð¹": 3822,
      "ĠÑģÑģÑĭÐ»": 3823,
      "ĠÑĢÐ°Ð·ÑĢÑĥÑĪ": 3824,
      "Ð»ÑıÑİÑĤ": 3825,
      "Ġ50": 3826,
      "Ð¾Ð·Ñĭ": 3827,
      "ĠÐ¼Ð°Ð³Ð°Ð·": 3828,
      "ĠÑģÑİÐ´Ð°": 3829,
      "Ð´ÑĥÑī": 3830,
      "ĠÐ´Ð¾ÐºÐ°Ð·": 3831,
      "ÑıÐ½ÑĥÐ»": 3832,
      "ÑıÑĤÐ¸Ðµ": 3833,
      "ĠÐ½Ð¾Ð²ÑĭÑħ": 3834,
      "ĠÐºÐ¾Ð½ÑĨÐ°": 3835,
      "ĠÑĤÐ°Ð¹": 3836,
      "ĠÐ¾ÐºÑĤ": 3837,
      "ĠÑıÐ·ÑĭÐº": 3838,
      "ĠÐ½Ð°ÑĩÐ°Ð»Ð¸": 3839,
      "Ð½ÐµÐ¼Ñĥ": 3840,
      "ĠÑģÐ½Ð¸Ð¼": 3841,
      "ÑĨÐµÐ¿": 3842,
      "Ð°Ð»Ð»": 3843,
      "ĠÐĴÐ»Ð°Ð´": 3844,
      "ĠÐ·Ð°ÑĪ": 3845,
      "ĠÐ±Ð¸Ð·Ð½ÐµÑģ": 3846,
      "Ð¾Ð»Ñĩ": 3847,
      "ĠÐ·Ð°ÑīÐ¸ÑĤ": 3848,
      "ĠÐ¾Ð±ÑĬÐµÐº": 3849,
      "ĠÐ½ÐµÐ½Ð°Ð²": 3850,
      "ĠÐºÑĢÐ¸ÑĤ": 3851,
      "Ð¾Ð½Ð¸Ð¸": 3852,
      "ĠÑģÐ±Ð¾ÑĢ": 3853,
      "ĠÐ¶ÑĥÑĢÐ½": 3854,
      "ĠÑģÑĥÐ´ÑĮ": 3855,
      "ÑĮÑıÐ½": 3856,
      "ĠÐ¿ÑĢÐ¸ÑĩÐ¸Ð½": 3857,
      "Ð½ÑĥÐ»Ð¸ÑģÑĮ": 3858,
      "ĠÐ´ÑĢÑĥÐ¶": 3859,
      "ĠÐ¿ÑĢÐ°Ð·Ð´": 3860,
      "ĠÐĺÑĤ": 3861,
      "ĠÐĿÐ°Ð¿ÑĢÐ¸Ð¼ÐµÑĢ": 3862,
      "ĠÐ³ÑĢÐ°ÑĦ": 3863,
      "ĠÐºÐ°Ð±Ð¸Ð½": 3864,
      "ĠÐ°ÑĤ": 3865,
      "ĠÑĢÐ°Ð¼": 3866,
      "ĠÑĢÐµÑģ": 3867,
      "Ð°ÑİÑīÐ¸Ð¼": 3868,
      "ĠÐ±Ð»Ð°Ð³Ð¾Ð´Ð°ÑĢÑı": 3869,
      "ĠÐ´ÑĥÑħÐ¾Ð²": 3870,
      "ĠÐ±ÐµÐ·Ð¾Ð¿Ð°ÑģÐ½Ð¾ÑģÑĤÐ¸": 3871,
      "ÑĢÑĥÑĩ": 3872,
      "Ð°Ð¶Ð¸": 3873,
      "ĠÐ±Ð¾Ð¹": 3874,
      "Ð²Ð¾ÑģÑĤ": 3875,
      "ĠÑģÐ¿ÑĢ": 3876,
      "ĠÐľÐ°Ð»": 3877,
      "ĠÐ¿ÑĢÐ¸ÐºÐ°Ð·": 3878,
      "!\"": 3879,
      "ĠÐ°Ð³": 3880,
      "ĠÐ³Ð¾ÑĢÑıÑĩ": 3881,
      "ĠÑĥÐ¿ÑĢÐ°Ð²Ð»ÐµÐ½Ð¸Ñı": 3882,
      "ĠÐ½ÐµÐ·Ð°Ð²Ð¸Ñģ": 3883,
      "ĠÐºÐ°Ð¿Ð¸ÑĤ": 3884,
      "Ð¸ÑĤÐµÐ»ÑĮÐ½ÑĭÐ¼": 3885,
      "ĠÑĢÐ¾ÑģÑģÐ¸Ð¹": 3886,
      "Ð°Ð½Ð½Ð¾Ðµ": 3887,
      "ÑĢÐ¾Ð¹": 3888,
      "ĠÑħÐ¾ÑĤÐ¸ÑĤÐµ": 3889,
      "ÑģÑĤÐ²Ð¾Ð²Ð°Ð»Ð°": 3890,
      "ÑİÑīÐ¸Ð¹": 3891,
      "ĠÐ¶ÐµÐ½ÑīÐ¸Ð½Ð°": 3892,
      "ĠÐĺÑģÐ¿": 3893,
      "ĠÐ»ÐµÐº": 3894,
      "ÑĪÐµÐ¼": 3895,
      "ĠÐ±Ð¾": 3896,
      "ess": 3897,
      "ĠÑĨÐ²ÐµÑĤÐ°": 3898,
      "Ð°ÑģÐ¸Ð±Ð¾": 3899,
      "ĠÑĩÑĥÐ¶": 3900,
      "ĠIn": 3901,
      "ĠÐ¸Ð´ÑĤÐ¸": 3902,
      "ĠÑĢÐµÐ²Ð¾Ð»Ñİ": 3903,
      "ÑĦÐ¾ÑĢ": 3904,
      "ĠÐ²ÑĢÐ°Ð³": 3905,
      "ĠÐ¾Ð±Ñģ": 3906,
      "ĠÐ¡Ð¡Ð¡Ðł": 3907,
      "ĠÐ±Ð»Ð¾Ðº": 3908,
      "ĠÐ¸ÑģÑħÐ¾Ð´": 3909,
      "ĠÐ¿Ð»Ð°": 3910,
      "ĠÐ¶ÐµÐ½ÑīÐ¸Ð½": 3911,
      "ĠÑĢÐµÑĪÐµÐ½Ð¸Ñı": 3912,
      "Ġi": 3913,
      "//": 3914,
      "ĠÐ¿Ð¾ÑģÐ»ÐµÐ´Ð½Ð¸Ðµ": 3915,
      "Ð¾Ð´Ðµ": 3916,
      "Ð¿ÑĢÐ¾Ñĩ": 3917,
      "ĠÐ¿ÑĢÐ¸Ð¼ÐµÑĢÐ½Ð¾": 3918,
      "Ð»Ð¸Ð¶": 3919,
      "Ð²ÐµÑĢÑħ": 3920,
      "ĠÑĢÑĭÐ½": 3921,
      "Ð¾ÑĢÐ¸": 3922,
      "Ð°ÑĤÐ¾Ñĩ": 3923,
      "ĠÐºÐ¾Ð½ÐºÑĥ": 3924,
      "Ð½Ð°Ð·": 3925,
      "Ð°Ð´ÑĮ": 3926,
      "ĠÐ´ÐµÐ¿": 3927,
      "ÑĢÐ¸ÑĨ": 3928,
      "ĠÐ¼Ð°ÑģÑĤ": 3929,
      "ĠÐ½ÐµÑģÐ¼": 3930,
      "ÐºÐ°Ðº": 3931,
      "ĠÐ¾Ð±ÑĢÐ°Ð·Ð¾Ð²": 3932,
      "ĠÑĩÐµÑĤÑĭÑĢÐµ": 3933,
      "ĠÐ·Ð°ÑħÐ²Ð°ÑĤ": 3934,
      "ia": 3935,
      "22": 3936,
      "ĠÑģÐ¿Ð¾ÐºÐ¾Ð¹Ð½Ð¾": 3937,
      "ĠÐ²ÑĭÑĪÐµÐ»": 3938,
      "ĠÐ¿ÑĢÐµÐ´Ð¼ÐµÑĤ": 3939,
      "ĠÑģÐ¼Ð¾ÑĤÑĢÐµÐ»": 3940,
      "ĠÐĴÐ°Ð¼": 3941,
      "ĠÑĢÐµÐ±ÐµÐ½ÐºÐ°": 3942,
      "ĠÐ²Ð¿ÐµÑĢÐ²ÑĭÐµ": 3943,
      "Ð¾ÑģÐ½Ð¾Ð²": 3944,
      "Ð¾Ð»Ð¾Ð³Ð¸Ñı": 3945,
      "ĠÐ¿Ð¾Ð½Ð¸Ð¼Ð°Ñİ": 3946,
      "ĠÐ²Ð½Ð¸Ð¼Ð°Ð½Ð¸Ñı": 3947,
      "ĠÐ´ÐµÐºÐ°Ð±": 3948,
      "ĠÐ´ÑĢÑĥÐ³Ð¸Ð¼Ð¸": 3949,
      "ĠÐ¼Ð°ÐºÑģÐ¸Ð¼": 3950,
      "ĠÐºÐ¾Ð½ÑĤÑĢÐ¾Ð»": 3951,
      "Ð®": 3952,
      "ĠÐĺÐ²": 3953,
      "ĠÐŃÑĤÐ¸": 3954,
      "ĠÑģÐ»ÐµÐ³": 3955,
      "Ð°ÑĩÐ¸": 3956,
      "ĠÐ¿Ð¾Ð´Ð°ÑĢ": 3957,
      "ĠÑģÐ¼Ð¾ÑĤÑĢÐµÑĤÑĮ": 3958,
      "ĠÐºÐ¾Ð½ÑĦÐ»Ð¸Ðº": 3959,
      "ÐµÐºÐ°": 3960,
      "ĠÐ²Ð¾ÑģÐ¿ÑĢÐ¸": 3961,
      "ĠÐ¶Ð¸Ð´": 3962,
      "ĠÑĥÑģÐ»Ð¾Ð²Ð¸ÑıÑħ": 3963,
      "ĠÑĥÐ±ÐµÐ´": 3964,
      "ĠÐ¿Ð¾ÐºÐ°Ð·ÑĭÐ²": 3965,
      "ĠÐ°Ð½ÑĤ": 3966,
      "ĠÐ²ÑģÐµÐ¼Ñĥ": 3967,
      "ĠÐ´Ð°Ð½Ð½ÑĭÐµ": 3968,
      "ĠÑģÑĥÑīÐµÑģÑĤÐ²ÑĥÐµÑĤ": 3969,
      "ĠÐ´Ð¾Ð²ÐµÑĢ": 3970,
      "ĠÑĩÑĳÑĢ": 3971,
      "ĠÑĤÐ¸Ð¿Ð°": 3972,
      "Ð½Ð¸ÑĨÐµ": 3973,
      "ĠÑĥÐ¼ÐµÐ½ÑĮÑĪ": 3974,
      "Ð¸ÑħÐ°": 3975,
      "ĠÐ¿Ð¾Ð´Ð¾Ð·": 3976,
      "ĠÑĢÐ°Ð·Ð´ÑĢÐ°Ð¶": 3977,
      "ĠÐ´Ð¸ÑĢ": 3978,
      "ÑģÐµÐ´": 3979,
      "ĠÑģÐ»ÐµÐ³ÐºÐ°": 3980,
      "ĠÐ½Ð°Ð¼Ð¸": 3981,
      "ĠÐ¸Ð·Ð¼ÐµÐ½ÐµÐ½Ð¸Ñı": 3982,
      "Ð¿Ð°": 3983,
      "ÐºÐ»": 3984,
      "ĠÐĴÐµÐ´ÑĮ": 3985,
      "Ð¿ÑĢÐ¾ÑĩÐµÐ¼": 3986,
      "ce": 3987,
      "ĠÐ¡ÐµÐ¹ÑĩÐ°Ñģ": 3988,
      "ĠÐĹÐ°ÑĤÐµÐ¼": 3989,
      "ÑĭÑĢ": 3990,
      "Ð¿Ð¾Ð½": 3991,
      "ĠÐµÐ¶": 3992,
      "ĠÐºÐ½Ð¸Ð³Ð¸": 3993,
      "ĠÐ´Ð°Ð»ÐµÐºÐ¾": 3994,
      "ĠÐ½ÑĢÐ°Ð²Ð¸ÑĤÑģÑı": 3995,
      "ĠÑĢÐµÐ»Ð¸": 3996,
      "Ð°ÐºÑĥ": 3997,
      "ĠÐ¼Ð°ÑĤÑĮ": 3998,
      "Ð³Ð»ÑıÐ´ÐµÐ»": 3999,
      "ĠÑĥÐ·Ð½Ð°ÑĤÑĮ": 4000,
      "ÐµÑĪÐµ": 4001,
      "ÐĲÐ½": 4002,
      "ĠÑĢÐ°ÑģÑģÐºÐ°Ð·ÑĭÐ²": 4003,
      "ĠÑĥÑĩÐµÐ½": 4004,
      "ĠÑģÑĥÑĤ": 4005,
      "ĠÐ½Ð°Ð¿Ð¾Ð¼Ð¸Ð½": 4006,
      "Ð»Ð°Ð½Ð´": 4007,
      "ĠÑģÐ½Ð°ÑĩÐ°Ð»Ð°": 4008,
      "ÑģÐ»ÑĥÐ¶": 4009,
      "ÑİÑĢ": 4010,
      "ĠÐ¸Ð½ÑĦÐ¾ÑĢÐ¼Ð°ÑĨÐ¸Ñİ": 4011,
      "ĠÐ³Ð¾ÑģÑĥÐ´Ð°ÑĢÑģÑĤÐ²Ð°": 4012,
      "Ġ196": 4013,
      "ĠÐ°Ð½Ð³": 4014,
      "ĠÐ½Ð°ÑĪÐ¸Ñħ": 4015,
      "ĠÐ²ÑĭÑĤ": 4016,
      "ĠÐ¿ÑĥÐ½Ðº": 4017,
      "ĠÑĨÐµÑĢ": 4018,
      "Ð¼Ð¾Ñģ": 4019,
      "ÐµÐ¼ÑĮ": 4020,
      "ĠÐŀÐº": 4021,
      "Ð¸ÑĤÐµÑĤÐ°": 4022,
      "ĠÐ¾ÑĤÐ²ÐµÑĤÐ¸Ð»Ð°": 4023,
      "ĠÐ¾Ð±ÐµÑī": 4024,
      "ĠÐŁÐ¾Ð²": 4025,
      "Ð½Ð¸ÐºÐµ": 4026,
      "ĠÐ¸Ð½Ð°ÑĩÐµ": 4027,
      "Ð¾ÑģÑĤÐ¾ÑıÑĤÐµÐ»ÑĮ": 4028,
      "ĠÐ´Ð¶": 4029,
      "ĠÐ½Ð°Ñħ": 4030,
      "Ð¸Ð»Ð¸Ð·": 4031,
      "ĠÐ¿ÑĢÐ°Ð²Ð¸Ð»Ð¾": 4032,
      "ĠÐ·Ð°Ð¿Ð°Ñħ": 4033,
      "ĠÐ¡Ð¾Ð²ÐµÑĤ": 4034,
      "Ð°ÑİÑīÐ°Ñı": 4035,
      "ÐµÐ½ÑĤÐ¾Ð¼": 4036,
      "ĠÑĤÑĢÐ°Ð´": 4037,
      "ĠÐ³Ð¾Ð²Ð¾ÑĢÑıÑĤ": 4038,
      "ĠÑģÐ¾Ð½": 4039,
      "ĠÐ¼Ð¸Ð½Ð¸Ð¼": 4040,
      "Ð°Ð»ÑĮÐ½ÑĭÐ¼Ð¸": 4041,
      "ĠÐºÑĢÐ¾Ð²Ð°ÑĤÐ¸": 4042,
      "ĠÐ¿ÑĥÐ±Ð»Ð¸": 4043,
      "ÐµÐ½ÑĨÐ¸Ð¸": 4044,
      "ĠÐ·Ð½Ð°Ðº": 4045,
      "ers": 4046,
      "Ð°ÑĤÑĥÑĢÑĭ": 4047,
      "?\"": 4048,
      "ĠÐ¿ÐµÑĢÐµÐ±": 4049,
      "ĠÐŁÑĢÐ¾ÑģÑĤÐ¾": 4050,
      "Ð¸ÑĤÐµÐ»ÐµÐ¼": 4051,
      "ÐµÑĢÐ´": 4052,
      "Ð¸Ð²Ð°ÑıÑģÑĮ": 4053,
      "ÑĢÑĥÐ³Ð¾": 4054,
      "ĠÐ»Ð¸ÑĨÐµ": 4055,
      "ÑĢÐ¸Ñı": 4056,
      "ĠÑħÐ¾ÑĩÐµÑĪÑĮ": 4057,
      "ĠÑģÑĢÐ°Ð²Ð½": 4058,
      "ĠÑģÑĤÐ¾ÑıÐ»": 4059,
      "ĠÐ±ÑĥÐ´ÐµÐ¼": 4060,
      "ĠÐ¼Ð»Ð°Ð´": 4061,
      "ĠÑĥÑģÐ¿ÐµÑĪ": 4062,
      "ĠÐ¿ÑĢÐ¾ÑıÐ²": 4063,
      "ĠÐ¾ÑĤÑĨÐ°": 4064,
      "ĠÐ´Ð¾Ð¶Ð´": 4065,
      "Ð°Ð»Ð¸Ð¸": 4066,
      "ĠÐĲÐ½Ð´": 4067,
      "ĠÐ¿Ð»Ð¾ÑħÐ¾": 4068,
      "ÐµÐ½ÑĤÑĢ": 4069,
      "ĠÐ£Ñĩ": 4070,
      "----": 4071,
      "ĠÑģÐ¾ÑģÑĤÐ¾ÑıÐ½Ð¸Ðµ": 4072,
      "ĠÐ½ÐµÐ´Ð¾Ð²": 4073,
      "ĠÐ¸Ð¼ÐµÐ½Ð¸": 4074,
      "ĠÑĢÐµÐ°Ð»Ð¸Ð·": 4075,
      "ĠÑĥÐ»ÑĭÐ±Ð½ÑĥÐ»Ð°ÑģÑĮ": 4076,
      "ĠÐ²Ð¾Ð·Ð´ÐµÐ¹ÑģÑĤÐ²": 4077,
      "ÑĢÐ¸ÑģÑĤÐ¸": 4078,
      "Ð¸ÑĢÑĥÐµÑĤ": 4079,
      "ĠÐ³Ð¾ÑĢÐ¾Ð´Ðµ": 4080,
      "ĠÐŀÑĩ": 4081,
      "Ġ+": 4082,
      "op": 4083,
      "Ħĸ": 4084,
      "ĠÑģÐ¸ÑģÑĤÐµÐ¼Ð°": 4085,
      "ÑĭÐ³": 4086,
      "ĠÐ¾ÑĤÑĢÐ°Ð¶": 4087,
      "ĠÐ´Ð°ÑĤÑĮ": 4088,
      "ĠÐ²Ð¸Ð·": 4089,
      "ĠÐ±Ð¾Ð³Ð°ÑĤ": 4090,
      "od": 4091,
      "ĠÐ¿Ð¾Ð¿Ð°Ð´": 4092,
      "ĠÐ±ÑĥÐ¼Ð°Ð³": 4093,
      "ĠÐĶÐ°Ð²": 4094,
      "ĠÐ´Ð²ÑĥÐ¼": 4095,
      "ĠÑģÐ»ÑĥÑĩÐ¸Ð»Ð¾ÑģÑĮ": 4096,
      "ÐłÐ°Ð·": 4097,
      "th": 4098,
      "ÐºÐ¾ÑģÑĤÑĮ": 4099,
      "ĠÑģÑĥÑħ": 4100,
      "ĠÐ´Ð°Ð»ÑĮÐ½ÐµÐ¹": 4101,
      "ĠÐĲÐº": 4102,
      "ĠÐ±ÐµÑģÑģ": 4103,
      "ĠÐ¾Ð±ÑĢÐ°ÑĤÐ½Ð¾": 4104,
      "ĠÑģÑĤÐµÐº": 4105,
      "ĠÑĥÐ´Ð¾Ð±": 4106,
      "ĠÑĤÐ¾Ð¿": 4107,
      "Ġv": 4108,
      "ĠÐ´Ð²ÐµÑĢ": 4109,
      "ĠÐ½ÐµÑģÐ¼Ð¾ÑĤÑĢÑı": 4110,
      "ĠÑıÐ½Ð²Ð°ÑĢ": 4111,
      "ĠÐ±ÐµÑĢÐµÐ³": 4112,
      "ĠÐ¾Ð·Ð½Ð°ÑĩÐ°ÐµÑĤ": 4113,
      "ĠÐ²ÑĭÐ¿ÑĥÑģÐº": 4114,
      "ĠÐºÐ¾Ð¼Ð½Ð°ÑĤÐµ": 4115,
      "ĠÐ·Ð°ÑıÐ²Ð¸Ð»": 4116,
      "Ð°Ð½Ð¸ÑĢÐ¾Ð²": 4117,
      "ĠÐ¿ÑĢÐ¸Ð·Ð½Ð°Ðº": 4118,
      "ÑĭÑĪÐ»ÐµÐ½": 4119,
      "ĠÐ´ÐµÐ²ÑĥÑĪÐºÑĥ": 4120,
      "ÑĭÐ»ÑĮ": 4121,
      "ĠÐ¿Ð»Ð¾Ñħ": 4122,
      "ÐĴÐ¾": 4123,
      "ĠÐ½ÐµÐ³": 4124,
      "ĠÑĪÑĥÐ¼": 4125,
      "ĠÐ¾Ð´Ð½Ð¾Ð²ÑĢÐµÐ¼ÐµÐ½Ð½Ð¾": 4126,
      "Ð°ÑĢÑħ": 4127,
      "ĠÐĲÐ´": 4128,
      "ÑĦÐ°": 4129,
      "Ð½ÑıÑĤÑĮ": 4130,
      "ĠÑģÑĤÐ¾Ð»ÑĮ": 4131,
      "Ð¸Ð´Ñĥ": 4132,
      "com": 4133,
      "Ð¸ÑĩÐµÑģÐºÐ¾Ð¼": 4134,
      "ĠÐĹÐµÐ¼": 4135,
      "ĠÐ¡ÐµÐ²ÐµÑĢ": 4136,
      "Ð°Ð´Ðµ": 4137,
      "ĠÑįÐºÑģÐ¿ÐµÑĢ": 4138,
      "ĠÐ¾ÑħÑĢÐ°Ð½": 4139,
      "Ð¾Ð³Ð»Ð°Ñģ": 4140,
      "Ð¾Ð»ÑĮÑĪÐµ": 4141,
      "ĠÐ°Ð¿ÑĢ": 4142,
      "ĠÐ¼Ð¾Ð¶ÐµÐ¼": 4143,
      "ÑĢÐ¾Ð³": 4144,
      "ĠÐ¿ÑĢÐ¾Ð¶": 4145,
      "ĠÐ¿Ð¾ÑģÐ»ÐµÐ´Ð½Ð¸Ð¹": 4146,
      "ĠÑĥÐ´ÐµÑĢÐ¶": 4147,
      "ĠÐ¿Ð¾Ð¿ÑĢÐ¾Ñģ": 4148,
      "Ð¸Ð²Ð°ÐµÐ¼": 4149,
      "ĠÑĥÑģÐ¼ÐµÑħ": 4150,
      "ĠÐ·Ð°Ð¶": 4151,
      "ĠÐ½Ð¾Ð²Ð¾Ð³Ð¾": 4152,
      "Ð¾ÑĢÐ¾Ð¼": 4153,
      "ĠÐ»ÑİÐ±Ð»Ñİ": 4154,
      "ĠÐŃÐ¹": 4155,
      "ĠÐ°Ð²Ð³ÑĥÑģÑĤ": 4156,
      "ĠÐºÐ°ÐºÐ°Ñı": 4157,
      "ĠÑĢÐ°Ð±Ð¾ÑĤÐ°ÐµÑĤ": 4158,
      "ĠÐ¼Ð°Ð½": 4159,
      "ĠÐ²ÑģÑĤÑĥÐ¿": 4160,
      "ĠÑĥÐ¿Ð¾ÑĤÑĢÐµÐ±": 4161,
      "ĠÐ¸Ð·Ð²": 4162,
      "ĠÐ¿ÑĢÐ°Ð²Ð¸Ð»ÑĮÐ½Ð¾": 4163,
      "ĠÑģÐ´ÐµÑĢÐ¶": 4164,
      "ĠÑģÑĢÐµÐ´ÑģÑĤÐ²Ð°": 4165,
      "ĠÑĢÐ¾ÑĤ": 4166,
      "ĠÐĳÑĥÐ´": 4167,
      "ĠÐ°ÑĢÐ¼Ð¸Ð¸": 4168,
      "ÑĢÐ¾ÑģÑĤ": 4169,
      "ĠÑĦÐ¾ÑĢ": 4170,
      "Ð¾ÑģÑĢÐµÐ´": 4171,
      "ĠÐ¼Ð¾Ð¸Ñħ": 4172,
      "ĠÐ²Ð¿ÐµÑĢÐµÐ´": 4173,
      "ĠÐ»Ð¾Ð³": 4174,
      "ĠÐ³Ð¾ÑĢÐ°Ð·": 4175,
      "ĠÑĨÐµÐ¿": 4176,
      "ĠÐ²ÑĢÐµÐ´": 4177,
      "ĠÐĲÐ¼ÐµÑĢ": 4178,
      "Ð°ÑĪÐµ": 4179,
      "ĠÐ¿ÑĢÐ¸Ð²Ð»ÐµÐº": 4180,
      "ÑģÑĤÐ²ÑĥÐµÑĤ": 4181,
      "tp": 4182,
      "Ð¸Ð²Ð°ÑİÑĤÑģÑı": 4183,
      "ÑįÐ¼": 4184,
      "ĠÐ´ÑĢÑĥÐ³Ð¾Ð³Ð¾": 4185,
      "ĠÐŃÑĤÐ°": 4186,
      "ĠÑģÐ¾ÑģÐµÐ´": 4187,
      "ĠÐ¿ÑĢÐµÐ´Ð¿Ð¾Ð»Ð°Ð³": 4188,
      "ĠÐ¿Ð¾ÑĢÑıÐ´ÐºÐµ": 4189,
      "Ð¾Ð²ÑĭÐ¼": 4190,
      "ĠÑĥÑĩÐµÐ±": 4191,
      "Ð¸ÑıÐ¼Ð¸": 4192,
      "Ð°Ð²ÑĪÐ¸Ð¹": 4193,
      "ĠÐ¾ÑĤÐ±": 4194,
      "Ð°Ð½Ð¸ÑĩÐµÑģÐº": 4195,
      "est": 4196,
      "ĠÐ³Ð¾ÑĢÐ°Ð·Ð´Ð¾": 4197,
      "ÑĢÐ¾Ð¿ÐµÐ¹": 4198,
      "ĠÐļÐ¾Ð»": 4199,
      "ĠÑĥÐ²ÐµÑĢÐµÐ½": 4200,
      "ĠÐ½Ð¸Ð¶": 4201,
      "ĠÐ¾Ð±ÑīÐµÑģÑĤÐ²Ð°": 4202,
      "ĠÑģÑĤÐ°Ð½ÐµÑĤ": 4203,
      "ĠÑģÐµÐ»": 4204,
      "Ð¢Ðŀ": 4205,
      "ĠÐ·Ð²Ð¾Ð½": 4206,
      "ĠÑĦÐ¾ÑĢÐ¼Ñĥ": 4207,
      "ĠÑĩÑĥÐ²ÑģÑĤÐ²Ð¾": 4208,
      "ĠÐ°Ð´ÑĢÐµÑģ": 4209,
      "ĠÑģÐºÐ¾ÑĢÐ¾": 4210,
      "ĠÐ»ÐµÐ²": 4211,
      "ĠÑĨÐµÐ»Ð¸": 4212,
      "ĠÐ½Ð°ÑĩÐ¸Ð½Ð°ÐµÑĤ": 4213,
      "ĠÐ¼Ð½Ð¾Ð¶ÐµÑģÑĤÐ²Ð¾": 4214,
      "Ð¾Ð½Ñĥ": 4215,
      "ĠÐŃÐ½": 4216,
      "ĠÐļÐ°Ð½": 4217,
      "ÑĤÐ¸Ð¼": 4218,
      "ĠÐ¼Ð¸ÑģÑģ": 4219,
      "Ð³ÑĢÐµÑģÑģ": 4220,
      "ĠÐ³ÐµÐ½": 4221,
      "Ð¸Ð½ÑĥÐ»": 4222,
      "Ð¸ÐµÑħ": 4223,
      "ĠÐ´Ð¾ÑģÑĤÐ°Ð²": 4224,
      "Ð¸ÑĤÐ¾Ð²": 4225,
      "ĠÐ³ÑĢÑĥÐ´": 4226,
      "ĠÐ½Ð°ÑĪÐµÐ³Ð¾": 4227,
      "ĠÑĦÐ¸Ð»Ð¾ÑģÐ¾ÑĦ": 4228,
      "Ð²Ð¾Ð·ÑĮ": 4229,
      "Ð³Ñĥ": 4230,
      "Ġyou": 4231,
      "ĠÑĨÐµÐ»ÑĮÑİ": 4232,
      "ĠÑĢÐµÐ·ÑĥÐ»ÑĮÑĤÐ°ÑĤ": 4233,
      "ĠÐ¸Ð·Ð¼ÐµÐ½Ð¸": 4234,
      "ĠÑħÐ¾Ð·ÑıÐ¹": 4235,
      "ĠÐ¿ÑĢÐ¸ÐµÐ¼": 4236,
      "ĠÐĳÑĭ": 4237,
      "ÐµÑĢÐ¿": 4238,
      "ĠÐ¿ÑĢÐµÐ´ÑģÑĤÐ°Ð²Ð»ÑıÐµÑĤ": 4239,
      "ĠÐ°Ð¿Ð¿": 4240,
      "ĠÐ·Ð¾Ð»Ð¾ÑĤ": 4241,
      "ÑıÑĤÐ°": 4242,
      "ĠÐ²Ð°ÑĪÐµÐ³Ð¾": 4243,
      "ÐµÑĢÑĭÐ²": 4244,
      "Ð»ÑıÐµÐ¼": 4245,
      "ĠÐ²Ð¿ÐµÑĩÐ°ÑĤ": 4246,
      "ĠÐ¿ÑĢÐ¸ÑıÑĤ": 4247,
      "ÐĴÐ¾ÑĤ": 4248,
      "ĠÑģÐµÐ¼ÑĮÐ¸": 4249,
      "Ð¼Ð°ÑĤÑĢ": 4250,
      "ÐĺÑģÑĤ": 4251,
      "ĠÐºÐµÐ¼": 4252,
      "Ð¿Ð¾": 4253,
      "ĠÑĥÑĩÐµÐ½Ð¸": 4254,
      "ĠÑĩÐ°ÑīÐµ": 4255,
      "ĠÐ»Ð¾Ðº": 4256,
      "ri": 4257,
      "ÑĪÑĥÑİ": 4258,
      "ĠÐ¼Ð°Ð¼": 4259,
      "Ð°ÐºÐµÑĤ": 4260,
      "ÑĥÑĪÐºÐ¸": 4261,
      "ĠÐºÐ¾ÑĢÐ¸Ð´": 4262,
      "ĠÐĹÐ´ÐµÑģÑĮ": 4263,
      "ÑĨÐµÐ½Ð¸": 4264,
      "Ð°Ð¹Ð´": 4265,
      "ÑıÑı": 4266,
      "ĠÑĩÐ°ÑģÐ°": 4267,
      "ĠÐ½ÐµÑĢ": 4268,
      "Ġ193": 4269,
      "ĠÐ¿ÑĢÐµÐ¸Ð¼": 4270,
      "ĠÐ¾ÑģÑĤÐ¾ÑĢÐ¾Ð¶": 4271,
      "Ð°ÑĢÐ¸Ð¸": 4272,
      "Ð¸ÑĩÐµÑģÐºÐ¸Ð¼Ð¸": 4273,
      "ĠÐ´Ñĥ": 4274,
      "ĠÐ§ÑĤÐ¾Ð±Ñĭ": 4275,
      "ĠÐ²ÑĢÐ¾Ð´Ðµ": 4276,
      "ĠÐ²Ð°ÑĪÐµÐ¹": 4277,
      "Ġ...": 4278,
      "ĠÑĩÐµÑĤÐ²ÐµÑĢ": 4279,
      "ĠÐ±Ð»Ð¸Ð¶": 4280,
      "Ð²Ñĥ": 4281,
      "ĠÐ³Ð¾Ð²Ð¾ÑĢÑı": 4282,
      "Ð¸Ð²Ð°Ñİ": 4283,
      "ĠÐ²Ð¸Ð´Ñĥ": 4284,
      "Ð»ÐµÑĤÐ²Ð¾ÑĢ": 4285,
      "Ð°Ð½Ð´Ð°ÑĢÑĤ": 4286,
      "Ð¾Ð´ÐµÐ¹ÑģÑĤÐ²": 4287,
      "ĠÐ´ÐµÑĤÐ¸": 4288,
      "ĠÑĥÐ´Ð¾Ð²Ð¾Ð»ÑĮ": 4289,
      "Ð¾Ð²Ð°Ð»Ð¸": 4290,
      "ÐĿÐĺ": 4291,
      "Ð¾Ð¿ÑĭÑĤ": 4292,
      "Ð°Ð½Ð½ÑĭÐ¼": 4293,
      "ĠÑĢÐ°Ð±Ð¾ÑĤÐ°": 4294,
      "25": 4295,
      "ĠÐ·Ð°ÑīÐ¸Ñī": 4296,
      "ĠÑģÐµÐ²ÐµÑĢ": 4297,
      "ov": 4298,
      "Ġ|": 4299,
      "Ð¸ÑĤÑĥÑĤ": 4300,
      "ĠÐļÑĢÐ°Ñģ": 4301,
      "ĠÐºÐ¾Ð¼Ñĥ": 4302,
      "ĠÐ¿Ð¾Ð»Ð¾Ð¶ÐµÐ½Ð¸Ðµ": 4303,
      "ab": 4304,
      "ĠÐĳÐ°ÑĢ": 4305,
      "ÑĩÐ¸ÐºÐ°": 4306,
      "ĠÐ¿ÑĭÑĤÐ°ÑıÑģÑĮ": 4307,
      "ĠÑģÑĤÑĢÐ°Ð½Ðµ": 4308,
      "ĠÐ¾ÑĤÐ½Ð¾ÑĪÐµÐ½Ð¸Ð¸": 4309,
      "ĠÐ¸Ð·Ð²ÐµÑģÑĤÐ½Ð¾": 4310,
      "ĠÐ½Ð°ÑģÑĤÐ¾ÑıÑīÐµÐµ": 4311,
      "ÑĪÐ¸ÑģÑĮ": 4312,
      "ÐµÐ´Ð¶": 4313,
      "ÐµÐ¹ÑģÑı": 4314,
      "all": 4315,
      "ĠÐ½Ñĭ": 4316,
      "ĠÑģÐ¼Ð¾Ð¶": 4317,
      "ĠÑģÐ°Ð¼Ð¾ÑģÑĤÐ¾ÑıÑĤÐµÐ»ÑĮ": 4318,
      "ĠÑĥÑģÐ»ÑĥÐ³": 4319,
      "ĠÐĴÐµÑĢ": 4320,
      "ĠÐ²Ð¸Ð½Ð¾Ð²": 4321,
      "ĠÑħÐ¾Ð»": 4322,
      "Ġ40": 4323,
      "ĠÑģÑĢÐ¾Ðº": 4324,
      "ĠÐ´ÐµÐ¼Ð¾Ð½": 4325,
      "ĠThe": 4326,
      "ĠÐ¿Ð¾ÑģÑĢÐµÐ´": 4327,
      "ĠÑģÐ¸Ð»ÑĮÐ½ÐµÐµ": 4328,
      "ĠÐ²Ð°Ð¼Ð¸": 4329,
      "ĠÐ³Ð»ÑĥÐ±Ð¾Ðº": 4330,
      "Ð¿ÑĢÐµÐ´ÐµÐ»": 4331,
      "ĠÐ½ÐµÐ²ÐµÑĢ": 4332,
      "ĠÑĢÐ°ÑģÑĤÐ²": 4333,
      "ĠÑĥÑģÑĤÑĢÐ¾": 4334,
      "Ð°Ð´Ñĭ": 4335,
      "Ð»Ð¾Ðº": 4336,
      "ĠÑĢÐµÐºÐ¾Ð¼ÐµÐ½": 4337,
      "ĠÑģÐµÐ·": 4338,
      "Ð¾Ð´Ð½Ð¾": 4339,
      "ĠÐ¿Ð¾Ð³Ð¾Ð²Ð¾ÑĢ": 4340,
      "ÑĢÐ¾ÑģÐ»": 4341,
      "ĠÐ´Ð¾Ð»Ð»Ð°ÑĢÐ¾Ð²": 4342,
      "ÑıÐ»Ð°ÑģÑĮ": 4343,
      "ĠÐ´Ð¾ÑģÑĤÐ¸Ð¶": 4344,
      "ĠÐ¿Ð¾Ð´ÑĢÐ¾Ð±": 4345,
      "ĠÑģÑĤÑĢÐ°ÑĤ": 4346,
      "ĠÐºÐ°ÐºÐ¸Ñħ": 4347,
      "ĠÑģÑĦ": 4348,
      "ĠÑĦÐ¾ÑĢÐ¼Ñĭ": 4349,
      "Ð¾Ñĥ": 4350,
      "ĠÑĦÐ¾ÑĢÐ¼Ðµ": 4351,
      "ÐµÐ·Ð´Ð°": 4352,
      "ĠÐºÐ¾Ð¼Ð°Ð½Ð´Ñĭ": 4353,
      "ĠÑģÐ¾Ð²Ð¼ÐµÑģÑĤ": 4354,
      "Ð¾ÑģÐ¿": 4355,
      "ĠÐ¿Ð¾Ð»Ñı": 4356,
      "Ð½Ð¸Ð»Ð°": 4357,
      "ĠÐ½Ð¾Ð¶": 4358,
      "Ð¾Ð»Ð³Ð¾": 4359,
      "Ð½Ð¸ÑģÑĤ": 4360,
      "ĠÑģÐµÐºÑĥÐ½Ð´": 4361,
      "ĠÑģÑĤÐ¾Ð»ÑĮÐºÐ¾": 4362,
      "ĠÐ¿Ð¾ÑĨÐµÐ»": 4363,
      "ĠÑĩÐµÑģÑĤ": 4364,
      "ĠÐ½ÐµÐ²Ð¾Ð·Ð¼Ð¾Ð¶Ð½Ð¾": 4365,
      "ĠÐ²Ð¾Ð¾ÑĢÑĥÐ¶": 4366,
      "ĠÐ¿ÐµÑĢÐ²ÑĥÑİ": 4367,
      "?-": 4368,
      "Ð¾Ð½ÑĮ": 4369,
      "Ð»ÑĥÐ¶": 4370,
      "ĠÑĥÐ´Ð°": 4371,
      "ĠÐ¿ÑĢÐ¾ÑĦÐµÑģÑģÐ¸Ð¾Ð½": 4372,
      "ĊĊ": 4373,
      "ÑıÑĤÐ¾": 4374,
      "ist": 4375,
      "ÑĢÑĥÐ³Ð¾Ðµ": 4376,
      "ÑĭÐ²Ð°Ð»Ð¸": 4377,
      "Ð»ÐµÐ½Ð½ÑĭÐ¹": 4378,
      "Ð¾ÐºÐµ": 4379,
      "ÐµÐ³Ð¾ÑģÑı": 4380,
      "Ð¸ÑĨÐ¸Ñı": 4381,
      "ĠÑģÐ°Ð¼ÑĭÐµ": 4382,
      "ĠÐ·Ð°ÑĩÐµÐ¼": 4383,
      "ĠÐ·Ð°Ð±Ð¾ÑĤ": 4384,
      "ĠÑģÐ»ÑĥÑĩÐ°ÑıÑħ": 4385,
      "ĠÐĳÐ¾Ð»ÑĮÑĪ": 4386,
      "ĠÐ·Ð°Ð´ÐµÑĢÐ¶": 4387,
      "ĠÐ´Ð»": 4388,
      "Ġ24": 4389,
      "ĠÐºÑĢÐ¸Ñĩ": 4390,
      "Ð¼Ð¸ÑĤÐµ": 4391,
      "ĠÑĢÐ°Ð½ÐµÐµ": 4392,
      "ĠÐ´Ð¾Ð¼Ðµ": 4393,
      "Ð°Ð»ÑĮÐ½Ð¾ÑģÑĤÐ¸": 4394,
      "ĠÑĤÐµÑĢÐ¿": 4395,
      "ĠÐºÐ¾ÑĢÐ¾Ð»ÐµÐ²": 4396,
      "ĠÑıÐ·ÑĭÐºÐ°": 4397,
      "ww": 4398,
      "Ð°Ð¹ÑĤÐµÑģÑĮ": 4399,
      "ĠÑĪÐºÐ¾Ð»Ñĭ": 4400,
      "Ð°Ð¼Ð¿": 4401,
      "Ð¾ÑĢÑĥ": 4402,
      "ĠÐ±Ð»Ð¸Ð¶Ðµ": 4403,
      "Ð»ÐµÐ±": 4404,
      "Ð°Ð½ÑĤÐ¾Ð²": 4405,
      "ĠÑģÐ¸Ð¼Ð¿ÑĤÐ¾Ð¼": 4406,
      "ÑĢÐ¾ÑĦ": 4407,
      "Ð¸Ð²Ð°Ð»Ð°": 4408,
      "ĠÐ´Ð¾ÑħÐ¾Ð´": 4409,
      "Ð¾Ð³Ð¸": 4410,
      "Ð¸Ð·Ð¼Ð°": 4411,
      "ĠÐ»ÑİÐ±Ð¾Ð²ÑĮ": 4412,
      "://": 4413,
      "Ð¾Ð²Ð¾": 4414,
      "ĠÐ¾Ð±ÑģÑĤ": 4415,
      "ĠÑĦÐµÐ²": 4416,
      "ĠÐ¿ÑĢÐµÐ´ÐµÐ»": 4417,
      "ĠÐ¼ÐµÐ´Ð¸ÑĨ": 4418,
      "ĠÐ¾ÑĩÐµÐ²Ð¸Ð´": 4419,
      "ĠÐ¾ÐºÐ°Ð·Ð°Ð»ÑģÑı": 4420,
      "ĠÐłÐ°Ñģ": 4421,
      "ĠÑģÐ¾Ð¿ÑĢÐ¾Ð²": 4422,
      "ÑĦÑĢ": 4423,
      "ĠÐ½Ð°Ð´Ðµ": 4424,
      "ĠÑĥÑĤÐ²ÐµÑĢÐ¶Ð´": 4425,
      "ĠÑģÐµÐ¼ÐµÐ¹": 4426,
      "ÑĥÐ¶Ðµ": 4427,
      "ĠÐ½Ð¾Ð²Ð¾Ð¹": 4428,
      "ĠÑĥÑĩÐ°ÑģÑĤÐ¸Ðµ": 4429,
      "ĠÐ¼Ð°Ñı": 4430,
      "ÑĦÐ¸Ðº": 4431,
      "ĠÑĩÑĥÐ²ÑģÑĤÐ²Ð°": 4432,
      "ĠÐºÐ¾Ð½ÐµÑĩ": 4433,
      "Ð¸Ð²ÐµÑĤ": 4434,
      "ĠÑĢÐ°ÑģÑģÐ¼Ð¾ÑĤÑĢ": 4435,
      "ĠÐ¥Ð¾ÑĢÐ¾ÑĪÐ¾": 4436,
      "21": 4437,
      "Ð¾Ð¹ÑĩÐ¸Ð²": 4438,
      "ÑįÐ»ÑĮ": 4439,
      "ĠÐºÐ¾Ð»Ð»ÐµÐº": 4440,
      "Ð¡Ðº": 4441,
      "ĠÐ²Ð·ÑıÑĤÑĮ": 4442,
      "ĠÑĤÐ°ÐºÐ¾Ð¼": 4443,
      "ĠÐ¿ÐµÑĢÐµÐ²Ð¾Ð´": 4444,
      "ĠÑĩÐµÐ¼Ð¿Ð¸Ð¾Ð½": 4445,
      "ĠÑģÐ»Ð¾Ð²Ð°Ð¼": 4446,
      "Ð¾Ð¸": 4447,
      "ĠÐ´ÐµÐ¹ÑģÑĤÐ²Ð¸Ð¹": 4448,
      "Ð¸Ð½Ð¾Ð¼": 4449,
      "ĠÑĤÑĢÐ°Ð½ÑģÐ¿": 4450,
      "ÐŀÑģ": 4451,
      "ĠÐºÐ°ÑĤÐµÐ³Ð¾": 4452,
      "Ð¸ÑĤÐµÐ»ÑĮÐ½Ð¾ÑģÑĤÐ¸": 4453,
      "ĠÐºÐ¾ÑĦÐµ": 4454,
      "ÑĢÑĭÑĤÑĮ": 4455,
      "Ð¾Ð¶Ð´ÐµÐ½Ð¸Ðµ": 4456,
      "ĠÑģÐ»Ð°Ð²": 4457,
      "Ð¾Ð¶Ñĥ": 4458,
      "ÑĪÐ°": 4459,
      "ĠÐ´Ð¾Ð¼Ð°ÑĪ": 4460,
      "Ð´Ð°ÑİÑĤ": 4461,
      "ĠÐºÐ¾Ð¼Ð½Ð°ÑĤÑĭ": 4462,
      "ĠÑįÐºÑĢÐ°Ð½": 4463,
      "ÑĪÐ¸": 4464,
      "ĠÐĶÐ¾": 4465,
      "ĠÐ¶ÐµÐ½ÑīÐ¸Ð½Ñĭ": 4466,
      "ĠÐ¾Ð±Ð²Ð¸Ð½": 4467,
      "ĠÑģÐ¾ÑİÐ·": 4468,
      "ĠÑĢÐµÑĩÑĮ": 4469,
      "ĠÐ¾ÑĤÐ½Ð¾ÑģÐ¸ÑĤÐµÐ»ÑĮÐ½Ð¾": 4470,
      "ĠÐĹÐ°Ðº": 4471,
      "ĠÐ·Ð°Ð²Ð¸ÑģÐ¸Ð¼Ð¾ÑģÑĤÐ¸": 4472,
      "ĠÐ»Ð¾Ð²": 4473,
      "ĠÐ¼ÐµÑģÑıÑĨÐµÐ²": 4474,
      "ĠÐŁÐ°Ð²": 4475,
      "ÐµÐ¶Ð°Ð»": 4476,
      "ÐºÐ¾ÑģÑĤÐ¸": 4477,
      "ĠÐºÐ°Ð¶Ð´Ð¾Ð¹": 4478,
      "ĠÐ²Ð°Ð»": 4479,
      "ĠÑĦÑĥÑĤÐ±Ð¾Ð»": 4480,
      "Ð°ÑģÑĤÐ¸": 4481,
      "ĠÐºÑĢÐ¸Ðº": 4482,
      "ĠÐ¿Ð¾ÑıÑģ": 4483,
      "ĠÐ¿Ð¾Ð³Ð¸Ð±": 4484,
      "ĠÐ´Ð¸Ðº": 4485,
      "ĠÑĩÐ°Ð¹": 4486,
      "ĠÐ²Ð¾Ð²ÑģÐµ": 4487,
      "ĠÐ¿Ð¾ÑĢÑĤ": 4488,
      "ĠÐ²ÑĢÐµÐ¼ÐµÐ½ÐµÐ¼": 4489,
      "ĠÐ°ÑĤÐ°Ðº": 4490,
      "ĠÑĦÐ°Ð¹": 4491,
      "ĠÐºÐ½Ñı": 4492,
      "ÑģÑĤÐ²ÐµÐ½Ð½Ð°Ñı": 4493,
      "ĠÐ¿Ð¾Ð¿ÑĢÐ¾Ð±": 4494,
      "ĠÐĺÐ¼ÐµÐ½Ð½Ð¾": 4495,
      "ĠÐ½Ð°Ð¿Ð°Ð´": 4496,
      "ĠÐ²ÑĭÐ¶": 4497,
      "ĠÐ¿Ð»Ð°ÑģÑĤ": 4498,
      "Ð¾Ð¹Ð´ÐµÑĤ": 4499,
      "ĠÑĢÐµÐ¶Ð¸Ð¼": 4500,
      "ĠÐĵÐ¾ÑĢ": 4501,
      "Ð¾Ð³Ð°": 4502,
      "Ð³Ð¾Ð²Ð°ÑĢ": 4503,
      "ĠâĦĸ": 4504,
      "ĠÐ²ÑģÑĤÐ°Ð²": 4505,
      "ak": 4506,
      "âĢĻ": 4507,
      "ĠÐ½Ð°Ð·ÑĭÐ²Ð°ÐµÐ¼": 4508,
      "ĠÐ³Ð¾ÑģÐ¿Ð¾Ð´": 4509,
      "ĠÑĦÑĢÐ¾Ð½": 4510,
      "ĠÐ¸Ð½Ð´Ð¸Ð²": 4511,
      "ĠÐ±ÑĢÑİ": 4512,
      "ĠÑĢÐ°Ð·Ð½ÑĭÐµ": 4513,
      "ĠÐĳÐµÑĢ": 4514,
      "ĠÑĩÐ°ÑģÑĤÐ½Ð¾ÑģÑĤÐ¸": 4515,
      "ĠÐ¾ÑģÐ¾Ð·Ð½": 4516,
      "ĠÑģÑĤÑĢÐ°ÑĤÐµÐ³": 4517,
      "ĠÑģÐ²Ð¾Ñĳ": 4518,
      "Ð»Ð°Ð³Ð¾Ð´Ð°ÑĢ": 4519,
      "Ð¸ÑĢÐ°ÑĤÑĮ": 4520,
      "ÑĩÐ°": 4521,
      "ĠÐ³Ð°Ð»": 4522,
      "ĠÐ¸Ð¼ÐµÐ»": 4523,
      "ĠÑĪÑĥÑĤ": 4524,
      "ĠÑĢÐ¾Ð·": 4525,
      "ĠÐ¾Ð±ÑĬÐµÐ´Ð¸Ð½": 4526,
      "ĠÐ·ÐµÐ¼Ð»Ð¸": 4527,
      "ĠÐ»ÑİÐ±Ð²Ð¸": 4528,
      "ĠSt": 4529,
      "ĠÐ¾ÑĤÐºÑĢÑĭÐ»": 4530,
      "ĠÑģÐ¾Ð»Ð´": 4531,
      "ĠÐºÑĢÐ¾Ð²ÑĮ": 4532,
      "ĠÐ²Ð¾ÑĢ": 4533,
      "Ð»ÐµÐ´Ð¾Ð²": 4534,
      "Ð¸Ð½ÐºÐ¸": 4535,
      "ĠÐ²Ð¾Ð´Ñĥ": 4536,
      "ĠÐºÑĥÐ»ÑĮÑĤÑĥÑĢ": 4537,
      "ĠÐµÐ´Ð¸": 4538,
      "ĠÐ¿Ð¾ÑģÐ²": 4539,
      "ĠÐĲÐ·": 4540,
      "ĠÐ±ÑĢÐ°ÑĤÑĮ": 4541,
      "ÑģÑĤÐµÑĢ": 4542,
      "ĠÐ·Ð½Ð°Ð»Ð°": 4543,
      "ĠÐ¿Ð¾Ð»Ðµ": 4544,
      "ĠÐĵÐµÑĢÐ¼Ð¸": 4545,
      "ĠÐ·Ð°Ð±Ð¾Ð»ÐµÐ²Ð°Ð½Ð¸Ñı": 4546,
      "ew": 4547,
      "Ð½Ð¾ÑģÑĤÑĢÐ°Ð½": 4548,
      "ĠÑĢÐµÑĪÐ¸Ð»Ð°": 4549,
      "ĠÐ¸ÑģÐ¿Ð¾Ð»ÑĮÐ·Ð¾Ð²Ð°Ð½Ð¸Ñı": 4550,
      "ĠÐ¾Ð±ÑıÐ·Ð°ÑĤÐµÐ»ÑĮÐ½Ð¾": 4551,
      "ĠÐ¿Ð»Ð°ÑĤÑĮ": 4552,
      "ĠÑĨÐµÐ»Ð¾Ð¼": 4553,
      "Ð½Ð¾Ñĩ": 4554,
      "ÑĢÐµÑī": 4555,
      "ĠÐ¿ÑĢÐµÐ²ÑĢÐ°ÑĤ": 4556,
      "ĠÐ°Ð¿": 4557,
      "ĠÐ´ÑĥÐ¼Ð°ÑĤÑĮ": 4558,
      "Ð¿ÑĢÐ¾": 4559,
      "ÐµÐ¼Ð°ÑĤ": 4560,
      "Ð°Ð½Ð¾Ð¼": 4561,
      "Ð°Ð»Ð¾Ð¼": 4562,
      "ĠÑĢÐµÑģÑĥÑĢ": 4563,
      "ĠÐ¿ÑĢÐ¸ÐµÑħ": 4564,
      "ĠÐ½Ð¸ÐºÐ°ÐºÐ¸Ñħ": 4565,
      "ĠÑģÑĤÐ¸Ñħ": 4566,
      "ÐºÐ¾Ð³": 4567,
      "ĠÐ±Ð¸ÑĤ": 4568,
      "ÑĥÐ±Ð»Ð¸ÐºÐ¾Ð²": 4569,
      "Ð¼Ð¾Ð²": 4570,
      "ĠÐ»ÑİÐ´ÑıÐ¼": 4571,
      "ĠÐ¿Ð¾Ð´Ð°Ð²": 4572,
      "ĠÐ¾ÑģÐ½Ð¾Ð²Ð½Ð¾Ð¼": 4573,
      "ĠÑĤÐµÐ¼Ð½Ð¾": 4574,
      "ĠÐ½Ð°Ð´ÐµÐ¶": 4575,
      "ĠÐ½Ð°Ð·Ð²Ð°Ð½Ð¸Ðµ": 4576,
      "Ð°ÑĤÐµÐ»ÑĮÐ½ÑĭÑħ": 4577,
      "ĠÑģÐ²ÐµÑĢÑħ": 4578,
      "ĠÐļÑĥÑĢ": 4579,
      "ĠÐ´Ð¸Ð°Ð³": 4580,
      "pp": 4581,
      "ĠÐ½Ð°ÑģÐµÐ»ÐµÐ½Ð¸Ñı": 4582,
      "ĠÑģÐµÐºÑĢÐµÑĤ": 4583,
      "ĠÑģÐ¼Ð¾Ð¶ÐµÑĤ": 4584,
      "ĠÑĩÐµÑĤÑĭÑĢ": 4585,
      "Ð¸ÑĤÐµÐ»ÑĮÐ½Ð¾ÑģÑĤÑĮ": 4586,
      "Ð¸ÑĨÑĭ": 4587,
      "ĠÐ¼Ð¾Ðµ": 4588,
      "ĠÐ´Ð»Ð¸": 4589,
      "ĠÐºÑĥ": 4590,
      "ĠÐ¢Ð°ÐºÐ¶Ðµ": 4591,
      "ĠÐ¼Ð°Ð»ÑĮÑĩÐ¸Ðº": 4592,
      "ĠÐ¾ÑģÑĤÑĢÐ¾Ð²": 4593,
      "ĠÐ¾ÑħÐ¾ÑĤ": 4594,
      "ĠÑģÐ¸Ð¼Ð²Ð¾Ð»": 4595,
      "ĠÐ¿ÐµÑĢÐ²ÑĭÐ¼": 4596,
      "ĠÐ¾ÑĤÐ²ÐµÑĢ": 4597,
      "ĠÐºÐ¾ÑĤ": 4598,
      "ĠÑģÐ¾Ð³Ð»Ð°ÑĪ": 4599,
      "ĠÑģÐ¾ÑģÑĤÐ¾Ð¸ÑĤ": 4600,
      "Ð¸ÑĤÑĢ": 4601,
      "ĠÐ¿Ð¾Ð´Ð¿Ð¸Ñģ": 4602,
      "Ð¾ÐºÐ¾Ð»": 4603,
      "ĠÐ¾ÑĤÑĢÐ¸ÑĨ": 4604,
      "ĠÐ½Ð°ÑģÐºÐ¾Ð»ÑĮÐºÐ¾": 4605,
      "ĠÐ¿ÑĢÐ¸Ð²ÑĭÑĩ": 4606,
      "ĠÐ½Ð°ÑģÐ»ÐµÐ´": 4607,
      "ĠÐŃÐ¼": 4608,
      "ĠÐ¾Ð±Ð¼": 4609,
      "Ð¾ÑĤÑĮ": 4610,
      "ĠÐ¿Ð¾Ð·Ð²": 4611,
      "Ġ=": 4612,
      "ĠÐ¡Ð°Ð½": 4613,
      "ĠÐ²Ð°ÑĪÐ¸": 4614,
      "ub": 4615,
      "ĠÐ»ÑİÐ´ÑĮÐ¼Ð¸": 4616,
      "ĠÐ²Ð½ÐµÐ·Ð°Ð¿": 4617,
      "ÑĥÐ´Ð¸": 4618,
      "ÐµÐ¿ÐµÐ½Ð½Ð¾": 4619,
      "ĠÐ¿Ð¾ÑĤÐµÐ½ÑĨÐ¸": 4620,
      "ĠÐ¼ÐµÑĤÐ°Ð»": 4621,
      "ĠÐĺÑħ": 4622,
      "ĠÐ¿Ð¾Ð½ÑĢÐ°Ð²": 4623,
      "ĠÐ¸Ð·Ð¾Ð±ÑĢÐµÑĤ": 4624,
      "ÑģÐ¾Ð¼": 4625,
      "ĠÑģÐ¿ÐµÑĨÐ¸Ð°Ð»Ð¸ÑģÑĤ": 4626,
      "ĠÐºÑĥÑģ": 4627,
      "ÐŁÐ¾Ð»": 4628,
      "ĠÑĢÑĥÑĩ": 4629,
      "Ð¸Ð²Ð°Ð½Ð¸Ðµ": 4630,
      "ĠÐ¿Ð°ÑĢÑĤÐ½": 4631,
      "ĠÑĩÐµÑĢÑĤ": 4632,
      "ĠÐ·Ð²ÑĥÑĩ": 4633,
      "ĠÐ¼Ð°ÑĪÐ¸Ð½Ñĭ": 4634,
      "ĠÑģÐ¼ÐµÑĢÑĤÑĮ": 4635,
      "ĠÐ²ÑģÐµÐ¼Ð¸": 4636,
      "ĠÐ·ÐµÐ¼Ð»Ñİ": 4637,
      "ĠÐ¿ÑĢÐµÐ´Ñĥ": 4638,
      "Ð°ÑĤÐµÐ»ÐµÐ¼": 4639,
      "**": 4640,
      "ĠÐ³Ð³": 4641,
      "ĠÑĤÐº": 4642,
      "ĠÑĩÐµÐ»Ð¾Ð²ÐµÐºÐ¾Ð¼": 4643,
      "ÐļÐ¾Ð½": 4644,
      "ÑĢÐ¸ÑģÑĤÐ¸Ð°Ð½": 4645,
      "ĠÐºÐ¸Ð²Ð½ÑĥÐ»": 4646,
      "ĠÐĴÑģÑĳ": 4647,
      "ĠÐ²ÑĭÐ½Ñĥ": 4648,
      "Ð¾ÑĤÐµ": 4649,
      "ĠÑģÐ²ÐµÐ¶": 4650,
      "Ð¸Ð¹ÑģÐºÐ¾Ð¹": 4651,
      "ĠÑĢÐµÐºÐ»Ð°Ð¼": 4652,
      "ĠÐ´ÑĢÐ¾Ð¶": 4653,
      "ĠÐ¿ÑĢÐ¾ÐµÐºÑĤ": 4654,
      "Ð°Ð²ÐµÑĢ": 4655,
      "ÐºÐ½Ð¾Ð²": 4656,
      "ÑĨÐ°Ð¼": 4657,
      "ĠÑĥÑĢÐ¾Ðº": 4658,
      "ÐµÐ½ÐºÐ¾": 4659,
      "ÑĨÐµÑģÑģ": 4660,
      "ĠÑĢÐ°Ð·Ð°": 4661,
      "ÐµÐºÑĥ": 4662,
      "ĠÐ½Ð°ÑĩÐ°ÑĤÑĮ": 4663,
      "nd": 4664,
      "ĠÐ¢Ð°ÐºÐ¸Ð¼": 4665,
      "ĠÑĥÑĢÐ¾Ð²Ð½Ðµ": 4666,
      "ĠÐ¼ÑĭÑģÐ»ÑĮ": 4667,
      "200": 4668,
      "ĠÐ²Ð²ÐµÑĢÑħ": 4669,
      "ĠÐ³Ð»ÑıÐ´": 4670,
      "Ð°Ð²ÑĪÐ¸Ñħ": 4671,
      "ĠÐ¿ÑĢÐ¾ÑĤÑıÐ¶": 4672,
      "ÑĥÑģÐ»Ð¾Ð²": 4673,
      "ĠÐ½ÐµÐ¸Ð·Ð²ÐµÑģÑĤ": 4674,
      "ĠÐ²Ð¸Ð´ÐµÐ¾": 4675,
      "ĠÐ²ÑĭÐ³": 4676,
      "ĠÐ¾ÑĤÐ²ÐµÑĤÑģÑĤÐ²ÐµÐ½": 4677,
      "ĠÐ¿ÑĥÑģÑĤÑĮ": 4678,
      "Ġre": 4679,
      "ĠÑĤÑĢÑĥÐ±": 4680,
      "ĠÐ¿ÑĢÐ¾ÑıÐ²Ð»Ñı": 4681,
      "Ð½Ð¸ÑĩÐµ": 4682,
      "ĠÐ¿ÑĢÐµÐºÑĢÐ°ÑģÐ½Ð¾": 4683,
      "ĠÐ¡ÑĢÐµÐ´": 4684,
      "ÐµÐ½Ð³": 4685,
      "ĠÐ²Ð»Ð°ÑģÑĤÑĮ": 4686,
      "ĠÐ´Ð¸Ñģ": 4687,
      "Ð°ÑĤÑĥÑĢÐ°": 4688,
      "ĠÐ¾Ð±ÐµÑĢ": 4689,
      "ĠÐ¼ÑıÑģ": 4690,
      "ĠÑĩÐ¸ÑģÐ»Ð¾": 4691,
      "ĠÑĤÑıÐ¶ÐµÐ»Ð¾": 4692,
      "Ð°ÑĤÐµÐ»ÑĮÐ½ÑĭÐ¹": 4693,
      "ÐµÑģÐ°": 4694,
      "ĠÐ»Ð¸ÑģÑĤ": 4695,
      "ĠÐ¿ÑĢÐ¸Ð½ÐµÑģ": 4696,
      "ĠÐ¿Ð¾Ð·Ð¶Ðµ": 4697,
      "ĠÐ¿ÑĢÐ¾Ð³ÑĢÐ°Ð¼Ð¼Ñĭ": 4698,
      "ĠÐºÐ¾ÑĤÐ¾ÑĢÐ¾Ð¼Ñĥ": 4699,
      "ÑĥÑĤÑģÑı": 4700,
      "Ð½Ð¾ÑĢ": 4701,
      "ĠÐ²ÑĭÐ¸Ð³ÑĢ": 4702,
      "ĠÐ¿ÑĭÑĤÐ°Ð»ÑģÑı": 4703,
      "Ð½Ð°Ð¿": 4704,
      "ĠÐ§ÐµÑħ": 4705,
      "Ð°ÑģÐ°": 4706,
      "Ð´Ð¾Ð²": 4707,
      "Ġ22": 4708,
      "ĠÐ²ÐµÐ»Ð¸Ñĩ": 4709,
      "ÐµÑİÑģÑĮ": 4710,
      "ĠÑĥÐ²Ð°Ð¶": 4711,
      "ĠÑģÐ¾Ð¿ÑĢÐ¾ÑĤÐ¸Ð²": 4712,
      "Ð°ÑĤÐµÐ»ÑĮÑģÑĤÐ²Ð°": 4713,
      "ÑĩÐµÑĢÐ°": 4714,
      "ÐŁÐµÑĢÐ²": 4715,
      "Ð°ÑĩÐµÐ¼": 4716,
      "ĠÐ¿ÑĢÐµÐ¿Ð°ÑĢ": 4717,
      "ĠÑģÐ»Ð°Ð´": 4718,
      "Ð°Ð½Ð½ÑĥÑİ": 4719,
      "ĠÐ¾Ð±ÑīÐµÐ¼": 4720,
      "Ð»Ð¾Ñī": 4721,
      "ÑĥÑģÑĤÐ¸ÑĤÑĮ": 4722,
      "ĠÑĪÐ°Ð½Ñģ": 4723,
      "ĠÑįÐºÐ·": 4724,
      "ĠÑģÑĤÐ°Ð´": 4725,
      "ĠÐ¼Ð¾Ð¶ÐµÑĪÑĮ": 4726,
      "ĠÑĤÑĢÑĥÐ´Ð½Ð¾": 4727,
      "Ð¾ÑĤÐ¾Ñĩ": 4728,
      "Ð¸ÑĤÐ°ÑĢ": 4729,
      "ĠÐ´ÑĢÑĥÐ³Ð¾Ðµ": 4730,
      "ĠÑģÐ¿ÑĥÑģÑĤÑı": 4731,
      "ĠÐļÐ°Ð¶Ð´": 4732,
      "ĠÐºÐ°ÐºÑĥÑİ": 4733,
      "Ð²Ð¾Ð¹": 4734,
      "ĠÐ¿Ð¾Ð²Ð¾ÑĢ": 4735,
      "ÑĢÐµÐ±": 4736,
      "ĠÑĢÐ°Ð·Ð²ÐµÑĢ": 4737,
      "ĠÐ´Ð°ÐµÑĤ": 4738,
      "ĠÐ¿Ð¾ÑģÐ¿": 4739,
      "ĠÐ»ÐµÑĩ": 4740,
      "ÑıÑīÐ¸Ð¹": 4741,
      "ÐµÑĤÑĥ": 4742,
      "ÑĤÐ¾ÑĢÐ¾Ð¼": 4743,
      "ĠÐĻ": 4744,
      "Ð¸ÑĨÐµÐ¹": 4745,
      "ĠÐĴÐ¸Ð´": 4746,
      "ĠÐ½ÐµÐ¿Ð¾ÑģÑĢÐµÐ´": 4747,
      "Ð¾Ð²Ð¾Ðµ": 4748,
      "ÑİÐ±": 4749,
      "ĠÐ¿Ð¾ÑģÐ¼Ð¾ÑĤÑĢÐµÐ»Ð°": 4750,
      "ÐĹÐ°": 4751,
      "ĠÑĢÐ°Ð·Ð½Ð¾": 4752,
      "ĠÐ¿Ð°ÑĢÑĤÐ¸Ð¸": 4753,
      "ĠÐ²Ð¾Ð¿": 4754,
      "ĠÐ¾Ñħ": 4755,
      "ĠÑģÐ¾Ð¶Ð°Ð»": 4756,
      "ĠÐĵÐµÑĢÐ¼Ð°Ð½Ð¸Ð¸": 4757,
      "Ð°Ð¶Ð°": 4758,
      "ĠÐ¸Ð½Ð¾ÑģÑĤÑĢÐ°Ð½": 4759,
      "ĠÐĿÑĮÑİ": 4760,
      "ĠÐ¿ÑģÐ¸ÑħÐ¾Ð»Ð¾Ð³": 4761,
      "ĠÑĥÑģÑĤÐ°Ð²": 4762,
      "ĠÑģÐ°Ñħ": 4763,
      "ĠÑģÐ²Ð¸Ð´ÐµÑĤÐµÐ»ÑĮ": 4764,
      "ĠÑģÑĢÐ°Ð¶": 4765,
      "ĠÐ±ÑĥÑĤ": 4766,
      "ill": 4767,
      "ĠÑģÐ¼Ðµ": 4768,
      "ĠÐºÐ¾Ð´": 4769,
      "Ð°Ð´ÐµÐ¼": 4770,
      "ĠÐ²Ð¸Ð¶Ñĥ": 4771,
      "Ð½ÑıÐµÑĤ": 4772,
      "ĠÑĥÐ´Ð¾Ð²Ð»ÐµÑĤÐ²Ð¾ÑĢ": 4773,
      "Ð¼Ð°ÑĢ": 4774,
      "ÐŀÐ½Ð¸": 4775,
      "ĠÑģÐ¾Ð¾ÑĤÐ²ÐµÑĤÑģÑĤÐ²Ð¸Ð¸": 4776,
      "ÐµÐ½Ðµ": 4777,
      "ĠÐľÐ¸Ð½": 4778,
      "ĠÑģÐ»Ð¾Ð²Ð°Ð¼Ð¸": 4779,
      "ĠÐ½Ð¾Ð¼ÐµÑĢ": 4780,
      "ĠÑģÐ¾Ð·Ð´Ð°Ð½Ð¸Ñı": 4781,
      "Ð¹ÑĤÐµ": 4782,
      "ĠÐ²Ð·ÑĢÐ¾ÑģÐ»": 4783,
      "ĠÐ´Ð¾ÐºÑĥÐ¼ÐµÐ½ÑĤ": 4784,
      "qu": 4785,
      "Ġ:": 4786,
      "ort": 4787,
      "ĠÐ¿ÑĢÐ°Ð²Ð¸Ð»": 4788,
      "ĠÐ´ÐµÐ½ÐµÐ³": 4789,
      "ĠÑĢÐµÐ¼": 4790,
      "ĠÑįÐ½ÐµÑĢÐ³Ð¸Ð¸": 4791,
      "ĠÐ¿ÑĢÐµÑģ": 4792,
      "ĠÐ³Ð¾Ð»ÑĥÐ±": 4793,
      "Ð°ÑĤÐµÐ»ÑĮÐ½Ð¾Ð¹": 4794,
      "ĠÐ´Ð²ÑĥÐ¼Ñı": 4795,
      "ĠÑĥÑģÐ»Ð¾Ð²Ð¸Ñı": 4796,
      "ĠÑħÐ¸Ð¼": 4797,
      "ĠÑĦÐ¾Ð½": 4798,
      "ĠÑģÑĤÑĥÐ¿": 4799,
      "ĠÐ¾Ð±Ð°": 4800,
      "ÐºÐ»Ð°Ð´": 4801,
      "ĠÑģÑĤÑĢÐµÐ»": 4802,
      "Ð½Ð¾Ð³Ð¸Ðµ": 4803,
      "ÑĢÐ¾ÑĢ": 4804,
      "Ð°Ð»Ñĥ": 4805,
      "ĠÐ¿ÑĢÐ¾ÑĨÐµÐ´": 4806,
      "ĠÐ²ÑĭÑĪÐ»Ð°": 4807,
      "ĠÐ³Ð¸Ð±": 4808,
      "ÑĥÑİÑīÐ¸Ð¹": 4809,
      "ĠÐºÐ¾Ð¼Ð¿Ð°Ð½Ð¸Ñı": 4810,
      "ĠÐĽÐµ": 4811,
      "ĠÐ·Ð°Ð²Ð¸ÑģÐ¸ÑĤ": 4812,
      "ows": 4813,
      "ĠÐºÑĢÐ°Ð¹Ð½ÐµÐ¹": 4814,
      "Ð´ÑĢÑĥÐ³": 4815,
      "Ð¾ÑĩÐµÐº": 4816,
      "ĠÐ±Ð°Ð±": 4817,
      "Ð°Ð¶Ñĥ": 4818,
      "ĠÐ¾Ð±ÑģÑĤÐ¾ÑıÑĤÐµÐ»ÑĮ": 4819,
      "ĠÐ¿ÑĢÐ¸Ð½ÑıÑĤÑĮ": 4820,
      "24": 4821,
      "ĠÐºÑĢÐµÑģ": 4822,
      "ĠÐ°Ð²ÑĤÐ¾Ð¼Ð°ÑĤ": 4823,
      "Ð½Ð¸Ð²": 4824,
      "ĠÐ½ÐµÐ¿ÑĢÐ°Ð²": 4825,
      "Ð¾Ð±ÑĭÑĩ": 4826,
      "ĠÐ¾Ð´Ð½": 4827,
      "ĠÑĢÐ°Ð·Ð²Ð¸ÑĤÐ¸Ðµ": 4828,
      "ĠÐļÐ°Ð·": 4829,
      "Ð¶Ð¸": 4830,
      "ĠÐ¿ÑĢÐ¸Ð²ÐµÐ´": 4831,
      "Ð²ÐµÐ¹": 4832,
      "ĠÑģÐ°Ð»": 4833,
      "ÑĳÐ´": 4834,
      "ĠÐ·ÐµÐ»ÐµÐ½": 4835,
      "ĠÐ²ÑĭÑıÑģ": 4836,
      "ÐµÐºÐ¾ÑĤÐ¾ÑĢÑĭÐµ": 4837,
      "ĠÐ¾Ð±ÑĢÐ°Ð±Ð¾ÑĤ": 4838,
      "ra": 4839,
      "Ð¸Ð»Ð»Ð¸": 4840,
      "Ð¸ÑĤÐµÐ»ÑĮÐ½Ð°Ñı": 4841,
      "ĠÐºÐ°ÐºÐ¾Ð³Ð¾": 4842,
      "ĠÐ¿ÑĢÐ¸Ð¼ÐµÐ½Ñı": 4843,
      "ĠÐ°ÐºÐºÑĥ": 4844,
      "ĠÑĩÑĢÐµÐ·": 4845,
      "ÐµÐ¶Ð°Ð»Ð°": 4846,
      "ĠÐ½Ð°ÑĩÐ°Ð»ÑĮ": 4847,
      "ĠÐ¸ÑģÑĤÐ¾ÑĢÐ¸Ñı": 4848,
      "ĠÐ¿Ð¾Ð½ÑıÐ»Ð°": 4849,
      "ÑĤÐµÑģÑĮ": 4850,
      "Ð¾Ð¼Ð°": 4851,
      "ÐµÐ¼ÑģÑı": 4852,
      "ĠÐĶÑĥÐ¼": 4853,
      "ĠÐ²Ð¸Ð´Ð½Ð¾": 4854,
      "ĠÐ¿ÑĢÐ¸Ð´ÐµÑĤÑģÑı": 4855,
      "ĠÑģÐ»ÐµÐ´ÑĥÑİÑīÐ¸Ð¹": 4856,
      "ĠÐ²ÑĭÑģÐº": 4857,
      "ĠÐ±Ð¾Ð»ÑĮÑĪÐ¸Ð½ÑģÑĤÐ²Ð¾": 4858,
      "Ð°ÑĢÑı": 4859,
      "ĠÐ¿Ð¾ÑĪÐ»Ð°": 4860,
      "ĠÑĢÐ°ÑģÑģÑĤÐ¾Ñı": 4861,
      "ĠÑĢÐ°Ð·Ð»Ð¸ÑĩÐ½ÑĭÐµ": 4862,
      "ĠÐ²Ð¾ÑģÐ¿Ð¾Ð¼Ð¸Ð½": 4863,
      "ÑĳÑģ": 4864,
      "ĠÐ¾Ð±ÑıÐ·Ð°Ð½": 4865,
      "ĠÐ¾Ð³Ð¾": 4866,
      "ĠÐ¼Ð¸ÑģÑĤ": 4867,
      "ĠÑĦÐ¾ÑĤÐ¾": 4868,
      "ĠÑĢÐµÐ³Ð¸Ð¾Ð½": 4869,
      "ĠÐ¼Ð°ÑĤÐµÑĢ": 4870,
      "ĠÐ¸ÑĤÐ¾Ð³Ðµ": 4871,
      "ĠÐ½ÐµÑĩ": 4872,
      "ÑĭÐ²Ð°ÐµÐ¼": 4873,
      "Ð¾Ð²ÐµÑĢ": 4874,
      "Ð¾Ð¿Ð¾Ð»Ð¾Ð¶": 4875,
      "ÑģÑĤÐ²Ð°Ð¼Ð¸": 4876,
      "ĠÐ»ÑĮ": 4877,
      "Ð§Ð°ÑģÑĤÑĮ": 4878,
      "ĠÐ¿Ð°Ð¼ÑıÑĤÐ¸": 4879,
      "ĠÑĥÑĩÐ¸ÑĤ": 4880,
      "Ð¸ÑģÐ¾Ðº": 4881,
      "ĠÐ½ÐµÐ´ÐµÐ»Ñİ": 4882,
      "ĠÐ¾Ð±Ðµ": 4883,
      "ĠÑģÐµÐ½ÑĤÑıÐ±ÑĢÑı": 4884,
      "ĠÐ¿ÑĢÐµÐ´Ð¿Ð¾Ð»Ð¾Ð¶": 4885,
      "ĠÐ±ÑĢÐ¾Ð²": 4886,
      "ĠÐºÐ½Ð¾Ð¿": 4887,
      "ĠÐ¿Ð¾ÑģÐµÑĤ": 4888,
      "ĠÐ²ÐºÐ»ÑİÑĩÐ°Ñı": 4889,
      "ĠÐ¼ÐµÑħÐ°Ð½Ð¸Ð·": 4890,
      "ĠÑģÐ¼Ð¾ÑĤÑĢÑı": 4891,
      "ĠÐ·Ð°Ð¿Ð°Ð´": 4892,
      "ĠÐ³Ð¾Ð»Ð¾Ð²Ñĭ": 4893,
      "ĠÐ¸Ð·Ð±Ð°Ð²": 4894,
      "ĠÐºÐ¾Ð¼Ð¼Ñĥ": 4895,
      "ĠÑįÐºÑģÐ¿ÐµÑĢÐ¸Ð¼": 4896,
      "ĠÐ±ÑĭÑģÑĤÑĢÐµÐµ": 4897,
      "Ð¾Ð²ÑĥÑİ": 4898,
      "ĠÐ¸Ð³ÑĢÐ°ÑĤÑĮ": 4899,
      "ĠÐ±Ð»Ð¸Ð¶Ð°Ð¹": 4900,
      "ĠÐ½Ð°Ð²ÐµÑĢÐ½Ð¾Ðµ": 4901,
      "ÐĿÐµÑĤ": 4902,
      "ĠÑħÐ¾ÑĩÐµÑĤÑģÑı": 4903,
      "ÑĢÐ¸Ñģ": 4904,
      "ĠÑĤÑİ": 4905,
      "ĠÐ´Ð²Ð¸Ð¶ÐµÐ½Ð¸Ðµ": 4906,
      "Ð¸ÑĤÐµÐ»ÑıÐ¼Ð¸": 4907,
      "ĠÐ²Ð¸Ð½": 4908,
      "ĠÐ¸Ð¼ÐµÐ½": 4909,
      "ĠÑĥÑģÐ¿ÐµÐ»": 4910,
      "ĠÐ´ÑĢÑĥÐ³Ñĥ": 4911,
      "ĠÑĥÑĢ": 4912,
      "ĠÑıÐ·ÑĭÐºÐµ": 4913,
      "ĠÐ½Ð°Ð¼ÐµÑĢ": 4914,
      "ĠÐºÐ°ÑģÐ°ÐµÑĤÑģÑı": 4915,
      "ĠÐ¼Ð½ÐµÐ½Ð¸Ñİ": 4916,
      "ĠÐ§ÐµÑĢ": 4917,
      "Ð°Ð»ÑĮÐ½Ð¾ÑģÑĤÑĮ": 4918,
      "ĠÑĥÑģÐ¿Ð¾ÐºÐ¾": 4919,
      "ĠÑģÐ¾Ð·Ð´Ð°ÑĤÑĮ": 4920,
      "ĠÑģÑĭÐ½": 4921,
      "ĠÐ°ÑģÑģ": 4922,
      "ĠÐºÑĢÑĭÑĪ": 4923,
      "ĠÐķÑģÑĤÑĮ": 4924,
      "Ð»ÑıÐ½": 4925,
      "ÐºÑĥÐ¿": 4926,
      "ĠÐ¿ÑĥÑĤÐµÑĪÐµ": 4927,
      "ĠÐĳÐµÐ·": 4928,
      "ĠÐ·Ð¾Ð²": 4929,
      "ÐµÐ²ÑĭÑħ": 4930,
      "ĠÐ¡Ð¸ÑĢ": 4931,
      "Ð¿Ð»": 4932,
      "ĠÐĽÑİÐ±": 4933,
      "ĠÐ¿Ð¸ÑĪÐµÑĤ": 4934,
      "ĠÑĥÐ»Ð¸ÑĨÐµ": 4935,
      "ĠÑĢÑı": 4936,
      "ÑĤÐ¾Ð½Ð°": 4937,
      "ĠÑģÐ¸ÑģÑĤÐµÐ¼Ñĥ": 4938,
      "ĠÐ¿ÑĢÐ¸Ð´ÑĥÐ¼": 4939,
      "ĠÐľÐ¾Ð¶Ð½Ð¾": 4940,
      "ĠÐ²ÑĭÐ·Ð²": 4941,
      "ĠÐ·Ð°ÐºÑĢÑĭÐ²": 4942,
      "Ð°Ð¹ÑģÑı": 4943,
      "ĠÐ¼ÑĥÑĩ": 4944,
      "ÑıÑīÐµÐ³Ð¾": 4945,
      "ĠÐ½ÐµÐ¿ÑĢÐ¸ÑıÑĤ": 4946,
      "ĠÐ¾Ð±ÑģÑĥÐ¶Ð´": 4947,
      "ÑĳÐ³": 4948,
      "ĠÐ¿ÑĢÐ¾Ð¸Ð·Ð²Ð¾Ð´ÑģÑĤÐ²Ð°": 4949,
      "ĠÐ¿Ð¸ÑĢ": 4950,
      "Ð¾ÑĤÐ¾Ð¼": 4951,
      "ĠÐ¶ÐµÐ»Ð°Ð½Ð¸Ðµ": 4952,
      "ĠÐ³ÑĢÑıÐ·": 4953,
      "ĠÐĴÑĤÐ¾ÑĢ": 4954,
      "ĠÐ±Ð¾Ð»ÑĮÑĪÐ¾Ðµ": 4955,
      "ÑĢÐ°ÑĨÐ¸Ð¸": 4956,
      "ĠÐ¾Ð¿ÑĥÐ±Ð»Ð¸ÐºÐ¾Ð²": 4957,
      "ĠÑģÐºÑĢÑĭÐ²": 4958,
      "Ð½ÐµÐ½Ð¸Ð¹": 4959,
      "Ð°ÑĪÐ¸": 4960,
      "ĠÐķÑīÐµ": 4961,
      "ĠÐ¿Ð¾Ð¶Ð°Ð»ÑĥÐ¹ÑģÑĤÐ°": 4962,
      "ĠÐ°Ð´Ð¼Ð¸Ð½Ð¸": 4963,
      "Ð½Ð°Ð·Ð½Ð°Ñĩ": 4964,
      "ĠÐ²ÐµÑĤÐµÑĢ": 4965,
      "ĠÑĥÐ²Ð¸Ð´ÐµÐ»Ð°": 4966,
      "ĠÐ¸Ð·Ð¼ÐµÑĢ": 4967,
      "Ð¡Ð¢": 4968,
      "ĠÑģÐµÑĢÐµÐ´": 4969,
      "ĠÐºÑĢÐ°": 4970,
      "ĠÐ¿Ð¾Ð²Ð¾Ð´Ñĥ": 4971,
      "ĠÑģÑĤÐ°ÑĤÑĮÐ¸": 4972,
      "ĠÐ¿Ð¾Ð»Ð°Ð³": 4973,
      "ÑĥÐ½Ð´": 4974,
      "ĠÐ²ÑĭÐ´ÐµÑĢÐ¶": 4975,
      "ÐłÐµÐ¹ÑĤÐ¸Ð½Ð³": 4976,
      "og": 4977,
      "Ġ23": 4978,
      "ĠÑģÐ¿Ð¸Ð½Ð¾Ð¹": 4979,
      "ĠÑģÑħÐ¾Ð´": 4980,
      "ĠÐµÐ²ÑĢÐ¾Ð¿ÐµÐ¹": 4981,
      "ĠÐ½Ð°ÑĩÐ°Ð»Ð¾": 4982,
      "ĠÐ·Ð°Ð½ÑıÑĤ": 4983,
      "ĠÑģÐ²ÐµÑĤÐ°": 4984,
      "ĠÑĢÐ¾Ð´Ð°": 4985,
      "ĠÐ³ÑĢÐ°Ð¼": 4986,
      "Ð¹Ð´": 4987,
      "âĢ¢": 4988,
      "ĠÑģÐºÐ»Ð°Ð´": 4989,
      "ĠÐ³Ð¾Ð´Ð¾Ð²": 4990,
      "ĠÐ¿Ð¾ÑħÐ¾Ð´": 4991,
      "ĠÐ¶ÐµÑĢÑĤÐ²": 4992,
      "ĠÐĲÐ½Ð³Ð»Ð¸": 4993,
      "ĠÐ³Ð¸Ð¿": 4994,
      "ĠÐ¿ÑĢÐ¾Ñħ": 4995,
      "ĠÐºÐ¸Ð½Ð¾": 4996,
      "ĠÐ¿ÑĢÐ¸ÑģÑĤÑĥÐ¿": 4997,
      "ÑģÐºÐ°": 4998,
      "Ð°Ð½ÐµÐµ": 4999,
      "ĠÐłÑĥÑģ": 5000,
      "Ð¾Ð»ÑĮÐ·Ð¾Ð²": 5001,
      "ĠY": 5002,
      "ĠÑĪÐºÐ¾Ð»Ðµ": 5003,
      "ĠÑĩÐµÐ¼Ñĥ": 5004,
      "Ð°Ð²Ð°Ð»": 5005,
      "ĠÐ¿ÑĥÑĤÐµÐ¼": 5006,
      "ĠÐ¿Ð¾Ð´Ñģ": 5007,
      "ĠÑģÐ¸ÑĤÑĥÐ°ÑĨÐ¸Ñı": 5008,
      "ĠÐ¿Ð¾ÑģÐ¼Ð¾ÑĤÑĢÐµÑĤÑĮ": 5009,
      "Ð°ÑĤÐµÐ»ÑĮÐ½ÑĭÐµ": 5010,
      "ĠÐºÐ¾Ð½ÑĨÐ¾Ð²": 5011,
      "ĠÐ¿ÐµÑĢÐ²ÑĭÐµ": 5012,
      "ĠÐ¿Ð°Ð»ÑĮÑĨÑĭ": 5013,
      "ĠÐ½Ð°ÐºÐ°Ð·": 5014,
      "ĠÐ¾ÑĤÐºÑĥÐ´Ð°": 5015,
      "ÑİÑģÑĮ": 5016,
      "ĠÐ»ÐµÑĩÐµÐ½Ð¸Ñı": 5017,
      "Ð¼Ð¾ÑĤÑĢÑı": 5018,
      "Ð¸Ð½Ð´": 5019,
      "ĠÑģÐ¾Ð³Ð»Ð°ÑģÐ½Ð¾": 5020,
      "ct": 5021,
      "ĠÐºÐ¾Ð»ÑĮ": 5022,
      "ft": 5023,
      "ÑĤÐ¸ÑĢÑĥ": 5024,
      "ĠÐ´Ð½Ð¸": 5025,
      "ĠÐ¾Ð±Ð»ÐµÐ³": 5026,
      "ĠÐķÐ¼Ñĥ": 5027,
      "ĠÐ·Ð°ÐºÐ°Ð·": 5028,
      "ĠÑħÐ¾Ð´Ðµ": 5029,
      "Ð¸ÑĦÐ¸Ðº": 5030,
      "ĠÑģÐµÑĢÐ´ÑĨÐ°": 5031,
      "ĠÐ±ÑĢÐ°ÑĤÐ°": 5032,
      "ĠÐĴÐ¾Ð·Ð¼Ð¾Ð¶Ð½Ð¾": 5033,
      "ĠÐ·Ð½Ð°ÐµÑĤÐµ": 5034,
      "ĠÐ·Ð½Ð°Ð¼ÐµÐ½": 5035,
      "Ð¸ÑĢÐ¾Ð²Ð°Ð»Ð¸": 5036,
      "Ð·Ð¸": 5037,
      "ĠÑĤÐ°ÐºÑĥÑİ": 5038,
      "Ð¸Ð¼Ð°Ñı": 5039,
      "ĠÑģÐ¿Ð°ÑĤÑĮ": 5040,
      "ĠÐ²Ð·ÑĢÑĭÐ²": 5041,
      "Ġon": 5042,
      "ĠÐ»Ð¸ÑĨÐ¾Ð¼": 5043,
      "ĠÑģÑĤÐ°Ð½Ð´Ð°ÑĢÑĤ": 5044,
      "ĠÑĦÑĥÐ½ÐºÑĨÐ¸Ð¸": 5045,
      "Ð¼ÐµÑĪ": 5046,
      "Ð¸ÑĢÐµ": 5047,
      "ĠÐ·Ð²ÑĥÐº": 5048,
      "ĠÑģÐ¾ÑĩÐµÑĤ": 5049,
      "ĠÐ¤ÑĢÐ°Ð½ÑĨÐ¸Ð¸": 5050,
      "Ð½Ð¸ÐºÐ°Ð¼": 5051,
      "ĠÐ¼Ð°Ð¼Ð°": 5052,
      "Ð¾ÑĢÐ¾": 5053,
      "ÐļÐ¾Ð¼": 5054,
      "ĠÐ¸Ð½Ð²ÐµÑģÑĤ": 5055,
      "ĠÐ²ÑģÐ¿Ð¾Ð¼Ð¸Ð½": 5056,
      "indows": 5057,
      "ĠÑĩÐ°ÑģÑĤÑĮÑİ": 5058,
      "Ð°ÑİÑīÑĥÑİ": 5059,
      "ĠÐ²Ð´Ð¾Ñħ": 5060,
      "ĠÐ²ÐµÑĢÑĤ": 5061,
      "ĠÑģÐºÐ²Ð¾Ð·ÑĮ": 5062,
      "ÑĩÐ¸ÐºÐ¸": 5063,
      "ĠÐĴÐ¾ÑģÑĤ": 5064,
      "ĠÐ¶Ð°ÑĢ": 5065,
      "Ð²ÐµÑģÑĤÐ¸": 5066,
      "Ð³Ð°ÑĢ": 5067,
      "ĠÐ¿ÑĢÐµÐ·Ð¸Ð´ÐµÐ½ÑĤ": 5068,
      "ĠÐ¿Ð°": 5069,
      "ine": 5070,
      "ÑĥÐ´Ð¾Ð²": 5071,
      "ĠÐ²Ð¾Ð·Ð±": 5072,
      "ĠÐĵÐ¾ÑģÐ¿Ð¾Ð´": 5073,
      "ÑĭÐ´ÑĥÑī": 5074,
      "ĠÑģÐ¾Ð¾Ð±ÑīÐ°ÐµÑĤ": 5075,
      "ĠÐ°Ð²Ð¸": 5076,
      "ĠÐ¡Ð¿Ð°ÑģÐ¸Ð±Ð¾": 5077,
      "ĠÐ¼ÐµÐ´Ð¸ÑĨÐ¸Ð½": 5078,
      "Ð¾Ð³ÑĢÐ°Ð¼": 5079,
      "ĠÐ¿ÑĢÐ¸Ð²Ð¾Ð´Ð¸ÑĤ": 5080,
      "ĠÐ¿Ð¾ÑĨÐµÐ»Ð¾Ð²": 5081,
      "ĠÐ²Ð¾Ð´Ð¾Ð¹": 5082,
      "ĠÐ³Ðµ": 5083,
      "ĠÐ²ÑĭÐ½ÑĥÐ¶": 5084,
      "ÐµÐ´Ð»Ð¸Ð²": 5085,
      "ÑīÐ¸Ðº": 5086,
      "ĠÑĩÑĳÐ¼": 5087,
      "23": 5088,
      "ĠÐ´ÐµÑģÑıÑĤÑĮ": 5089,
      "Ð°Ð½ÑĤÐ°": 5090,
      "ÑĥÐ´ÑĢ": 5091,
      "ÑĥÑĩÐ¸": 5092,
      "ÑĭÐ²Ð°Ð»Ð°": 5093,
      "ĠÑĪÐ°ÑĢ": 5094,
      "Ð¸Ð»ÑĮÐ½Ð¾": 5095,
      "Ð¾ÑħÑĢÐ°Ð½": 5096,
      "Ð¸Ð»Ðµ": 5097,
      "Ġfor": 5098,
      "ĠÐ±Ð¾Ð»ÑĮÑĪÐ¸Ð¼": 5099,
      "ĠÐ°Ð±ÑģÐ¾Ð»ÑİÑĤÐ½Ð¾": 5100,
      "ÑĭÐ»Ð¸": 5101,
      "ÐµÐ´Ð°": 5102,
      "ÑĤÐµÑĢÐ½": 5103,
      "ĠÐ½ÐµÐ±Ð¾Ð»ÑĮÑĪÐ¾Ð¹": 5104,
      "ĠÐ¼Ð°ÑĢÑĤÐ°": 5105,
      "art": 5106,
      "ĠÑģÐ¸Ð´ÐµÐ»": 5107,
      "ĠÐ²Ð¾Ð·Ð»Ðµ": 5108,
      "ĠÑĤÐ²Ð¾Ð¹": 5109,
      "Ð¢ÐµÐ³Ð¸": 5110,
      "ĠÐ¸ÑģÐ¿ÑĢÐ°Ð²": 5111,
      "Ð²ÑĤÐ¾ÑĢ": 5112,
      "Ð¸Ð²Ð¾": 5113,
      "ĠÑģÐºÑĢ": 5114,
      "ĠÐ¾ÐºÑĤÑıÐ±ÑĢÑı": 5115,
      "ĠÐ³Ð»Ð°Ð²Ð½Ð¾Ðµ": 5116,
      "Ð¾ÐµÐ´Ð¸Ð½": 5117,
      "ĠÐ¿ÑĢÐ¸Ð²ÑĭÐº": 5118,
      "ĠÐ¿Ð¾Ð´ÑĩÐ¸Ð½": 5119,
      "ĠÐ¿ÑĢÐ¾Ð±Ð»ÐµÐ¼Ð°": 5120,
      "ĠÑģÐ¾ÑģÑĤÐ°Ð²Ð»ÑıÐµÑĤ": 5121,
      "ĠÐ¸Ð±Ð¾": 5122,
      "ĠÑĤÐµÑħÐ½Ð¸ÑĩÐµÑģÐº": 5123,
      "ĠÑĤÑĢÐµÐ²": 5124,
      "Ġ195": 5125,
      "ĠÐ¸ÑģÐ¿ÑĥÐ³": 5126,
      "ĠÐ¿Ð¾Ð¹Ð¼": 5127,
      "ÑģÑĤÑĢÐµÐ»": 5128,
      "ĠÑĥÐ»ÑĭÐ±ÐºÐ¾Ð¹": 5129,
      "ĠÑįÐ»ÐµÐºÑĤÑĢÐ¾Ð½": 5130,
      "ÑĪÐµÐ±": 5131,
      "ÐĿÐ°Ð¿": 5132,
      "ĠÑħÑĥÐ´Ð¾Ð¶": 5133,
      "ÐµÐ½Ñĥ": 5134,
      "ĠÑģÐµÑĤÐ¸": 5135,
      "ĠÐ¼Ð¾ÑĤÐ¸Ð²": 5136,
      "ĠÑĤÐ¸ÑĪ": 5137,
      "ĠÑĥÐ³Ð¾Ð»": 5138,
      "ĠÑģÐ¼ÑĭÑģÐ»Ðµ": 5139,
      "ĠÑĥÐ¿ÑĢÐ°Ð¶": 5140,
      "ĠÑģÐºÑĥÑĩ": 5141,
      "Ġ$": 5142,
      "ĠÐ²Ð²ÐµÐ´": 5143,
      "ĠÐ¿ÐµÑĢÐ²ÑĭÑħ": 5144,
      "Ð°ÐºÐ¾Ð¼": 5145,
      "ĠÐ±ÑĭÐ²Ð°ÐµÑĤ": 5146,
      "ĠÐ¸Ð³ÑĢÐ¾Ðº": 5147,
      "ĠÐºÐ¾Ð½ÑģÑĤÑĢÑĥÐº": 5148,
      "ĠÐ¿Ð¾Ð²ÐµÑĢÑħÐ½Ð¾ÑģÑĤÐ¸": 5149,
      "Ġr": 5150,
      "ĠÐ±Ð°ÑĤ": 5151,
      "Ð¿ÑĢÐµÐ¶": 5152,
      "ĠÐ»ÐµÑģÑĤ": 5153,
      "ÑĥÑĢÑĥ": 5154,
      "ĠÐŁÐ¾ÑĤÐ¾Ð¼": 5155,
      "ĠÐ¸ÑģÑĤÐ¾ÑĢÐ¸Ñİ": 5156,
      "ĠÐ¿ÑĢÐµÐ²ÑĢÐ°Ñī": 5157,
      "Ð¸ÐºÐ¾Ð¹": 5158,
      "ĠÐ¿ÑĢÐ¾Ñī": 5159,
      "ĠÐ´ÑĢÑĥÐ·ÐµÐ¹": 5160,
      "ĠÐ¶Ð¸Ð²Ð¾ÑĤÐ½ÑĭÑħ": 5161,
      "ĠÑĪÐµÑģÑĤ": 5162,
      "ĠÐºÐ¼": 5163,
      "ĠÐ¿ÑĢÐµÐ´Ð½Ð°Ð·Ð½Ð°Ñĩ": 5164,
      "ĠÐŃÐ´": 5165,
      "ĠÐ³Ð»ÑıÐ´Ñı": 5166,
      "ÑĥÐ¶ÐµÐ»Ð¸": 5167,
      "ĠÐ¼Ð¾Ð¼ÐµÐ½ÑĤÐ°": 5168,
      "ÐŀÐĿ": 5169,
      "ĠÑģÐ¼ÐµÑĢÑĤ": 5170,
      "ĠÐ¼Ð¾Ð·Ð³Ð°": 5171,
      "ĠÐºÐ¾Ð¼Ð¿Ð¾Ð½": 5172,
      "ĠÑħÐ°ÑĢÐ°ÐºÑĤÐµÑĢÐ¸ÑģÑĤ": 5173,
      "ĠÐ¼ÐµÑĩÑĤ": 5174,
      "ĠÐºÐ°Ð»": 5175,
      "ĠÐ·Ð°ÐºÑĢÑĭÑĤ": 5176,
      "ĠÐ¿Ð¾ÑģÑĤÐµÐ¿ÐµÐ½Ð½Ð¾": 5177,
      "ĠÐ¿ÑĢÐ¾Ð³Ð¾Ð²Ð¾ÑĢ": 5178,
      "ik": 5179,
      "ĠÐłÐ¾Ð´": 5180,
      "ÐµÑģÐ¼Ð¾ÑĤÑĢÑı": 5181,
      "ÐŁÑĢÐµÐ´": 5182,
      "Ð¸Ð½ÑĤÐµÑĢÐµÑģÐ¾Ð²": 5183,
      "ĠÑģÑĭÐ½Ð°": 5184,
      "ĠÑģÐµÐºÑĥÐ½Ð´Ñĥ": 5185,
      "ĠÐ¿Ð¾Ð¼Ð¾Ð¶ÐµÑĤ": 5186,
      "ÐµÐ½Ð¸ÑıÐ¼": 5187,
      "Ð¾Ð»Ðµ": 5188,
      "ĠÐ¿ÑĢÐ¸ÑĪÐµÐ»": 5189,
      "ĠÐ´Ð¾Ñĩ": 5190,
      "ĠÐ²ÑĭÐ³Ð»ÑıÐ´ÐµÐ»": 5191,
      "Ð¸ÑĩÐµÐ³Ð¾": 5192,
      "ÑıÑīÐ¸Ñħ": 5193,
      "ĠÑĤÐµÐ¿Ð»": 5194,
      "ĠÐ±ÑĥÐ´ÐµÑĪÑĮ": 5195,
      "ĠÑĤÐµÐº": 5196,
      "Ġ60": 5197,
      "ĠÐ¼Ð°Ð»ÑĭÑĪ": 5198,
      "ÑĨÐ°Ñħ": 5199,
      "ĠÐ§ÐµÑĢÐµÐ·": 5200,
      "ĠÐ·Ð°Ð²ÑĤÑĢÐ°": 5201,
      "ĠÐ°ÑĢÑĤ": 5202,
      "ĠÐ»ÐµÐºÐ°ÑĢ": 5203,
      "ĠÐ²ÑĭÑģÑĤÐ°Ð²": 5204,
      "ĠÑĢÐ°Ð·Ð³Ð¾Ð²Ð°ÑĢ": 5205,
      "ĠÑģÑĤÐ¾ÑĢÐ¾Ð½Ðµ": 5206,
      "ĠÑĥÐ·Ð½Ð°": 5207,
      "ĠÐ»Ð¸Ð½Ð¸Ð¸": 5208,
      "Ð¸Ð¼Ð¾Ð¹": 5209,
      "Ð¸Ð±Ð»Ð¸Ð¾ÑĤ": 5210,
      "Ð½ÑıÐ»Ð¸": 5211,
      "Ġde": 5212,
      "ÐµÑĤÐ¾Ð¼": 5213,
      "ĠÐ¼ÑĥÐ¶ÑĩÐ¸Ð½Ñĭ": 5214,
      "ĠÐ±Ð¾Ð»ÑĮÑĪÑĥÑİ": 5215,
      ".\"": 5216,
      "ĠÐ¶Ð¸Ð»": 5217,
      "Ð¾Ð´Ð¾Ð²": 5218,
      "ĠÐ¾Ð¿ÑĢÐ°Ð²": 5219,
      "ĠÐ±ÑĥÐ´ÐµÑĤÐµ": 5220,
      "Ð¾ÑĢÐ²": 5221,
      "ard": 5222,
      "are": 5223,
      "Ġis": 5224,
      "ĠÑĢÐ°ÑģÑħÐ¾Ð´": 5225,
      "ĠÑĢÐµÐ·ÑĥÐ»ÑĮÑĤÐ°ÑĤÑĭ": 5226,
      "ÐµÑĢÐºÐ²Ð¸": 5227,
      "ĠÑĤÐµÑħÐ½Ð¾Ð»Ð¾Ð³": 5228,
      "ĠÐ´ÐµÐºÐ°Ð±ÑĢÑı": 5229,
      "ĠÐºÑĢÑĥÐ¶": 5230,
      "ĠÑģÐ¼Ð¾ÑĤÑĢÐ¸ÑĤ": 5231,
      "ĠÐ¾ÑĤÐ´ÑĭÑħ": 5232,
      "ĠÐ¼Ð¾Ð³Ð»Ð¾": 5233,
      "Ð¾ÑĢÐ¸Ñı": 5234,
      "ÑĥÐºÐ¾Ð²": 5235,
      "ĠÐ¸Ð½Ð´Ð¸Ð²Ð¸Ð´Ñĥ": 5236,
      "Ð¸ÑĢÐ°Ñı": 5237,
      "Ð¿Ð¾Ñģ": 5238,
      "ĠÐ²Ð·Ð°Ð¸Ð¼Ð¾Ð´ÐµÐ¹ÑģÑĤÐ²": 5239,
      "ÑģÐ»Ñı": 5240,
      "ĠÑģÐ°Ð¹": 5241,
      "Ð»ÑıÑİÑī": 5242,
      "ĠÑħÐ»Ð¾Ð¿": 5243,
      "Ġ21": 5244,
      "ĠÐ¿Ð¸ÑģÑĮÐ¼Ð¾": 5245,
      "ĠÐ¿ÑĢÐµÐ¿Ð¾Ð´": 5246,
      "Ð¸ÑģÑĤÐ¾Ð²": 5247,
      "ĠÐ°Ð½ÑĤÐ¸": 5248,
      "Ìģ": 5249,
      "ĠÑĤÑī": 5250,
      "ĠÐ¿Ð¸ÑģÐ°Ð»": 5251,
      "ÑĥÑİÑīÐµÐµ": 5252,
      "ĠÐ¾ÑģÑĤÐ°ÐµÑĤÑģÑı": 5253,
      "Ð¾Ð²Ð°ÑĢ": 5254,
      "ĠÐ¿Ð¾Ð´ÑĢÐ°Ð·": 5255,
      "ĠÐļÐ»": 5256,
      "ÐºÐ°Ñĩ": 5257,
      "ÑĭÐ²Ð°Ñİ": 5258,
      "ĠÐºÐ¾Ð¼Ð¼ÐµÐ½ÑĤ": 5259,
      "ĠÐ¾ÑĤÐ»Ð¸ÑĩÐ¸Ðµ": 5260,
      "ĠÑįÐ»ÐµÐ¼ÐµÐ½ÑĤ": 5261,
      "ÑıÐ½ÑĥÑĤ": 5262,
      "ĠÐ¼ÑĥÐ·ÑĭÐº": 5263,
      "ĠÐ·Ð½Ð°ÑĩÐ¸ÑĤÐµÐ»ÑĮÐ½Ð¾": 5264,
      "ĠÐ¿ÑĢÐ¾Ð¼ÑĭÑĪÐ»ÐµÐ½": 5265,
      "Ð¸ÑĢÐ°ÐµÑĤ": 5266,
      "ÐĲÑĢ": 5267,
      "ĠÑģÐ»ÑĥÑħ": 5268,
      "ĠÐĵÐ´Ðµ": 5269,
      "ĠÐ»ÑİÐ±Ð¸ÑĤ": 5270,
      "ĠÐĶÐµÐ²ÑĥÑĪÐºÐ°": 5271,
      "ĠÑĦÑĢÐ°Ð·": 5272,
      "ÑĪÑĤÐ°Ð±": 5273,
      "Ð¾ÑĤÐ²": 5274,
      "Ð¾Ð»Ðº": 5275,
      "ĠÐ¾Ð±Ð¾Ð·Ð½Ð°Ñĩ": 5276,
      "ÑįÑĤÐ¾": 5277,
      "ÐµÑīÐµÐ½Ð¸Ñı": 5278,
      "ĠÐĴÐ¸Ðº": 5279,
      "ĠÐ¡Ð¾Ñİ": 5280,
      "ĠÐ°Ð»ÐºÐ¾Ð³": 5281,
      "ook": 5282,
      "40": 5283,
      "ÐµÐ»Ð»Ð¸": 5284,
      "ÑĥÐ·Ñĭ": 5285,
      "ĠÐºÐ¾ÑĤÐ¾ÑĢÑĭÐ¼Ð¸": 5286,
      "ĠÐºÐ¾Ðµ": 5287,
      "ÑģÑĤÐ²Ð¸Ð¸": 5288,
      "ĠÐ¿Ð¾ÑħÐ¾Ð¶Ðµ": 5289,
      "ĠÐ¿ÑĢÐ¸Ð±Ð»Ð¸Ð¶": 5290,
      "ĠÑĢÐµÑĨ": 5291,
      "ĠÐ¢ÑĥÑĢ": 5292,
      "ĠÑıÑģÐ½Ð¾": 5293,
      "ĠÐ¿Ð¾ÑĪÐ»Ð¸": 5294,
      "ĠÑģÐ¾ÑģÑĢÐµÐ´": 5295,
      "ĠÐ¾ÑĤÐ½Ð¾ÑĪÐµÐ½Ð¸Ð¹": 5296,
      "ĠÑıÐ½Ð²Ð°ÑĢÑı": 5297,
      "ĠÐ²ÑģÐ»ÐµÐ´": 5298,
      "ÑģÑĤÐ²Ð°Ñħ": 5299,
      "ĠÐºÐ¾ÑĢÐ¼": 5300,
      "ĠÐ±Ñİ": 5301,
      "ĠÐºÐ¾Ð½ÐºÑĥÑĢ": 5302,
      "ĠÐ¿ÑĢÐ¾ÑĪÐ»Ð¾": 5303,
      "ĠÐ¿Ð»ÐµÑĩÐ¾": 5304,
      "ÑĢÐ°Ð¶Ð´": 5305,
      "ĠÐ¿ÑĢÐ¸Ð¾Ð±ÑĢÐµÑĤ": 5306,
      "Ð½Ð¾ÑģÑĤÑıÐ¼Ð¸": 5307,
      "Ð¸ÑĢÑĭ": 5308,
      "ĠÐ²ÐµÑģÑĤÐ¸": 5309,
      "ĠÐ¿ÑĢÐ¸Ð²ÐµÑģÑĤÐ¸": 5310,
      "ĠÐ¿Ð¾Ð´ÑĥÐ¼Ð°Ð»": 5311,
      "ĠÐ±ÐµÑģÐº": 5312,
      "ĠÐ¿Ð¾Ð²ÑĢÐµÐ¶Ð´": 5313,
      "ÑıÑīÐ¸Ðµ": 5314,
      "ĠÐ¡ÑĤÑĢ": 5315,
      "ĠÐ¾Ð¼": 5316,
      "ĠÐ´ÑĭÑĪ": 5317,
      "ĠÐĲÑĢÐ¼": 5318,
      "):": 5319,
      "ÐŀÐĴ": 5320,
      "Ð³Ðµ": 5321,
      "ĠÐŃÑĢ": 5322,
      "ĠÐ±ÑĥÐºÐ²Ð°Ð»ÑĮÐ½Ð¾": 5323,
      "Ð¼Ð¾ÑĤ": 5324,
      "ĠÐ²Ð»Ð¸ÑıÐ½Ð¸Ðµ": 5325,
      "ĠÐ¸Ð½ÑĤÐµÑĢÐµÑģÐ½Ð¾": 5326,
      "ĠII": 5327,
      "ĠÐ¾ÑģÐ²Ð¾Ð±": 5328,
      "ĠÐĲÐ±": 5329,
      "ĠÐĵÐ»Ð°Ð²": 5330,
      "ÑĭÐ²Ð°ÑĤÑĮÑģÑı": 5331,
      "ĠÑģÐ²ÑıÐ·ÑĮ": 5332,
      "ex": 5333,
      "Ð¾ÑĢÑıÐ´": 5334,
      "ĠÐ°Ð¼": 5335,
      "Ð»ÑıÐ»": 5336,
      "ĠÐ¾ÑģÑĤÐ°Ð»Ð¾ÑģÑĮ": 5337,
      "Ð»ÐµÐ½Ð½Ð¾Ð¹": 5338,
      "ĠÐºÐ¾ÑĢÑĢ": 5339,
      "ĠÑĥÐ¼Ð°": 5340,
      "ĠÑģÐ¾Ð´ÐµÑĢÐ¶Ð¸ÑĤ": 5341,
      "ĠÐ³ÑĢÑĥÐ¿Ð¿Ð°": 5342,
      "ĠÑģÐºÐ»Ð¾Ð½": 5343,
      "ĠÐºÑĢÐ¾Ð²Ð°ÑĤÑĮ": 5344,
      "ĠÐļÐ¸": 5345,
      "ĠÐľÐµÐ½Ñı": 5346,
      "ĠÐ¸ÑģÑĤÐ¸Ð½": 5347,
      "ĠÐłÐ¾Ð±": 5348,
      "ĠÐºÑĥÐ»": 5349,
      "ĠÐºÐ¾Ð¶Ð¸": 5350,
      "ĠÐ´ÑĥÑĢ": 5351,
      "ÐºÐ°Ð·": 5352,
      "ĠÐ²ÐµÑĢÐ½ÑĥÑĤÑĮÑģÑı": 5353,
      "ĠÐľÐ°ÑĢÐº": 5354,
      "ĠÐ¾Ð±ÑĬÐµÐ¼": 5355,
      "ĠÐ½Ð¾ÑıÐ±ÑĢÑı": 5356,
      "ĠÑģÐ´ÐµÐ»Ð°Ð»Ð°": 5357,
      "ĠÐŁÐ¾ÑĤÐ¾Ð¼Ñĥ": 5358,
      "ÐµÑĢÐµÐ¶": 5359,
      "ĠÑģÑĤÑĢÐ°Ð½Ð½Ð¾": 5360,
      "Ð¾Ð³Ð»Ð°ÑģÐ½Ð¾": 5361,
      "ĠÑĤÑĢÑĥÐ´Ð°": 5362,
      "ĠÐ»Ð¸ÑĤÐµÑĢÐ°ÑĤÑĥÑĢ": 5363,
      "ĠÐ¿Ð¾ÑģÐ²ÑıÑī": 5364,
      "ÐłÐĲ": 5365,
      "ĠÐ¾Ð±Ð»ÐµÐ³Ñĩ": 5366,
      "ĠÐ¿ÑĢÐ¾ÑĨÐµÑģÑģÐµ": 5367,
      "ĠÐ¿ÑĢÐµÐ´ÑĭÐ´ÑĥÑī": 5368,
      "ĠÐ½ÐµÐ´Ð°Ð²Ð½Ð¾": 5369,
      "ÐŀÐ´Ð½Ð°ÐºÐ¾": 5370,
      "ĠÐ¿ÑĢÐ¾ÑĤÑıÐ¶ÐµÐ½Ð¸Ð¸": 5371,
      "ÑģÐºÐ¾": 5372,
      "ĠÐ±Ð¾Ð»ÐµÐ·Ð½Ð¸": 5373,
      "ĠÐºÐ½Ð¸Ð³Ñĥ": 5374,
      "ĠÐ¼ÑĥÐ¶ÑĩÐ¸Ð½": 5375,
      "ĠÐ¸ÑģÐ¿Ð¾Ð»ÑĮÐ·ÑĥÐµÑĤÑģÑı": 5376,
      "ĠÐ°Ð²Ð³ÑĥÑģÑĤÐ°": 5377,
      "ĠÐ¾ÐºÐ½Ð¾": 5378,
      "Ð°ÐºÐ¾Ð½": 5379,
      "ĠÐ»Ð¾ÑĪ": 5380,
      "ÑĩÐµÑĢ": 5381,
      "ĠÐ½ÐµÑĦ": 5382,
      "Ð°ÐºÐ¾Ð½ÐµÑĨ": 5383,
      "ĠÐ¼Ð¸Ð¼Ð¾": 5384,
      "ÐµÐ²Ð°ÑĤÑĮ": 5385,
      "ÐºÐ¾ÑĢ": 5386,
      "Ð°ÑĤÐºÐ¸": 5387,
      "ĠÑģÐ»Ð¾Ð¶Ð½Ð¾": 5388,
      "ĠÐ¸Ð´Ð¸": 5389,
      "ant": 5390,
      "ĠÑĪÐµÐ»": 5391,
      "Ð²Ð°ÑĢÐ´": 5392,
      "!!!": 5393,
      "ĠÑģÐ¾Ð±ÑĭÑĤÐ¸Ñı": 5394,
      "ĠÐ¿Ð¾Ð´Ð±": 5395,
      "Ð¸ÑĨÐ¸ÑĢÐ¾Ð²": 5396,
      "ĠÑģÐ¼ÐµÑħ": 5397,
      "ĠÐ¾Ð±Ð½Ð¾Ð²": 5398,
      "ĠÐ²Ð¸Ð´Ð°": 5399,
      "ĠÐºÐ¾Ð½Ñĩ": 5400,
      "ĠÐ¡ÑĤÐ°ÑĢ": 5401,
      "ÐµÐ·Ð´Ðµ": 5402,
      "ĠÐ¸Ñī": 5403,
      "ĠÑĤÑĢÐµÑĤ": 5404,
      "Ð¿ÑĢÐ¾Ð²": 5405,
      "ĠÑĢÐµÑĪÐ¸Ð»Ð¸": 5406,
      "ĠÐ¸ÑİÐ½Ñı": 5407,
      "ĠÐ´Ð°Ð½Ð½ÑĭÐ¹": 5408,
      "ĠÐ´ÑĥÑĪÐ¸": 5409,
      "ĠÐĿÐ¸ÐºÐ¾Ð»": 5410,
      "ĠÐ±ÑĢÐ¸ÑĤÐ°Ð½": 5411,
      "ĠÐ¾ÑĤÑĩÐ°Ñı": 5412,
      "ĠÐ¿ÐµÑĢÐ²Ð¾Ð¼": 5413,
      "Ð¾Ð¿ÑĢÐ¸ÑıÑĤ": 5414,
      "Ð°Ð²Ð°Ñı": 5415,
      "Ð¾Ð¿Ð¸Ñģ": 5416,
      "ĠÐ¿Ð°Ð½": 5417,
      "ĠÐ¸Ð»": 5418,
      "ĠÑĤÐ°Ð»": 5419,
      "Ð»ÑıÑĤÑĮÑģÑı": 5420,
      "ĠÐºÐ¾Ð½ÐµÑĨ": 5421,
      "Ð¸ÑĨÐ°": 5422,
      "ÑĨÐ¾Ð¼": 5423,
      "ÑĤÐ¾Ðµ": 5424,
      "ĠÐ¼Ð¸Ð½ÑĥÑĤÑĥ": 5425,
      "ĠÐ²Ð¾ÑģÐ¿Ð¸ÑĤ": 5426,
      "ĠÐ¸Ð¼Ð¿": 5427,
      "Ð¾Ð±ÑĢÐ¸ÑĤ": 5428,
      "Ð°Ð²ÑĪÐ¸Ðµ": 5429,
      "ĠÐĿÐ°Ð¼": 5430,
      "Ð½Ð¾Ð·": 5431,
      "ĠÐ¼Ð¸Ð³": 5432,
      "Ð¾Ð±Ð¾ÑĢÐ¾ÑĤ": 5433,
      "ĠÐºÐ°ÑĢÑĮ": 5434,
      "ĠÐ¼ÐµÑģÑıÑĨ": 5435,
      "ĠÐ½ÐµÐ´ÐµÐ»Ð¸": 5436,
      "our": 5437,
      "ĠÑĤÑĢÐµÐ±Ð¾Ð²": 5438,
      "ĠÑģÐ¸Ð»Ð¾Ð¹": 5439,
      "ĠÐ¼Ð¸ÑĢÐ¾Ð²Ð¾Ð¹": 5440,
      "Ð¡Ð°Ð¼": 5441,
      "Ð»Ð¸Ð¼Ð¿": 5442,
      "ĠÐĿÐ°ÑģÑĤ": 5443,
      "ĠWindows": 5444,
      "ĠÐ°Ð¿ÑĢÐµÐ»Ñı": 5445,
      "ĠÑĥÑĩÐ°": 5446,
      "ÑĤÐ°Ñī": 5447,
      "ĠÐ²ÐµÑĢÐ½ÑĥÐ»ÑģÑı": 5448,
      "ĠÐ»ÐµÐ´": 5449,
      "ĠÐ°Ð½Ð°Ð»Ð¾Ð³": 5450,
      "ĠÐ³Ð¾Ð²Ð¾ÑĢÑİ": 5451,
      "ĠÐ¾ÐºÐ½Ð°": 5452,
      "ÑİÐ¶": 5453,
      "ĠÐ¿Ð¾ÑģÐ»ÐµÐ´Ð½ÐµÐµ": 5454,
      "ÑĢÐ°Ð¸Ð½": 5455,
      "ĠÐ±ÐµÑģÐ¿Ð»Ð°ÑĤ": 5456,
      "ÑĭÐ²Ð°Ð½Ð¸Ñı": 5457,
      "ell": 5458,
      "Ð°Ð»ÑĮÑıÐ½": 5459,
      "ĠÑĥÐºÑĢÐµÐ¿": 5460,
      "Ġ28": 5461,
      "Ð´Ð°ÑİÑī": 5462,
      "ĠÐ¸ÑģÐºÐ°ÑĤÑĮ": 5463,
      "ĠÐ¿Ð»ÐµÑĩÐ°Ð¼Ð¸": 5464,
      "Ð½Ð¾Ð´": 5465,
      "ĠÑģÐ¾Ð±ÑĭÑĤÐ¸Ð¹": 5466,
      "ĠÑĤÑĢÐ°Ð´Ð¸ÑĨÐ¸Ð¾Ð½": 5467,
      "ĠÐ¿ÑĢÐ¾ÑĨÐµÑģÑģÐ°": 5468,
      "ÐµÐ½ÑĮÐµ": 5469,
      "Ð¿ÐµÑĢÐ²": 5470,
      "Ð¸ÑĩÐ°": 5471,
      "ĠÐ²Ð¸ÑĤ": 5472,
      "ĠÐŁÐ¾ÐºÐ°": 5473,
      "Ð½Ð¸Ð¼Ð¸": 5474,
      "ĠÐ¾ÐºÐ°Ð·Ð°Ð»Ð¾ÑģÑĮ": 5475,
      "ĠÐ´Ð°Ð½Ð½Ð¾Ð¹": 5476,
      "ĠÑĢÐ°Ð¼ÐºÐ°Ñħ": 5477,
      "ĠÐ¡ÐµÑĢÐ³": 5478,
      "ĠÑīÐµÐº": 5479,
      "ĠÐ¾ÑģÐ½Ð¾Ð²Ð½ÑĭÑħ": 5480,
      "ĠÐ¾Ð´ÐµÐ¶": 5481,
      "ĠÐ¿Ð¾Ð´Ð²ÐµÑĢÐ³": 5482,
      "Ð¾Ð½Ð°Ñĩ": 5483,
      "ĠÐľÐ¾ÑĢ": 5484,
      "ĠÐ½Ð¾ÑĩÐ¸": 5485,
      "ĠÐ¸ÑİÐ»Ñı": 5486,
      "ĠÑĢÐ¾Ð»Ð¸": 5487,
      "Ġ*": 5488,
      "ĠÐ¿ÑĢÐ¾ÑĪÐ»Ð¾Ð¼": 5489,
      "ĠÐ§ÐµÐ¼": 5490,
      "ĠÑģÐµÐ»ÑĮ": 5491,
      "ĠÐ±ÐµÐ·ÑĥÐ¼": 5492,
      "ĠÐ´ÐµÐ¼Ð¾ÐºÑĢÐ°ÑĤ": 5493,
      "ÑĨÐµÐ»": 5494,
      "ĠÐ¢ÑĢ": 5495,
      "ĠÑģÐ¾ÑģÑĤÐ¾ÑıÐ½Ð¸Ñı": 5496,
      "ĠÐ½Ð¸ÐºÐ°ÐºÐ¾Ð³Ð¾": 5497,
      "ĠÐ²ÐµÑĢÐ¾ÑıÑĤÐ½Ð¾": 5498,
      "ÑıÐ±ÑĢÐµ": 5499,
      "ĠÐ²Ð¾Ð·ÑĢÐ°ÑģÑĤÐµ": 5500,
      "Ð·Ð´": 5501,
      "ÐµÑĢÐ±ÑĥÑĢÐ³": 5502,
      "eb": 5503,
      "ĠÐ·ÐµÐ¼Ð»Ðµ": 5504,
      "____": 5505,
      "ĠÐ³Ð¾Ð½": 5506,
      "ĠÑĦÐ¸ÑĢ": 5507,
      "ĠÐ´Ð°Ð½Ð½ÑĭÐ¼": 5508,
      "ĠÐ¾ÑĤÐ½Ð¾ÑģÐ¸ÑĤÑģÑı": 5509,
      "Ð°Ð½Ð´Ð°": 5510,
      "ÐĶÐµÐ²": 5511,
      "Ġ189": 5512,
      "ĠÐ·Ð½Ð°Ð½Ð¸Ñı": 5513,
      "ĠÐ¶Ð´Ð°ÑĤÑĮ": 5514,
      "ĠÑģÑĤÑĢÑĥÐºÑĤÑĥÑĢ": 5515,
      "ĠÑĢÐ°ÑģÑģÑĩÐ¸ÑĤ": 5516,
      "ĠÑĢÐµÑĩÐ¸": 5517,
      "ÑģÑĤÐ°Ð½": 5518,
      "ÑĢÐ¸ÐµÐ½ÑĤ": 5519,
      "ĠÐ·ÐµÑĢÐº": 5520,
      "ĠÑħÑĥÐ¶Ðµ": 5521,
      "ĠÐ¾ÑģÑĤÐ°Ð½": 5522,
      "ĠÑĨÐµÑĢÐºÐ¾Ð²": 5523,
      "Ð¾Ð¸Ð½": 5524,
      "ĠÑģÑĤÐ°Ðº": 5525,
      "ÑĢÐ¸ÑĢÑĥ": 5526,
      "ĠÐ¿ÑĢÐ¸Ð±Ñĭ": 5527,
      "ĠÐ½Ð°Ð·ÑĭÐ²Ð°ÐµÑĤÑģÑı": 5528,
      "ĠÐ¿Ð¾ÐµÐ·Ð´": 5529,
      "Ð°ÑĤÐµÐ»ÑĮÑģÑĤÐ²Ð¾": 5530,
      "ĠÐ½Ð°Ð¿ÑĢÐ¾ÑĤÐ¸Ð²": 5531,
      "ĠÐ³Ð¾Ð»Ð¾ÑģÐ¾Ð¼": 5532,
      "Ð°ÑĢÐ¸Ð¹": 5533,
      "ĠÐºÐ¾Ð½ÑĤÑĢÐ¾Ð»ÑĮ": 5534,
      "ĠÐ´Ð¸Ð·": 5535,
      "ĠÐ²ÐµÐ´ÑĥÑī": 5536,
      "ĠÐ²ÑĭÐ´Ð¾Ñħ": 5537,
      "Ð»ÑıÑĤ": 5538,
      "ĠÐķÐµ": 5539,
      "ĠÐ±Ð»Ð¾Ð½": 5540,
      "26": 5541,
      "ĠÑĪÐºÐ¾Ð»Ñĥ": 5542,
      ".:": 5543,
      "ĠÐ¼ÐµÑģÑıÑĨÐ°": 5544,
      "27": 5545,
      "ĠÐ½Ð¸ÐºÐ¾Ð³Ð¾": 5546,
      "ĠÐ½ÑĥÐ¶ÐµÐ½": 5547,
      "ĠÐ·Ð½Ð°ÑĩÐµÐ½Ð¸Ñı": 5548,
      "Ð¸ÑĤÐµÐ»ÑĮÐ½ÑĥÑİ": 5549,
      "Ð°ÑĤÐµÐ»ÑĮÐ½Ð¾Ð³Ð¾": 5550,
      "Ð¾ÑĢÑĤÐ°": 5551,
      "ÑĨÐ¸Ð¾Ð½Ð¸": 5552,
      "Ð»Ð°Ð¹Ð½": 5553,
      "ĠÐ±Ð¾Ð»ÑĮÑĪÐ°Ñı": 5554,
      "Ð¸Ð½Ð³Ð°": 5555,
      "ĠÐ°ÐºÐºÑĥÑĢÐ°ÑĤ": 5556,
      "ĠÐ¿ÑĢÐ¸Ð²ÐµÑĤ": 5557,
      "ĠÐ¿Ð¾Ð¼Ð¾Ð³Ð°ÐµÑĤ": 5558,
      "ÑĢÐ°Ð»Ñı": 5559,
      "ĠÑĢÐ¾Ð²": 5560,
      "ĠÐ¼Ð°ÑĪÐ¸Ð½": 5561,
      "ĠÑĨÐ¸ÑĦ": 5562,
      "Ð¾ÑĢÐ°Ñĩ": 5563,
      "ĠÐ¨ÑĤ": 5564,
      "ĠÐ²Ð¸Ð´ÐµÐ»Ð°": 5565,
      "ÑĮÐ¸": 5566,
      ".).": 5567,
      "Ð½ÑıÐºÐ°": 5568,
      "ĠÑĥÐ¼Ðµ": 5569,
      "ĠÑģÐ»ÐµÐ´ÑĥÑİÑīÐ¸Ðµ": 5570,
      "ver": 5571,
      "ĠÐ½ÑĥÐ¶Ð½Ð°": 5572,
      "Ð¼Ð¾Ð½": 5573,
      "ĠÐ¾ÑĦÐ¸ÑĨ": 5574,
      "Ð°Ð½Ð´Ð¸Ð´": 5575,
      "ÑĭÐ¶": 5576,
      "ĠÐ²Ð»Ð¸": 5577,
      "ĠÐĲÑħ": 5578,
      "ĠÐŀÐ¿": 5579,
      "ĠÑħÑĢÐ°Ð¼": 5580,
      "Ð±Ð¾Ð¹": 5581,
      "ĠÐĶÐ¶ÐµÐ¹Ð¼": 5582,
      "ĠÐ¾Ð±Ð¸Ð´": 5583,
      "ÑĥÑĪÐºÑĥ": 5584,
      "ĠÑĤÐ°ÐºÐ¸Ð¼Ð¸": 5585,
      "if": 5586,
      "ĠÐ¿Ð¾Ð·Ð½Ð°ÐºÐ¾Ð¼": 5587,
      "ĠÑĢÐ°Ð·Ð²ÐµÐ´": 5588,
      "ĠÑĢÐ¾Ð¶Ð´ÐµÐ½Ð¸Ñı": 5589,
      "ĠÑģÐ²ÑıÑĤ": 5590,
      "ĠÐ°Ð¿Ð¿Ð°ÑĢ": 5591,
      "ĠÐĺÐ²Ð°Ð½Ð¾Ð²": 5592,
      "ĠÐºÐ¸ÑĤÐ°Ð¹": 5593,
      "ĠÐ¾Ð¿ÐµÑĢÐ°ÑĨÐ¸Ð¸": 5594,
      "ĠÐµÑħ": 5595,
      "ĠÐ¿Ð»Ð°Ð²": 5596,
      "ĠÐĽÐ°Ð´Ð½Ð¾": 5597,
      "Ð¸Ð½Ðº": 5598,
      "Ð¾ÑĩÐ½ÑĭÑħ": 5599,
      "ĠÑĤÐµÐ¼Ñĥ": 5600,
      "ĠÐºÐ¸Ð»": 5601,
      "Ġ27": 5602,
      "Ð§ÑĤÐ¾Ð±Ñĭ": 5603,
      "ĠÐ¾Ð±ÑĢÐ°Ð·Ð¾Ð²Ð°Ð½Ð¸Ñı": 5604,
      "ĠÐ¾ÑĨÐµÐ½Ð¸": 5605,
      "Ð»Ð¸ÑĩÐµÑģÐº": 5606,
      "ĠÑģÑĭÐ³ÑĢ": 5607,
      "ĠÐ½Ð°Ð±Ð»Ñİ": 5608,
      "ĠÐºÑĢÐ°ÑĤ": 5609,
      "ĠÐ³ÑĢÑĥÐ·": 5610,
      "ÐµÐ²ÑĭÐµ": 5611,
      "ĠÐ¼Ð¾ÑģÑĤ": 5612,
      "ĠÐ³Ð¸": 5613,
      "ĠÐ¿Ð¾Ð´ÑĬ": 5614,
      "ĠÐĴÐ°Ð»": 5615,
      "ĠÑħÑĢÐ¸ÑģÑĤÐ¸Ð°Ð½": 5616,
      "ĠÐĿÐ°Ñĩ": 5617,
      "ĠÐ±ÑĢÐ¾Ð½": 5618,
      "ĠÐ²Ð¾Ð¿ÑĢÐ¾ÑģÐ¾Ð²": 5619,
      "ĠÐŀÐ´Ð¸Ð½": 5620,
      "ĠÑĪÐºÐ¾Ð»ÑĮ": 5621,
      "ĠÐ¿ÑĢÐ¾Ð´ÑĥÐºÑĤÐ¾Ð²": 5622,
      "ÑĢÐ°ÑīÐµÐ½Ð¸Ñı": 5623,
      "Ð¼Ð¾Ð¼": 5624,
      "ĠÑģÑĤÐµÐ½Ñĭ": 5625,
      "ĠÐ½ÐµÐ¿Ð¾Ð´": 5626,
      "ĠÐ¿ÑĤÐ¸": 5627,
      "ĠÑĩÐµÐ»Ð¾Ð²ÐµÐºÑĥ": 5628,
      "ĠÐ¾ÑģÑĤÐ°Ð»ÑĮÐ½ÑĭÐµ": 5629,
      "ÑĮÑİÑĤ": 5630,
      "ĠÐĿÐ°ÑĢ": 5631,
      "ĠÐ½Ð°ÑħÐ¾Ð´ÑıÑĤÑģÑı": 5632,
      "ĠÐ¿ÑĥÐ³": 5633,
      "ĠÑĩÑĤÐ¾Ð±": 5634,
      "ĠÐ½ÐµÐºÐ¾ÑĤÐ¾ÑĢÐ¾Ðµ": 5635,
      "ÑĨÐ°ÑĢ": 5636,
      "ĠÐĲÐ¼": 5637,
      "ĠÐ²Ð°ÑĪÐµ": 5638,
      "Ð½Ð¸Ñİ": 5639,
      "ĠÐĿÐ¾Ð²": 5640,
      "Ġ26": 5641,
      "ĠÐ½Ð¾Ð²ÑĥÑİ": 5642,
      "ĠÐĶÑį": 5643,
      "ĠÐºÐ»Ð°Ð´": 5644,
      "ĠÐ·Ð°Ð¹": 5645,
      "ĠÐĶÐ¾Ð½": 5646,
      "ĠÐ¾ÑĤÐ²ÐµÑĤÐ°": 5647,
      "ĠÐ¿ÑĢÐ¸ÑĪÐ»Ð°": 5648,
      "ĠÐ¿ÑĢÐ¾Ð½Ð¸Ðº": 5649,
      "ĠÐ²Ð¾Ð·Ð´ÑĥÑħÐ°": 5650,
      "ĠÐ¿Ð°Ð»ÑĮÑĨÐ°Ð¼Ð¸": 5651,
      "âĢĿ.": 5652,
      "ĠÐĶÐ¸": 5653,
      "ĠÐ¿Ð¾Ð´Ð¿": 5654,
      "Ð³Ð¸Ð¾Ð·": 5655,
      "ĠÑĢÐµÐ±ÐµÐ½Ð¾Ðº": 5656,
      "ĠÑģÐ¸ÑģÑĤÐµÐ¼Ðµ": 5657,
      "ĠÐ¼ÑĥÑģ": 5658,
      "ĠÐ¼Ð»Ð½": 5659,
      "ĠÐ´ÐµÑıÑĤÐµÐ»ÑĮÐ½Ð¾ÑģÑĤÑĮ": 5660,
      "ĠÑĥÐºÐ°Ð·ÑĭÐ²": 5661,
      "ĠÑĢÐ°ÑģÑģÐ»Ð°Ð±": 5662,
      "ĠÐ¼Ð¾Ñĩ": 5663,
      "ÐµÐ½Ð¸Ð½": 5664,
      "ĠÐ¾ÐºÐ°Ð·Ð°Ð»Ð°ÑģÑĮ": 5665,
      "ĠXV": 5666,
      "ĠÐ»ÑİÐ±Ð¾Ð¼": 5667,
      "ĠÐ½ÐµÐ¾Ð±ÑħÐ¾Ð´Ð¸Ð¼Ð¾ÑģÑĤÐ¸": 5668,
      "ÐµÐ·Ð¸Ð´": 5669,
      "Ð¸ÑĨÐ¸Ñİ": 5670,
      "Ð°Ð½Ð¸ÑıÑħ": 5671,
      "Ð¼Ð¸Ð³": 5672,
      "ĠÐ¿Ð¾Ð¼Ð½Ñİ": 5673,
      "Ð°ÑĢÐµ": 5674,
      "ĠÑģÐ¸Ð³Ð½Ð°Ð»": 5675,
      "ĠÑįÑĤÐ¸Ð¼Ð¸": 5676,
      "ÑĥÐ»Ð°": 5677,
      "ĠÑĩÑĥÐ²ÑģÑĤÐ²Ñĥ": 5678,
      "ĠÑĥÑģÐ¸Ð»": 5679,
      "ĠÐ½ÐµÐ²ÐµÑĢÐ¾ÑıÑĤ": 5680,
      "ĠÐ¿Ð¾ÑĪÐµÐ»": 5681,
      "ĠÐ²ÑģÐºÐ¾ÑĢÐµ": 5682,
      "ÑĳÐ½Ð½Ð¾": 5683,
      "ĠÐĺÑģ": 5684,
      "Ð¾ÑĩÐ½ÑĭÐµ": 5685,
      "ate": 5686,
      "ĠÑĢÐ°Ð·Ð²Ðµ": 5687,
      "ĠÐ²Ð¾Ð¹Ð½Ð°": 5688,
      "ĠÐ¸Ð½ÑĦÐµÐº": 5689,
      "ĠÑĦÐµÐ²ÑĢÐ°Ð»Ñı": 5690,
      "ÑĥÑģÑĤÐ¸Ð»": 5691,
      "ĠÐ±Ð¾Ð»ÑĮÑĪÐ¸Ðµ": 5692,
      "ĠÑĪÐµÑģÑĤÑĮ": 5693,
      "ĠÑģÑĩÐ¸ÑĤÐ°ÐµÑĤ": 5694,
      "ĠÐĵÐµÑĢÐ¼Ð¸Ð¾Ð½Ð°": 5695,
      "ĠÐ»Ð¸Ð¼": 5696,
      "ĠÐ´ÑĥÐ¼Ð°Ð»Ð°": 5697,
      "ÐµÐ³Ð°": 5698,
      "ĠÐ¿Ð»Ñİ": 5699,
      "Ġ190": 5700,
      "ĠÑĢÐ°Ð¹Ð¾Ð½Ðµ": 5701,
      "Ð°Ð¾": 5702,
      "ĠÐ·Ð°Ð¿ÑĢÐµÑī": 5703,
      "Ġst": 5704,
      "ĠÐ½Ð°Ð¼Ð½Ð¾Ð³Ð¾": 5705,
      "ĠÐ²Ð²Ð¾Ð´": 5706,
      "Ð¸ÐºÐ°Ð¼Ð¸": 5707,
      "ĠÐ¿ÑĢÐ¾ÑĪÐµÐ¿ÑĤ": 5708,
      "ĠÐ¿Ð»ÐµÐ¼": 5709,
      "ĠÐ¹": 5710,
      "ÑģÑĤÐ²Ð¸ÐµÐ¼": 5711,
      "ĠÐ¼Ð°ÑģÑĤÐµÑĢ": 5712,
      "ÑĥÐ³Ð¾Ð»ÑĮ": 5713,
      "ĠÐ®Ð¶": 5714,
      "ĠÐ±ÐµÑĢÐµÐ¼": 5715,
      "ĠÐ¸ÑģÐ¿Ð¾Ð»": 5716,
      "28": 5717,
      "ĠÐ½Ð°Ð¿ÑĢÐ°Ð²Ð»ÐµÐ½Ð¸Ð¸": 5718,
      "Ð»Ð¸ÑĤ": 5719,
      "ĠÐľÐµÐ¶Ð´Ñĥ": 5720,
      "Ð°Ð¼ÐµÐ½ÑĤ": 5721,
      "ĠÐ¿ÐµÑĢÐµÐ³Ð¾Ð²Ð¾ÑĢ": 5722,
      "ĠÑĪÐµÐ¿": 5723,
      "ĠÐ°ÑĥÐ´Ð¸": 5724,
      "ĪĴ": 5725,
      "ĠÐ¿ÑĢÐ¾Ð²ÐµÑģÑĤÐ¸": 5726,
      "ĠÐ¼Ð°ÑĪÐ¸Ð½Ñĥ": 5727,
      "ĠÐ¢Ð¾ÑĤ": 5728,
      "ÑĢÐ¸Ð³Ð¸Ð½": 5729,
      "ĠÐ¸Ð½ÑģÑĤÐ¸ÑĤÑĥÑĤ": 5730,
      "ĠÐ¼Ð¾Ð±": 5731,
      "ĠÑģÑĤÑĢÐ°Ð½Ð°Ñħ": 5732,
      "Ð¸ÐºÑģ": 5733,
      "ĠÐ¿Ð¾Ð»ÑĥÑĩÐµÐ½Ð¸Ñı": 5734,
      "ĠÑģÐ¿Ð¸Ð½Ñĥ": 5735,
      "ĠÐ±Ð¾Ð»ÑĮÐ½Ð¾": 5736,
      "ĠÐ´Ð°Ð»ÐµÐµ": 5737,
      "ĠÐŀÑģÑĤ": 5738,
      "ĠÐĴÐ¾Ð·": 5739,
      "ĠÑģÐ¾ÑģÑĢÐµÐ´Ð¾ÑĤÐ¾Ñĩ": 5740,
      "ĠÐ¼Ð°ÑĤÐµÑĢÐ¸Ð°Ð»": 5741,
      "ĠÐ½Ð°ÑĢÐ¾Ð´Ð°": 5742,
      "ĠÐĶÑĢÑĥÐ³": 5743,
      "ud": 5744,
      "ĠÐļÐ¾": 5745,
      "ĠÐ¿Ð¾Ð»ÑĮÐ·Ñĥ": 5746,
      "ĠÐ¼Ð¾Ð´ÐµÐ»Ð¸": 5747,
      "ĠÐŀÑĩÐµÐ½ÑĮ": 5748,
      "ĠÑģÑĤÐ¾ÑıÐ»Ð°": 5749,
      "ĠÐ¸Ð½ÑĦÐ¾ÑĢÐ¼Ð°ÑĨÐ¸Ñı": 5750,
      "Ð²ÐµÐ»": 5751,
      "ĠÐ¾ÑĢÐ¸ÐµÐ½ÑĤ": 5752,
      "ĠÑĤÐµÐ¿Ð»Ð¾": 5753,
      "ĠÐºÐ°ÑĦ": 5754,
      "Ð°ÑĢÐ¸Ñī": 5755,
      "ĠÐĴÐµÐ»Ð¸ÐºÐ¾Ð±ÑĢÐ¸ÑĤ": 5756,
      "Ð¾Ð¼Ð±": 5757,
      "ĠÑģÐ°Ð¼Ð°Ñı": 5758,
      "ĠÐ¼ÐµÑĤÑĢÐ¾Ð²": 5759,
      "ĠÑĤÑĥÐ¼": 5760,
      "ĠÑģÐ¿Ð¸ÑģÐ¾Ðº": 5761,
      "Ð°ÑĤÐµÐ»ÑĮÐ½ÑĭÐ¼": 5762,
      "ĠÐľÐ¾ÑģÐºÐ²Ðµ": 5763,
      "ĠÑģÐ»ÑĥÑĩÐ°ÐµÐ²": 5764,
      "ÑĭÑģÐº": 5765,
      "ĠÐ´ÑĢÑĥÐ³ÑĥÑİ": 5766,
      "ĠÑĥÐ±ÐµÐ¶Ð´": 5767,
      "ĠÐ°ÑģÐ¿": 5768,
      "ĠÑħÐ²Ð¾ÑģÑĤ": 5769,
      "Ð»ÑĥÐ±": 5770,
      "ĠÐłÐ¾Ð¼": 5771,
      "ĠÑĢÐ¾Ð´Ð¸ÑĤÐµÐ»Ð¸": 5772,
      "ĠÐŀÑģÐ¾Ð±": 5773,
      "ĠÑģÐ¿ÐµÑĪ": 5774,
      "Ð¸Ð²Ð°": 5775,
      "ĠÐ¼Ð¸Ð»Ð»Ð¸Ð¾Ð½Ð¾Ð²": 5776,
      "ĠÐ½Ð¾ÑĩÑĮÑİ": 5777,
      "ĠÐ±Ð¸Ð±Ð»Ð¸Ð¾ÑĤ": 5778,
      "âĢ¦âĢ¦": 5779,
      "Â°": 5780,
      "ĠÐ¸ÑģÐ¿Ð¾Ð»ÑĮÐ·Ð¾Ð²Ð°Ð½Ð¸Ðµ": 5781,
      "ĠÐķÐ²ÑĢÐ¾Ð¿Ñĭ": 5782,
      "ĠÑĪÐ¸ÑĢÐ¾ÐºÐ¾": 5783,
      "ÐµÐ¹Ñģ": 5784,
      "ÑĳÑħ": 5785,
      "ĠÑĨÐµÐ½ÑĤÑĢÐµ": 5786,
      "ĠÐ¿Ð¾ÑıÐ²Ð¸Ð»ÑģÑı": 5787,
      "Ð»Ð°Ñĩ": 5788,
      "Ð°ÐµÑĪÑĮÑģÑı": 5789,
      "Ð¸ÑĤÐ¸": 5790,
      "ĠÐ´ÑĭÑħÐ°Ð½Ð¸Ðµ": 5791,
      "ĠÐ¢Ð¾Ð»": 5792,
      "ĠÑĥÑĤÑĢÐ¾Ð¼": 5793,
      "Ð»Ð¾Ð½Ð¸Ð»": 5794,
      "ĠÐ¾ÑĢÑĥÐ¶Ð¸Ðµ": 5795,
      "ĠÐ»Ð°Ð³": 5796,
      "ÐµÐµÑĤÑģÑı": 5797,
      "ÐµÐºÐ¾Ð¼": 5798,
      "ĠÑĤÐµÑĢÐ°Ð¿": 5799,
      "ĠÐ·Ð½Ð°Ð¼ÐµÐ½Ð¸ÑĤ": 5800,
      "ÐµÐ»ÑģÑı": 5801,
      "ĠÑģÐ¾Ð¶Ð°Ð»ÐµÐ½Ð¸Ñİ": 5802,
      "ĠÐ´Ð¾ÑĩÑĮ": 5803,
      "ĠÐ°ÑĤÐ¼Ð¾Ñģ": 5804,
      "ĠÑĤÑĢÐµÐ±ÑĥÐµÑĤ": 5805,
      "ĠÑĪÐµÑİ": 5806,
      "ĠÐ½ÐµÐ¾Ð¶Ð¸Ð´Ð°Ð½Ð½Ð¾": 5807,
      "ÑĤÑĥÑĢÑĭ": 5808,
      "29": 5809,
      "ĠÐ¿Ð¾Ð´ÐºÐ»ÑİÑĩ": 5810,
      "ÑģÑıÑĤÑģÑı": 5811,
      "ĠÐ¾Ð¿ÑĢÐµÐ´ÐµÐ»Ð¸ÑĤÑĮ": 5812,
      "ĠÐ²Ð¾Ð»ÑĪÐµÐ±": 5813,
      "Ð»Ð°Ðº": 5814,
      "ĠÐ¿Ð»ÐµÐ½": 5815,
      "ĠÑģÐ¿Ð¸ÑģÐº": 5816,
      "ĠÐ¾ÑĤÑģÑĤÑĥÐ¿": 5817,
      "ĠÐľÐ¸ÑĢ": 5818,
      "Ð½Ð¾Ð¶": 5819,
      "ÑĢÑĥÑģ": 5820,
      "Ð¸ÑĤÐµÐ»ÑıÐ¼": 5821,
      "ÑĭÐ²Ð°ÑİÑĤÑģÑı": 5822,
      "one": 5823,
      "ĠÑĥÑĤÑĢÐ¾": 5824,
      "ĠÐ¿ÑĢÐ¾Ð»": 5825,
      "ob": 5826,
      "ÑĩÐ¸ÐºÐ¾Ð²": 5827,
      "ĠÐĺÑģÑĤ": 5828,
      "ĠÑĢÐ°Ð·Ð½Ð¾Ð¾Ð±ÑĢÐ°Ð·": 5829,
      "ĠÐ¸Ð»Ð»Ñİ": 5830,
      "ÑĳÑĢÑĤ": 5831,
      "ĠÑĢÐ¾Ð´Ð¸ÑĤÐµÐ»ÐµÐ¹": 5832,
      "Ð¾Ð¼Ð°ÑĤ": 5833,
      "ÑģÑĤÐ²Ð¾Ð²Ð°Ð»Ð¸": 5834,
      "ĠÐ½Ð°Ð·ÑĭÐ²Ð°ÑİÑĤ": 5835,
      "ĠÐ¿Ð¾Ð´ÑĩÐµÑĢÐº": 5836,
      "ĠÐ¿Ð»ÐµÑĩÐ¸": 5837,
      "ÑĥÑģÑĮ": 5838,
      "Ð²ÑıÐ·": 5839,
      "ÑĥÐ¼Ð°": 5840,
      "ĠÐ¼Ð¾Ð¸Ð¼": 5841,
      "ĠÐ²ÑģÑĤÐ°Ð»": 5842,
      "ĠÐ³Ð¾Ð²Ð¾ÑĢÐ¸Ð»Ð°": 5843,
      "ĠÐ²Ð°ÑĢ": 5844,
      "ĠÐĶÑĢÐ°Ðº": 5845,
      "ord": 5846,
      "ĠÐ¾ÑĤÐ½Ð¾ÑĪÐµÐ½Ð¸Ðµ": 5847,
      "ĠÑĢÐµÐ±ÑĳÐ½": 5848,
      "ĠÐĵÐ¾Ð»": 5849,
      "ĠÐºÑĢÐ°Ð¹Ð½Ðµ": 5850,
      "ĠÐ¿ÐµÑĢÐµÑĩ": 5851,
      "Ð¼Ð°Ñħ": 5852,
      "ĠÐ³Ð¾Ð²Ð¾ÑĢÐ¸Ð»Ð¸": 5853,
      "ity": 5854,
      "ĠÐ²Ð·Ð´Ð¾ÑħÐ½ÑĥÐ»": 5855,
      "ĠÐ²Ð½Ð¸Ð¼Ð°ÑĤÐµÐ»ÑĮÐ½Ð¾": 5856,
      "ÑĥÑİÑīÐµÐ³Ð¾": 5857,
      "Ð¼Ð¾ÑĢ": 5858,
      "ĠÑģÐ°Ð¼Ð¾Ð»": 5859,
      "ĠÑĩÑĤ": 5860,
      "Ġbe": 5861,
      "ĠÐļÐ°ÑĤ": 5862,
      "ĠÐ¿ÑĢÐ¸ÑĩÐ¸Ð½Ñĭ": 5863,
      "ĠÑģÐµÐ¼ÑĮÐµ": 5864,
      "Ð½Ð¸ÑĨÐ¸": 5865,
      "Ð°ÐµÐ¼ÑģÑı": 5866,
      "ĠÐ²Ð½ÐµÐ·Ð°Ð¿Ð½Ð¾": 5867,
      "Ð¼ÑĭÑģÐ»": 5868,
      "Ð¾ÑĩÐ½ÑĭÐ¹": 5869,
      "ĠÐłÐ¤": 5870,
      "Ð¿Ð°Ð´": 5871,
      "ĠÐ¿ÑĢÐµÐ´ÑĥÑģ": 5872,
      "ĠÐ¿ÑĢÐ¸ÑĩÐµÐ¼": 5873,
      "ĠÐ¿Ð¾Ð»Ð½Ð¾Ð¹": 5874,
      "ĠÐ·Ð°ÑħÐ¾ÑĤ": 5875,
      "Ð°ÑģÐºÐµ": 5876,
      "ĠÐ±ÑĥÑĤÑĭÐ»": 5877,
      "Ð¾ÐºÐ¾Ð¼": 5878,
      "ĠÐ¢ÐµÐ±Ðµ": 5879,
      "ĠÐļÐ¸ÑĢ": 5880,
      "ĠÑĢÐ°ÑģÐ¿Ð¾Ð»Ð°Ð³": 5881,
      "Ð¸ÑĤÐ¸Ð²": 5882,
      "ĠÑģÐ¾Ð±Ð°Ðº": 5883,
      "!-": 5884,
      "ĠÐ±Ð»Ð¾Ð½Ð´Ð¸Ð½": 5885,
      "ĠÐºÐ¸Ð½": 5886,
      "ĠÐ¸Ð½ÑĤÐµÑĢÐ²": 5887,
      "ĠÑģÐ³": 5888,
      "?..": 5889,
      "ĠÑĢÐ¾Ð±": 5890,
      "Ð³Ð»Ð°Ð²": 5891,
      "ÑģÑĤÐ¾ÑıÑī": 5892,
      "ĠÐ¿Ð¾ÐºÐ¾Ð»": 5893,
      "ÑĤÐµÑĢÐ°": 5894,
      "Ð°ÑıÑģÑı": 5895,
      "ĠÐ½Ð°Ð¿Ð¸ÑĤ": 5896,
      "Ð¸ÑĨÐµ": 5897,
      "ĠÐ²ÑģÑĤÑĢÐµÑĩÐ¸": 5898,
      "ĠÐ²Ð¾Ð·Ð½Ð¸ÐºÐ°ÐµÑĤ": 5899,
      "ÑĩÐ¸Ð²Ð¾": 5900,
      "Ð¾ÑĩÐ½Ð¸Ðº": 5901,
      "ĠÐ»Ð¸ÑĩÐ½Ð¾ÑģÑĤÐ¸": 5902,
      "ĠÐ¯Ð¿": 5903,
      "ĠÑĢÑĥÐºÐµ": 5904,
      "ĠÐ¤ÐµÐ´ÐµÑĢ": 5905,
      "ĠÐĴÐ»Ð°Ð´Ð¸Ð¼": 5906,
      "ĠÐ½Ð°ÑĪÐµ": 5907,
      "Ð¾ÑĤÐ²Ð¾ÑĢ": 5908,
      "ĠÑįÑĦÑĦÐµÐºÑĤ": 5909,
      "ĠÐºÑĥÐ»ÑĮÑĤÑĥÑĢÑĭ": 5910,
      "ĠÐ´ÐµÐ¹ÑģÑĤÐ²Ð¸Ðµ": 5911,
      "ĠÐ¸Ð´ÐµÑı": 5912,
      "ĠÐ¿ÑĢÐµÑģÑģ": 5913,
      "ÑĢÑİ": 5914,
      "ĠÐ°Ð³ÐµÐ½ÑĤ": 5915,
      "ĠÐ¿Ð¾ÑģÐ¼": 5916,
      "ĠÐ²Ð·ÑıÐ»Ð°": 5917,
      "ĠÐ¿ÑĢÐ°Ð²Ð¸Ð»Ð°": 5918,
      "ÑģÑĤÑĢÐ°Ð´": 5919,
      "ĠÑĤÐµÑĢÑĢÐ¾ÑĢ": 5920,
      "ĠÑĩÑĥÐ²ÑģÑĤÐ²Ð¾Ð²Ð°Ð»": 5921,
      "Ð°Ð½Ðº": 5922,
      "ĠÐ¿ÐµÑĢÐµÑĪ": 5923,
      "Ð¿ÑĢÐ¸Ð½": 5924,
      "Ð¾ÑģÑħÐ¾Ð´": 5925,
      "ĠÐ²ÑĭÑĢÐ°Ð·": 5926,
      "ĠÑĥÑĤÑĢÐ°": 5927,
      "ĠÐ¾Ð´Ð¸Ð½Ð¾": 5928,
      "ĠÐºÐ°ÑĩÐµÑģÑĤÐ²Ð°": 5929,
      "ĠÐ¿ÑĢÐµÐ¶": 5930,
      "ÑģÐºÐ¾Ð²": 5931,
      "ĠÐ°Ñį": 5932,
      "ÐĻÐ¾ÑĢ": 5933,
      "ĠÐ¾Ð¿ÑĢÐ°Ð²Ð´": 5934,
      "Ð¼Ð¾Ð¹": 5935,
      "ĠÐ·Ð°ÐºÐ»ÑİÑĩÐ°ÐµÑĤÑģÑı": 5936,
      "ĠÐ¿ÑĢÐ°Ð²Ð¸ÑĤÐµÐ»ÑĮÑģÑĤÐ²Ð¾": 5937,
      "ĠÐ¾Ð³Ð¾Ð½ÑĮ": 5938,
      "ÐľÐ½Ðµ": 5939,
      "ÑĥÑīÐµÐµ": 5940,
      "ĠÐ¿ÑĢÐ¸ÑĪÐ»Ð¸": 5941,
      "ĠÐ¼Ð¾Ð»Ð¾Ð´Ð¾Ð¹": 5942,
      "ÑıÑİÑĤÑģÑı": 5943,
      "ĠÐ¼Ð¾Ð´ÐµÐ»ÑĮ": 5944,
      "ÑĭÐ½": 5945,
      "ÐµÐ½Ð½Ð¾Ð¼Ñĥ": 5946,
      "ĠÐ°Ð³ÑĢÐµÑģÑģ": 5947,
      "Ð°ÑİÑīÐµÐµ": 5948,
      "ĠÑĢÐµÑģÐ¿ÑĥÐ±Ð»Ð¸": 5949,
      "Ð¸ÑĢÐ¾Ð²Ð°ÑĤÑĮÑģÑı": 5950,
      "ĠÑĤÐµÐ¾ÑĢÐ¸Ð¸": 5951,
      "ÑĢÐµÐ¶": 5952,
      "ĠÐ¿Ð¾Ð»Ð½Ð¾Ð¼": 5953,
      "ĠÑĢÐ°ÑģÑĤÐ²Ð¾ÑĢ": 5954,
      "ld": 5955,
      "ĠÐ´ÐµÐ»Ð°ÑİÑĤ": 5956,
      "Ð½Ð°Ð´ÑĨÐ°ÑĤÑĮ": 5957,
      "ĠÐ½ÐµÐ»": 5958,
      "ĠÐ²Ð¾Ð¹ÑģÐºÐ°": 5959,
      "ĠÐ¼Ð½Ð¾Ð³Ð¾ÑĩÐ¸Ñģ": 5960,
      "ĠÐ½ÐµÐ´Ð¾": 5961,
      "ĠÑĥÑģÑĤÑĢÐ¾Ð¹ÑģÑĤÐ²Ð°": 5962,
      "ĠÑģÐºÐ¾ÑĢÐ¾ÑģÑĤÑĮ": 5963,
      "ĠÐ¿ÑĢÐµÐ´Ð¾ÑĤÐ²": 5964,
      "ĠÐ¿ÑĢÐ¾ÑĤÐ¸Ð²Ð½Ð¸ÐºÐ°": 5965,
      "ĠÑģÑĦÐ¾ÑĢÐ¼": 5966,
      "ĠÑĤÑĢÐµÐ±Ð¾Ð²Ð°Ð½Ð¸Ñı": 5967,
      "ĠÑİÐ½Ð¾ÑĪ": 5968,
      "ĠÐ¿ÑĢÐ¸ÑģÑĤ": 5969,
      "ĠÐ´ÐµÐ²Ð¾ÑĩÐºÐ°": 5970,
      "ĠÐ¿ÑĢÐµÐºÑĢÐ°ÑĤ": 5971,
      "ĠÑĢÐµÐ´Ð°Ðº": 5972,
      "Ð½Ð¸Ð½": 5973,
      "Ð¸Ð´Ð¶": 5974,
      "Ð¾Ð²Ñĭ": 5975,
      "ÐµÑģÐ»Ð¸": 5976,
      "ĠÑģÐµÑĢÐµÐ±": 5977,
      "ĠÐ´Ð¾Ð³Ð°Ð´": 5978,
      "ĠÐ¿Ð°ÑģÑģ": 5979,
      "ÑĢÐµÐ¿": 5980,
      "ĠÐ½Ð¾Ð²Ð¾Ðµ": 5981,
      "ĠÐ¿Ð¾Ð»ÑĥÑĩÐ¸Ð»Ð¸": 5982,
      "ĠÐ¡ÐµÐ³Ð¾Ð´Ð½Ñı": 5983,
      "ĠÐ¼Ð°ÑĢÐº": 5984,
      "ĠÐ¿ÐµÑĢÐ²Ð¾Ðµ": 5985,
      "ly": 5986,
      "Ð¾ÑĢÐµÑĩ": 5987,
      "ÑĨÐ¾": 5988,
      "ĠÐ»Ð°ÑģÐº": 5989,
      "Ð°ÑİÑīÐ¸Ð¼Ð¸": 5990,
      "ĠÐ¼Ð¾ÑĢÐµ": 5991,
      "ĠÐŃÐº": 5992,
      "ĠÐºÐ¸ÑģÐ»Ð¾ÑĤ": 5993,
      "ĠÐ¿Ð¾ÑıÐ²Ð¸Ð»Ð°ÑģÑĮ": 5994,
      "ĠÐºÐ°Ð½Ð´Ð¸Ð´": 5995,
      "Ð¸Ð½ÐºÑĥ": 5996,
      "ĠÐ¿ÑĢÐ¾Ð´ÑĥÐºÑĤ": 5997,
      "60": 5998,
      "Ð»ÐµÐ½Ð½Ð¾Ð³Ð¾": 5999,
      "ĠÐ³ÑĢÐ°Ð½": 6000,
      "ont": 6001,
      "ĠÐ²Ð¼ÐµÑĪ": 6002,
      "ĠÐ¿Ð°ÑĢÐ°Ð¼ÐµÑĤ": 6003,
      "ĠÐ¿Ð¾Ð²ÐµÐ´ÐµÐ½Ð¸Ðµ": 6004,
      "Ð¸ÑĩÐ½ÑĭÐ¹": 6005,
      "ĠÐºÐ¾Ð¼Ð°Ð½Ð´Ð°": 6006,
      "Ð¼ÑĥÑĤ": 6007,
      "ĠÑģÐ¼Ð¾Ð³Ð»Ð°": 6008,
      "Ð¾Ð²ÐµÑĤ": 6009,
      "ÐµÑĩÐ½Ð¾Ð¹": 6010,
      "ĠÐ¿ÑĢÐ¸Ð½ÑıÑĤ": 6011,
      "ĠÐĿÐ¸ÑĩÐµÐ³Ð¾": 6012,
      "ĠÑĦÐ°Ð½ÑĤ": 6013,
      "ĠÐ¼Ð½ÐµÐ½Ð¸Ðµ": 6014,
      "ĠÐ½Ð°Ð²Ñĭ": 6015,
      "ĠÑĥÐ±Ð¸ÑĤÑĮ": 6016,
      "ĠÐŁÑĢÐ°Ð²Ð´Ð°": 6017,
      "ĠÐ²ÑĭÐ±ÑĢ": 6018,
      "se": 6019,
      "ĠÐ¿ÐµÑĢÐµÐ»": 6020,
      "ĠÐ½Ð¾ÑĢÐ¼Ð°Ð»ÑĮÐ½Ð¾": 6021,
      "ĠÑĦÐ¸Ð»ÑĮÐ¼Ð°": 6022,
      "Ð¸Ð·Ð°ÑĨÐ¸Ð¸": 6023,
      "ĠÐ¿ÑĢÐ¸ÑħÐ¾Ð´Ð¸ÑĤÑģÑı": 6024,
      "ĠÑħÐ¾ÑĤÐµÐ»Ð¸": 6025,
      "ĠÑĥÐ¿Ð¾Ð¼Ð¸Ð½": 6026,
      "ĠÑĤÐµÑĢÐ¼Ð¸Ð½": 6027,
      "ĠÑģÑĩÐ¸ÑĤÐ°ÑĤÑĮ": 6028,
      "ĠÐĿÐ¸": 6029,
      "Ð»ÐµÐ·": 6030,
      "Ð»Ð°Ñħ": 6031,
      "ĠÑģÑĩÐ¸ÑĤÐ°ÑİÑĤ": 6032,
      "ĠÐ½ÐµÑģÑĩÐ°ÑģÑĤ": 6033,
      "ĠÐ½ÐµÐ¾Ð±ÑĭÑĩ": 6034,
      "ĠÐ»Ð°Ð±": 6035,
      "Ð°Ð»Ð¸Ð½": 6036,
      "ÐµÐ»Ð»ÐµÐº": 6037,
      "ĠÐ¿ÑĢÐ¸Ð±Ð»Ð¸Ð·": 6038,
      "ĠÑģÑĢÐ°Ð²Ð½ÐµÐ½Ð¸Ñİ": 6039,
      "ĠÑģÐµÐ¼ÑĮÑı": 6040,
      "ith": 6041,
      "ĠÑįÐ¿Ð¾Ñħ": 6042,
      "ĠÑģÐ¿Ð¾ÑĢÑĤ": 6043,
      "ĠÐ¿ÑĢÐµÑĤ": 6044,
      "ĠÐ¿Ð¾Ð½ÑıÑĤ": 6045,
      "ĠÑĢÐµÑģÑĤ": 6046,
      "ĠÐ·Ð°Ð¿Ð°Ñģ": 6047,
      "ĠÐ¿ÑĢÐ¾ÑģÑĮ": 6048,
      "ÑĤÑĥÑĢÐ°": 6049,
      "ÑĥÑİÑīÐ¸Ð¼": 6050,
      "ĠÐ¿ÑĭÑĤÐ°ÐµÑĤÑģÑı": 6051,
      "ĠÐĳÐ¾Ð»": 6052,
      "Ð½Ð°Ð¿ÑĢÐ¸Ð¼ÐµÑĢ": 6053,
      "ĠÐ´Ð¾ÑĪ": 6054,
      "ĠÐºÐ¾Ð¼Ð¿Ð»ÐµÐºÑģ": 6055,
      "Ð¸ÑģÑĤÑĭ": 6056,
      "Ġ000": 6057,
      "ĠÑĤÐ°ÑĢ": 6058,
      "ĠÑĤÐ²ÐµÑĢÐ´": 6059,
      "Ð¾ÑģÐ°": 6060,
      "ĠÐĴÐ¾Ð»": 6061,
      "ĠÐ¿Ð¾Ð¿ÑĢÐ°Ð²": 6062,
      "Ð¸Ð²Ð°Ð»ÑģÑı": 6063,
      "ive": 6064,
      "ĠÐ´Ð°ÑĢ": 6065,
      "ĠÐ¼Ð°Ðº": 6066,
      "ÑĥÐ¶Ñĩ": 6067,
      "ĠÐ»Ð°Ð´Ð½Ð¾": 6068,
      "ĠÑģÑĤÐ°Ð±": 6069,
      "ĠÐ¾Ð´Ð½Ð¾Ð¼Ñĥ": 6070,
      "ĠÐ¸Ð·Ð¼ÐµÐ½Ð¸ÑĤÑĮ": 6071,
      "ĠÑĢÐµÐ³ÑĥÐ»ÑıÑĢ": 6072,
      "Ð¸Ð²ÑĪÐ¸Ð¹": 6073,
      "ĠÐºÐ¾Ð½ÑĤÐ°ÐºÑĤ": 6074,
      "ĠÑģÐ¾Ð»Ð´Ð°ÑĤ": 6075,
      "ÐºÐ¾ÑĤ": 6076,
      "ĠÑĤÑı": 6077,
      "Ð°Ð¼Ð±": 6078,
      "Ð¸ÑĤÐµÐ»ÑĮÑģÑĤÐ²Ð¾": 6079,
      "Ð°Ð´ÑĨÐ°ÑĤ": 6080,
      "ĠÐ²Ð¾Ð´Ð°": 6081,
      "ĠÐ½Ð°ÑģÐ»Ð°Ð¶Ð´": 6082,
      "ĠÐ²Ð»ÑİÐ±": 6083,
      "ĠÐ²ÑĭÑĢ": 6084,
      "ĠÐ¤ÑĢ": 6085,
      "ĠÐ¸Ð½ÑģÑĤÑĢÑĥÐ¼ÐµÐ½ÑĤ": 6086,
      "ĠÐĹÐ½Ð°Ñĩ": 6087,
      "ĠÐ¿Ð°Ð¼ÑıÑĤÑĮ": 6088,
      "ĠÐ±ÐµÐ¶": 6089,
      "ĠÐ·Ð°ÑīÐ¸ÑĤÑĭ": 6090,
      "ĠÐ¡Ð»Ð¾Ð²": 6091,
      "ÐľÐĺ": 6092,
      "ĠÑģÑĤÐ¸Ð¼": 6093,
      "ĠÑģÐ´ÐµÐ»Ð°Ð»Ð¸": 6094,
      "ĠÐ¿ÑĢÐµÐ´ÑģÑĤÐ°Ð²Ð¸ÑĤÑĮ": 6095,
      "ĠÑĢÐµÐ»Ð¸Ð³Ð¸Ð¾Ð·": 6096,
      "ĠÐ¿ÑĢÐ¸Ð³Ð»Ð°ÑĪ": 6097,
      "ÐµÐ¹Ð´": 6098,
      "ect": 6099,
      "!..": 6100,
      "Ð´Ð°ÑİÑĤÑģÑı": 6101,
      "ĠÐ°ÑĢÑħÐ¸ÑĤ": 6102,
      "ĠÐĹÐ°ÑĩÐµÐ¼": 6103,
      "ĠÑĩÑĥÐ²ÑģÑĤÐ²ÑĥÐµÑĤ": 6104,
      "ĠÐºÐ¾ÑĢÐ¾Ð±": 6105,
      "ĠÑģÐ²ÐµÑĤÐµ": 6106,
      "ÐµÐ´Ð»ÐµÐ½Ð½Ð¾": 6107,
      "ĠÑĢÑĥÐºÐ°": 6108,
      "ĠÐ²Ð¸ÑĢÑĥ": 6109,
      "Ð»ÐµÑĩÑĮ": 6110,
      "ĠÐ·Ð°Ð¼ÐµÑĤÐ¸Ð»Ð°": 6111,
      "ĠÐºÐ¾Ð¼Ð¿Ð¾Ð·": 6112,
      "Ð¾Ð¹Ð´Ñı": 6113,
      "ĠÐ´ÐµÑĢ": 6114,
      "ĠÐ°ÑĢÐµÑģÑĤ": 6115,
      "ĠCh": 6116,
      "ÑĢÐ°Ð±Ð°ÑĤ": 6117,
      "Ð°Ð±Ð°ÑĤ": 6118,
      "ÐŁÑĢÐ¾": 6119,
      "ÑģÑĤÑĢÐµÐ¼": 6120,
      "ĠÐºÑĥÑĢÑģ": 6121,
      "ĠÐ¸Ð´ÐµÐ¸": 6122,
      "ĠÐ¿Ð¾Ð¹ÑĤÐ¸": 6123,
      "Ð¾ÑĤÐ½Ð¾ÑĪ": 6124,
      "ĠÐ¿ÐµÑĤ": 6125,
      "ĠÐºÐ°ÐºÐ¾Ð¼": 6126,
      "ĠÐ¿ÑĢÐ¸Ð½Ð¸Ð¼Ð°ÑĤÑĮ": 6127,
      "ĠÐ½Ð°Ð¾Ð±Ð¾ÑĢÐ¾ÑĤ": 6128,
      "ĠÐ·Ð°Ð³Ð¾Ð²Ð¾ÑĢ": 6129,
      "ĠÑģÐ»ÑĭÑĪÐ°Ð»": 6130,
      "ĠÐ¢ÑĥÑĤ": 6131,
      "ere": 6132,
      "ĠÐ¼Ð¾ÑĢÑı": 6133,
      "ĠÐ²ÐºÐ»ÑİÑĩÐ°ÐµÑĤ": 6134,
      "Ġ80": 6135,
      "ĠÑģÐµÑĢÑĮÑĳÐ·": 6136,
      "ĠÐ½Ð°Ð³ÑĢÑĥÐ·": 6137,
      "ĠÑĢÐ¾ÑģÑĤÐ°": 6138,
      "ĠÐ¿ÑĢÐ¾ÑĤÐµÑģÑĤ": 6139,
      "ĠÑģÐ²ÐµÑĢ": 6140,
      "ÑĤÑĮÑģÑı": 6141,
      "ĠÐ¿Ð»Ð°ÑĤÑĮÐµ": 6142,
      "ĠÐ¾ÑĩÐµÑĢÐµÐ´Ð½Ð¾Ð¹": 6143,
      "Ð¸Ð²Ð°Ð»Ð¸ÑģÑĮ": 6144,
      "Ð¸ÑĢÐ¾Ð²ÐºÐ¸": 6145,
      "ĠÐ²ÑĤÐ¾ÑĢÐ¾Ð³Ð¾": 6146,
      "Ñĸ": 6147,
      "ĠÐ½ÐµÑĥÐ´Ð°": 6148,
      "ĠÐ¸Ð³ÑĢÐ°": 6149,
      "ĠÑıÐ¿Ð¾Ð½": 6150,
      "ĠÐ´ÑĥÑĪÐµ": 6151,
      "Ð°ÐµÐ¼ÑĭÑħ": 6152,
      "ĠÐºÐ¾ÑģÑĤÑİ": 6153,
      "ĠÐ²ÑĩÐµÑĢÐ°": 6154,
      "ÑĢÑĥÐ±": 6155,
      "ĠÐŁÐ¾ÑģÑĤ": 6156,
      "ĠÐ¿ÑĢÐµÐ´Ð²Ð°ÑĢ": 6157,
      "ĠÐ¾ÑģÑĤÐ°Ð»ÑģÑı": 6158,
      "ĠÐ²ÐµÑĩÐµÑĢÐ¾Ð¼": 6159,
      "ĠÐ¸ÑģÐºÑĢÐµÐ½": 6160,
      "ĠÐºÐ»Ð°ÑģÑģÐ°": 6161,
      "ĠÐ¶ÑĥÑĢÐ½Ð°Ð»Ð¸ÑģÑĤ": 6162,
      "ĠÐĺÐ½Ð´": 6163,
      "ĠÐ²Ð°ÑĪÐ¸Ñħ": 6164,
      "Ð¸ÐºÐ¾": 6165,
      "ĠÐĴÐ¿ÑĢÐ¾ÑĩÐµÐ¼": 6166,
      "ĠÐłÐ¾ÑģÑģÐ¸Ñı": 6167,
      "ÑĥÐ½Ð°": 6168,
      "ĠÐ¼ÑĥÐ·": 6169,
      "Ġht": 6170,
      "ĠÑĥÐºÑĢÐ°ÑĪ": 6171,
      "ĠÐ³ÑĢÐ¾Ð¼ÐºÐ¾": 6172,
      "ĠÐ²Ð¾ÑģÐ¿ÑĢÐ¸Ð½Ð¸Ð¼": 6173,
      "ĠÐ¸Ð¼Ð¸": 6174,
      "ep": 6175,
      "ĠÐ¿Ð»Ð¾ÑīÐ°Ð´": 6176,
      "ĠÐŁÐµÑĢÐµÐ´": 6177,
      "ÑģÐµÐ³Ð´Ð°": 6178,
      "ĠÐ¾ÐºÑĢÑĥÐ³": 6179,
      "Ð°Ð½ÑĩÐ¸Ð²": 6180,
      "ĠÐºÐ¾Ð»Ð»ÐµÐ³": 6181,
      "ĠÐļÐ¾Ð½ÑģÑĤ": 6182,
      "ĠÐ³Ð»ÑĥÐ±Ð¾ÐºÐ¾": 6183,
      "Ð½ÑıÐµÑĤÑģÑı": 6184,
      "ĠÐ±ÐµÑģÐºÐ¾Ð½": 6185,
      "ĠÐ²ÑĭÐ·ÑĭÐ²Ð°ÐµÑĤ": 6186,
      "ĠÐ²ÑĭÐ¹ÑĤÐ¸": 6187,
      "ĠÐ²Ð¾ÑģÑħ": 6188,
      "ĠÑħÐ¾ÑĤÑıÑĤ": 6189,
      "ĠÐ¿ÑĢÐ¾ÑĤÐ¸Ð²Ð¾Ð¿Ð¾Ð»Ð¾Ð¶": 6190,
      "ĠÐ³ÑĢÐ¸": 6191,
      "ĠÑĩÐ¸ÑĤÐ°ÑĤÑĮ": 6192,
      "Ð¾ÑĩÐ½Ð¾Ð³Ð¾": 6193,
      "ĠÐ¼ÐµÑĢÑĤÐ²": 6194,
      "ĠÐ²Ð¸Ð´Ð¸ÑĤ": 6195,
      "ĠÐĿÐ°Ð´Ð¾": 6196,
      "ip": 6197,
      "ĠÑģÑĩÐ¸ÑĤÐ°ÐµÑĤÑģÑı": 6198,
      "ĠÑģÐ¾Ð±ÑģÑĤÐ²ÐµÐ½Ð½Ð¾Ð¹": 6199,
      "ÑĮÐµÐ²": 6200,
      "ÐµÐ´Ð¾Ð¼": 6201,
      "ĠÐ¿ÑıÑĤÐ¸": 6202,
      "ĠÑĢÑĭÐ¶": 6203,
      "Ð¿Ð¾Ð·": 6204,
      "ĠÐĴÐ¼ÐµÑģÑĤ": 6205,
      "ĠÐ¼Ð°ÑĤÐµÐ¼Ð°ÑĤ": 6206,
      "ĠÐ¾ÐºÐ°Ð·Ð°Ð»Ð¸ÑģÑĮ": 6207,
      "Ð¾Ð²Ð°Ð»Ð°": 6208,
      "ÐŁÑĢÐ°Ð²": 6209,
      "Ð¿ÑĢÐµÐ¶Ð½ÐµÐ¼Ñĥ": 6210,
      "ĠÐĽÑĥÑĩ": 6211,
      "ĠXI": 6212,
      "ĠÐ¾Ð¿ÑĤÐ¸Ð¼": 6213,
      "ĠÐ¸Ð½ÑģÑĤÑĢÑĥÐ¼": 6214,
      "ÐļÐĲ": 6215,
      "Ð²ÑĭÑĩ": 6216,
      "Ð¸ÑĪÑĮÑģÑı": 6217,
      "ĠÑĥÑģÐºÐ¾ÑĢ": 6218,
      "ĠÐŁÑĢÐ¸Ñĩ": 6219,
      "Ð°Ð»Ð¸Ð·Ð°ÑĨÐ¸Ð¸": 6220,
      "ĠÑģÑĥÑī": 6221,
      "ĠÑĥÑģÑĤÐ°Ð»": 6222,
      "ĠÐ¼Ð³Ð½Ð¾Ð²ÐµÐ½Ð¸Ðµ": 6223,
      "ĠÐ½ÑĳÐ¼": 6224,
      "ĠÐ¿Ð¾Ð²ÐµÐ´ÐµÐ½Ð¸Ñı": 6225,
      "ĠÐ¼Ð¾Ð»ÑĩÐ°": 6226,
      "ĠÑģÐ¾Ð´ÐµÑĢÐ¶Ð°Ñī": 6227,
      "ĠÑĥÑģÐ¼ÐµÑħÐ½ÑĥÐ»ÑģÑı": 6228,
      "ĠÐ¿ÑĢÐ°Ð²Ð¸ÑĤÐµÐ»ÑĮÑģÑĤÐ²Ð°": 6229,
      "ĠÑįÐ¼Ð¾ÑĨÐ¸Ð¾Ð½": 6230,
      "Ð°Ð²Ð°": 6231,
      "ĠÐ¿ÑĢÐ¾Ð¸ÑģÑħ": 6232,
      "ĠÐ¿Ð¾Ð·Ð´Ð½Ð¾": 6233,
      "ĠÐ²Ð¾ÑĢÐ¾ÑĤ": 6234,
      "ĠÐĳÐ¾ÑĢ": 6235,
      "ĠÐ½ÐµÐ·Ð½Ð°ÐºÐ¾Ð¼": 6236,
      "ĠÐ²Ð¸Ð´Ð¸Ð¼Ð¾": 6237,
      "end": 6238,
      "ĠÑĢÐ¸ÑģÑĥÐ½": 6239,
      "ĠÐĽÐ¾Ð½Ð´": 6240,
      "ĠÑģÐ¼Ð¾ÑĤÑĢÐµÐ»Ð°": 6241,
      "ÑĭÐ´": 6242,
      "ĠÐ¾ÑģÐ»": 6243,
      "ĠÐ¿ÑĢÐµÐ´Ð¿Ð¾ÑĩÑĤ": 6244,
      "ĠÑģÐ²Ð¾Ð´": 6245,
      "ĠÐ½Ð°ÑĪÐ°": 6246,
      "Ð°Ð½ÑĤÑĭ": 6247,
      "Ð³Ð¸Ð¿": 6248,
      "ĠÐ¿Ð¾Ð»Ð¸ÑĤÐ¸ÐºÐ¸": 6249,
      "ĠÐºÐ°Ð¿Ð¸ÑĤÐ°Ð½": 6250,
      "ÑĢÑĥÐ¿Ð¿": 6251,
      "ĠÑĩÐ°ÑĪ": 6252,
      "Ð¿Ð¸": 6253,
      "ĠÐºÐ¾Ð»Ð¸ÑĩÐµÑģÑĤÐ²Ð°": 6254,
      "ĠÐŀÑģÐ½Ð¾Ð²": 6255,
      "ĠÐ»ÑĳÐ³": 6256,
      "ĠÐ¿ÑĢÐµÐ·Ð¸Ð´ÐµÐ½ÑĤÐ°": 6257,
      "ĠÐ±Ð¾Ñİ": 6258,
      "ĠÐ²Ð¸Ð´Ð¾Ð²": 6259,
      "ĠÐ¤Ð¸Ð½": 6260,
      "ĠÑĤÑĢÐ°Ð½Ñģ": 6261,
      "ĠÐ¸ÑĤÐ°Ð»ÑĮÑıÐ½": 6262,
      "ÑĪÐµÐ¼Ñĥ": 6263,
      "ĠÐ²ÑĭÐ³Ð»ÑıÐ´Ð¸ÑĤ": 6264,
      "ĠÐ¿Ð¾Ð´ÐµÐ»": 6265,
      "ĠÑĥÐµÑħ": 6266,
      "ĠÐºÐ°Ð´": 6267,
      "ĠÐ¿Ð°ÑĢÐ»Ð°Ð¼": 6268,
      "ĠÐ¿Ð¾Ð´Ð¾ÑĪÐµÐ»": 6269,
      "ĠÐ¿Ð¾ÐºÐ°Ð·Ð°ÑĤÑĮ": 6270,
      "ĠÐºÑĢÐ¸Ð·": 6271,
      "Ð½ÑıÐ²": 6272,
      "ĠÐĽÐµÐ²": 6273,
      "ang": 6274,
      "ĠÐ¿Ð¾Ð½Ð¸Ð¼Ð°Ð»": 6275,
      "ĠÐ²ÐºÐ»Ð°Ð´": 6276,
      "Ð¸Ð¿Ð»Ð¾Ð¼": 6277,
      "ĠÐ·Ð²ÐµÑĢ": 6278,
      "Ð»ÑıÐ»Ð¸": 6279,
      "ĠÑĤÐ¾Ð»Ð¿": 6280,
      "ĠÐŁÐ¾ÑģÐ»ÐµÐ´": 6281,
      "Ġhttp": 6282,
      "ĠÐ³Ð¾ÑģÑĤÐ¸": 6283,
      "ÐµÐ»Ð¾ÑģÑĮ": 6284,
      "ÑİÑĪ": 6285,
      "Ð±Ð¸Ð½": 6286,
      "ĠÐ¿ÐµÑĢÐ²Ð°Ñı": 6287,
      "III": 6288,
      "ĠÐļÐ¸ÑĤ": 6289,
      "ÑĭÐ²Ð°ÑıÑģÑĮ": 6290,
      "ĠÐ¾Ð±Ð½Ð¸Ð¼": 6291,
      "Ð¾Ð²Ð¸Ñĩ": 6292,
      "ĠÑĥÑģÑĤÑĢÐ°Ð½": 6293,
      "Ĥ¬": 6294,
      "ÑĢÐ¸Ñĩ": 6295,
      "ĠÑĥÐ¹ÑĤÐ¸": 6296,
      "ÑĤÑĢÐ°Ðº": 6297,
      "ĠÐ²ÑĭÐ±ÑĢÐ°ÑĤÑĮ": 6298,
      "ĠÑĤÐ°Ð±Ð»Ð¸": 6299,
      "ĠÐ¿Ð¾Ð´ÑĢÐ¾ÑģÑĤ": 6300,
      "ĠÐ¼Ð°ÑģÑĪÑĤÐ°Ð±": 6301,
      "ĠÐ»ÑİÐ±Ð¾Ð³Ð¾": 6302,
      "ĠÑģÑĢ": 6303,
      "ĠÑģÐ»Ð¾Ð¼": 6304,
      "ÑģÐ»ÐµÐ´": 6305,
      "ĠÐ¿ÑĢÐ¾Ð´Ð¾Ð»Ð¶Ð°Ð»": 6306,
      "ÐµÐ²Ð¸Ð·": 6307,
      "ĠÐ¾ÑģÑĤÐ°Ð²Ð¸ÑĤÑĮ": 6308,
      "ĠÐºÐ¾Ð½ÑĨÐµÐ¿": 6309,
      "ÑĢÐµÑģÑĤ": 6310,
      "ight": 6311,
      "ÑĪÐ¸Ð¼Ð¸": 6312,
      "ĠÑĨÐµÑĢÐºÐ²Ð¸": 6313,
      "ĠÐ¼Ð¾Ð·Ð³": 6314,
      "ĠÐ½ÐµÑĩÑĤÐ¾": 6315,
      "ĠÐºÐ¾Ð¶Ñĥ": 6316,
      "Ð½ÑĥÐ»Ð¾": 6317,
      "ĠÐ¿Ð¾ÑģÑĤÐ°ÑĢ": 6318,
      "80": 6319,
      "ĠÑģÐ¸ÑĤÑĥÐ°ÑĨÐ¸Ñİ": 6320,
      "ĠÐ±Ð¾ÑĢÑĮÐ±Ñĭ": 6321,
      "ĠÐĽÐ¸": 6322,
      "ÐµÐ¼Ñĭ": 6323,
      "ĠÐ£Ð¶Ðµ": 6324,
      "ĠÐ¾ÑģÑĤÐ°Ð½Ð°Ð²Ð»Ð¸Ð²": 6325,
      "ĠÐºÑĥÐ¿Ð¸ÑĤÑĮ": 6326,
      "ĠÐ¿Ð¾Ð»Ð½Ð¾": 6327,
      "ĠÐ¿ÑĢÐ¾Ð´ÑĥÐºÑĤÑĭ": 6328,
      "ĠÐ¼Ð°Ð¹": 6329,
      "ĠÐ³Ð¸Ð¿ÐµÑĢ": 6330,
      "ĠÐķÐ²ÑĢÐ¾Ð¿Ðµ": 6331,
      "ĠÐ³Ð»Ð°Ð²Ð½ÑĭÐ¼": 6332,
      "ĠÐ³Ð½ÐµÐ²": 6333,
      "ĠÐ¸Ð½Ð¸ÑĨÐ¸": 6334,
      "Ð¾Ð½Ð³": 6335,
      "ĠÐ¿Ð¾Ð¹Ð´": 6336,
      "ĠÐĿÐĲ": 6337,
      "ĠÐ¾ÑĤÐ²ÐµÑĤÐ¸ÑĤÑĮ": 6338,
      "ĠÐ¥ÑĢÐ¸ÑģÑĤ": 6339,
      "ÐķÐł": 6340,
      "ĠÐ¾Ð±Ð¾ÑĢÑĥÐ´": 6341,
      "ĠÐ·ÐµÐ»": 6342,
      "Ð°Ð»ÑĮÑĪÐµ": 6343,
      "ĠÐ¿ÑĢÐ¾Ð·": 6344,
      "Ð¾Ð±Ð°Ð²": 6345,
      "ĠÐľÐ°ÑĤ": 6346,
      "ÐµÐ»Ð¾Ð²ÐµÐº": 6347,
      "ĠÑĩÐµÑĤÑĭÑĢÐµÑħ": 6348,
      "Ð°Ð²ÑĪÐµÐ³Ð¾": 6349,
      "ĠÐ¾ÑģÑĤÐ¾ÑĢÐ¾Ð¶Ð½Ð¾": 6350,
      "ĠÐ¸ÑģÐºÑĥÑģÑģÑĤÐ²Ð°": 6351,
      "Ð½ÐµÐ½Ð½Ð¾": 6352,
      "ĠÐ¿Ð¾Ð³Ð¾Ð²Ð¾ÑĢÐ¸ÑĤÑĮ": 6353,
      "ÑģÐºÐµ": 6354,
      "ÑĥÐ¶Ð½Ð¾": 6355,
      "ĠÑģÐ¿Ð¾ÑĢÑĤÐ¸Ð²": 6356,
      "ĠÑįÑĦÑĦÐµÐº": 6357,
      "ĠÐ¿Ð¾ÑģÐ»ÑĥÑĪ": 6358,
      "ĠÑĥÑĤÐ²ÐµÑĢÐ¶": 6359,
      "ĠÑĤÑĢÐ°Ð½ÑģÐ¿Ð¾ÑĢÑĤ": 6360,
      "ĠÑģÐ¿Ð¾ÑģÐ¾Ð±Ð½Ð¾ÑģÑĤÐ¸": 6361,
      "ĠÑģÐ²ÐµÑĤÐ»": 6362,
      "Ð¾ÑĤÐ¾Ð²": 6363,
      "ĠÐ¾Ð½Ð»Ð°Ð¹Ð½": 6364,
      "ÑĥÑģÐ¾Ð²": 6365,
      "ĠÑģÐ¾Ð·Ð½Ð°Ð½Ð¸Ñı": 6366,
      "Ġwh": 6367,
      "ĠÐ±ÑĥÐ´ÑĥÑīÐµÐ¼": 6368,
      "ÐµÐ½ÐºÐ°": 6369,
      "ÐµÑĤÐ¸": 6370,
      "Ð°ÑİÑīÐ¸ÑħÑģÑı": 6371,
      "ĠÐĹÐ½Ð°": 6372,
      "ĠÐ·Ð°Ð¼ÐµÑĢ": 6373,
      "Ð²ÑĭÑĩÐ°Ð¹": 6374,
      "ĠÐ¿ÑĢÐ¸ÑĢÐ¾Ð´": 6375,
      "Ð¶Ñĥ": 6376,
      "ÐµÐ²Ð¾Ð³Ð¾": 6377,
      "ĠÐ¿Ð¾Ð´ÑħÐ¾Ð´Ð¸ÑĤ": 6378,
      "Ð»ÐµÐ½Ð½ÑĭÐ¼": 6379,
      "ÐŁÐ°ÑĢ": 6380,
      "ast": 6381,
      "Ð¸Ð»Ð¸Ñı": 6382,
      "ÐĿÐŀ": 6383,
      "ÑĤÐ¾ÑĪ": 6384,
      "Ð¸ÑģÐºÐ¸": 6385,
      "ĠÐ¡ÑĤÐ¾": 6386,
      "ĠÐ¿ÑĢÐ¾Ð²Ð¸Ð½": 6387,
      "ĠÑĩÐ»ÐµÐ½Ð¾Ð²": 6388,
      "ack": 6389,
      "ĠÑĤÑĢÑĥÐ´Ð¾Ð¼": 6390,
      "ĠÑģÐ²ÑıÑī": 6391,
      "Ð»Ð¾Ñħ": 6392,
      "ĠÐ¿Ð¾ÑĢÐ°": 6393,
      "ĠÐ¾ÑĢÐ¸Ð³Ð¸Ð½": 6394,
      "ÑĳÐ²": 6395,
      "ĠÐ³Ð¾Ð´Ð°Ñħ": 6396,
      "ĠÑģÐ¿Ð¾ÑģÐ¾Ð±Ð½Ð¾ÑģÑĤÑĮ": 6397,
      "ĠÐ¾Ð¶Ð¸Ð´Ð°": 6398,
      "ĠÐ¿Ð¾Ð´Ð¾Ð·ÑĢ": 6399,
      "ĠÑĤÑĢÐµÐ±ÑĥÐµÑĤÑģÑı": 6400,
      "ĠÐ¿Ð¾Ð·Ð¸ÑĨÐ¸Ð¸": 6401,
      "ĠÐ¿ÑĢÐ¾Ð¸Ð³ÑĢ": 6402,
      "ĠÐ¿Ð»Ð°Ðº": 6403,
      "Ð¸Ð·Ð²Ð¾Ð´": 6404,
      "Ġ(Â«": 6405,
      "Ð¸Ð¼ÐµÐ½": 6406,
      "ĠÐ²ÐµÑīÐµÐ¹": 6407,
      "ĠÐºÑĢÑĥÑĤ": 6408,
      "ĠÐ´Ð¾Ð±Ð°Ð²Ð¸ÑĤÑĮ": 6409,
      "ĠÐ¿ÑĢÐ¾ÐµÐºÑĤÐ°": 6410,
      "ĠÑĥÑĩÑĢÐµÐ¶Ð´": 6411,
      "ĠÐ´Ð°ÑĤ": 6412,
      "ĠÐĿÐµÐºÐ¾ÑĤÐ¾ÑĢÑĭÐµ": 6413,
      "ĠÐĵÐµÐ½": 6414,
      "ÐµÐ¼Ð¾Ð½": 6415,
      "ĠÐ¿Ð¾ÑģÐµÐ»": 6416,
      "ĠÐ¿Ð¾Ð´Ð¾ÑĪÐ»Ð°": 6417,
      "ĠÐ¿Ð¾Ð´Ð²": 6418,
      "ĠÐ¾ÑĤÐ¿ÑĥÑģÐº": 6419,
      "ĠÐ½Ð°Ð¿Ð¸ÑģÐ°Ð»": 6420,
      "ib": 6421,
      "ĠÑĤÐ¾Ð²Ð°ÑĢÐ¸Ñī": 6422,
      "ĠÑĩÐ¸ÑģÐ»Ð°": 6423,
      "ĠÐ±Ð°ÑĪ": 6424,
      "ĠÐ²Ð¾ÑģÑģÑĤ": 6425,
      "ĠÐĳÐ»": 6426,
      "ĠÑĤÑĭÑģ": 6427,
      "ĠÐ²Ð¾Ð·Ð½Ð¸ÐºÐ½Ð¾Ð²": 6428,
      "ÑĳÑĪÑĮ": 6429,
      "ĠÐ³Ð¾Ð»Ð¾Ð²Ð°": 6430,
      "Ð¿ÐµÑĢÐ²ÑĭÑħ": 6431,
      "Ð½Ð¾Ñİ": 6432,
      "ĠÐ¿ÑĢÐ¾ÑĤÐ¸Ð²Ð¾ÑĢÐµÑĩ": 6433,
      "Ð°ÑĤÐµÐ»ÑĮÐ½Ð¾Ðµ": 6434,
      "ĠÑĢÐ°Ð´Ð¾ÑģÑĤ": 6435,
      "ĠÑĢÐ°Ð¹Ð¾Ð½": 6436,
      "ĠÐºÐ°Ð¶Ð´Ð¾Ð¼": 6437,
      "ĠÐ´Ð¾ÑĢÐ¾Ð¶": 6438,
      "ÐĿÐ¸Ðº": 6439,
      "ĠÐ¿ÑĢÐµÐ¾Ð´": 6440,
      "ĠÐ¼Ð°ÑģÐº": 6441,
      "ĠÐŃÐ»": 6442,
      "ÑģÐ¿ÐµÐºÑĤÐ¸Ð²": 6443,
      "Ġ'": 6444,
      "ĠÐ¾ÑģÐ¾Ð±Ð¾": 6445,
      "ĠÑģÑĥÐ±ÑĬ": 6446,
      "ĠÐ½ÐµÐ³Ð°ÑĤÐ¸Ð²": 6447,
      "ĠÐ½Ð°ÑĪÐ»Ð¸": 6448,
      "ĠÑĥÑģÑĤÑĢÐ¾Ð¹ÑģÑĤÐ²Ð¾": 6449,
      "ĠÑģÐºÑĥ": 6450,
      "ĠÐ·Ð¸Ð¼": 6451,
      "ĠÐ±Ð¾Ð»ÑĮÑĪÐ¸Ñħ": 6452,
      "ĠÐ¸Ð½ÑĤÐµÐ»Ð»ÐµÐº": 6453,
      "ĠÐ¼ÐµÐ¶": 6454,
      "ĠÐ³Ð¾ÑĢÐ´": 6455,
      "ĠÑģÐ¾Ð¿ÐµÑĢ": 6456,
      "ĠÐ¾ÑĤÐ²ÐµÑĩÐ°ÐµÑĤ": 6457,
      "ĠÐ¸ÑģÐ¿Ð¾Ð»ÑĮÐ·ÑĥÑİÑĤ": 6458,
      "ĠÑĢÐ°ÑģÑģÑĤÑĢÐ¾Ð¹": 6459,
      "Ð°Ð´Ð¾Ð±": 6460,
      "ÐłÐ°Ñģ": 6461,
      "ĠÑİÐ¶": 6462,
      "ĠÐ·Ð¾Ð²ÑĥÑĤ": 6463,
      "ĠÐ´Ð²Ð°Ð´ÑĨÐ°ÑĤÑĮ": 6464,
      "Ð½Ð¸ÐµÐ¼": 6465,
      "gle": 6466,
      "ĠÐ¾ÑģÐ¾Ð±ÐµÐ½Ð½Ð¾ÑģÑĤÐ¸": 6467,
      "ĠÑĤÐ¾Ð»ÑģÑĤ": 6468,
      "ĠÐ¿Ð¸Ð»": 6469,
      "ÑıÑİÑī": 6470,
      "ĠÑģÐµÐ³Ð¾Ð´Ð½ÑıÑĪ": 6471,
      "ĠÑģÑĤÐ¾Ð¹": 6472,
      "ĠÑĤÐ²Ð¾Ñı": 6473,
      "ĠÑĥÐºÑĢÐ°Ð¸Ð½": 6474,
      "ĠÐ¿Ð¾ÑģÐ¿ÐµÑĪ": 6475,
      "ĠÐ¿ÑĢÐµÐ²Ð¾ÑģÑħÐ¾Ð´": 6476,
      "ĠÑĨÐ¸ÑĤ": 6477,
      "ĠÐ´ÑĭÐ¼": 6478,
      "ÑĢÐ°ÑīÐµÐ½Ð¸Ðµ": 6479,
      "ĠÑģÐ¾ÑģÑĤÐ°Ð²Ðµ": 6480,
      "Ġ90": 6481,
      "ĠÐŁÑĥÑĪ": 6482,
      "ĠÑģÐ¼ÑĥÑī": 6483,
      "Ġk": 6484,
      "ĠÑĩÐµÑģÑĤÑĮ": 6485,
      "ĠÑģÐ½Ð¸Ð·": 6486,
      "ĠÐ¿Ð¾ÑĩÑĥÐ²ÑģÑĤÐ²Ð¾Ð²Ð°Ð»": 6487,
      "ĠÐºÐ°ÑĪ": 6488,
      "ĠÐ¸ÑģÐ¿Ð¾Ð»ÑĮÐ·ÑĥÐµÑĤ": 6489,
      "ĠÐ¿ÑĢÐµÐ¼": 6490,
      "ĠÐ¿ÑĢÐµÐ´Ð»Ð¾Ð¶ÐµÐ½Ð¸Ðµ": 6491,
      "Ð¾ÑĢÐ´Ð¶": 6492,
      "ĠÐ¿Ð¾Ð½ÑıÑĤÐ½Ð¾": 6493,
      "ÑĢÐµÐ»": 6494,
      "ĠÐ·Ð²ÐµÐ·Ð´": 6495,
      "ĠÐ²ÑĢÐµÐ¼ÐµÐ½Ð°": 6496,
      "ĠÐ¿ÑĢÐ¸Ð½ÑıÐ»": 6497,
      "ĠÐ²Ð°ÑĪÐ°": 6498,
      "ÐµÐ½ÑĮÑİ": 6499,
      "ÐµÑīÐµÐ½Ð¸Ðµ": 6500,
      "ĠÐ¿Ð¾Ð½ÑıÑĤÐ¸Ñı": 6501,
      "ĠÑĢÐµÐ´ÐºÐ¾": 6502,
      "ĠÐĹÐ°Ð¿Ð°Ð´": 6503,
      "Ġ29": 6504,
      "ĠÐ·Ð°Ð¼ÐµÐ½": 6505,
      "ĠÐ¾ÐºÐµ": 6506,
      "ĠÑĤÑĭÑģÑıÑĩÐ¸": 6507,
      "ĠÐ¼Ð°ÑĢÑĪ": 6508,
      "ĠÐ¸ÑģÑģÐ»ÐµÐ´Ð¾Ð²Ð°Ð½Ð¸Ð¹": 6509,
      "ÐµÑĢÐ¼Ð°Ð½": 6510,
      "Ð»Ð°ÑģÑģ": 6511,
      "ĠÐ¿ÑĮ": 6512,
      "ĠÐ²Ð»Ð°ÑģÑĤ": 6513,
      "ĠÐĿÐ°ÑĤ": 6514,
      "ĠÐ¿ÑĢÐµÐ´Ð¼": 6515,
      "ÑĨÐ²ÐµÑĤ": 6516,
      "Ð½Ð¾ÑģÐ¸ÑĤ": 6517,
      "ĠÐ¼Ð¸Ð½ÑĥÑĤÑĭ": 6518,
      "ÑıÑīÐµÐ¹": 6519,
      "ĠÑģÐ½Ð°": 6520,
      "ĠÐ½Ð°Ð³ÑĢÐ°Ð´": 6521,
      "ĠÐ¿Ð¸ÑĤÐ°Ð½Ð¸Ñı": 6522,
      "ĠÑĥÑģÑĤÑĥÐ¿": 6523,
      "ÐŁÐ¾ÑĩÐµÐ¼Ñĥ": 6524,
      "ĠÐ´Ð¸Ð²Ð¸Ð·": 6525,
      "ĠÐ´Ð¾Ñģ": 6526,
      "ĠÐ·Ð°Ð¿ÑĥÑģÐº": 6527,
      "ÑĥÐ»ÑĮÑģ": 6528,
      "ĠÐ½ÐµÐ¿ÑĢÐ¸": 6529,
      "ĠÑĢÐ°Ð±Ð¾ÑĤÐ°Ð»": 6530,
      "so": 6531,
      "Ð°Ð¶ÐµÐ¹": 6532,
      "ĠÐ´ÑĢÐ°Ð¼": 6533,
      "ĠÐľÐ¾": 6534,
      "ĠÑĢÑĥÐ±Ð°ÑĪ": 6535,
      "ĠÐļÐ°Ð¶Ð´ÑĭÐ¹": 6536,
      "Ġ?": 6537,
      "ĠÐ¾Ð±ÑīÐµÐ³Ð¾": 6538,
      "ĠÐ³ÑĢÑĥÐ´ÑĮ": 6539,
      "Ð±Ð¾Ð¼": 6540,
      "ĠÐ¼Ð°Ð»ÐµÐ½ÑĮÐºÐ¸Ð¹": 6541,
      "ÐºÐ°ÑĤ": 6542,
      "out": 6543,
      "ĠÐ·Ð°ÐºÐ¾Ð½Ð¾Ð´": 6544,
      "ĠÐ¿ÑĢÐ¸ÑĩÐ¸Ð½Ð¾Ð¹": 6545,
      "ĠÑģÐ°Ð¼Ð¾Ð¼Ñĥ": 6546,
      "ĠÑģÐ¾Ð·Ð½Ð°Ð½Ð¸Ðµ": 6547,
      "ĠÐ»ÐµÐ³ÑĩÐµ": 6548,
      "ÐµÐ²Ð½Ð¾Ð²": 6549,
      "ĠÑĢÐ°ÑģÐ¿ÑĢÐµÐ´ÐµÐ»": 6550,
      "ĠÐĲÐ»ÐµÐºÑģÐ°Ð½Ð´ÑĢ": 6551,
      "Ð°Ð½Ð½ÑĭÐ¼Ð¸": 6552,
      "Ð¸ÑĢÑĥÐµÐ¼": 6553,
      "ĠÑģÐµÐ»Ð°": 6554,
      "ĠÐ²Ð¾ÐµÐ½Ð½ÑĭÑħ": 6555,
      "ĠÐ¾ÑĤÐ·": 6556,
      "ĠÐ¿ÑĢÐ¾Ð³ÑĢÐµÑģÑģ": 6557,
      "ĠÐºÐ¾Ð½ÑĨÐµÐ½ÑĤ": 6558,
      "ĠÐºÑĥÑĩ": 6559,
      "ĠÐ¼ÑĭÑģÐ»Ñı": 6560,
      "ĠÐ·Ð°Ð´Ð°ÑĩÐ¸": 6561,
      "ĠÐ´Ð°Ð½Ð½Ð¾Ð¼": 6562,
      "ÑĥÑİÑīÐµÐ¹": 6563,
      "ĠÑĤÑİÑĢÑĮ": 6564,
      "Ð°Ð»ÐµÐµ": 6565,
      "ĠÐ¿Ð¾ÑģÐ»ÐµÐ´Ð½Ð¸Ñħ": 6566,
      "Ð°Ð»Ð¸ÑĤ": 6567,
      "Ð°Ð³Ð¸": 6568,
      "ĠÐ¸Ð³ÑĢÑĥ": 6569,
      "ĠÐ·Ð°Ð³Ð¾": 6570,
      "ĠÐ¼ÐµÑģÑĤÐ°Ñħ": 6571,
      "ĠÐ½Ð°ÑĪÐµÐ¼": 6572,
      "ĠÑħÐ¾ÑĢÐ¾ÑĪÐ¸Ð¹": 6573,
      "ĠÐ·Ð½Ð°ÑİÑĤ": 6574,
      "ĠÑĩÐ°ÑģÑĭ": 6575,
      "ĠÐ·Ð°ÑģÐ»ÑĥÐ¶": 6576,
      "ĠÐ²ÐµÑģÐµÐ»": 6577,
      "ĠÐ¿Ð¾ÑıÐ²Ð»ÑıÐµÑĤÑģÑı": 6578,
      "ĠÑģÐ¸Ð»Ð°": 6579,
      "ÑĨÐµÐ½ÑĤ": 6580,
      "ĠÐĺÑĢ": 6581,
      "ĠÑĤÐ²Ð¾Ð¸": 6582,
      "ĠÐ±Ð¾Ð»ÑĮÑĪÐµÐ¹": 6583,
      "ÐķÐĿ": 6584,
      "ĠÐ½Ð°ÑĪÐµÐ»": 6585,
      "ÐµÐ»ÑĮÐ½Ð¾": 6586,
      "ĠÑħÐ»ÐµÐ±": 6587,
      "ĠÑģÐ¾Ð¾Ð±ÑīÐµÐ½Ð¸Ðµ": 6588,
      "ĠÐ½Ð°Ð·Ð²Ð°ÑĤÑĮ": 6589,
      "ĠÐ¿ÑĢÐ¾ÑĩÐ¸ÑĤ": 6590,
      "ĠÐŀÐ½Ð¾": 6591,
      "ĠÑĤÐµÑĩ": 6592,
      "ĠÐ»ÑİÐ±Ð¾Ð¿ÑĭÑĤ": 6593,
      "ĠÐ¾ÑĤÐ´Ð°Ð»": 6594,
      "ĠÐ¾ÑĤÐºÐ°Ð·ÑĭÐ²": 6595,
      "Ð°Ð´ÑĨÐ°ÑĤÐ¸": 6596,
      "ÑıÐ»Ð¸ÑģÑĮ": 6597,
      "Ġ70": 6598,
      "ĠÐ¸Ð¼Ð¼Ñĥ": 6599,
      "ĠÐ²ÑĭÑģÐ¾ÐºÐ¾Ð¹": 6600,
      "ÐµÐ·Ð²": 6601,
      "Ð°ÑĢÐ´Ð°": 6602,
      "ÑĢÐ¸Ð¼": 6603,
      "ĠÐ¢Ð°": 6604,
      "âĢľ": 6605,
      "ĠÑĥÐ³Ð¾Ð´Ð½Ð¾": 6606,
      "ĠÐ²Ð½Ðµ": 6607,
      "ĠÐ¿Ð¾Ð»ÑĥÑĩÐ¸Ð»Ð°": 6608,
      "ĠÐ½Ð°Ð·Ð²Ð°Ð½Ð¸ÐµÐ¼": 6609,
      "ĠÐ¸Ð·Ð±ÐµÐ¶Ð°ÑĤÑĮ": 6610,
      "ĠÑģÐ¸ÑĢ": 6611,
      "ĠÐ¾ÑĤÐ½Ð¾ÑĪÐµÐ½Ð¸Ñİ": 6612,
      "ĠÐºÑĢÐµÐ¿ÐºÐ¾": 6613,
      "Ð°Ð´Ð¶": 6614,
      "ĠÐ²ÑĭÑıÐ²": 6615,
      "Ð¢ÐµÐ¿ÐµÑĢÑĮ": 6616,
      "ĠÐ¿Ð»Ð°Ð½Ð¸ÑĢÐ¾Ð²": 6617,
      "ĠÐ¶ÐµÐ»Ð°Ð½Ð¸Ñı": 6618,
      "ĠÑģÐ¿ÐµÑĨÐ¸Ð°Ð»ÑĮÐ½Ð¾": 6619,
      "ÑįÐ»": 6620,
      "ĠÐ¿Ð¾ÐºÐ°Ñĩ": 6621,
      "ĠÐ¿Ð¾ÑģÑĤÑĢÐ°Ð´": 6622,
      "Ð°Ð¶Ð¸ÑĤÐµ": 6623,
      "ĠÐ½ÑĥÐ¶Ð½Ñĭ": 6624,
      "ĠÐ¸Ð·Ð³Ð¾ÑĤÐ¾Ð²": 6625,
      "ĠÐºÐ¾Ð¼Ð¸ÑģÑģ": 6626,
      "ĠÐ»ÑİÐ±Ð¸Ð»": 6627,
      "ĠÐ¾ÑĤÐºÑĢÑĭÑĤÑĮ": 6628,
      "Ð¾ÑĢÐ°ÑĤÐ¾ÑĢ": 6629,
      "ĠÐ¾ÑģÐ¼Ð¾ÑĤÑĢ": 6630,
      "ĠÐĲÐ½Ð³Ð»Ð¸Ð¸": 6631,
      "Ð»Ð¸Ð¿": 6632,
      "ĠÐĲÑĦ": 6633,
      "ĠÐ·Ð°Ð²Ð¾Ð´": 6634,
      "ĠÐ´Ð¸Ð¿Ð»Ð¾Ð¼": 6635,
      "ĠÐ¿Ð¾ÑģÐ»ÐµÐ´ÑģÑĤÐ²Ð¸Ñı": 6636,
      "ĠÐ¾ÑĤÑģÑĥÑĤÑģÑĤÐ²Ð¸Ðµ": 6637,
      "ĠÐĿÐ°Ð²ÐµÑĢ": 6638,
      "ĠÐ¿ÑĢÐµÐ±": 6639,
      "ĠÐŃÐ»ÑĮ": 6640,
      "ĠÐ²ÐµÐ±": 6641,
      "ÑģÑĤÑĢÐµÑĩ": 6642,
      "Ð»ÑıÑİÑĤÑģÑı": 6643,
      "ĠÐºÐ¾Ð»ÐµÐ½Ð¸": 6644,
      "up": 6645,
      "ĠÑĨÐµÐ»ÐµÐ¹": 6646,
      "ĠÐ¿Ð°ÑĢÐ°": 6647,
      "ĠÐ¿Ð¾ÐºÐ°Ð·ÑĭÐ²Ð°ÐµÑĤ": 6648,
      "ĠÐ±Ð»ÐµÐ´": 6649,
      "ĠÐ¿ÑĢÐ¾ÑĤÑıÐ½ÑĥÐ»": 6650,
      "ĠÑĢÐ°Ð·ÑĢÑĭÐ²": 6651,
      "Ð¼ÑĥÑī": 6652,
      "ĠÑĢÐ¾Ð´ÑģÑĤÐ²ÐµÐ½": 6653,
      "ĠÐ½Ð°ÑĪÑĥ": 6654,
      "ĠÑĤÐµÐ°ÑĤ": 6655,
      "ĠÐ¿ÑĢÐ¸Ð¿Ð¾Ð´": 6656,
      "ĠÐ¸Ð´ÐµÐ½ÑĤ": 6657,
      "ĠÐ²Ð°Ð¼Ð¿": 6658,
      "ĠÐ¡Ð¾Ð±": 6659,
      "Ð¾Ð²ÐµÐ´": 6660,
      "Ġit": 6661,
      "Ð¼Ð¸ÑĢ": 6662,
      "Ð¸ÑĢÐ¾Ð²Ð°Ð½Ð½ÑĭÑħ": 6663,
      "ĠÑģÑĤÑĢÐ°ÑĪÐ½Ð¾": 6664,
      "ĠÑģÐµÐºÑģÑĥ": 6665,
      "ĠÑĢÐ°ÑģÑģÐºÐ°Ð·Ð°Ð»": 6666,
      "ĠÑĥÐ½Ð¸Ðº": 6667,
      "ÐµÐ»ÑĮÐµ": 6668,
      "ĠÐ¿ÑĢÐ¾ÑħÐ¾Ð´Ð¸ÑĤ": 6669,
      "ĠÐ¾Ð±ÑīÐµÐ¹": 6670,
      "ĠÑĥÑģÐ»ÑĭÑĪÐ°Ð»": 6671,
      "ĠÐ¼Ð¸Ð½Ð¸Ð¼ÑĥÐ¼": 6672,
      "ĠÑĤÐ²Ð¾ÐµÐ¹": 6673,
      "ÑĥÑİÑģÑı": 6674,
      "ĠÐĺÐ·ÑĢÐ°": 6675,
      "ÑıÐµÐ¼": 6676,
      "ĠÐ¼Ð¸ÑĢÑĥ": 6677,
      "ĠÐ·Ð°Ð½Ð¸Ð¼Ð°ÑĤÑĮÑģÑı": 6678,
      "Ð¸Ð½ÐµÐ¹": 6679,
      "ĠÐ½Ð°ÑĩÐ¸Ð½Ð°ÐµÑĤÑģÑı": 6680,
      "ÑĢÐ°Ð½Ð°": 6681,
      "ĠÐ½ÐµÐ¿Ð¾Ð½": 6682,
      "ĠÐ¾ÑĢÐ³Ð°Ð½Ð¸Ð·Ð¼Ð°": 6683,
      "Ð½Ð°Ð¼": 6684,
      "ÑĥÐ¶Ð´ÐµÐ½Ð¸Ñı": 6685,
      "ĠÐ¿ÑĢÐ¾Ð¹ÑĤÐ¸": 6686,
      "ĠÑĥÑģÑĤÐ°Ð½Ð°Ð²Ð»Ð¸Ð²": 6687,
      "ry": 6688,
      "ÑĥÐ´Ð°ÑĢ": 6689,
      "ÑİÑīÐµÐµ": 6690,
      "Ð°Ð¶Ð½Ð¾": 6691,
      "ĠÐ·Ð´ÑĢÐ°Ð²": 6692,
      "ĠÑģÑĤÐ°ÑĤÑĮÐµ": 6693,
      "ĠÑĢÐµÐºÐ¾Ð¼ÐµÐ½Ð´Ñĥ": 6694,
      "ĠÐ¿ÑĢÐ¸ÑıÑĤÐ½Ð¾": 6695,
      "ĠÐ»Ð¸ÑĩÐ½Ð¾": 6696,
      "ĠÐłÐµÑģÐ¿ÑĥÐ±Ð»Ð¸": 6697,
      "ĠÐĹÐ°Ð²": 6698,
      "ĠÐĲÐ¹": 6699,
      "ĠÐ¿Ð¾Ð´ÑĤÐ²ÐµÑĢÐ´": 6700,
      "ĠÐ»Ð¸ÑĨÑĥ": 6701,
      "ĠÑħÑĥÐ´Ð¾Ð¶Ðµ": 6702,
      "ĠÑģÐ°Ð¼Ð¾ÑģÑĤÐ¾ÑıÑĤÐµÐ»ÑĮÐ½Ð¾": 6703,
      "ĠÐ½ÑĭÐ½ÐµÑĪ": 6704,
      "ĠÑĪÐ»Ð¸": 6705,
      "ĠÑĪÐºÐ°": 6706,
      "Ð°ÑİÑīÐµ": 6707,
      "ĠÑģÐ»ÑĥÐ¶Ð±Ñĭ": 6708,
      "ÐµÐ½ÑģÐ¸Ð²": 6709,
      "ĠÐ¾ÑīÑĥÑīÐµÐ½Ð¸Ðµ": 6710,
      "ĠÐ¿Ð¾ÐµÑħ": 6711,
      "ÑģÑİ": 6712,
      "ĠÐ¾ÑĢÐ³Ð°Ð½Ð¾Ð²": 6713,
      "Ð·Ð°Ðº": 6714,
      "ĠÐ´Ð¸ÑĢÐµÐºÑĤÐ¾ÑĢ": 6715,
      "Ð½Ð°ÑĤÑĮ": 6716,
      "ĠÐ³Ð»Ð°Ð´": 6717,
      "ĠÐ¿ÑĢÐµÐ´Ð»Ð¾Ð¶ÐµÐ½Ð¸Ñı": 6718,
      "ĠÑģÑĤÐ¾Ð»Ð°": 6719,
      "ĠÑģÐ¾Ð¾Ð±ÑīÐ¸Ð»": 6720,
      "ĠÐ¾ÑĤÐºÐ»ÑİÑĩ": 6721,
      "ĠÐ¿Ð¸ÑĤÑĮ": 6722,
      "ĠÐŁÐ¾Ð¿": 6723,
      "ĠÑĩÑĢÐµÐ·Ð²ÑĭÑĩÐ°Ð¹": 6724,
      "ĠÐ²Ð¾ÑģÐ¿Ð¾Ð»ÑĮÐ·Ð¾Ð²": 6725,
      "Ð¾ÑĤÑĢÐ¸": 6726,
      "ĠÐ²Ð¾Ð·Ð´ÑĥÑĪ": 6727,
      "ĠÐ¾ÑĢÑĥÐ¶Ð¸Ñı": 6728,
      "ĠÐ¾ÑģÐ»Ð°Ð±": 6729,
      "ĠÐ²ÐµÐ½": 6730,
      "oogle": 6731,
      "Ð¸Ð¼Ð¾Ðµ": 6732,
      "Ð¸ÑĢÐ¾Ð²Ð°Ð»Ð°": 6733,
      "ĠÐ¿ÑĢÐµÐ´Ð»Ð¾Ð¶Ð¸Ð»": 6734,
      "ĠÐ¢Ðµ": 6735,
      "ÐŃÑĤÐ¾ÑĤ": 6736,
      "ĠÐ¿Ð¾ÐºÑĢÑĭÑĤ": 6737,
      "Ð¸ÑĤÐ¾": 6738,
      "ĠÐ²Ð»Ð°Ð¶": 6739,
      "Ð°ÐµÑĤÐµÑģÑĮ": 6740,
      "ÑģÑĤÐ²ÐµÐ½Ð½ÑĥÑİ": 6741,
      "ĠÐ´ÐµÐ»Ð°Ð»": 6742,
      "ĠÐ³ÑĢÐ¾Ð·": 6743,
      "ĠÐ¶ÐµÐ»ÑĥÐ´": 6744,
      "ĠÐ¿ÑĢÐ¾ÑĪÐ»Ð¾Ð³Ð¾": 6745,
      "ÐµÐ½Ð½Ð¸": 6746,
      "ĠÐ¶ÐµÐ½Ð°": 6747,
      "ĠÐ¾Ð±Ð¼Ð°Ð½": 6748,
      "ĠÑĦÐ»": 6749,
      "Ð½Ð¾Ð²Ð¸Ð´": 6750,
      "ĠÑĤÑĳÐ¼": 6751,
      "ĠÑģÐ»ÑĥÑĩÐ°Ð¹Ð½Ð¾": 6752,
      "ĠÑģÐºÐ¾ÑĢÐ¾ÑģÑĤÐ¸": 6753,
      "ĠÐ´ÑĥÑĪÑĥ": 6754,
      "ĠÐ²Ð¾Ð·Ð´ÑĥÑħÐµ": 6755,
      "ÑĥÐ²ÐµÑĢ": 6756,
      "ÑĩÐ¾Ð½": 6757,
      "ĠÐ°ÐºÑĤÐµÑĢ": 6758,
      "ÑĩÐµÐ¹": 6759,
      "Ð½Ð¸Ð»Ð¸": 6760,
      "ĠÐ²Ð¾ÑģÐ¿Ð°Ð»": 6761,
      "ÑĥÑĢÐµ": 6762,
      "ĠÐ£ÐºÑĢÐ°Ð¸Ð½Ñĭ": 6763,
      "ÑĢÐ¸ÑĤ": 6764,
      "ĠÐ¸ÑģÐºÐ»ÑİÑĩÐ¸ÑĤÐµÐ»ÑĮÐ½Ð¾": 6765,
      "ĠÐºÐ½Ð¸Ð³Ðµ": 6766,
      "ĠÐ³Ð¸Ð´": 6767,
      "ĠÐłÐµÐ±": 6768,
      "ĠÐ¸Ð¼ÐµÐ»Ð¸": 6769,
      "ĠÑĤÐµÑģ": 6770,
      "ĠÑĢÐµÐ°ÐºÑĨÐ¸Ð¸": 6771,
      "ĠÑģÐºÐ°Ð·Ð°Ð»Ð¸": 6772,
      "ĠÐ¾Ð±ÑĬÑıÑģÐ½Ð¸ÑĤÑĮ": 6773,
      "ff": 6774,
      "ĠÑģÐ°Ð¹ÑĤ": 6775,
      "ĠÑģÐ²ÑıÐ·Ð°Ð½Ð¾": 6776,
      "Ð½Ð¸ÑĨÐµÐ¹": 6777,
      "Ð¾ÑģÑĤÐµÐ¹": 6778,
      "Ð°ÑĢÑĥÑĤÐ¾": 6779,
      "ĠÐ¿ÑĢÐµÐ¾Ð±ÑĢÐ°Ð·": 6780,
      "ĠÐ¿Ð¸ÑģÐ°ÑĤÑĮ": 6781,
      "ĠÐ¾Ð´ÐµÐ¶Ð´Ñĥ": 6782,
      "ĠÐ¼Ð°ÑĤÐµÑĢÐ¸Ð°Ð»Ð°": 6783,
      "ĠÐļÑĢÐ¸Ñģ": 6784,
      "ÑĢÐ¾Ð²Ð°ÑĤÑĮ": 6785,
      "ĠÐ·Ð´Ð°Ð½Ð¸Ñı": 6786,
      "ĠÑģÐ¿ÑĢÑıÑĤ": 6787,
      "ĠÐ°ÑĤÐ¼Ð¾ÑģÑĦ": 6788,
      "Ð¸ÑĢÐ¾Ð²Ð°Ð½Ñĭ": 6789,
      "ĠÐĺÐ²Ð°Ð½": 6790,
      "Ð´ÐµÐ¼": 6791,
      "ĠÐĲÑģ": 6792,
      "ĠÐ¾Ð±ÑĬÐµÐºÑĤ": 6793,
      "ĠÑĥÐ»ÑĭÐ±ÐºÐ°": 6794,
      "ĠÐ¿Ð¾Ð½Ð¸Ð¼Ð°ÑĤÑĮ": 6795,
      "ĠÐ¾ÑĤÐ»Ð¸ÑĩÐ½Ð¾": 6796,
      "ĠÐĳÑĭÐ»Ð¾": 6797,
      "Ð¾Ð²Ð¾Ð¼": 6798,
      "Ð¾ÐºÑĥ": 6799,
      "ĠÐ°ÐºÐ°Ð´ÐµÐ¼": 6800,
      "ĠÑģÑĥÐ¿ÑĢÑĥÐ³": 6801,
      "ĠÐ½ÐµÐ±Ð¾": 6802,
      "ÐºÐ½ÑĥÐ»Ð°": 6803,
      "Ð»Ð¸ÑĩÐ½Ð¾": 6804,
      "ust": 6805,
      "ĠÑģÑĤÐµÐ½Ðµ": 6806,
      "ĠÐ¾Ð±ÑĥÑĩÐµÐ½Ð¸Ñı": 6807,
      "Ð°Ð½Ð°Ð¼Ð¸": 6808,
      "ÐµÐ´Ð¸Ð½Ð¸": 6809,
      "ĠÐ¿Ð¾ÑıÐ²Ð¸Ð»Ð¸ÑģÑĮ": 6810,
      "ĠÑĦÐ°Ð·": 6811,
      "ĠÑĨÐ¸Ðº": 6812,
      "ĠÐ¿ÑĢÐ¸Ð¾Ð±ÑĢ": 6813,
      "ĠÐ·Ð°Ð¿ÑĢÐ¾Ñģ": 6814,
      "ÑĢÐ¾ÑĪ": 6815,
      "ĠÐ·Ð»Ð¾": 6816,
      "ĠÐ´Ð¾ÑĢÐ¾Ð³Ðµ": 6817,
      "ĠÐ²Ð½ÑĥÑĤÑĢÑĮ": 6818,
      "ĠÐ³Ð¾ÑĤÐ¾Ð²Ð°": 6819,
      "Ð½ÐµÑĢ": 6820,
      "ĠÐ·Ð´Ð¾ÑĢÐ¾Ð²ÑĮÑı": 6821,
      "ĠÐ³ÑĢÑĥÐ¿Ð¿Ðµ": 6822,
      "ĠÐ¾Ð±ÐµÑģÐ¿ÐµÑĩÐµÐ½Ð¸Ñı": 6823,
      "ĠÑģÐ°Ð¹ÑĤÐµ": 6824,
      "Ð°Ð»ÑĮÐ½Ð¾Ð¼Ñĥ": 6825,
      "ĠÑĥÑģÑĤÐ°Ð½Ð¾Ð²Ð¸ÑĤÑĮ": 6826,
      "ail": 6827,
      "ĠÐ¶Ð¸Ð»Ð¸": 6828,
      "ĠÑĩÑĥÐ²ÑģÑĤÐ²ÑĥÑİ": 6829,
      "ĠÐ²Ð¾Ð´Ðµ": 6830,
      "ĠÐ¾ÑģÑĤÐ°Ð»ÑĮÐ½ÑĭÑħ": 6831,
      "ÑĳÐ½Ð½ÑĭÑħ": 6832,
      "ĠÐ¿Ð¾Ð¼ÐµÑĪ": 6833,
      "ĠÑĢÐ°ÑģÑģÐºÐ°Ð·Ð°ÑĤÑĮ": 6834,
      "ĠÐ³Ð¾ÑĤÐ¾Ð²Ñĭ": 6835,
      "ÐļÐŀ": 6836,
      "ĠÐ¾ÑĤÐ¼ÐµÑĤÐ¸ÑĤÑĮ": 6837,
      "ĠÑħÐ°ÑĢÐ°ÐºÑĤÐµÑĢÐ¸Ð·": 6838,
      "ĠÐ²Ð¾ÑģÑĮ": 6839,
      "ÐµÑĪÑĮÑģÑı": 6840,
      "ĠÑįÐ»ÐµÐ¼ÐµÐ½ÑĤÐ¾Ð²": 6841,
      "ÑĢÐ°Ð½Ð¸": 6842,
      "Ð¾ÑĩÐµÑĤ": 6843,
      "ĠÑĤÐµÐ»ÐµÐ²Ð¸Ð·": 6844,
      "ĠÐĿÐµÐ²": 6845,
      "ĠÐºÐ¾ÑģÐ¼": 6846,
      "ÑģÐµÑĢ": 6847,
      "ĠÐ¶Ð¸ÑĤÐµÐ»ÐµÐ¹": 6848,
      "ĠÐ¼ÑĥÐ¶Ð°": 6849,
      "ÐºÐ¸Ð½Ð°": 6850,
      "ĠÐ¸ÑģÐ¿Ð¾Ð»ÑĮÐ·ÑĥÐµÐ¼": 6851,
      "Ð°ÑģÑĤÑĭ": 6852,
      "ĠÐ¾ÐºÐ¾Ð½ÑĩÐ°ÑĤÐµÐ»ÑĮÐ½Ð¾": 6853,
      "ĠÑģÑĤÑĢÐµÑģÑģ": 6854,
      "ĠÐ²ÑĭÑħÐ¾Ð´Ð°": 6855,
      "ĠÐļÑģÑĤÐ°ÑĤÐ¸": 6856,
      "ĠÐ¿Ð°Ñħ": 6857,
      "ĠÐ¿Ð¾ÑģÑĢÐµÐ´ÑģÑĤÐ²Ð¾Ð¼": 6858,
      "ĠÐ½Ð¸ÐºÐ¾Ð¼Ñĥ": 6859,
      "Ð¸Ð½ÑģÑĤÐ²Ð¾": 6860,
      "ĠÐ·Ð°Ð²Ð¾ÐµÐ²": 6861,
      "ÐµÐ´Ñĥ": 6862,
      "ĠÐ¾ÑĤÐºÑĢÑĭ": 6863,
      "Ð¸ÑĩÑĮ": 6864,
      "Ð¸Ð´Ñĭ": 6865,
      "ÑĤÐ¸Ð½Ñĭ": 6866,
      "ĠÐ³Ð¸Ð³": 6867,
      "ĠÐ¿Ð¾Ð½Ð¸Ð¼Ð°ÐµÑĤ": 6868,
      "Ð¾Ð¾Ð±ÑĢÐ°Ð·": 6869,
      "ĠÐ¿ÑĢÐ¾ÑģÑĤÐ¾Ð¹": 6870,
      "ĠÐ¼ÐµÐ½ÑĮÑĪÐµÐ¹": 6871,
      "ĠÐ¼Ð°Ñħ": 6872,
      "ĠÐ±ÐµÐ·Ð´": 6873,
      "ĠÐ½ÐµÐ´ÐµÐ»ÑĮ": 6874,
      "ĠÑĥÐ·Ð½Ð°Ð»": 6875,
      "ĠÑģÐ¿ÐµÐº": 6876,
      "Ð¸ÑĢÑĥÐµÑĤÑģÑı": 6877,
      "ÑĤÐ¾Ð³Ð¾": 6878,
      "ĠÐ³Ð¾Ð»Ð¾ÑģÐ°": 6879,
      "ĠÑģÐ¼Ð¾Ð¶ÐµÑĤÐµ": 6880,
      "ĠÑĢÐ°Ð½Ð¾": 6881,
      "ÑıÐ½ÑĥÐ»Ð°": 6882,
      "ĠÐ¿Ð¾Ð´Ð½": 6883,
      "ĠÐ·Ð°ÑĢÐ°Ð±Ð¾ÑĤ": 6884,
      "ĠÑģÐ»ÐµÐ·Ñĭ": 6885,
      "ĠÑĪÑĤÐ°Ð±": 6886,
      "ĠÑĤÑĥÑĢÐ½Ð¸": 6887,
      "ĠÐ½ÐµÐ¿Ð¾ÑģÑĢÐµÐ´ÑģÑĤÐ²ÐµÐ½Ð½Ð¾": 6888,
      "ĠÐĵÐ°Ð»": 6889,
      "ĠÑģÐ¼Ð¾Ð³Ñĥ": 6890,
      "ĠÐ¿ÐµÑĢÑģÐ¿ÐµÐºÑĤÐ¸Ð²": 6891,
      "ĠÐ²Ð´Ð¾Ð»ÑĮ": 6892,
      "Ð¾Ð¶Ð´Ðµ": 6893,
      "ÑĳÐ½Ð½ÑĭÐ¹": 6894,
      "ĠÐ²Ð¾Ð¹Ð½Ðµ": 6895,
      "ĠÐ¿Ð¾Ð½Ð°Ð´Ð¾Ð±": 6896,
      "ĠÐĴÐ·": 6897,
      "ÐµÐ»Ð»": 6898,
      "ĠÐ³Ð¾Ð»Ð¾Ð´": 6899,
      "ĠÐ²ÐµÑĢÑģÐ¸Ð¸": 6900,
      "ĠÐ¿ÑĢÐµÐ¸Ð¼ÑĥÑīÐµÑģÑĤÐ²": 6901,
      "ÐµÐ´ÑĢ": 6902,
      "Ð¸ÑĩÐ½ÑĭÐµ": 6903,
      "ĠÐ²Ð¾Ð·Ð½Ð¸ÐºÐ°": 6904,
      "ÐłÐŀ": 6905,
      "ÐµÐ´Ð½ÐµÐ²": 6906,
      "Ð°Ð´Ñĥ": 6907,
      "ĠÐ¡Ð»ÐµÐ´": 6908,
      "Ð¸ÑĤÐ¾Ð¼": 6909,
      "ĠÐ²Ð¾Ð¹Ð½Ñĥ": 6910,
      "ĠÐ¼Ð¾Ð±Ð¸Ð»ÑĮ": 6911,
      "ĠÑĤÑĥÐ¿": 6912,
      "ÐµÐ²Ð°Ñı": 6913,
      "ĠÐľÐ¸ÑħÐ°": 6914,
      "ĠÐ´Ð¾ÐºÐ»Ð°Ð´": 6915,
      "Ð¾ÑĩÐºÐµ": 6916,
      "âĤ¬": 6917,
      "ĠÑģÐ¾Ð¼Ð½ÐµÐ²": 6918,
      "Ð¾Ð¿ÑĢÐµÐ´": 6919,
      "Ð¾Ð±Ð½Ð¾": 6920,
      "45": 6921,
      "ĠÐ¿Ð¾ÑģÑĤÐ°Ð½Ð¾Ð²": 6922,
      "ÐĹÐ´": 6923,
      "ĠÐ³Ð»Ð°Ð²Ðµ": 6924,
      "ĠÐ´Ð¾ÑĢÐ¾Ð³Ñĥ": 6925,
      "ĠÑĢÐ°Ð·Ð¼ÑĭÑĪ": 6926,
      "ĠÑĥÑģÑĤÐ¾Ð¹ÑĩÐ¸Ð²": 6927,
      "ĠÑģÐ¼Ð¾Ð³Ð»Ð¸": 6928,
      "Ð¸Ð¹ÑģÐºÐ¾Ð³Ð¾": 6929,
      "ĠÐ±Ð»Ð¸Ð·ÐºÐ¾": 6930,
      "ain": 6931,
      "ĠÐ»Ð°Ð´Ð¾Ð½": 6932,
      "ĠÑģÐ¾ÑĢÐµÐ²Ð½Ð¾Ð²": 6933,
      "ĠÑģÑĤÐ¾ÑıÐ»Ð¸": 6934,
      "ĠÐ¾ÑģÐ½Ð¾Ð²Ð½ÑĭÐµ": 6935,
      "ĠÑģÐ¶Ð¸Ð¼": 6936,
      "ĠÑģÐ»Ð¸Ð²": 6937,
      "ĠÐ¾ÑģÐ½Ð¾Ð²Ð½Ð¾Ð¹": 6938,
      "ĠÐĺÐ½Ð¾Ð³Ð´Ð°": 6939,
      "ĠÐ¸ÑģÐ¿Ð°Ð½": 6940,
      "ĠÐºÑĢÑĭÐ»ÑĮ": 6941,
      "ĠÐ³ÑĢÑĥÑģÑĤ": 6942,
      "ÑĨÐ¸ÑıÐ¼Ð¸": 6943,
      "ĠÐ¿Ð¾Ð»Ð¾Ð¶ÐµÐ½Ð¸Ñı": 6944,
      "Ð¸Ð¼ÑĭÐ¼": 6945,
      "Ð¸ÑģÑĤÐ°Ð½": 6946,
      "ĠÐ¾ÑĤÑĢÑĭÐ²": 6947,
      "ĠÑģÐ¿ÑĥÑģÐº": 6948,
      "Ð¸Ð¼ÑĭÐ¹": 6949,
      "ĠÑĢÐ°Ð·Ð¾Ð±ÑĢ": 6950,
      "ire": 6951,
      "Ð°ÑĤÐ¾ÑĢÐ°": 6952,
      "Ð¸Ð¼ÑĭÑħ": 6953,
      "ĠÐ¿Ð¾ÑĢÑıÐ´Ð¾Ðº": 6954,
      "ĠÐ½Ð¾Ð³Ñĥ": 6955,
      "Ġ2014": 6956,
      "ĠÑĩÐµÐ»Ð¾Ð²ÐµÑĩÐµ": 6957,
      "Ð°Ð»Ð¸Ñı": 6958,
      "Ð¸Ð¼ÑĭÐµ": 6959,
      "Ð½ÐµÑĤÑģÑı": 6960,
      "Ð¾ÑģÑĤÐ¾Ñı": 6961,
      "ĠÐ¾ÑĤÑģÑİÐ´Ð°": 6962,
      "ĠÐ¿ÑĢÐ¾Ð²Ð¾Ð´Ð¸ÑĤÑĮ": 6963,
      "ĠÐ½ÐµÐ½Ð°Ð²Ð¸ÑģÑĤ": 6964,
      "ĠÐ¿Ð¾Ð»Ð¸ÑĨÐµÐ¹": 6965,
      "ĠÐ¿ÐµÑĢÐµÑĢ": 6966,
      "ĠÐ¾Ð±ÑģÑĤÐ°Ð½Ð¾Ð²": 6967,
      "ĠÐ¿Ð¾Ð´Ð¾Ð·ÑĢÐµÐ²": 6968,
      "ĠÐ´Ð¾ÐºÑĤÐ¾ÑĢ": 6969,
      "ĠÐ·Ð°Ð¿Ð¸ÑģÐ¸": 6970,
      "ĠÐ²ÑĭÑħÐ¾Ð´Ð¸ÑĤ": 6971,
      "ost": 6972,
      "ĠÐĲÐ½Ð³": 6973,
      "ĠÑģÐ¾Ð»Ð½ÑĨÐµ": 6974,
      "ĠÑĦÐ¾ÑĢÐ¼Ð°": 6975,
      "ĠÑĤÐºÐ°Ð½Ð¸": 6976,
      "Ð¾Ð¿ÑĢÐ¸": 6977,
      "ĠÐ³Ð»Ð¾Ð±": 6978,
      "pt": 6979,
      "ĠÐ»ÑĥÑĩÑĪÐ¸Ñħ": 6980,
      "ĠÑģÑĢÐµÐ´Ñĭ": 6981,
      "ĠÐ½Ð°Ð»Ð¸ÑĩÐ¸Ðµ": 6982,
      "ÑĭÑī": 6983,
      "ĠÐ¿ÑĢÐ¸ÑģÐ¾ÐµÐ´Ð¸Ð½": 6984,
      "ÑģÑĤÐ²Ð¸Ð¹": 6985,
      "ĠÐ·Ð½Ð°Ð»Ð¸": 6986,
      "70": 6987,
      "ĠÐ´Ð¾ÑģÑĤÐ¾Ð¸Ð½": 6988,
      "ĠÐ¾ÑĢÐ³Ð°Ð½Ð¸Ð·Ð°ÑĨÐ¸Ñı": 6989,
      "ĠÐ°Ð²ÑĤÐ¾": 6990,
      "ĠÐŁÐ¾Ðº": 6991,
      "Ð¾ÑĤÐ¾Ð¹": 6992,
      "ĠÐ¶ÐµÑģÑĤÐ¾Ðº": 6993,
      "Ð¾Ð½Ð¸Ñı": 6994,
      "ame": 6995,
      "ĠÐ¾ÑħÐ²Ð°ÑĤ": 6996,
      "ĠÑģÐµÑĢÐµÐ´Ð¸Ð½Ðµ": 6997,
      "ÑįÑĦÑĦ": 6998,
      "Ġ2010": 6999,
      "Ð¾Ð»ÐµÐ¿": 7000,
      "ĠÐ³Ð¾Ð²Ð¾ÑĢÐ¸ÑĤÑģÑı": 7001,
      "Ð¸Ð¼ÐµÑĤ": 7002,
      "ĠÑģÑĤÐ¾Ð¸Ð»Ð¾": 7003,
      "ĠÐ¼Ð¾Ñĳ": 7004,
      "ĠÐ¿Ð¾ÑģÐ°Ð´": 7005,
      "ĠÑĨÐµÐ»Ñı": 7006,
      "ĠÐ¿Ð»Ð°Ð¼": 7007,
      "%.": 7008,
      "ĠÐ·Ð½Ð°ÐµÐ¼": 7009,
      "ĠÐ½Ð°ÑħÐ¾Ð´Ð¸Ð»ÑģÑı": 7010,
      "ĠÑģÐ¾Ð»Ð½ÐµÑĩ": 7011,
      "ĠÐ²ÐµÑīÐµÑģÑĤÐ²Ð°": 7012,
      "ĠÐ¾ÑģÐ²Ð¾Ð±Ð¾Ð´": 7013,
      "ĠÐŁÑĢÐ¾Ð²": 7014,
      "ÐµÐ½Ñī": 7015,
      "Ð¿Ð°ÑĢ": 7016,
      "ĠÐ°Ð·": 7017,
      "ĠÐ¾Ð²Ð¾Ñī": 7018,
      "Ð±ÐµÑĢÐ³": 7019,
      "ĠÐ´ÐµÑĢÐµÐ²ÑıÐ½": 7020,
      "ĠÑĢÐ°ÑģÑĤÐµÑĢ": 7021,
      "ĠÐ¼ÐµÑĢÑĭ": 7022,
      "ĠÐ¿ÑĢÐ¾Ð²ÐµÑĢÐ¸ÑĤÑĮ": 7023,
      "ÑĩÐ¸ÑĪ": 7024,
      "Ð¸ÑĨÐ¸Ð¹": 7025,
      "ĠÐ¿Ð¾Ð»Ð¾Ð¶ÐµÐ½Ð¸Ð¸": 7026,
      "35": 7027,
      "Ð´Ð¸Ð²": 7028,
      "ÐĲÐĲ": 7029,
      "Ġ2000": 7030,
      "ĠÐ½Ð°ÑħÐ¾Ð´ÑıÑī": 7031,
      "ĠÐ½Ð°ÑħÐ¼ÑĥÑĢ": 7032,
      "))": 7033,
      "ĠÐ¾ÑģÑĤÐ°ÑĤÑĮÑģÑı": 7034,
      "Ð°ÑİÑīÐ¸ÐµÑģÑı": 7035,
      "ĠÑĢÑĭÐ±": 7036,
      "ĠÐ²ÑĭÑĪÐ»Ð¸": 7037,
      "ĠÑģÐ¿Ð°ÑģÐ¸Ð±Ð¾": 7038,
      "ĠÐłÐ¸Ð¼": 7039,
      "ĠÑģÐ¾Ð±Ð»ÑİÐ´": 7040,
      "ÑĢÐµÑĪ": 7041,
      "Ð¸ÑīÐµ": 7042,
      "ĠÐ¿Ð¾ÑĤÑĢÑıÑģ": 7043,
      "ĠÐ¾ÐºÐ°Ð·ÑĭÐ²Ð°ÐµÑĤÑģÑı": 7044,
      "ĠÐ´ÑĢÐ°Ðº": 7045,
      "ĠÐ·Ð½Ð°Ñı": 7046,
      "ĠÑĥÑģÑĤÑĢÐ°": 7047,
      "ĠÐ¿ÑĢÐ¾Ð¸Ð·Ð½ÐµÑģÐ»Ð°": 7048,
      "ĠÑĢÐ°Ð·Ð³Ð»ÑıÐ´": 7049,
      "ĠÑģÐ¾Ð´ÐµÑĢÐ¶Ð°Ð½Ð¸Ðµ": 7050,
      "ĠÐĶÐ¶Ð¾ÑĢÐ´Ð¶": 7051,
      "ÐµÑĤÐ¾Ð²": 7052,
      "ĠÐ¿ÑĢÐµÐ¿ÑıÑĤ": 7053,
      "Ġthat": 7054,
      "Ð¸Ð²Ð¸Ð»Ð¸Ð·": 7055,
      "ĠÐ¿Ð¾Ð»ÑĥÑĩÐ°ÐµÑĤÑģÑı": 7056,
      "ĠÐ»ÐµÐ¶Ð¸ÑĤ": 7057,
      "ĠÐ¿Ð¾Ð¿ÑĭÑĤÐ°Ð»ÑģÑı": 7058,
      "ĠÐ´ÐµÑĢÐ¶Ð°ÑĤÑĮ": 7059,
      "ĠÐ»Ð°Ð²": 7060,
      "ĠÐ¿ÑĢÐ¸Ð²ÑıÐ·": 7061,
      "ĠÐ¿ÑĢÐ¸Ð¼ÐµÐ½ÐµÐ½Ð¸Ñı": 7062,
      "Ð½Ð¾ÑģÑĤÑıÑħ": 7063,
      "Ð¾Ð²ÑĭÐ¼Ð¸": 7064,
      "Ð°Ð»Ðº": 7065,
      "ĠÐ·Ð°ÐºÐ°Ð½ÑĩÐ¸Ð²": 7066,
      "ÐµÑĢÑģ": 7067,
      "ĠÐĵÑĢÐ¸": 7068,
      "ĠÐ¡ÑĥÐ´": 7069,
      "ĠÐ±Ð¾Ð»ÑĮÑĪÐ¾Ð³Ð¾": 7070,
      "ĠÐ¿Ð°ÐºÐµÑĤ": 7071,
      "ÑĩÐ°Ð½": 7072,
      "ÐµÑĢÐ½Ð°": 7073,
      "ĠÐ´ÐµÑĦ": 7074,
      "ĠÐŁÐ¾Ð½": 7075,
      "ĠÐ´ÐµÐ²ÑĥÑĪÐºÐµ": 7076,
      "Ġ2012": 7077,
      "ĠÐĶÐ¾Ðº": 7078,
      "Ð¸Ð½ÑĥÐ»Ð°": 7079,
      "ĠÐ¾ÑĤÐ½Ð¾ÑģÑıÑĤÑģÑı": 7080,
      "ĠÑģÐ¾Ð²ÐµÑĢÑĪÐµÐ½": 7081,
      "ĠÐĳÐ¾Ð³Ð°": 7082,
      "Ð±ÑĭÑĩÐ½Ð¾": 7083,
      "ĠÐ·ÑĥÐ±Ñĭ": 7084,
      "ÑĢÑĭÐ»": 7085,
      "ÐµÐ½Ð¾Ðº": 7086,
      "ĠÐ²ÑĭÐ¿Ð¾Ð»Ð½ÐµÐ½Ð¸Ñı": 7087,
      "ĠÐ±ÐµÑģÐ¿Ð¾ÐºÐ¾": 7088,
      "ĠÐºÐ°Ð¼Ð¿": 7089,
      "ĠÑĦÐ¾ÑĤÐ¾Ð³ÑĢÐ°ÑĦÐ¸Ð¸": 7090,
      "ĠÐ²Ð¾ÑģÐºÐ»Ð¸Ðº": 7091,
      "ĠÐ¾Ð´Ð½Ð°Ð¶Ð´Ñĭ": 7092,
      "ÑģÑıÑī": 7093,
      "ĠÐĶÐ¼": 7094,
      "ĠÐ´Ð°Ð½Ð½Ð¾Ð³Ð¾": 7095,
      "ĠÐºÐ°ÑĢÑĤÑĭ": 7096,
      "ĠÐ´Ð°Ð¼": 7097,
      "ĠÑĢÐµÐ°Ð³": 7098,
      "Ð·Ð²": 7099,
      "ĠÐľÐ½Ð¾Ð³Ð¸Ðµ": 7100,
      "ĠÐ¾Ð±Ð¾Ð¸Ñħ": 7101,
      "ĠÐ°ÐºÐºÑĥÑĢÐ°ÑĤÐ½Ð¾": 7102,
      "ĠÐ´Ð¾Ð²Ð¾Ð»ÑĮ": 7103,
      "ÑĨÐ¸Ð½": 7104,
      "ĠÐ²Ð¾Ð·ÑĢÐ°ÑģÑĤÐ°": 7105,
      "ĠÐ½Ð°ÑĢÑĥÐ¶": 7106,
      "ĠÐ²ÑĭÑĢÐ¾Ñģ": 7107,
      "Ð¸ÑĤÐµÐ»ÑĮÐ½ÑĭÐ¼Ð¸": 7108,
      "ĠÑĢÑĥÑģÑģÐºÐ¸Ñħ": 7109,
      "ĠÐ¿ÑĢÐµÑĢÐ²": 7110,
      "Ð¾Ð´ÐµÑĢÐ¶": 7111,
      "ĠÑģÐ¾Ð¾Ð±ÑīÐµ": 7112,
      "ĠÐºÐ°Ð¶Ð´ÑĭÐ¼": 7113,
      "ĠÐ²ÐµÑĢÐ½Ð¾": 7114,
      "Ð¾Ð³Ñĥ": 7115,
      "ĠÐºÐ¸Ð²Ð½ÑĥÐ»Ð°": 7116,
      "ĠÑģÐ°ÑħÐ°ÑĢ": 7117,
      "ÑĢÐ³": 7118,
      "ÑĭÐ·": 7119,
      "ÑĤÐµÑĢÐ½Ð°ÑĤÐ¸Ð²": 7120,
      "rom": 7121,
      "ĠÑĩÐµÑģÑĤÐ½Ð¾": 7122,
      "ÑıÑīÐµÐµ": 7123,
      "âĢĿ,": 7124,
      "ĠÐ¿Ð¾ÑĤÐ¾Ðº": 7125,
      "ÑĢÑĭÐ»Ð°": 7126,
      "ĠÐ¼Ð°ÑģÐ»Ð¾": 7127,
      "ĠÐ¼Ð¾ÐµÐ¼Ñĥ": 7128,
      "ĠÐļÐ°Ð¿": 7129,
      "Ð¼Ð¸ÑĢÑĥ": 7130,
      "ĠÑĥÑĩÐ°ÑģÑĤÐ½Ð¸ÐºÐ¾Ð²": 7131,
      "ĠÑģÑĤÐ°ÑĢÐ°ÑıÑģÑĮ": 7132,
      "ĠÐ¼ÐµÑĤÐ¾Ð´Ñĭ": 7133,
      "ĠÑĢÐ°Ð·ÑĬ": 7134,
      "ĠÐĿÐµÑĥÐ¶ÐµÐ»Ð¸": 7135,
      "ĠÐ·Ð°Ð³Ð°Ð´": 7136,
      "ĠÐ¡Ð°ÑģÐºÐµ": 7137,
      "ĠÐĿÐ°Ñģ": 7138,
      "ĠÐ¸Ð½ÑĤÐµÑĢÐ²ÑĮÑİ": 7139,
      "ĠÐ³ÑĢÐ°Ð´": 7140,
      "ĠÑģÐ¾Ð±ÐµÑģ": 7141,
      "ĠÐ²Ð¸Ð´ÐµÐ»Ð¸": 7142,
      "ĠÑĥÐ½Ð¸Ð²ÐµÑĢÑģÐ¸ÑĤÐµÑĤÐ°": 7143,
      "ĠÑĢÐ°Ð·Ð¾Ñĩ": 7144,
      "ĠÐĹÐ½Ð°ÑĩÐ¸ÑĤ": 7145,
      "Ð¸Ð½ÐºÐ°": 7146,
      "ĠÐ»ÐµÑĩÐµÐ½Ð¸Ðµ": 7147,
      "Ð¸ÑģÐ¿": 7148,
      "ĠÐ³ÑĢÑĥÐ±": 7149,
      "ĠÐ¿ÑĢÐ¸ÑĩÐ¸Ð½Ðµ": 7150,
      "ĠÐ¿ÑĢÐµÐ´Ð¿Ð¾ÑĩÐ¸ÑĤ": 7151,
      "Ð¸Ð´ÑĨ": 7152,
      "ĠÐ¿Ð¸ÑģÑĮÐ¼Ð°": 7153,
      "ore": 7154,
      "ĠÑģÐ¾ÑĤÑĢÑĥÐ´Ð½Ð¸ÑĩÐµ": 7155,
      "Ð¾ÑĤÐµÑĢ": 7156,
      "ĠÐ½ÐµÐ´Ð¾Ð²Ð¾Ð»ÑĮ": 7157,
      "ĠÐ±ÐµÑģÐ¿Ð¾ÐºÐ¾Ð¹": 7158,
      "ĠÐ¿ÑĢÐ¾ÑģÑĤÑĢÐ°Ð½ÑģÑĤÐ²Ð¾": 7159,
      "ĠÑģÐµÑĢÐ¸": 7160,
      "ĠÐ¼ÑıÑĩ": 7161,
      "ĠÐ»Ð°Ð¿": 7162,
      "ĠÑĥÐ¿Ð¾Ð¼": 7163,
      "ÑĥÑīÐµÑģÑĤÐ²Ð°": 7164,
      "ÐŀÑģÐ½Ð¾Ð²": 7165,
      "Ð½Ð°Ð²": 7166,
      "ĠÑģÐ¿ÑĥÑĤ": 7167,
      "ĠÐ¿ÑĢÐ¾Ð²ÐµÐ´ÐµÐ½Ð¸Ñı": 7168,
      "ĠÐ¿ÑĢÐ¾Ð´Ð¾Ð»Ð¶Ð°ÐµÑĤ": 7169,
      "ĠÐ¼Ð°Ð³Ð°Ð·Ð¸Ð½": 7170,
      "ĠÑĥÐ³ÑĢÐ¾Ð·": 7171,
      "ĠÐĴÑĭÑģ": 7172,
      "ĠÐĳÐ¾Ð»ÐµÐµ": 7173,
      "ĠÐ¾ÑĤÐ´ÐµÐ»ÑĮÐ½ÑĭÑħ": 7174,
      "ĠÑħÑĢÐ¾": 7175,
      "Ð¿Ð¾Ð¼": 7176,
      "iz": 7177,
      "ĠÑĢÐ°Ðº": 7178,
      "ass": 7179,
      "ĠÐ¸Ð½ÑĤÐµÐ½ÑģÐ¸Ð²": 7180,
      "ĠÐ³ÐµÐ½ÐµÑĢÐ°Ð»": 7181,
      "ĠÐ´Ð¾ÑĢÐ¾Ð³Ð¸": 7182,
      "ĠÐ´Ð²Ð¾Ðµ": 7183,
      "ĠÐ²ÑĢÑıÐ´": 7184,
      "ĠÐ¿Ð¾Ð´Ð´": 7185,
      "ĠÑħÐ²Ð°ÑĤÐ°ÐµÑĤ": 7186,
      "ĠÑģÐ²ÐµÑĢÑħÑĥ": 7187,
      "ĠÑģÐ²Ð¾ÑĳÐ¼": 7188,
      "Ð°ÐµÐ¼ÑĭÐµ": 7189,
      "ĠÐ¡ÐµÐ¼": 7190,
      "ĠÐ¸Ð¼ÐµÑİÑī": 7191,
      "ĠÐ·Ð°Ð±ÑĭÐ»": 7192,
      "ĠÑĢÐµÐ¶Ð¸ÑģÑģ": 7193,
      "ĠÐ°ÑĤÐ¾Ð¼": 7194,
      "ĠÐ²Ð¸Ð´Ð¾Ð¼": 7195,
      "Ð²ÑĪÐ¸ÑģÑĮ": 7196,
      "ÑĩÑĥ": 7197,
      "ĠÐ´Ð²Ð¾Ð¹": 7198,
      "ÐºÐ¾Ð²Ð¾Ð¹": 7199,
      "ĠÑĤÐµÐºÑĥÑī": 7200,
      "ĠÐ¸Ð½Ð¶": 7201,
      "ĠÑģÐ¾Ð·Ð´Ð°Ð½Ð¸Ðµ": 7202,
      "ĠÑģÐµÑĢÑĮÐµÐ·Ð½Ð¾": 7203,
      "Ð°ÐºÑĤÐ¸Ð²": 7204,
      "Ð¸ÑĩÐ½Ð¾Ð¹": 7205,
      "ĠÐĽÑĥÐ¸": 7206,
      "ĠÑĢÐµÑģÑĤÐ¾ÑĢ": 7207,
      "ĠÐ¸Ð½ÑģÑĤÑĢÑĥÐº": 7208,
      "ĠÐ¸Ð·Ð²Ð¸Ð½": 7209,
      "ÑĮÐµÑĤ": 7210,
      "ĠÐºÑĥÑħÐ½Ñİ": 7211,
      "Ð¾Ð»Ð¸ÑĤ": 7212,
      "Ð¸ÑĢÐ¾Ð²Ð°Ð½Ð½ÑĭÐµ": 7213,
      "ĠÐºÐ½Ð¸Ð³Ð°": 7214,
      "ĠÐ½Ð¸ÐºÐ°ÐºÐ¾Ð¹": 7215,
      "ÑģÑĤÑĢÐ°ÑĤÐ¸Ð²": 7216,
      "ĠÐºÐ¾Ð»Ð»ÐµÐºÑĤÐ¸Ð²": 7217,
      "ĠÑĥÑĪÐµÐ»": 7218,
      "ĠÑģÐ°Ð¼Ð¾Ð»ÐµÑĤ": 7219,
      "ĠÐ¿ÑĢÐ¾ÑĪÐ»Ð°": 7220,
      "ĠÐºÐ½Ð¸Ð¶": 7221,
      "ĠÐŁÐ¾ÑĤÑĤÐµÑĢ": 7222,
      "ĠÐ°Ð´Ð¼Ð¸Ð½Ð¸ÑģÑĤÑĢÐ°": 7223,
      "ÐµÐ´Ñĭ": 7224,
      "ÑĨÐ¸Ðº": 7225,
      "ĠÑıÐº": 7226,
      "Ð¾ÑĢÐ¾Ð´": 7227,
      "ĠÐ¿Ð¾Ð´ÑĥÐ¼Ð°ÑĤÑĮ": 7228,
      "ĠÐ²ÐµÑīÐµÑģÑĤÐ²": 7229,
      "Ð½Ð°Ð´": 7230,
      "ÑĤÐµÐ·": 7231,
      "ĠÐ³Ð¾ÑģÑĥÐ´Ð°ÑĢÑģÑĤÐ²Ð¾": 7232,
      "ĠÑģÑİÐ¶": 7233,
      "ĠÐºÐ°Ð±Ð¸Ð½ÐµÑĤ": 7234,
      "ĠÑĢÑıÐ´Ð°": 7235,
      "ĠÑıÐ´ÐµÑĢ": 7236,
      "ĠÐ±Ð»ÐµÑģÑĤ": 7237,
      "Ð¢ÐµÐ¼": 7238,
      "ĠÑĢÐµÑĦÐ¾ÑĢÐ¼": 7239,
      "Ð»ÐµÐ´ÑģÑĤÐ²Ð¸Ð¸": 7240,
      "ĠÑģÑĤÑĢÐ°ÑħÐ°": 7241,
      "ĠÑıÐ·ÑĭÐºÐ¾Ð¼": 7242,
      "ĠÑĥÑĤÐ¾Ñĩ": 7243,
      "ĠÐ½Ð°Ð½ÐµÑģ": 7244,
      "ĠÐ¾ÑīÑĥÑĤ": 7245,
      "Ð¾ÐºÐ¾Ð½": 7246,
      "ĠÐĴÑĤÐ¾ÑĢÐ¾Ð¹": 7247,
      "Ð¾ÑĤÐ°Ð»": 7248,
      "ĠÑĢÐ¸Ð¼": 7249,
      "ĠÐºÐ°ÑĢÐ¼": 7250,
      "ĠÐ¿Ð¾Ð´ÑĤÐ²ÐµÑĢÐ¶Ð´": 7251,
      "ĠÑĤÐµÑĤ": 7252,
      "ĠÐ¿ÑĥÐ±Ð»Ð¸ÐºÐ°": 7253,
      "ĠÑģÑĤÑĢÑĥ": 7254,
      "ÑģÐºÐ¾ÑĢÐ±": 7255,
      "ĠÐ´Ð¾ÑģÑĤÐ¸Ð¶ÐµÐ½Ð¸Ñı": 7256,
      "ĠÐ¶Ð¸Ð·Ð½ÑĮÑİ": 7257,
      "ĠÐ¿ÑĢÐ¸Ð·Ð½Ð°": 7258,
      "ĠÑģÐµÑģÑĤÑĢÐ°": 7259,
      "Ð»Ð¾Ð´": 7260,
      "ĠÐºÐ¾Ð¼Ð¿Ð»ÐµÐº": 7261,
      "ĠÐ³ÑĥÐ»Ñı": 7262,
      "ĠÐ¿Ð°ÑĢÐ°Ð»Ð»": 7263,
      "Ð¸ÑĢÑĥÑİÑĤ": 7264,
      "ĠÐ¿ÑĢÐ¸ÑĢÐ¾Ð´Ñĭ": 7265,
      "ĠÐºÐ¸Ð»Ð¾Ð¼ÐµÑĤ": 7266,
      "ĠÐ½ÐµÐ¾Ð´": 7267,
      "ĠÐ½Ð¾Ð³Ð°Ð¼Ð¸": 7268,
      "ĠÐľÑį": 7269,
      "ĠÑĥÐ¿Ð°Ð»": 7270,
      "ÐµÐ½ÑĨÐ¸Ñı": 7271,
      "ĠÑĤÑĢÐ°Ð³": 7272,
      "ĠÐľÐµÑĢ": 7273,
      "ĠÑģÑĥÐ´Ð°": 7274,
      "ĠÐ¿ÑĢÐµÐ´ÑģÑĤ": 7275,
      "ĠÐ¿ÑĢÐµÐ¿Ð¾Ð´Ð°Ð²": 7276,
      "??": 7277,
      "Ð¸ÑĤÐµÐ»ÑĮÑģÑĤÐ²Ð°": 7278,
      "ĠÐĵÑĢÐµÐ¹": 7279,
      "ĠÑĢÐ°ÑģÑĩ": 7280,
      "ĠÐ°Ð²ÑĤÐ¾Ð¼Ð¾Ð±Ð¸Ð»ÑĮ": 7281,
      "Ġ2011": 7282,
      "ĠÑģÐ½ÐµÐ³": 7283,
      "ĠÐ´ÐµÐ¿ÑĢÐµÑģÑģ": 7284,
      "ĠÐ¾ÑĩÐµÐ²Ð¸Ð´Ð½Ð¾": 7285,
      "Ð¸Ð½ÑģÐºÐ¾Ð¹": 7286,
      "ĠÑģÐ¾ÑħÑĢÐ°Ð½Ð¸ÑĤÑĮ": 7287,
      "ĠÐºÐ°Ð¶Ð´ÑĥÑİ": 7288,
      "ĠÐ´Ð°Ð²Ð»ÐµÐ½Ð¸Ñı": 7289,
      "ĠÐ½Ð°Ð²ÐµÑĢÐ½ÑıÐºÐ°": 7290,
      "ÑģÐ¿Ð¾ÑģÐ¾Ð±": 7291,
      "Ð½ÑĥÑĤÑĢÐ¸": 7292,
      "ĠÑıÐ´": 7293,
      "ĠÐ¿Ð¾ÑģÐ»ÑĭÑĪ": 7294,
      "--------": 7295,
      "ĠÑįÐºÑģÐ¿ÐµÑĢÐ¸Ð¼ÐµÐ½ÑĤ": 7296,
      "ĠÐĴÐµÐ»Ð¸ÐºÐ¾Ð±ÑĢÐ¸ÑĤÐ°Ð½Ð¸Ð¸": 7297,
      "ĠÐ¡Ð°": 7298,
      "ĠÑĤÑĢÐ¸Ð´ÑĨ": 7299,
      "ĠÑģÐ°Ð¹ÑĤÐ°": 7300,
      "Ð°Ð»Ð¸Ð·Ð¼Ð°": 7301,
      "ĠÐ¿ÑĢÐ¸Ð¼ÐµÑĢÑĥ": 7302,
      "ĠÐºÑĥÐ±": 7303,
      "ĠÐ¾ÑĤÐºÑĢÐ¾Ð²": 7304,
      "ÑģÐµÐ´Ð½ÐµÐ²": 7305,
      "ĠÐ»Ð¾Ð¼": 7306,
      "ĠÐ²ÑĭÐ±Ð¸ÑĢ": 7307,
      "ĠÐºÐ¸Ð¿": 7308,
      "ĠÐĴÐ°ÑĢ": 7309,
      "ĠÐ¿Ð¾Ð´Ð¶": 7310,
      "ĠÐ²Ð»Ð°Ð´ÐµÐ»ÑĮ": 7311,
      "Ð°Ð·Ð²": 7312,
      "ure": 7313,
      "ĠÐºÑģÑĤÐ°ÑĤÐ¸": 7314,
      "ÑıÐ»Ð¾": 7315,
      "ĠÐ¿ÑĢÐ¾Ð½": 7316,
      "ĠÐ¾Ð±ÑģÐ»ÑĥÐ¶": 7317,
      "Ð°Ð°": 7318,
      "ĠÐ¾ÑģÑĤÐ°Ð»Ð¸ÑģÑĮ": 7319,
      "ĠÐ¿Ð¾Ð½Ð¸Ð¼Ð°Ñı": 7320,
      "ĠÐ²Ð°Ð½": 7321,
      "ĠÐ¿ÑĭÑĤÐ°Ð»Ð°ÑģÑĮ": 7322,
      "ĠÐ±ÑĥÐ¼Ð°Ð³Ð¸": 7323,
      "Ġan": 7324,
      "Ð·Ð°Ð¿": 7325,
      "Ð¸Ð»Ð»ÐµÑĢ": 7326,
      "ĠÐ¾Ð±Ð»Ð°ÑģÑĤÑĮ": 7327,
      "ÑĳÐ½Ð½ÑĭÐµ": 7328,
      "ĠÐľÐ¾Ð¹": 7329,
      "ÐµÑģÐºÐ¾Ð»ÑĮÐºÐ¾": 7330,
      "ÑİÐº": 7331,
      "ĠÑģÐ¿Ð¸Ð½Ðµ": 7332,
      "ĠÐ¾ÑĪÐ¸Ð±ÐºÐ¸": 7333,
      "ĠÐ¿ÑĢÐ¾Ð³Ð¾Ð²Ð¾ÑĢÐ¸Ð»": 7334,
      "ĠÐ¾ÑĤÑģÑĤÐ°Ð²": 7335,
      "ĠÑıÐ¹": 7336,
      "ĠÐ½Ð°ÑĩÐ¸Ð½Ð°ÑİÑĤ": 7337,
      "ĠÑħÐ°ÑĢÐ°ÐºÑĤÐµÑĢÐ°": 7338,
      "Ð»Ð¸Ð½Ð°": 7339,
      "ĠÐķÐ¹": 7340,
      "ĠÑĢÐµÐ±ÑıÑĤ": 7341,
      "ĠÑĪÐ»Ð°": 7342,
      "ĠÐ³Ð»Ð¾ÑĤ": 7343,
      "ĠÐ¡Ð¾Ð»Ð½": 7344,
      "ĠÑģÐ²Ð¾Ð±Ð¾Ð´Ñĭ": 7345,
      "ĠÐ¿Ð¾Ð¿ÑĭÑĤÐºÐ¸": 7346,
      "ĠÐłÐ°Ð¹": 7347,
      "ĠÐ¿Ð¾Ð»ÑĥÑĩÐ¸Ð»Ð¾ÑģÑĮ": 7348,
      "ĠÐ¿Ð¾ÐºÐ°Ð·Ð°Ð»": 7349,
      "ĠÐ¿Ð¾Ñį": 7350,
      "ĠÑĥÐ¿Ð¾ÑĢ": 7351,
      "ĠÐ¿Ð¾Ð»Ð¾Ñģ": 7352,
      "ĠÐļÑĥÐ±": 7353,
      "ĠÐ±Ð¾ÑĢÑĮÐ±Ðµ": 7354,
      "ĠÐĿÐµÑģÐ¼Ð¾ÑĤÑĢÑı": 7355,
      "ĠÑĦÐ¾Ð½Ðµ": 7356,
      "Ð»ÐµÐ½Ð½Ð°Ñı": 7357,
      "ĠÐ½Ð°ÑģÑĤÑĢÐ¾Ð¹": 7358,
      "ĠÐ¿Ð¾Ð»Ð¾ÑĤ": 7359,
      "ĠÐ¡Ð²ÑıÑĤ": 7360,
      "ĠÑģÐ¸Ð´ÐµÐ»Ð°": 7361,
      "Ð¾Ð³Ð¾Ð²": 7362,
      "ĠÐ½Ð°Ð²ÑģÐµÐ³Ð´Ð°": 7363,
      "ÐµÐ½Ð¾Ð¼": 7364,
      "ĠÐ¼Ð°Ð½Ð¸": 7365,
      "ĠÐłÐµÐ¹": 7366,
      "ĠÐ´ÑĢÑĥÐ³Ð°Ñı": 7367,
      "ĠÑĩÑĥÐ²ÑģÑĤÐ²Ð¾Ð²Ð°ÑĤÑĮ": 7368,
      "ĠÐ»Ð¾Ð±": 7369,
      "ĠÑĢÐ¾Ð´Ð¸Ð»ÑģÑı": 7370,
      "ÐŁÐ¾Ð¼": 7371,
      "ĠÑģÑĥÐ´ÐµÐ±": 7372,
      "ĠÐľÐ¸Ð»": 7373,
      "ĠÐ²Ð¸Ð´Ñĭ": 7374,
      "ĠÐ¸Ð³ÑĢÐ°ÐµÑĤ": 7375,
      "ĠÐ°ÐºÑĤÐ¸Ð²Ð½Ð¾": 7376,
      "ĠÐ²Ð¾ÑģÐ¿Ð¾Ð¼Ð¸Ð½Ð°Ð½Ð¸Ñı": 7377,
      "ll": 7378,
      "ĠÑĦÐ°Ð¼Ð¸": 7379,
      "ĠÑĦÑĢÑĥÐº": 7380,
      "ĠÐŁÑĥÑĤ": 7381,
      "Ð¸ÑĢÑĥÑİÑī": 7382,
      "ÐµÑĤÐ¾": 7383,
      "Ð±ÐµÐ¶": 7384,
      "ÐµÑĤÑĮÑģÑı": 7385,
      "ĠÑģÐ¿Ð¸ÑĢ": 7386,
      "ÑĥÐ»Ð¸ÑĢÑĥ": 7387,
      "ĠÐ¾ÑĤÐ¾ÑĢ": 7388,
      "Ð°ÐºÑĥÑĢÐ°": 7389,
      "ĠÐ¸Ð³ÑĢÑĥÑĪ": 7390,
      "ĠÐĶÑĥÐ¼Ð°Ñİ": 7391,
      "ĠÐ¡ÐºÐ¾ÑĢ": 7392,
      "ĠÐ½ÐµÐ½Ð°Ð²Ð¸Ð´": 7393,
      "ÑħÐ¸": 7394,
      "ĠÑģÑĤÐ°Ð½Ð¾Ð²ÑıÑĤÑģÑı": 7395,
      "ĠÐ²ÑĭÐ½ÑĥÐ¶Ð´": 7396,
      "ĠÐ´Ð¸Ð½Ð°Ð¼": 7397,
      "ĠÐ´Ð¾ÑģÑĤÐ°ÑĤÐ¾Ñĩ": 7398,
      "Ð¸Ð½ÑĥÐ»ÑģÑı": 7399,
      "Ð¾ÑĩÐµ": 7400,
      "ĠÐ¾ÑģÑĤÐ°Ð½Ð¾Ð²Ð¸Ð»ÑģÑı": 7401,
      "ĠÐ±Ð°ÐºÑĤÐµÑĢ": 7402,
      "ĠÑģÐ¿Ð°Ð»ÑĮ": 7403,
      "ĠÑĤÐ¾Ð²Ð°ÑĢ": 7404,
      "ĠGoogle": 7405,
      "ĠÐ¾Ð±ÑĥÑģÐ»Ð¾Ð²": 7406,
      "ĠÐ´Ð¾Ð±Ð°Ð²Ð¸Ð»": 7407,
      "ĠÐ¡Ð¾ÐµÐ´Ð¸Ð½": 7408,
      "ĠÐºÐ¾Ð¼Ð°Ð½Ð´Ñĥ": 7409,
      "ĠÑģÐºÑĢÐ¸Ð¿": 7410,
      "ĠÐ³ÑĢÐµÑħ": 7411,
      "ĠÐ²ÑĭÑĢÐ°Ð¶ÐµÐ½Ð¸Ðµ": 7412,
      "ĠÐ½Ð°Ð¿ÑĢÐ°Ð²Ð»ÐµÐ½Ð¸Ñı": 7413,
      "ĠÐ·ÐµÐ¼Ð»Ñı": 7414,
      "ĠÐ²ÑĭÐ¹Ð´": 7415,
      "ĠÑĢÐµÑĪÐ¸ÑĤÑĮ": 7416,
      "Ġ2016": 7417,
      "ĠÐ¿ÑĢÐ¾Ð¼ÐµÐ¶": 7418,
      "Ð·ÐµÐ¼": 7419,
      "ĠÐ¿Ð¾Ð¸Ð½ÑĤÐµÑĢÐµÑģÐ¾Ð²": 7420,
      "Ġhe": 7421,
      "ÑģÑĤÑĢÐµÐ±": 7422,
      "ĠÑĦÐ°Ð½": 7423,
      "ĠÐ¼ÐµÐ»ÑĮ": 7424,
      "ĠÑĤÐ°ÐºÑĤ": 7425,
      "ork": 7426,
      "ĠÑīÐµÐ»": 7427,
      "ÑĥÑĢÑģ": 7428,
      "ÐµÑģÑĤÐµÑĢ": 7429,
      "ÐļÐ°ÑĢ": 7430,
      "Ġ2013": 7431,
      "ĠÐ¿Ð¾ÑģÐ»ÐµÐ´Ð½ÐµÐ¹": 7432,
      "ĠÐ¦ÐµÐ½ÑĤÑĢ": 7433,
      "ÐĴÑģ": 7434,
      "ĠÑĥÑģÐ¿ÐµÐ»Ð°": 7435,
      "ÐļÑĢÐ¾Ð¼Ðµ": 7436,
      "ĠÑĤÐµÑħÐ½Ð¾Ð»Ð¾Ð³Ð¸Ð¸": 7437,
      "ĠÐ¿ÐµÑĢÐµÐ½Ð¾Ñģ": 7438,
      "ĠÐ»Ð°Ð±Ð¾ÑĢÐ°ÑĤÐ¾ÑĢ": 7439,
      "ĠÐ¿Ð¾ÐºÐ°Ð·Ð°Ð»Ð¾ÑģÑĮ": 7440,
      "ĠÐ°Ð»Ð»": 7441,
      "Ġ2015": 7442,
      "act": 7443,
      "ĠÐ¼Ð°ÑģÐ»Ð°": 7444,
      "Ð¾Ð´Ð¸": 7445,
      "ĠÐ·Ð°Ð±ÑĭÑĤÑĮ": 7446,
      "ĠÐ¿Ð¾ÑģÐµÑī": 7447,
      "ĠÐ²ÑĭÑģÐºÐ°Ð·ÑĭÐ²": 7448,
      "ĠÑģÐ¿Ð¾ÑģÐ¾Ð±Ð¾Ð¼": 7449,
      "Ð¾Ð³ÑĢÐ°ÑĦÐ¸Ð¸": 7450,
      "ÐłÐĺ": 7451,
      "ĠÐ½Ð°ÑĥÐºÐ¸": 7452,
      "ĠÐĺÑĤÐ°Ð»Ð¸Ð¸": 7453,
      "ĠÐ¾ÑĩÐ¸ÑģÑĤ": 7454,
      "ĠÐºÐ¾Ð»ÐµÐ±": 7455,
      "ÑĥÐ¶ÑĩÐ¸Ð½Ð°": 7456,
      "ĠÐ¿ÑĢÐ¾Ð±Ð»": 7457,
      "ÑīÐ¸ÐºÐ¾Ð²": 7458,
      "Ġ2008": 7459,
      "ĠÐºÐ½Ð¾Ð¿ÐºÑĥ": 7460,
      "ĠÐĲÐ½Ð´ÑĢÐµ": 7461,
      "ĠÐ¿ÑĢÐ¾Ð·Ð²": 7462,
      "ĠÑĤÑĢÐµÑĤÐ¸Ð¹": 7463,
      "Ð¸Ð½ÑĥÑĤÑĮ": 7464,
      "ĠÐ¾Ð±Ð»Ð°Ð´Ð°ÐµÑĤ": 7465,
      "ĠÐ½Ð°Ð¿Ð¾Ð»Ð½": 7466,
      "Ð°Ð½Ñı": 7467,
      "Ð°Ð±Ñĭ": 7468,
      "ĠÐ¨ÐµÐ¿": 7469,
      "Ð°Ð¼Ð¸Ð½": 7470,
      "ĠÐ¿Ð¾ÐºÑĢÐ°Ñģ": 7471,
      "ĠÑģÐ¼ÑĭÑģ": 7472,
      "ĠÑģÐ¿Ð¾ÑģÐ¾Ð±ÐµÐ½": 7473,
      "ĠÐ²Ð¾Ð·Ð¼ÑĥÑī": 7474,
      "ĠÑĤÐ²Ð¾ÑĢÑĩÐµÑģÐº": 7475,
      "ĠÑģÐºÐ¾Ð»ÑĮÐ·": 7476,
      "ĠÐ¿Ð¾Ð´Ð½ÑıÐ»ÑģÑı": 7477,
      "ÐĺÑģÑĤÐ¾ÑĩÐ½Ð¸Ðº": 7478,
      "ĠÐºÑĢÐµÑģÑĤÑĮÑıÐ½": 7479,
      "ĠÑĥÐ»Ð¸ÑĨÑĥ": 7480,
      "ĠÐ¢Ð¾Ð¼Ð°Ñģ": 7481,
      "ĠÑĢÐ°Ð·Ð¼ÐµÑī": 7482,
      "ÐµÐ½Ð¾Ð²": 7483,
      "Ð½Ð¸Ð»Ð¾ÑģÑĮ": 7484,
      "ĠÐ´Ð¾Ð·": 7485,
      "ĠÐĿÐµÐ¼": 7486,
      "ĠÐĿÐ°ÐºÐ¾Ð½ÐµÑĨ": 7487,
      "ĠÑħÐ¼Ñĭ": 7488,
      "ĠÐ¿Ð¾ÐºÐ»Ð¾Ð½": 7489,
      "Ġ35": 7490,
      "ĠÐ·Ð°Ð³ÑĢÑĥÐ·": 7491,
      "ĠÐ¾ÑĤÑģÑĤÑĢÐ°Ð½": 7492,
      "ĠÐºÐ»Ð°Ð²": 7493,
      "ÑĮÐµÐ¼": 7494,
      "ĠÐ¶ÑĥÑĤ": 7495,
      "ĠÐ¡ÑįÐ¼": 7496,
      "ĠÑģÐ¾Ð¾ÑĤÐ²ÐµÑĤÑģÑĤÐ²ÐµÐ½Ð½Ð¾": 7497,
      "ĠÑįÐ»ÐµÐ¼ÐµÐ½ÑĤÑĭ": 7498,
      "ĠÐºÐ¸ÑĪ": 7499,
      "ĠÐ¾Ð±Ð¸ÑĤ": 7500,
      "ĠÐľÐ°ÐºÑģ": 7501,
      "ĠÑĥÑģÐ¿ÐµÐ²": 7502,
      "Ð¸ÑģÑĤÐ°": 7503,
      "Ð§ÐµÑĢÐµÐ·": 7504,
      "ĠÐ¿ÑĢÐµÐ¼ÑĮ": 7505,
      "ĠÐ¸Ð½Ð´Ñĥ": 7506,
      "ĠÐłÐ¾ÑģÑģÐ¸Ð¹ÑģÐºÐ¾Ð¹": 7507,
      "ĠÐĽÐ¸Ð·": 7508,
      "ĠÐ¿ÐµÐ´": 7509,
      "Ð¸Ð»ÐµÐ¹": 7510,
      "Ġ(\"": 7511,
      "ĠÑĨÐ¸Ð²Ð¸Ð»Ð¸Ð·": 7512,
      "ĠÐ´Ð¾ÑģÑĤÐ¾Ð¹": 7513,
      "ĠÐ¿ÐµÑĢÐµÐ´Ð°ÑĩÐ¸": 7514,
      "ĠÐ½Ð°ÑĩÐ¸Ð½Ð°Ñı": 7515,
      "ĠÐ¿Ð»Ð°Ð½Ð¸": 7516,
      "ĠÐ¾Ð±ÑĢÐ°Ð·Ð¾Ð²Ð°Ð½Ð¸Ðµ": 7517,
      "ÑıÑīÐ¸Ð¼": 7518,
      "ĠÐ²Ð¾Ð»Ð½Ñĥ": 7519,
      "ĠÑģÐ¿ÑĢÐ°Ð²ÐµÐ´Ð»Ð¸Ð²": 7520,
      "ĠÐ¾Ð±Ð»Ð°ÑģÑĤ": 7521,
      "ĠÐ´Ð°Ð²Ð»ÐµÐ½Ð¸Ðµ": 7522,
      "Ð¸ÑĤÐ¼": 7523,
      "ĠÐ¾Ð´Ð¸Ð½Ð°ÐºÐ¾Ð²": 7524,
      "ĠÑĥÐ½Ð¸Ð²ÐµÑĢÑģÐ¸ÑĤÐµÑĤ": 7525,
      "ĠÐ±ÑĥÐ´ÑĮ": 7526,
      "ĠÐ¿Ð¾Ð´ÑĢÐ°Ð·Ð´ÐµÐ»": 7527,
      "ĠÐ¼Ð½Ð¾Ð³Ð¾Ðµ": 7528,
      "ĠÐ¸ÑģÑģÐ»ÐµÐ´Ð¾Ð²Ð°Ð½Ð¸Ðµ": 7529,
      "...\"": 7530,
      "ĠÐĺÑģÐ¿Ð¾Ð»ÑĮÐ·": 7531,
      "Ð³ÑĥÐ¼": 7532,
      "ÐµÐ²Ð¾": 7533,
      "ĠÑģÑĭÑĢ": 7534,
      "ĠÐ¼ÑĥÐ´ÑĢ": 7535,
      "ĠÐ³Ð»Ð°Ð²Ð°": 7536,
      "ĠÐ²Ð°ÑĪÑĥ": 7537,
      "ĠÐ½Ð°ÑĢÐºÐ¾ÑĤ": 7538,
      "ĠÑĩÐ°ÑģÑĤÐµÐ¹": 7539,
      "ÐĶÐµÐ²ÑĥÑĪÐºÐ°": 7540,
      "ĠÑģÑĥÑģÑĤÐ°Ð²": 7541,
      "ĠÐ¸ÑģÐ¿Ð¾Ð»ÑĮÐ·ÑĥÑİÑĤÑģÑı": 7542,
      "Ð°ÐµÐ¼ÑĭÐ¹": 7543,
      "Ð¸Ð·Ð½": 7544,
      "ĠÑĪÐ°ÑĤ": 7545,
      "ĠÐ¿Ð»Ð°ÑĤÑĦÐ¾ÑĢÐ¼": 7546,
      "ÑģÑĤÑĢÑĥ": 7547,
      "ĠÑĢÐµÐºÐ¸": 7548,
      "Ð¾ÑģÐ»Ð°Ð²": 7549,
      "ÐµÐºÑĤÐ¾ÑĢÐ°": 7550,
      "ĠÐ±ÑĥÐ´ÑĥÑīÐµÐµ": 7551,
      "ĠÐ¶Ð¸ÑĢ": 7552,
      "ĠÐ²ÐµÑĢÑĪ": 7553,
      "ĠÐ´ÑĥÐ¼Ð°ÐµÑĪÑĮ": 7554,
      "ĠÐ¸ÑģÐ¿Ð¾Ð»ÑĮÐ·Ð¾Ð²Ð°Ð½Ð¸ÐµÐ¼": 7555,
      "ĠÐ¾Ð±ÐµÑģÐ¿ÐµÑĩÐ¸ÑĤÑĮ": 7556,
      "ĠÐ¼Ð¾Ð»Ð¸ÑĤ": 7557,
      "ĠÐ¼ÑĭÑģÐ»ÐµÐ¹": 7558,
      "ĠÐ´Ð¾Ð½": 7559,
      "ÑĳÐº": 7560,
      "ĠÐ¾Ð±ÑīÐµÑģÑĤÐ²Ð¾": 7561,
      "Ð°ÑĤÐµÐ»ÑĮÐ½Ð°Ñı": 7562,
      "ÑĥÑģÑģ": 7563,
      "Ð»Ð°Ð³Ð¾Ð´Ð°ÑĢÑı": 7564,
      "ĠÐ»Ð¾Ð´": 7565,
      "ĠÐ»ÑĥÑĩÑĪÐ¸Ð¹": 7566,
      "ĠÑĢÐ°Ð±Ð¾ÑĩÐ¸Ñħ": 7567,
      "ĠÐ¸Ð·Ð±ÐµÐ³": 7568,
      "ian": 7569,
      "ĠÐ¿Ð¾ÑĤÐ¾Ð»": 7570,
      "ĠÐ¿Ð¾Ð´Ð´ÐµÑĢÐ¶ÐºÐ¸": 7571,
      "ĠÐ²ÑĭÑĤÐ°Ñī": 7572,
      "ĠÐ½Ð¾Ð²Ð°Ñı": 7573,
      "ÑĥÐ¶Ð´ÐµÐ½Ð¸Ðµ": 7574,
      "ĠÑĤÐµÐ»Ðµ": 7575,
      "ĠÑĥÑħÐ¼Ñĭ": 7576,
      "ĠÐŁÑĥÑģÑĤÑĮ": 7577,
      "ĠÐºÐ°ÑĢÑĤÐ¸Ð½Ñĭ": 7578,
      "ÐĶÑĢÑĥÐ³": 7579,
      "ĠÑĤÐ¸ÑĤ": 7580,
      "ĠÑĥÑī": 7581,
      "ĠÐ¿ÑĢÐ¾Ð´Ð¾Ð»Ð¶Ð¸Ð»": 7582,
      "ĠÑıÑĢÐºÐ¾": 7583,
      "age": 7584,
      "ĠÐ¿ÑĢÐµÑģÑĤÑĥÐ¿Ð»ÐµÐ½Ð¸Ñı": 7585,
      "ĠÐ¿ÑĢÐµÐ´Ð»Ð°Ð³Ð°ÐµÑĤ": 7586,
      "ĠÐ¼Ð¾Ðº": 7587,
      "ĠÑĨÐµÐ»ÑĭÐ¹": 7588,
      "ĠÐĳÐ¾Ð¶": 7589,
      "ĠÐ²ÑĭÐ·Ð²Ð°ÑĤÑĮ": 7590,
      "ĠÐ¿ÑĢÐ¸ÑĩÐ¸Ð½Ð°": 7591,
      "Ð¸ÑĢÐ¾Ð²Ð°Ð½Ð½ÑĭÐ¹": 7592,
      "ĠÐ»Ð°Ð´Ð¾Ð½ÑĮ": 7593,
      "ÑĢÐ¾Ð´Ð¾Ð»Ð¶": 7594,
      "ĠÑĢÑĥÑģÑģÐºÐ¾Ð³Ð¾": 7595,
      "ĠÑģÐ¾ÑĨÐ¸Ð°Ð»ÑĮÐ½ÑĭÑħ": 7596,
      "ĠÑĤÐ°Ð»Ð°Ð½ÑĤ": 7597,
      "Ġwith": 7598,
      "Ð°ÑĤÐµÐ»ÑıÐ¼Ð¸": 7599,
      "ĠÐ²ÑĭÑĢÐ²": 7600,
      "Ð³Ð¾ÑĢÐ¾Ð´": 7601,
      "ĠÐ¿Ð¾Ð´Ð±Ð¾ÑĢ": 7602,
      "ĠÐ¼Ð¾ÐµÐ¼": 7603,
      "ĠÐ¿Ð¾ÑģÐ»ÐµÐ´Ð½ÐµÐ³Ð¾": 7604,
      "ĠÐ¼Ð¼": 7605,
      "ĠÐ·Ð°Ð¿ÑĢÐµÑĤ": 7606,
      "ĠÐ¿ÑĢÐ¾Ð²ÐµÐ»": 7607,
      "ĠÐ¿ÑĢÐµÐ´Ð¿ÑĢÐ¸Ð½Ð¸Ð¼": 7608,
      "Ð¾Ð°Ð½": 7609,
      "ÑĮÐµÑĢ": 7610,
      "Ð°Ð½Ð¸ÐµÐ¹": 7611,
      "ĠÐ»Ð¸Ð´ÐµÑĢ": 7612,
      "ĠÐ²Ð¾Ð·Ð³Ð»Ð°Ð²": 7613,
      "ĠÐ¼Ð¸ÑģÑĤÐµÑĢ": 7614,
      "ÐĿÐĲ": 7615,
      "ÑĨÐµÑĢ": 7616,
      "ĠIII": 7617,
      "ĠÐ¸ÑģÐ¿Ð¾Ð»ÑĮÐ·ÑĥÑı": 7618,
      "ÑģÐ¾Ð½Ð°": 7619,
      "Ð¸Ð¹ÑģÐºÐ¸Ñħ": 7620,
      "ÐĹÐ°Ð¿": 7621,
      "ĠÐ¸Ð½ÑĤÐµÑĢÐµÑģÐ¾Ð²": 7622,
      "ÐµÐ·Ð´Ñĭ": 7623,
      "ĠÐ°Ð²ÑĤÐ¾Ð±": 7624,
      "ĠÐ·Ð°Ð½ÑıÑĤÐ¸Ñı": 7625,
      "ĠÐŁÑĢÐ¸Ð²ÐµÑĤ": 7626,
      "ĠÐ¿ÑĢÐµÐ´ÑģÑĤÐ°Ð²Ð»ÐµÐ½Ð¸Ñı": 7627,
      "ĠÐ²Ð·Ð³Ð»ÑıÐ´Ð°": 7628,
      "ĠÐ·Ð°ÐºÑĢÐµÐ¿": 7629,
      "ĠÐ¾Ð±ÑīÐµÑģÑĤÐ²Ðµ": 7630,
      "ĠÐ£Ð·": 7631,
      "ĠÐ³Ð¾ÑĢÐ¸Ð·": 7632,
      "ĠÑĢÐµÐ²Ð¾Ð»ÑİÑĨÐ¸Ð¸": 7633,
      "Ð°Ð¼Ðµ": 7634,
      "Ð¿ÑĢÐµÑģÑģ": 7635,
      "ĠÐ³Ð¾ÑģÑĥÐ´Ð°ÑĢÑģÑĤÐ²": 7636,
      "ĠÐ¼Ð°ÑĪÐ¸Ð½Ð°": 7637,
      "ĠÐ¾ÑĤÑĩÐµÑĤ": 7638,
      "ĠÐĴÐµÑĢÑħ": 7639,
      "ĠÐ»Ð¸ÑģÑĤÑĮ": 7640,
      "ĠÐ»Ð°Ð´Ð¾Ð½Ð¸": 7641,
      "ĠÐ¾ÑĤÑĢÐµÐ·": 7642,
      "ĠÐ½Ð¾Ð²ÑĭÐ¼": 7643,
      "ĠÐ¨ÐµÑĢ": 7644,
      "ĠÑģÑĤÐ¾Ð»Ðº": 7645,
      "ĠÐ½Ð°ÑģÐ¼": 7646,
      "ĠÑĦÐ°ÑĢ": 7647,
      "Ġun": 7648,
      "Ð¾ÐµÐ¼": 7649,
      "ÐºÐ¾Ð»": 7650,
      "ĠÐºÐ»ÐµÑĤÐºÐ¸": 7651,
      "ave": 7652,
      "ĠÐŁÑĢÐ¸Ð½": 7653,
      "ĠÐ³Ð»Ð°Ð²Ð½ÑĭÐ¹": 7654,
      "],": 7655,
      "Ð»ÐµÐ½Ð½Ð¾Ðµ": 7656,
      "ĠÑĤÐµÐ»Ñĥ": 7657,
      "ĠÑĥÑģÐ¿ÐµÑĪÐ½Ð¾": 7658,
      "ĠÐµÐ»Ðµ": 7659,
      "Ð½ÐµÐ¹ÑĪÐ¸Ñħ": 7660,
      "ĠÑĢÐµÐ·ÑĥÐ»ÑĮÑĤÐ°ÑĤÐ¾Ð²": 7661,
      "ĠÐ¿ÐµÑĢÐ¸Ð¾Ð´Ð°": 7662,
      "ear": 7663,
      "ĠÐ¿Ð»Ð¾ÑīÐ°Ð´Ð¸": 7664,
      "ÑĤÑı": 7665,
      "ĠÐ¾Ð±ÑĢ": 7666,
      "ĠÐŀÐ»Ð¸Ð¼Ð¿": 7667,
      "ĠÐ·Ð°ÐºÐ»Ð¸Ð½": 7668,
      "ĠÐ²Ð¾Ð»Ð½Ð¾Ð²": 7669,
      "ÑĭÐ²Ð°Ð»ÑģÑı": 7670,
      "ĠÑģÐ¾Ð¿ÑĢÐ¾Ð²Ð¾Ð¶": 7671,
      "ĠÑģÑĥÑĤÐ¸": 7672,
      "ĠÐ½ÐµÐ¼ÐµÐ´Ð»ÐµÐ½Ð½Ð¾": 7673,
      "ĠÐ¡Ð½Ð°ÑĩÐ°Ð»Ð°": 7674,
      "ĠÐķÑĳ": 7675,
      "ĠÐµÐ¶ÐµÐ´Ð½ÐµÐ²": 7676,
      "ĠÐ¾Ð±Ð¾ÑĢÐ¾ÑĤ": 7677,
      "ĠÑĢÐµÐºÐ¾Ð¼": 7678,
      "ies": 7679,
      "ĠÐłÐ°Ð·Ð²Ðµ": 7680,
      "?Â»": 7681,
      "ĠÐ¾Ð¿ÑĥÑģÐº": 7682,
      "ĠÑĤÑĮ": 7683,
      "ÐķÑīÐµ": 7684,
      "ĠÑĢÐµÐ»Ð¸Ð³": 7685,
      "OV": 7686,
      "ĠÐ¿ÑĢÐ¸ÑħÐ¾Ð´Ð¸ÑĤ": 7687,
      "ĠÐ¾Ð´Ð½Ð¸": 7688,
      "ĠÐ´Ð°Ð²Ð°Ð¹": 7689,
      "ĠÑģÐ²ÑıÐ·Ð°Ð½Ñĭ": 7690,
      "Ð»ÑĭÐ¹": 7691,
      "ĠÐ±Ð¾Ð¶Ðµ": 7692,
      "ĠÑģÑĩÐ¸ÑĤÐ°Ð»": 7693,
      "ĠÐºÐ³": 7694,
      "ÑģÑĤÐ²ÐµÐ½Ð½Ð¾Ð¼": 7695,
      "ÑĥÐ³Ð°": 7696,
      "ĠÐĿÐ°ÑĢÑĥÑĤÐ¾": 7697,
      "ĠÑģÐ¸Ð½Ð´": 7698,
      "ĠÐ½ÐµÐ´Ð¾ÑģÑĤÐ°ÑĤ": 7699,
      "Ð¸Ð½ÑģÐºÐ¾Ð³Ð¾": 7700,
      "ĠÑĢÐµÐºÐ¾Ð¼ÐµÐ½Ð´Ð°": 7701,
      "ĠÐ¿Ð¾Ð»ÑĥÑĩÐ°ÐµÑĤ": 7702,
      "ĠXX": 7703,
      "ĠÑĪÐºÐ°ÑĦ": 7704,
      "Ð´Ð°ÐµÐ¼": 7705,
      "ĠÐłÑĥ": 7706,
      "ĠÐ¼Ð°Ð»ÑĮÑĩÐ¸ÑĪ": 7707,
      "ĠÑĢÐµÐºÐ¾Ð¼ÐµÐ½Ð´": 7708,
      "ĠÐ¸Ð½ÑĤÐµÑĢÐ½ÐµÑĤ": 7709,
      "Ġ188": 7710,
      "ĠÐºÑĢÐ°Ñı": 7711,
      "ĠÐ¾Ð´ÐµÐ¶Ð´Ñĭ": 7712,
      "ÑĦÐ¾ÑĢÑĤ": 7713,
      "ĠÐĿÑĥÐ¶Ð½Ð¾": 7714,
      "ÑģÑĤÑĢÐ¾Ð²": 7715,
      "ĠÐ¿Ð¾Ð»Ð¸ÑĤÐ¸ÑĩÐµÑģÐºÐ¾Ð¹": 7716,
      "ĠÑĢÐµÐ·ÐµÑĢÐ²": 7717,
      "ĠÐłÐµÐ·": 7718,
      "ÐľÐ°ÑĢ": 7719,
      "ĠÐ´ÑĥÑĪÐ°": 7720,
      "ĠÑģÐ¾ÑĩÐ¸Ð½": 7721,
      "Ð»Ð¸ÑĤÑĮ": 7722,
      "ĠÑģÑĤÑĢÑĥÐºÑĤÑĥÑĢÑĭ": 7723,
      "ĠÐ¼Ð°ÑĤÐµÑĢÐ¸Ð°Ð»Ð¾Ð²": 7724,
      "ĠÐ½ÐµÐ´Ð¾ÑĥÐ¼": 7725,
      "Ð»Ð¾Ð±": 7726,
      "ĠÐ¿Ð¾Ð²ÐµÑĢÑħÐ½Ð¾ÑģÑĤÑĮ": 7727,
      "ĠÑĤÐµÐ½Ð´": 7728,
      "Ð°ÑĤÐµÐ»Ñİ": 7729,
      "ĠÐŁÐŀ": 7730,
      "ĠÐ´ÑĢÑĥÐ·ÑĮÑıÐ¼Ð¸": 7731,
      "ĠÐ¾ÑĨÐµÐ½ÐºÐ¸": 7732,
      "32": 7733,
      "ĠÐ¾ÑĢÐ³Ð°Ð½Ð¸Ð·Ð¼": 7734,
      "ĠÐĴÐ°ÑģÐ¸Ð»Ð¸": 7735,
      "ĠÐĵÐ¾Ð²Ð¾ÑĢ": 7736,
      "Ð½ÐµÐ»": 7737,
      "ĠÐ³ÑĥÑģÑĤ": 7738,
      "Ð¾Ð»Ð¾Ð³Ð¸ÑĩÐµÑģÐºÐ¸Ñħ": 7739,
      "ÑĭÑĪÐµ": 7740,
      "ĠÐ¿Ð¾ÑįÑĤ": 7741,
      "ÐµÐ½ÑĮÐºÐ¾": 7742,
      "ĠÑĢÐ°ÑģÑģÐ»ÐµÐ´Ð¾Ð²": 7743,
      "Ð½Ð¸ÐºÐ°Ñħ": 7744,
      "ĠÐ¾ÑģÐº": 7745,
      "ĠÐ¿Ð¾Ð¼ÐµÑģÑĤ": 7746,
      "ĠÑģÐµÑĢÐ¸Ð¸": 7747,
      "ĠÐ´Ð¾Ð±Ð¸ÑĤÑĮÑģÑı": 7748,
      "ĠÐ²ÐµÑģÐµÐ»Ð¾": 7749,
      "ĠÐ¼ÐµÑĤÐ°Ð»Ð»Ð¸ÑĩÐµÑģÐº": 7750,
      "ress": 7751,
      "ĠÂ": 7752,
      "ĠÐĶÐ°Ð²Ð°Ð¹": 7753,
      "ĠÐļÐ°Ð¼": 7754,
      "ÐºÐ¾ÑĤÐ¾ÑĢ": 7755,
      "ĠÑĤÐµÐ¼Ð¿ÐµÑĢÐ°ÑĤÑĥÑĢ": 7756,
      "ÐļÐ¾ÑĢ": 7757,
      "ĠÑģÐ¿Ð¾ÑĢÑĤÑģÐ¼": 7758,
      "ĠÑģÐ¿ÐµÑĨÐ¸ÑĦ": 7759,
      "ĠÑĦÐ¸Ð»ÑĮÐ¼Ðµ": 7760,
      "Ð¾Ð²ÐµÑĢÑĪ": 7761,
      "ĠÑĥÑģÐ»Ð¾Ð²Ð¸Ð¹": 7762,
      "ĠÐºÐ¾Ð½ÑĤÑĢÐ¾Ð»Ñı": 7763,
      "ĠÐ±ÑĢÐ¾ÑģÐ¸Ð»": 7764,
      "ĠÐ½Ð°ÑģÑĤÐ¾ÑıÑīÐµÐ³Ð¾": 7765,
      "ĠÑĤÐ²Ð¾ÑĢÑĩÐµ": 7766,
      "ÐµÐºÐµ": 7767,
      "Ð¢ÐĲ": 7768,
      "ĠÐ¡ÐµÑĢ": 7769,
      "ĠÐ¡Ð²ÐµÑĤ": 7770,
      "ĠÐ¿Ð¾Ð´Ð´ÐµÑĢÐ¶ÐºÑĥ": 7771,
      "ĠÐ¿ÑĢÐ¾ÑĪÐµÐ»": 7772,
      "ĠÐ°Ð½Ð°Ð»Ð¸Ð·Ð°": 7773,
      "ĠÐ²ÑĭÑģÐ¾ÐºÐ¸Ð¹": 7774,
      "ĠÑĢÑĭÐ½ÐºÐµ": 7775,
      "ĠÐ¢Ð¾Ð»ÑģÑĤ": 7776,
      "Ð²Ð¾Ð»Ñİ": 7777,
      "ĠÐ°Ð´Ð°Ð¿": 7778,
      "ĠÐ¾ÑĦÐ¾ÑĢÐ¼": 7779,
      "Ð¿ÑĢÐµÐ¶Ð´": 7780,
      "ĠÐ²ÐµÑĢÐ½ÑĥÑĤÑĮ": 7781,
      "ĠÑģÐ¸Ð³Ð°ÑĢ": 7782,
      "ĠÐ²Ð°ÑĪÐµÐ¼": 7783,
      "ĠÐºÐ¾ÑĢÐ¿ÑĥÑģ": 7784,
      "ĠÐŀÐ±ÑĬ": 7785,
      "ÐŁÐµÑĢ": 7786,
      "ĠÐ¿ÑĢÐ¾Ð¸Ð·Ð½": 7787,
      "ĠÐľÐ°Ð¹Ðº": 7788,
      "ĠÑįÐºÐ¾Ð½Ð¾Ð¼Ð¸ÐºÐ¸": 7789,
      "ĠÐºÐ¾ÑĢÐ¿Ð¾ÑĢ": 7790,
      "ĠÑĢÐ°ÑĨÐ¸Ð¾Ð½": 7791,
      "ĠÐľÐ°Ð³": 7792,
      "Ð½ÑıÐ¼Ð¸": 7793,
      "ĠÐ²Ð¾Ð·ÑĮ": 7794,
      "ĠÐ¿ÑĢÐ¾Ð±Ð»ÐµÐ¼Ñĥ": 7795,
      "ĠÐ´Ð¾Ð¿ÑĥÑģÐº": 7796,
      "Ġ//": 7797,
      "'s": 7798,
      "ĠÐ³Ð¸Ð¼": 7799,
      "ĠÐ¿ÑĢÐµÐ²ÑĭÑĪ": 7800,
      "ĠÑĤÐµÐºÑģÑĤÐ°": 7801,
      "ment": 7802,
      "ne": 7803,
      "ĠÐ¸Ð³ÑĢÐµ": 7804,
      "ĠÐ½Ð°ÑĤÑĥÑĢ": 7805,
      "Ð¾ÑĩÐºÐ¾Ð¹": 7806,
      "ÑĥÑīÐµÑģÑĤÐ²Ð¾": 7807,
      "Ð¡ÐµÐ³Ð¾Ð´Ð½Ñı": 7808,
      "ĠÐ²Ð¿ÐµÑĩÐ°ÑĤÐ»ÐµÐ½Ð¸Ðµ": 7809,
      "Ð½Ð¾ÑĤ": 7810,
      "Ð¾ÑĢÐ´Ð¸Ð½": 7811,
      "Ð°Ð²Ð¸Ð»": 7812,
      "Ð¸Ð½ÑĮ": 7813,
      "ĠÐ¿Ð°Ð»ÑĮÑĨÐµÐ²": 7814,
      "ĠÑģÑĤÐ°ÑĤÑĥÑģ": 7815,
      "ĠÐ°Ð²ÑĤÐ¾ÑĢÐ°": 7816,
      "ĠÐ¸Ð·Ð±Ð¸ÑĢ": 7817,
      "ĠÐ¿ÑĢÐ¾ÑĦÐµÑģÑģÐ¾ÑĢ": 7818,
      "Ð°ÑĤÑĮÑı": 7819,
      "ÐĽÐ¬": 7820,
      "ĠÐ¿ÐµÑģÐ½Ð¸": 7821,
      "ĠÐ¤ÑĢÑįÐ½": 7822,
      "ĠÐ²ÑģÑĤÐ°Ð»Ð°": 7823,
      "ox": 7824,
      "ĠÐºÑĢÐµÐ¼": 7825,
      "Ð¾Ð³Ð¾Ð²Ð¾ÑĢ": 7826,
      "ÑĥÑģÑĤÑı": 7827,
      "ĠÐ²ÐµÐºÐµ": 7828,
      "ĠÐ¿Ð¾Ð»Ð½ÑĭÐ¹": 7829,
      "ĠÐ°ÑģÑģÐ¾ÑĨÐ¸": 7830,
      "ÐµÐµÑĤ": 7831,
      "ĠÑģÑĢÐµÐ´ÑģÑĤÐ²Ð¾": 7832,
      "ĠÐ·Ð°Ð¸Ð½ÑĤÐµÑĢÐµÑģ": 7833,
      "ÑĥÑĤÐ¾Ñĩ": 7834,
      "ĠÑĥÐ´ÐµÐ»": 7835,
      "ÐļÑĤÐ¾": 7836,
      "ĠÐµÐ´Ð¸Ð½ÑģÑĤÐ²ÐµÐ½Ð½ÑĭÐ¹": 7837,
      "Ð°ÑĤÐµÐ»ÑıÐ¼": 7838,
      "ĠÐ¿Ð¾Ð»Ð¾Ð¶Ð¸Ð»": 7839,
      "ĠÐ´Ð¶Ð¸Ð½": 7840,
      "ÐŀÑĩ": 7841,
      "ĠÑģÑĤÐµÐ½Ñĥ": 7842,
      "ĠÑĥÐ¼Ð¸ÑĢ": 7843,
      "Ð°ÑİÑīÐ¸Ð¹ÑģÑı": 7844,
      "ĠÐŁÐ¾Ð¶Ð°Ð»": 7845,
      "Ð¸Ð±Ð¸ÑĢ": 7846,
      "ĠÐ¶Ð¸Ð²ÐµÑĤ": 7847,
      "Ġal": 7848,
      "ĠÐ´ÑĥÐ¼Ð°ÐµÑĤ": 7849,
      "ĠÐ¡ÑĤÐ°Ð¹Ð»": 7850,
      "ĠÐ¾ÑĤÐ²ÐµÑĤÑģÑĤÐ²ÐµÐ½Ð½Ð¾ÑģÑĤÑĮ": 7851,
      "ĠÐ¾Ð±ÐµÐ´": 7852,
      "ĠÐ¼Ð°ÑĪÐ¸Ð½Ðµ": 7853,
      "ĠÐ¾Ð±ÐµÐ·": 7854,
      "ĠÐºÐ°Ð¶Ð´Ð¾Ðµ": 7855,
      "ĠÐºÐ¾Ð½ÑĦÐµÑĢ": 7856,
      "ÐµÐ½Ð´Ð°": 7857,
      "ĠÐ¾ÑĤÐ½Ð¾ÑĪÐµÐ½Ð¸ÑıÑħ": 7858,
      "90": 7859,
      "ĠÑģÑĤÑĢÐ¾Ð³Ð¾": 7860,
      "ĠÑĥÑĩÐ¸ÑĤÐµÐ»ÑĮ": 7861,
      "ĠÑĢÐ°Ð±Ð¾ÑĤÐ°ÑİÑĤ": 7862,
      "ĠÐ½Ð°Ð¿ÑĢÐ°Ð²Ð¸Ð»ÑģÑı": 7863,
      "ĠÐ¾ÑĤÐ²Ð»ÐµÐº": 7864,
      "Ð°ÑĤÑĭÐ¹": 7865,
      "ÐºÐ¸Ð´": 7866,
      "ĠÑĤÐµÐ¼Ñĭ": 7867,
      "ĠÐ¾ÑģÑĤÐ°Ð»Ð°ÑģÑĮ": 7868,
      "ĠÐ´ÐµÐ¹ÑģÑĤÐ²Ð¾Ð²Ð°ÑĤÑĮ": 7869,
      "ĠÐ»Ð¸Ðº": 7870,
      "ÐµÐ²ÑĭÐ¼": 7871,
      "Ð°ÑĤÑģÑı": 7872,
      "ÑģÑĤÐ²ÑĥÑİÑĤ": 7873,
      "ĠÐ´Ð°Ð»Ð¸": 7874,
      "ÐĺÐ¼": 7875,
      "ĠÑĤÐµÑħÐ½Ð¸ÐºÐ¸": 7876,
      "ĠÑģÐ¼ÑĭÑģÐ»Ð°": 7877,
      "ĠÐ¿ÑĢÐ¾ÑĨÐµÐ½ÑĤÐ¾Ð²": 7878,
      "Ġpro": 7879,
      "ĠÑĤÐµÐ¾ÑĢÐµÑĤ": 7880,
      "ĠÐĶÐ¶ÐµÐ¹Ð¼Ñģ": 7881,
      "ĠÐµÐ²ÑĢÐµ": 7882,
      "ĠÐ´ÐµÐ²ÑĩÐ¾Ð½": 7883,
      "ÑĢÐ¾Ð·": 7884,
      "Ð°Ð¿Ð°Ð·": 7885,
      "ĠÐ¿Ð°ÑĢÐ½Ð¸": 7886,
      "ĠÑģÑĤÐ°Ð½ÑĨÐ¸Ð¸": 7887,
      "Ð²ÑĤÐ¾ÑĢÑĭÑħ": 7888,
      "ĠÑģÐ²ÑıÐ·Ð°Ð½Ð½ÑĭÐµ": 7889,
      "ĠÐ¿ÑĢÐµÐ´ÑģÑĤÐ°Ð²Ð¸ÑĤÐµÐ»ÐµÐ¹": 7890,
      "ÑĭÐ²Ð°Ð½Ð¸Ðµ": 7891,
      "ĠÐ¾Ð±Ð¼ÐµÐ½": 7892,
      "ĠÐ¾ÑĤÐ»Ð¸ÑĩÐ°ÐµÑĤÑģÑı": 7893,
      "ĠÐ½Ð°ÑģÑĤÐ¾ÑıÑīÐ¸Ð¹": 7894,
      "Ð¾ÑĪÑĥ": 7895,
      "Ð¾Ð¶Ð´ÐµÐ½Ð¸Ð¸": 7896,
      "ĠÑģÐ»Ð¸Ð·": 7897,
      "ĠÐĽÑİÑģÐ¸": 7898,
      "âĪĴ": 7899,
      "Ð°ÑĤÑĥÑĢÑĥ": 7900,
      "ev": 7901,
[...]
